{
  "version": "1.0",
  "truncation": null,
  "padding": null,
  "added_tokens": [
    {
      "id": 0,
      "content": "<pad>",
      "single_word": false,
      "lstrip": false,
      "rstrip": false,
      "normalized": false,
      "special": true
    },
    {
      "id": 1,
      "content": "<unk>",
      "single_word": false,
      "lstrip": false,
      "rstrip": false,
      "normalized": false,
      "special": true
    },
    {
      "id": 2,
      "content": "<s>",
      "single_word": false,
      "lstrip": false,
      "rstrip": false,
      "normalized": false,
      "special": true
    },
    {
      "id": 3,
      "content": "</s>",
      "single_word": false,
      "lstrip": false,
      "rstrip": false,
      "normalized": false,
      "special": true
    }
  ],
  "normalizer": {
    "type": "Sequence",
    "normalizers": [
      {
        "type": "NFC"
      },
      {
        "type": "Strip",
        "strip_left": true,
        "strip_right": true
      }
    ]
  },
  "pre_tokenizer": {
    "type": "Metaspace",
    "replacement": "▁",
    "prepend_scheme": "always",
    "split": true
  },
  "post_processor": null,
  "decoder": {
    "type": "Metaspace",
    "replacement": "▁",
    "prepend_scheme": "always",
    "split": true
  },
  "model": {
    "type": "BPE",
    "dropout": null,
    "unk_token": "<unk>",
    "continuing_subword_prefix": null,
    "end_of_word_suffix": null,
    "fuse_unk": false,
    "byte_fallback": false,
    "ignore_merges": false,
    "vocab": {
      "<pad>": 0,
      "<unk>": 1,
      "<s>": 2,
      "</s>": 3,
      "\n": 4,
      "!": 5,
      "\"": 6,
      "#": 7,
      "$": 8,
      "%": 9,
      "&": 10,
      "'": 11,
      "(": 12,
      ")": 13,
      "*": 14,
      "+": 15,
      ",": 16,
      "-": 17,
      ".": 18,
      "/": 19,
      "0": 20,
      "1": 21,
      "2": 22,
      "3": 23,
      "4": 24,
      "5": 25,
      "6": 26,
      "7": 27,
      "8": 28,
      "9": 29,
      ":": 30,
      ";": 31,
      "<": 32,
      "=": 33,
      ">": 34,
      "?": 35,
      "@": 36,
      "A": 37,
      "B": 38,
      "C": 39,
      "D": 40,
      "E": 41,
      "F": 42,
      "G": 43,
      "H": 44,
      "I": 45,
      "J": 46,
      "K": 47,
      "L": 48,
      "M": 49,
      "N": 50,
      "O": 51,
      "P": 52,
      "Q": 53,
      "R": 54,
      "S": 55,
      "T": 56,
      "U": 57,
      "V": 58,
      "W": 59,
      "X": 60,
      "Y": 61,
      "Z": 62,
      "[": 63,
      "\\": 64,
      "]": 65,
      "^": 66,
      "_": 67,
      "`": 68,
      "a": 69,
      "b": 70,
      "c": 71,
      "d": 72,
      "e": 73,
      "f": 74,
      "g": 75,
      "h": 76,
      "i": 77,
      "j": 78,
      "k": 79,
      "l": 80,
      "m": 81,
      "n": 82,
      "o": 83,
      "p": 84,
      "q": 85,
      "r": 86,
      "s": 87,
      "t": 88,
      "u": 89,
      "v": 90,
      "w": 91,
      "x": 92,
      "y": 93,
      "z": 94,
      "{": 95,
      "|": 96,
      "}": 97,
      "~": 98,
      "": 99,
      "": 100,
      "": 101,
      "": 102,
      "¡": 103,
      "¢": 104,
      "£": 105,
      "¤": 106,
      "¥": 107,
      "¦": 108,
      "§": 109,
      "©": 110,
      "«": 111,
      "¬": 112,
      "­": 113,
      "®": 114,
      "°": 115,
      "±": 116,
      "·": 117,
      "»": 118,
      "¿": 119,
      "À": 120,
      "Á": 121,
      "Ä": 122,
      "Å": 123,
      "Æ": 124,
      "Ç": 125,
      "È": 126,
      "É": 127,
      "Ê": 128,
      "Í": 129,
      "Ï": 130,
      "Ð": 131,
      "Ò": 132,
      "Ó": 133,
      "Ô": 134,
      "Õ": 135,
      "Ö": 136,
      "×": 137,
      "Ø": 138,
      "Ù": 139,
      "Ú": 140,
      "Û": 141,
      "Ü": 142,
      "Ý": 143,
      "Þ": 144,
      "ß": 145,
      "à": 146,
      "á": 147,
      "â": 148,
      "ä": 149,
      "å": 150,
      "æ": 151,
      "ç": 152,
      "è": 153,
      "é": 154,
      "ê": 155,
      "ë": 156,
      "ì": 157,
      "í": 158,
      "î": 159,
      "ï": 160,
      "ð": 161,
      "ñ": 162,
      "ò": 163,
      "ó": 164,
      "ô": 165,
      "ö": 166,
      "÷": 167,
      "ø": 168,
      "ù": 169,
      "ú": 170,
      "û": 171,
      "ü": 172,
      "ý": 173,
      "ā": 174,
      "ă": 175,
      "ć": 176,
      "Č": 177,
      "č": 178,
      "ē": 179,
      "ě": 180,
      "ğ": 181,
      "ī": 182,
      "İ": 183,
      "ı": 184,
      "ł": 185,
      "ń": 186,
      "ŋ": 187,
      "ō": 188,
      "Œ": 189,
      "œ": 190,
      "ř": 191,
      "Ş": 192,
      "ş": 193,
      "Š": 194,
      "š": 195,
      "ť": 196,
      "ū": 197,
      "ŭ": 198,
      "ů": 199,
      "Ż": 200,
      "ž": 201,
      "ǁ": 202,
      "ǃ": 203,
      "ǎ": 204,
      "ǐ": 205,
      "ǒ": 206,
      "ǔ": 207,
      "ɐ": 208,
      "ɑ": 209,
      "ɔ": 210,
      "ə": 211,
      "ɛ": 212,
      "ɡ": 213,
      "ɪ": 214,
      "ʁ": 215,
      "ʃ": 216,
      "ʊ": 217,
      "ʌ": 218,
      "ʻ": 219,
      "ʼ": 220,
      "ʽ": 221,
      "ʾ": 222,
      "ʿ": 223,
      "ˆ": 224,
      "ˈ": 225,
      "ː": 226,
      "˗": 227,
      "˟": 228,
      "ˮ": 229,
      "́": 230,
      "̃": 231,
      "̄": 232,
      "̆": 233,
      "̈": 234,
      "̊": 235,
      "̋": 236,
      "̎": 237,
      "̒": 238,
      "̕": 239,
      "̥": 240,
      "̧": 241,
      "̨": 242,
      "̯": 243,
      "̵": 244,
      "̶": 245,
      "̷": 246,
      "̸": 247,
      "͵": 248,
      "Γ": 249,
      "Δ": 250,
      "Π": 251,
      "Σ": 252,
      "Φ": 253,
      "Ω": 254,
      "ά": 255,
      "έ": 256,
      "ί": 257,
      "α": 258,
      "β": 259,
      "γ": 260,
      "δ": 261,
      "ε": 262,
      "η": 263,
      "θ": 264,
      "ι": 265,
      "κ": 266,
      "λ": 267,
      "μ": 268,
      "ν": 269,
      "ο": 270,
      "π": 271,
      "ρ": 272,
      "ς": 273,
      "σ": 274,
      "τ": 275,
      "υ": 276,
      "φ": 277,
      "χ": 278,
      "ω": 279,
      "ό": 280,
      "І": 281,
      "А": 282,
      "Б": 283,
      "В": 284,
      "Д": 285,
      "Е": 286,
      "Ж": 287,
      "З": 288,
      "И": 289,
      "К": 290,
      "Л": 291,
      "М": 292,
      "Н": 293,
      "П": 294,
      "Р": 295,
      "С": 296,
      "Т": 297,
      "Ф": 298,
      "Х": 299,
      "Ш": 300,
      "а": 301,
      "б": 302,
      "в": 303,
      "г": 304,
      "д": 305,
      "е": 306,
      "ж": 307,
      "з": 308,
      "и": 309,
      "й": 310,
      "к": 311,
      "л": 312,
      "м": 313,
      "н": 314,
      "о": 315,
      "п": 316,
      "р": 317,
      "с": 318,
      "т": 319,
      "у": 320,
      "ф": 321,
      "х": 322,
      "ц": 323,
      "ч": 324,
      "ш": 325,
      "щ": 326,
      "ы": 327,
      "ь": 328,
      "э": 329,
      "ю": 330,
      "я": 331,
      "ё": 332,
      "і": 333,
      "҆": 334,
      "Ґ": 335,
      "ӓ": 336,
      "ְ": 337,
      "ִ": 338,
      "ֶ": 339,
      "ַ": 340,
      "ָ": 341,
      "ֹ": 342,
      "ּ": 343,
      "׀": 344,
      "ׁ": 345,
      "א": 346,
      "ב": 347,
      "ד": 348,
      "ה": 349,
      "ו": 350,
      "ז": 351,
      "ח": 352,
      "י": 353,
      "ל": 354,
      "מ": 355,
      "נ": 356,
      "ק": 357,
      "ר": 358,
      "ש": 359,
      "ת": 360,
      "׳": 361,
      "،": 362,
      "ؘ": 363,
      "؟": 364,
      "ء": 365,
      "آ": 366,
      "أ": 367,
      "ؤ": 368,
      "إ": 369,
      "ئ": 370,
      "ا": 371,
      "ب": 372,
      "ة": 373,
      "ت": 374,
      "ث": 375,
      "ج": 376,
      "ح": 377,
      "خ": 378,
      "د": 379,
      "ذ": 380,
      "ر": 381,
      "ز": 382,
      "س": 383,
      "ش": 384,
      "ص": 385,
      "ض": 386,
      "ط": 387,
      "ظ": 388,
      "ع": 389,
      "غ": 390,
      "ف": 391,
      "ق": 392,
      "ك": 393,
      "ل": 394,
      "م": 395,
      "ن": 396,
      "ه": 397,
      "و": 398,
      "ى": 399,
      "ي": 400,
      "َ": 401,
      "ُ": 402,
      "ِ": 403,
      "ّ": 404,
      "ْ": 405,
      "٠": 406,
      "٪": 407,
      "ٹ": 408,
      "ټ": 409,
      "پ": 410,
      "چ": 411,
      "ړ": 412,
      "ښ": 413,
      "ک": 414,
      "گ": 415,
      "ہ": 416,
      "ی": 417,
      "ې": 418,
      "۔": 419,
      "ऀ": 420,
      "ँ": 421,
      "ं": 422,
      "ः": 423,
      "ऄ": 424,
      "अ": 425,
      "आ": 426,
      "इ": 427,
      "ई": 428,
      "उ": 429,
      "ऊ": 430,
      "ऋ": 431,
      "ऌ": 432,
      "ऍ": 433,
      "ऎ": 434,
      "ए": 435,
      "ऐ": 436,
      "ऑ": 437,
      "ऒ": 438,
      "ओ": 439,
      "औ": 440,
      "क": 441,
      "ख": 442,
      "ग": 443,
      "घ": 444,
      "ङ": 445,
      "च": 446,
      "छ": 447,
      "ज": 448,
      "झ": 449,
      "ञ": 450,
      "ट": 451,
      "ठ": 452,
      "ड": 453,
      "ढ": 454,
      "ण": 455,
      "त": 456,
      "थ": 457,
      "द": 458,
      "ध": 459,
      "न": 460,
      "ऩ": 461,
      "प": 462,
      "फ": 463,
      "ब": 464,
      "भ": 465,
      "म": 466,
      "य": 467,
      "र": 468,
      "ऱ": 469,
      "ल": 470,
      "ळ": 471,
      "ऴ": 472,
      "व": 473,
      "श": 474,
      "ष": 475,
      "स": 476,
      "ह": 477,
      "ऺ": 478,
      "ऻ": 479,
      "़": 480,
      "ऽ": 481,
      "ा": 482,
      "ि": 483,
      "ी": 484,
      "ु": 485,
      "ू": 486,
      "ृ": 487,
      "ॄ": 488,
      "ॅ": 489,
      "ॆ": 490,
      "े": 491,
      "ै": 492,
      "ॉ": 493,
      "ॊ": 494,
      "ो": 495,
      "ौ": 496,
      "्": 497,
      "ॎ": 498,
      "ॏ": 499,
      "ॐ": 500,
      "॑": 501,
      "॒": 502,
      "॓": 503,
      "॔": 504,
      "ॕ": 505,
      "ॖ": 506,
      "ॗ": 507,
      "क़": 508,
      "ख़": 509,
      "ग़": 510,
      "ज़": 511,
      "ड़": 512,
      "ढ़": 513,
      "फ़": 514,
      "य़": 515,
      "ॠ": 516,
      "ॡ": 517,
      "ॢ": 518,
      "ॣ": 519,
      "।": 520,
      "॥": 521,
      "०": 522,
      "१": 523,
      "२": 524,
      "३": 525,
      "४": 526,
      "५": 527,
      "६": 528,
      "७": 529,
      "८": 530,
      "९": 531,
      "॰": 532,
      "ॱ": 533,
      "ॲ": 534,
      "ॳ": 535,
      "ॴ": 536,
      "ॵ": 537,
      "ॶ": 538,
      "ॷ": 539,
      "ॸ": 540,
      "ॹ": 541,
      "ॺ": 542,
      "ॻ": 543,
      "ॼ": 544,
      "ॽ": 545,
      "ॾ": 546,
      "ঁ": 547,
      "ং": 548,
      "অ": 549,
      "আ": 550,
      "ই": 551,
      "উ": 552,
      "এ": 553,
      "ও": 554,
      "ক": 555,
      "খ": 556,
      "গ": 557,
      "চ": 558,
      "ছ": 559,
      "জ": 560,
      "ঞ": 561,
      "ট": 562,
      "ড": 563,
      "ণ": 564,
      "ত": 565,
      "থ": 566,
      "দ": 567,
      "ধ": 568,
      "ন": 569,
      "প": 570,
      "ব": 571,
      "ভ": 572,
      "ম": 573,
      "য": 574,
      "র": 575,
      "ল": 576,
      "শ": 577,
      "ষ": 578,
      "স": 579,
      "হ": 580,
      "়": 581,
      "া": 582,
      "ি": 583,
      "ী": 584,
      "ু": 585,
      "ূ": 586,
      "ে": 587,
      "ো": 588,
      "্": 589,
      "০": 590,
      "১": 591,
      "২": 592,
      "৩": 593,
      "৪": 594,
      "৫": 595,
      "৬": 596,
      "৭": 597,
      "৳": 598,
      "৷": 599,
      "ਂ": 600,
      "ਆ": 601,
      "ਕ": 602,
      "ਜ": 603,
      "ਤ": 604,
      "ਦ": 605,
      "ਨ": 606,
      "ਬ": 607,
      "ਮ": 608,
      "ਰ": 609,
      "ਲ": 610,
      "ਸ": 611,
      "ਹ": 612,
      "਼": 613,
      "ਾ": 614,
      "ਿ": 615,
      "ੀ": 616,
      "ੁ": 617,
      "ੂ": 618,
      "ੇ": 619,
      "ੈ": 620,
      "ੋ": 621,
      "ੰ": 622,
      "ੱ": 623,
      "ં": 624,
      "ક": 625,
      "જ": 626,
      "ત": 627,
      "દ": 628,
      "ન": 629,
      "પ": 630,
      "બ": 631,
      "મ": 632,
      "ય": 633,
      "ર": 634,
      "લ": 635,
      "ળ": 636,
      "વ": 637,
      "શ": 638,
      "સ": 639,
      "ા": 640,
      "િ": 641,
      "ી": 642,
      "ુ": 643,
      "ૂ": 644,
      "ે": 645,
      "ો": 646,
      "્": 647,
      "૪": 648,
      "க": 649,
      "த": 650,
      "ம": 651,
      "ர": 652,
      "ல": 653,
      "வ": 654,
      "ா": 655,
      "ி": 656,
      "ு": 657,
      "்": 658,
      "ಂ": 659,
      "ಕ": 660,
      "ಗ": 661,
      "ಟ": 662,
      "ಡ": 663,
      "ತ": 664,
      "ದ": 665,
      "ನ": 666,
      "ಪ": 667,
      "ಬ": 668,
      "ಮ": 669,
      "ಯ": 670,
      "ರ": 671,
      "ಲ": 672,
      "ಸ": 673,
      "ಹ": 674,
      "ಾ": 675,
      "ಿ": 676,
      "ು": 677,
      "ೆ": 678,
      "್": 679,
      "ต": 680,
      "ม": 681,
      "า": 682,
      "้": 683,
      "་": 684,
      "ཀ": 685,
      "ག": 686,
      "ང": 687,
      "ཆ": 688,
      "ཏ": 689,
      "ད": 690,
      "ན": 691,
      "པ": 692,
      "བ": 693,
      "འ": 694,
      "ར": 695,
      "ལ": 696,
      "ས": 697,
      "ི": 698,
      "ུ": 699,
      "ེ": 700,
      "ོ": 701,
      "ྟ": 702,
      "ྱ": 703,
      "ᅳ": 704,
      "ᆰ": 705,
      "ṃ": 706,
      "​": 707,
      "‌": 708,
      "‍": 709,
      "‎": 710,
      "‐": 711,
      "‒": 712,
      "–": 713,
      "—": 714,
      "―": 715,
      "‘": 716,
      "’": 717,
      "‚": 718,
      "‛": 719,
      "“": 720,
      "”": 721,
      "†": 722,
      "‡": 723,
      "•": 724,
      " ": 725,
      "‪": 726,
      "‬": 727,
      "‰": 728,
      "′": 729,
      "‹": 730,
      "›": 731,
      "※": 732,
      "⁃": 733,
      "⁄": 734,
      "⁎": 735,
      "⁕": 736,
      "⁠": 737,
      "€": 738,
      "₹": 739,
      "⃣": 740,
      "←": 741,
      "↑": 742,
      "→": 743,
      "↔": 744,
      "⇒": 745,
      "⇔": 746,
      "∅": 747,
      "−": 748,
      "∕": 749,
      "∙": 750,
      "√": 751,
      "∞": 752,
      "∩": 753,
      "∪": 754,
      "∫": 755,
      "∶": 756,
      "≈": 757,
      "≠": 758,
      "≤": 759,
      "≥": 760,
      "≫": 761,
      "⋆": 762,
      "⋲": 763,
      "⎯": 764,
      "⏩": 765,
      "▁": 766,
      "█": 767,
      "■": 768,
      "▪": 769,
      "△": 770,
      "▶": 771,
      "▸": 772,
      "►": 773,
      "◆": 774,
      "◈": 775,
      "◊": 776,
      "○": 777,
      "●": 778,
      "◦": 779,
      "⟲": 780,
      "⟳": 781,
      "⠀": 782,
      "⦁": 783,
      "⬆": 784,
      "⬇": 785,
      "⭐": 786,
      "⸻": 787,
      "、": 788,
      "。": 789,
      "〇": 790,
      "《": 791,
      "》": 792,
      "「": 793,
      "」": 794,
      "【": 795,
      "】": 796,
      "あ": 797,
      "い": 798,
      "う": 799,
      "お": 800,
      "か": 801,
      "が": 802,
      "き": 803,
      "く": 804,
      "け": 805,
      "こ": 806,
      "ご": 807,
      "さ": 808,
      "し": 809,
      "じ": 810,
      "す": 811,
      "せ": 812,
      "ぞ": 813,
      "た": 814,
      "だ": 815,
      "ち": 816,
      "っ": 817,
      "て": 818,
      "で": 819,
      "と": 820,
      "ど": 821,
      "な": 822,
      "に": 823,
      "の": 824,
      "は": 825,
      "ま": 826,
      "も": 827,
      "ゃ": 828,
      "り": 829,
      "る": 830,
      "を": 831,
      "ん": 832,
      "イ": 833,
      "ェ": 834,
      "カ": 835,
      "ク": 836,
      "コ": 837,
      "ジ": 838,
      "ス": 839,
      "ッ": 840,
      "ト": 841,
      "ド": 842,
      "ナ": 843,
      "ニ": 844,
      "フ": 845,
      "マ": 846,
      "ラ": 847,
      "リ": 848,
      "ル": 849,
      "ロ": 850,
      "ン": 851,
      "ヴ": 852,
      "・": 853,
      "ー": 854,
      "一": 855,
      "七": 856,
      "三": 857,
      "中": 858,
      "主": 859,
      "京": 860,
      "人": 861,
      "代": 862,
      "件": 863,
      "住": 864,
      "你": 865,
      "保": 866,
      "八": 867,
      "公": 868,
      "典": 869,
      "分": 870,
      "动": 871,
      "北": 872,
      "区": 873,
      "司": 874,
      "吗": 875,
      "哪": 876,
      "啶": 877,
      "啷": 878,
      "喜": 879,
      "嗎": 880,
      "国": 881,
      "國": 882,
      "在": 883,
      "大": 884,
      "天": 885,
      "好": 886,
      "子": 887,
      "官": 888,
      "小": 889,
      "工": 890,
      "師": 891,
      "平": 892,
      "年": 893,
      "很": 894,
      "得": 895,
      "快": 896,
      "您": 897,
      "我": 898,
      "所": 899,
      "技": 900,
      "日": 901,
      "明": 902,
      "春": 903,
      "普": 904,
      "書": 905,
      "有": 906,
      "木": 907,
      "本": 908,
      "术": 909,
      "東": 910,
      "死": 911,
      "水": 912,
      "永": 913,
      "法": 914,
      "活": 915,
      "流": 916,
      "海": 917,
      "火": 918,
      "点": 919,
      "焼": 920,
      "爐": 921,
      "田": 922,
      "百": 923,
      "的": 924,
      "社": 925,
      "神": 926,
      "立": 927,
      "節": 928,
      "老": 929,
      "般": 930,
      "藏": 931,
      "虎": 932,
      "行": 933,
      "証": 934,
      "話": 935,
      "語": 936,
      "謝": 937,
      "话": 938,
      "语": 939,
      "谢": 940,
      "赛": 941,
      "起": 942,
      "送": 943,
      "通": 944,
      "都": 945,
      "金": 946,
      "限": 947,
      "電": 948,
      "馬": 949,
      "马": 950,
      "오": 951,
      "전": 952,
      "후": 953,
      "": 954,
      "": 955,
      "": 956,
      "": 957,
      "": 958,
      "": 959,
      "": 960,
      "": 961,
      "": 962,
      "": 963,
      "": 964,
      "": 965,
      "": 966,
      "": 967,
      "": 968,
      "": 969,
      "": 970,
      "": 971,
      "": 972,
      "": 973,
      "": 974,
      "": 975,
      "": 976,
      "": 977,
      "": 978,
      "": 979,
      "": 980,
      "": 981,
      "": 982,
      "": 983,
      "": 984,
      "": 985,
      "": 986,
      "": 987,
      "": 988,
      "": 989,
      "︎": 990,
      "️": 991,
      "﻿": 992,
      "﾿": 993,
      "￷": 994,
      "￼": 995,
      "�": 996,
      "🆀": 997,
      "🤓": 998,
      "🤣": 999,
      "🤦": 1000,
      "🤱": 1001,
      "🥇": 1002,
      "🦷": 1003,
      "को": 1004,
      "▁स": 1005,
      "मा": 1006,
      "र्": 1007,
      "का": 1008,
      "▁प": 1009,
      "्र": 1010,
      "न्": 1011,
      "▁ग": 1012,
      "ले": 1013,
      "▁र": 1014,
      "ने": 1015,
      "्य": 1016,
      "▁ब": 1017,
      "▁।": 1018,
      "ला": 1019,
      "▁भ": 1020,
      "▁अ": 1021,
      "▁क": 1022,
      "▁व": 1023,
      "ार": 1024,
      "▁ह": 1025,
      "▁छ": 1026,
      "▁न": 1027,
      "▁म": 1028,
      "▁प्र": 1029,
      "▁त": 1030,
      "▁द": 1031,
      "▁ज": 1032,
      "स्": 1033,
      "▁आ": 1034,
      "ाल": 1035,
      "ति": 1036,
      "ता": 1037,
      "क्": 1038,
      "ना": 1039,
      "▁उ": 1040,
      "एको": 1041,
      "ान": 1042,
      "यो": 1043,
      "▁गर": 1044,
      "▁का": 1045,
      "हर": 1046,
      "▁वि": 1047,
      "नि": 1048,
      "▁गर्": 1049,
      "ेको": 1050,
      "त्र": 1051,
      "म्": 1052,
      "लाई": 1053,
      "नु": 1054,
      "वा": 1055,
      "िक": 1056,
      "ित": 1057,
      "या": 1058,
      "▁।\n": 1059,
      "था": 1060,
      "▁हु": 1061,
      "▁नि": 1062,
      "▁च": 1063,
      "▁मा": 1064,
      "▁ला": 1065,
      "्या": 1066,
      "▁ल": 1067,
      "रा": 1068,
      "▁ख": 1069,
      "री": 1070,
      "▁ए": 1071,
      "▁रा": 1072,
      "▁य": 1073,
      "▁श": 1074,
      "न्द": 1075,
      "क्ष": 1076,
      "▁थ": 1077,
      "त्": 1078,
      "ल्": 1079,
      "▁स्": 1080,
      "▁ने": 1081,
      "▁सा": 1082,
      "▁सं": 1083,
      "पाल": 1084,
      "ेश": 1085,
      "▁पनि": 1086,
      "ेर": 1087,
      "बा": 1088,
      "▁दि": 1089,
      "नी": 1090,
      "हरू": 1091,
      "हि": 1092,
      "ष्": 1093,
      "▁सम": 1094,
      "▁लाग": 1095,
      "ाउ": 1096,
      "▁थि": 1097,
      "ुर": 1098,
      "ेका": 1099,
      "एका": 1100,
      "पा": 1101,
      "।\n": 1102,
      "हा": 1103,
      "▁हो": 1104,
      "▁फ": 1105,
      "दै": 1106,
      "रि": 1107,
      "▁१": 1108,
      "दा": 1109,
      "र्य": 1110,
      "▁छन्": 1111,
      "▁२": 1112,
      "▁भएको": 1113,
      "हरु": 1114,
      "बाट": 1115,
      "िका": 1116,
      "स्त": 1117,
      "द्": 1118,
      "▁नेपाल": 1119,
      "न्छ": 1120,
      "न्त्र": 1121,
      "क्र": 1122,
      "भा": 1123,
      "▁पा": 1124,
      "▁भने": 1125,
      "▁लागि": 1126,
      "▁त्य": 1127,
      "▁रह": 1128,
      "▁निर्": 1129,
      "▁को": 1130,
      "वि": 1131,
      "ष्ट": 1132,
      "कार": 1133,
      "▁के": 1134,
      "रण": 1135,
      "ेख": 1136,
      "▁गरि": 1137,
      "▁गरेको": 1138,
      "▁पु": 1139,
      "सा": 1140,
      "▁गर्न": 1141,
      "▁घ": 1142,
      "छि": 1143,
      "लो": 1144,
      "रो": 1145,
      "▁एक": 1146,
      "ेल": 1147,
      "▁सम्": 1148,
      "ीय": 1149,
      "ही": 1150,
      "ाम": 1151,
      "▁ट": 1152,
      "▁यो": 1153,
      "र्ष": 1154,
      "▁कार्य": 1155,
      "▁ध": 1156,
      "▁गर्ने": 1157,
      "्न": 1158,
      "▁प्रति": 1159,
      "ारी": 1160,
      "▁उन": 1161,
      "▁कु": 1162,
      "स्था": 1163,
      "देश": 1164,
      "न्त": 1165,
      "▁सु": 1166,
      "▁यस": 1167,
      "्च": 1168,
      "▁बा": 1169,
      "गा": 1170,
      "ध्य": 1171,
      "▁बता": 1172,
      "▁व्य": 1173,
      "▁थियो": 1174,
      "िय": 1175,
      "▁ड": 1176,
      "ली": 1177,
      "ँग": 1178,
      "▁तथा": 1179,
      "ेखि": 1180,
      "▁क्": 1181,
      "▁आफ": 1182,
      "▁अनु": 1183,
      "टा": 1184,
      "म्म": 1185,
      "धि": 1186,
      "पछि": 1187,
      "पर्": 1188,
      "▁सर": 1189,
      "कि": 1190,
      "धान": 1191,
      "बार": 1192,
      "▁बढ": 1193,
      "योग": 1194,
      "रह": 1195,
      "भि": 1196,
      "ुप": 1197,
      "टी": 1198,
      "गर": 1199,
      "्रो": 1200,
      "ौं": 1201,
      "▁उप": 1202,
      "▁हुने": 1203,
      "▁'": 1204,
      "ण्": 1205,
      "▁सह": 1206,
      "ालय": 1207,
      "की": 1208,
      "सँग": 1209,
      "र्थ": 1210,
      "▁जना": 1211,
      "िन": 1212,
      "जार": 1213,
      "ेट": 1214,
      "▁दु": 1215,
      "▁वर्ष": 1216,
      "स्थ": 1217,
      "ाइ": 1218,
      "▁क्ष": 1219,
      "▁सि": 1220,
      "▁राज": 1221,
      "ंग": 1222,
      "ेस": 1223,
      "▁वा": 1224,
      "▁बि": 1225,
      "ूर्": 1226,
      "क्रम": 1227,
      "वस्था": 1228,
      "▁थिए": 1229,
      "▁मु": 1230,
      "प्र": 1231,
      "्व": 1232,
      "नमा": 1233,
      "िल्": 1234,
      "न्न": 1235,
      "ण्ड": 1236,
      "सार": 1237,
      "याँ": 1238,
      "प्": 1239,
      "ेत": 1240,
      "ष्ट्र": 1241,
      "▁इ": 1242,
      "कारी": 1243,
      "सी": 1244,
      "▁बै": 1245,
      "▁रहेको": 1246,
      "न्द्र": 1247,
      "क्त": 1248,
      "▁सरकार": 1249,
      "एर": 1250,
      "िम": 1251,
      "ङ्": 1252,
      "न्त्री": 1253,
      "▁नै": 1254,
      "न्य": 1255,
      "द्ध": 1256,
      "▁तर": 1257,
      "नुपर्": 1258,
      "▁बना": 1259,
      "▁परि": 1260,
      "▁त्यस": 1261,
      "▁छ।": 1262,
      "ँदै": 1263,
      "▁३": 1264,
      "बै": 1265,
      "▁विश": 1266,
      "▁स्थ": 1267,
      "नको": 1268,
      "▁से": 1269,
      "▁लि": 1270,
      "▁उनले": 1271,
      "▁ठ": 1272,
      "ठमा": 1273,
      "मु": 1274,
      "न्दा": 1275,
      "द्य": 1276,
      "ानी": 1277,
      "▁२०": 1278,
      "▁गरेका": 1279,
      "▁रुप": 1280,
      "ेत्र": 1281,
      "सि": 1282,
      "डा": 1283,
      "▁काम": 1284,
      "जा": 1285,
      "▁।\n\n": 1286,
      "लि": 1287,
      "ीले": 1288,
      "म्प": 1289,
      "न्ध": 1290,
      "ंक": 1291,
      "ठमाड": 1292,
      "▁क्षेत्र": 1293,
      "जना": 1294,
      "उन": 1295,
      "▁(": 1296,
      "धार": 1297,
      "▁कि": 1298,
      "▁सबै": 1299,
      "ाउँ": 1300,
      "सम्म": 1301,
      "ती": 1302,
      "▁हजार": 1303,
      "स्ता": 1304,
      "▁समा": 1305,
      "▁गरिएको": 1306,
      "▁पार्": 1307,
      "▁प्रा": 1308,
      "डि": 1309,
      "▁भए": 1310,
      "हिले": 1311,
      "▁काठमाड": 1312,
      "▁देखि": 1313,
      "त्य": 1314,
      "हु": 1315,
      "▁उनी": 1316,
      "▁५": 1317,
      "▁भन्": 1318,
      "दी": 1319,
      "ुरु": 1320,
      "▁भएका": 1321,
      "▁सो": 1322,
      "हाँ": 1323,
      "▁रो": 1324,
      "उने": 1325,
      "▁हाम": 1326,
      "क्षा": 1327,
      "मन्त्री": 1328,
      "▁मि": 1329,
      "ैन": 1330,
      "ेद": 1331,
      "▁अर्": 1332,
      "वार": 1333,
      "्ने": 1334,
      "▁मात्र": 1335,
      "▁मह": 1336,
      "▁राष्ट्र": 1337,
      "र्म": 1338,
      "▁पर्": 1339,
      "क्ति": 1340,
      "चार": 1341,
      "▁जन": 1342,
      "▁गर्दै": 1343,
      "▁गरे": 1344,
      "ग्र": 1345,
      "ञ्च": 1346,
      "▁उत्": 1347,
      "ध्यक्ष": 1348,
      "▁सक्": 1349,
      "जी": 1350,
      "ेला": 1351,
      "▁ना": 1352,
      "▁स्थान": 1353,
      "▁४": 1354,
      "सक": 1355,
      "टर": 1356,
      "▁अध": 1357,
      "▁जा": 1358,
      "तिक": 1359,
      "▁बु": 1360,
      "▁राख": 1361,
      "बन्ध": 1362,
      "▁आफ्न": 1363,
      "माण": 1364,
      "रहेको": 1365,
      "पालिका": 1366,
      "गत": 1367,
      "▁बताए": 1368,
      "▁समय": 1369,
      "▁जो": 1370,
      "िति": 1371,
      "▁छैन": 1372,
      "शा": 1373,
      "भाव": 1374,
      "▁जान": 1375,
      "छन्": 1376,
      "▁दिन": 1377,
      "▁गरी": 1378,
      "ूप": 1379,
      "मान": 1380,
      "▁पुग": 1381,
      "▁कम": 1382,
      "कु": 1383,
      "▁प्रहर": 1384,
      "▁हुन्छ": 1385,
      "▁गत": 1386,
      "्रा": 1387,
      "▁ती": 1388,
      "र्व": 1389,
      "मुख": 1390,
      "▁काठमाडौं": 1391,
      "दि": 1392,
      "नै": 1393,
      "▁महि": 1394,
      "▁पर": 1395,
      "लेख": 1396,
      "▁छ।\n": 1397,
      "बी": 1398,
      "▁भन्ने": 1399,
      "▁नेपाली": 1400,
      "▁६": 1401,
      "▁ओ": 1402,
      "▁लाख": 1403,
      "कृ": 1404,
      "▁हुन": 1405,
      "टक": 1406,
      "त्व": 1407,
      "िल्ला": 1408,
      "निक": 1409,
      "▁कारण": 1410,
      "▁स्व": 1411,
      "र्फ": 1412,
      "▁प्रदेश": 1413,
      "▁पार्टी": 1414,
      "ेक": 1415,
      "स्तो": 1416,
      "र्ता": 1417,
      "ेन्": 1418,
      "नुपर्ने": 1419,
      "्रम": 1420,
      "रमा": 1421,
      "▁लग": 1422,
      "▁अव": 1423,
      "ोल": 1424,
      "▁दा": 1425,
      "ेरै": 1426,
      "▁आफ्नो": 1427,
      "▁था": 1428,
      "डी": 1429,
      "ाउने": 1430,
      "रु": 1431,
      "▁हुन्": 1432,
      "▁पहि": 1433,
      "▁दुई": 1434,
      "ूल": 1435,
      "▁कुरा": 1436,
      "नुभ": 1437,
      "सो": 1438,
      "▁जिल्ला": 1439,
      "▁स्वा": 1440,
      "िया": 1441,
      "▁रूप": 1442,
      "▁व्यवस्था": 1443,
      "ुट": 1444,
      "जन": 1445,
      "▁अहिले": 1446,
      "ारत": 1447,
      "▁चा": 1448,
      "घि": 1449,
      "▁सय": 1450,
      "▁साथ": 1451,
      "चि": 1452,
      "ँदा": 1453,
      "▁धेरै": 1454,
      "ाउन": 1455,
      "▁केही": 1456,
      "▁केन्द्र": 1457,
      "▁खो": 1458,
      "कास": 1459,
      "▁पूर्": 1460,
      "्ञ": 1461,
      "▁झ": 1462,
      "▁आव": 1463,
      "▁कार्यक्रम": 1464,
      "▁अध्यक्ष": 1465,
      "देखि": 1466,
      "▁अनुसार": 1467,
      "यर": 1468,
      "▁देश": 1469,
      "▁अन्त": 1470,
      "▁महा": 1471,
      "▁हि": 1472,
      "स्य": 1473,
      "वाच": 1474,
      "▁निर्माण": 1475,
      "▁भा": 1476,
      "▁खा": 1477,
      "▁बो": 1478,
      "ुन": 1479,
      "भन्दा": 1480,
      "ँच": 1481,
      "मि": 1482,
      "▁७": 1483,
      "कै": 1484,
      "म्ब": 1485,
      "पूर्": 1486,
      "▁सञ्च": 1487,
      "दान": 1488,
      "ाली": 1489,
      "\n\n": 1490,
      "स्तै": 1491,
      "▁अवस्था": 1492,
      "फल": 1493,
      "▁यु": 1494,
      "ोर": 1495,
      "▁भारत": 1496,
      "▁निय": 1497,
      "▁लगा": 1498,
      "▁सद": 1499,
      "ब्": 1500,
      "▁बैंक": 1501,
      "▁कुनै": 1502,
      "हित": 1503,
      "श्य": 1504,
      "▁जानकारी": 1505,
      "▁विकास": 1506,
      "भाग": 1507,
      "▁शि": 1508,
      "पुर": 1509,
      "पी": 1510,
      "ौँ": 1511,
      "▁या": 1512,
      "हरूको": 1513,
      "▁कम्प": 1514,
      "▁निर्वाच": 1515,
      "स्ट": 1516,
      "▁शा": 1517,
      "▁कार्यालय": 1518,
      "र्च": 1519,
      "हरूले": 1520,
      "्यो": 1521,
      "शत": 1522,
      "ष्ठ": 1523,
      "▁गु": 1524,
      "न,": 1525,
      "▁अधिका": 1526,
      "▁हा": 1527,
      "सम": 1528,
      "▁विष": 1529,
      "ैयाँ": 1530,
      "▁रूपमा": 1531,
      "▁पो": 1532,
      "▁नगर": 1533,
      "▁प्रधान": 1534,
      "▁खेल": 1535,
      "यत": 1536,
      "▁आयो": 1537,
      "▁समेत": 1538,
      "च्च": 1539,
      "▁तपा": 1540,
      "▁?": 1541,
      "मै": 1542,
      "▁प्रहरी": 1543,
      "ारा": 1544,
      "▁प्रतिशत": 1545,
      "▁८": 1546,
      "▁भइ": 1547,
      "▁घर": 1548,
      "टो": 1549,
      "खा": 1550,
      "ग्": 1551,
      "कमा": 1552,
      "जि": 1553,
      "▁प्रमुख": 1554,
      "▁कम्पनी": 1555,
      "मी": 1556,
      "▁राम": 1557,
      "वन": 1558,
      "▁सकि": 1559,
      "माले": 1560,
      "यन": 1561,
      "इएको": 1562,
      "▁नेता": 1563,
      "▁स्थानीय": 1564,
      "रोड": 1565,
      "मेर": 1566,
      "हो": 1567,
      "सको": 1568,
      "▁रुपैयाँ": 1569,
      "▁श्र": 1570,
      "▁विषय": 1571,
      "उँ": 1572,
      "▁विश्व": 1573,
      "▁करोड": 1574,
      "▁बज": 1575,
      "टि": 1576,
      "▁चि": 1577,
      "▁सरकारले": 1578,
      "धा": 1579,
      "▁गरेर": 1580,
      "थि": 1581,
      "▁नयाँ": 1582,
      "▁सेवा": 1583,
      "▁९": 1584,
      "श्यक": 1585,
      "ैले": 1586,
      "ीमा": 1587,
      "न्दै": 1588,
      "▁तय": 1589,
      "▁ल्या": 1590,
      "हरुले": 1591,
      "सले": 1592,
      "णा": 1593,
      "सन": 1594,
      "▁मो": 1595,
      "\\n": 1596,
      "▁-": 1597,
      "ताको": 1598,
      "वी": 1599,
      "▁मन्त्र": 1600,
      "▁आज": 1601,
      "▁आएको": 1602,
      "स्प": 1603,
      "छ।": 1604,
      "प्त": 1605,
      "्रेस": 1606,
      "▁समिति": 1607,
      "▁प्रयोग": 1608,
      "ट्": 1609,
      "लमा": 1610,
      "▁रहेका": 1611,
      "▁गाउँ": 1612,
      "ज्ञ": 1613,
      "▁सदस्य": 1614,
      "स्थ्य": 1615,
      "▁तपाई": 1616,
      "▁सञ्चाल": 1617,
      "स्या": 1618,
      "▁ढ": 1619,
      "ेन": 1620,
      "▁बढी": 1621,
      "▁सामा": 1622,
      "रको": 1623,
      "क्षण": 1624,
      "▁मत": 1625,
      "▁खु": 1626,
      "्यान": 1627,
      "▁सुरु": 1628,
      "राज": 1629,
      "▁दल": 1630,
      "भिन्न": 1631,
      "ोक": 1632,
      "▁१०": 1633,
      "करण": 1634,
      "र्या": 1635,
      "मो": 1636,
      "सद": 1637,
      "▁भि": 1638,
      "पति": 1639,
      "▁व्यव": 1640,
      "▁सुर": 1641,
      "पाद": 1642,
      "हरुको": 1643,
      "▁उनको": 1644,
      "▁प्रधानमन्त्री": 1645,
      "वेश": 1646,
      "▁पहिलो": 1647,
      "▁आइ": 1648,
      "▁बैठ": 1649,
      "यु": 1650,
      "▁पछि": 1651,
      "र्थिक": 1652,
      "▁समस्या": 1653,
      "वादी": 1654,
      "▁आवश्यक": 1655,
      "साय": 1656,
      "जिक": 1657,
      "▁गर्नु": 1658,
      "▁गा": 1659,
      "णय": 1660,
      "▁नभ": 1661,
      "सं": 1662,
      "▁देख": 1663,
      "पि": 1664,
      "सर": 1665,
      "▁घट": 1666,
      "▁छन्।": 1667,
      "र्श": 1668,
      "लु": 1669,
      "दुर": 1670,
      "▁निर्णय": 1671,
      "▁रुपमा": 1672,
      "▁आर्थिक": 1673,
      "ोग": 1674,
      "समा": 1675,
      "▁व्यक्ति": 1676,
      "▁विभिन्न": 1677,
      "▁दो": 1678,
      "▁राष्ट्रिय": 1679,
      "▁भन्दै": 1680,
      "नामा": 1681,
      "▁स्वास्थ्य": 1682,
      "▁औ": 1683,
      "ताल": 1684,
      "सु": 1685,
      "इन": 1686,
      "▁गर्दा": 1687,
      "▁पार": 1688,
      "▁अन्य": 1689,
      "▁राजनी": 1690,
      "त्त": 1691,
      "▁हामी": 1692,
      "▁संघ": 1693,
      "न्ड": 1694,
      "र्त": 1695,
      "▁ति": 1696,
      "▁मूल": 1697,
      "▁संस्था": 1698,
      "▁विद्य": 1699,
      "धन": 1700,
      "पूर्ण": 1701,
      "▁महिला": 1702,
      "▁आफू": 1703,
      "▁सभा": 1704,
      "▁जी": 1705,
      "▁दिए": 1706,
      "रहेका": 1707,
      "▁सम्बन्ध": 1708,
      "▁त्यो": 1709,
      "वाद": 1710,
      "ेड": 1711,
      "▁भू": 1712,
      "र्ग": 1713,
      "▁व्या": 1714,
      "टन": 1715,
      "▁डा": 1716,
      "▁रि": 1717,
      "श्च": 1718,
      "▁जनाएको": 1719,
      "ित्": 1720,
      "▁डि": 1721,
      "र्ड": 1722,
      "▁तीन": 1723,
      "▁एउ": 1724,
      "तन्त्र": 1725,
      "रोना": 1726,
      "ंग्रेस": 1727,
      "ेष": 1728,
      "त्म": 1729,
      "चना": 1730,
      "▁कस": 1731,
      "▁भयो": 1732,
      "सहित": 1733,
      "▁अप": 1734,
      "सकेको": 1735,
      "वारी": 1736,
      "▁मन्त्रालय": 1737,
      "हादुर": 1738,
      "▁आधार": 1739,
      "न्ति": 1740,
      "▁उल्": 1741,
      "ङ्ग": 1742,
      "▁ठू": 1743,
      "▁हुँदै": 1744,
      "▁जि": 1745,
      "▁शु": 1746,
      "ख्या": 1747,
      "▁गते": 1748,
      "▁सू": 1749,
      "पन": 1750,
      "▁कृ": 1751,
      "▁उत्पाद": 1752,
      "▁कांग्रेस": 1753,
      "▁नाम": 1754,
      "ञ्": 1755,
      "क्ता": 1756,
      "▁प्रश": 1757,
      "्वा": 1758,
      "▁दिने": 1759,
      "▁माग": 1760,
      "▁कोरोना": 1761,
      "तृ": 1762,
      "▁सहयोग": 1763,
      "▁चु": 1764,
      "▁उक्त": 1765,
      "स्पताल": 1766,
      "र्क": 1767,
      "▁रु": 1768,
      "▁सार्व": 1769,
      "▁छो": 1770,
      "▁छ,": 1771,
      "▁मन": 1772,
      "▁क्षेत्रमा": 1773,
      "क्रमण": 1774,
      "▁थप": 1775,
      "न्या": 1776,
      "▁अस्पताल": 1777,
      "▁दिएको": 1778,
      "िएको": 1779,
      "▁मुख": 1780,
      "नुभयो": 1781,
      "्छ": 1782,
      "▁आयोजना": 1783,
      "जनिक": 1784,
      "स्थित": 1785,
      "▁मानि": 1786,
      "हार": 1787,
      "▁अब": 1788,
      "जु": 1789,
      "▁क्रम": 1790,
      "गरिक": 1791,
      "▁अमेर": 1792,
      "▁मृ": 1793,
      "हरूलाई": 1794,
      "▁बजार": 1795,
      "चिव": 1796,
      "से": 1797,
      "▁एमाले": 1798,
      "कम": 1799,
      "तामा": 1800,
      "्रि": 1801,
      "▁हे": 1802,
      "▁तपाईं": 1803,
      "िर": 1804,
      "सँगै": 1805,
      "▁हाल": 1806,
      "सभा": 1807,
      "▁बस्": 1808,
      "अघि": 1809,
      "▁सार्वजनिक": 1810,
      "▁नगरपालिका": 1811,
      "▁छा": 1812,
      "बीच": 1813,
      "▁सड": 1814,
      "▁लेख": 1815,
      "▁नागरिक": 1816,
      "चा": 1817,
      "▁पत्र": 1818,
      "▁‘": 1819,
      "▁लगानी": 1820,
      "भित्र": 1821,
      "कको": 1822,
      "▁बने": 1823,
      "▁सम्प": 1824,
      "ड्": 1825,
      "▁उद्य": 1826,
      "▁भन्दा": 1827,
      "▁सक": 1828,
      "▁प्रभाव": 1829,
      "कले": 1830,
      "▁\"": 1831,
      "▁समाज": 1832,
      "▁ओली": 1833,
      "राष्ट्र": 1834,
      "▁पुन": 1835,
      "ूह": 1836,
      "▁छन्।\n": 1837,
      "बहादुर": 1838,
      "▁गो": 1839,
      "धिक": 1840,
      "शी": 1841,
      "▁निर्वाचन": 1842,
      "पत्र": 1843,
      "▁दे": 1844,
      "▁बाँ": 1845,
      "▁निर्देश": 1846,
      "ोष": 1847,
      "काल": 1848,
      "ुल": 1849,
      "क्रिया": 1850,
      "फा": 1851,
      "▁एउटा": 1852,
      "▁नेतृ": 1853,
      "▁ता": 1854,
      "▁बेला": 1855,
      "हरुलाई": 1856,
      "▁स्था": 1857,
      "लेको": 1858,
      "द्या": 1859,
      "स्तु": 1860,
      "▁उहाँ": 1861,
      "नुपर्छ": 1862,
      "▁मे": 1863,
      "▁व्यवसाय": 1864,
      "▁अभि": 1865,
      "हान": 1866,
      "▁निका": 1867,
      "▁भनेर": 1868,
      "▁अर्थ": 1869,
      "▁बाल": 1870,
      "▁टो": 1871,
      "▁नेतृत्व": 1872,
      "भर": 1873,
      "कपा": 1874,
      "▁उल्लेख": 1875,
      "्री": 1876,
      "वै": 1877,
      "एपछि": 1878,
      "▁पक्ष": 1879,
      "▁बस": 1880,
      "▁तह": 1881,
      "▁बे": 1882,
      "निधि": 1883,
      "▁प्राप्त": 1884,
      "र्ट": 1885,
      "▁योजना": 1886,
      "▁विशेष": 1887,
      "▁अघि": 1888,
      "▁संग": 1889,
      "▁मुख्य": 1890,
      "▁किन": 1891,
      "्यु": 1892,
      "▁थियो।": 1893,
      "र्न": 1894,
      "काश": 1895,
      "बु": 1896,
      "▁इन्": 1897,
      "▁वै": 1898,
      "ध्ये": 1899,
      "▁पू": 1900,
      "तमा": 1901,
      "ेन्द्र": 1902,
      "न्व": 1903,
      "▁तर,": 1904,
      "द्धि": 1905,
      "▁पूर्व": 1906,
      "▁गठ": 1907,
      "इन्": 1908,
      "▁बुझ": 1909,
      "बारे": 1910,
      "गरी": 1911,
      "प्रति": 1912,
      "▁जारी": 1913,
      "▁अन्तर्": 1914,
      "▁अर्ब": 1915,
      "पना": 1916,
      "▁ठूलो": 1917,
      "▁नी": 1918,
      "▁२०७": 1919,
      "त्यु": 1920,
      "सक्": 1921,
      "▁कर्म": 1922,
      "▁भने,": 1923,
      "नुहु": 1924,
      "नाइ": 1925,
      "धी": 1926,
      "▁वटा": 1927,
      "▁अधिकारी": 1928,
      "▁मूल्य": 1929,
      "▁गाउँपालिका": 1930,
      "अनु": 1931,
      "▁पोख": 1932,
      "ेष्ठ": 1933,
      "▁मात्रै": 1934,
      "▁साम": 1935,
      "रुद्ध": 1936,
      "▁पटक": 1937,
      "▁पर्य": 1938,
      "▁अभ": 1939,
      "मति": 1940,
      "▁सर्व": 1941,
      "▁समूह": 1942,
      "नका": 1943,
      "▁जित": 1944,
      "▁ले": 1945,
      "चारी": 1946,
      "न्तर": 1947,
      "▁सन्": 1948,
      "▁मृत्यु": 1949,
      "▁हो।": 1950,
      "▁राजनीतिक": 1951,
      "▁वडा": 1952,
      "▁चौ": 1953,
      "ारे": 1954,
      "▁पर्ने": 1955,
      "▁नेकपा": 1956,
      "सन्": 1957,
      "लफल": 1958,
      "दाय": 1959,
      "▁उद्योग": 1960,
      "▁पाँच": 1961,
      "पु": 1962,
      "कर्ता": 1963,
      "▁अनि": 1964,
      "स्रो": 1965,
      "कल": 1966,
      "▁परी": 1967,
      "▁राम्रो": 1968,
      "▁आग": 1969,
      "▁भेट": 1970,
      "▁बताएका": 1971,
      "मार": 1972,
      "▁छलफल": 1973,
      "दर्श": 1974,
      "▁सम्म": 1975,
      "▁सङ्": 1976,
      "▁उम्म": 1977,
      "बि": 1978,
      "ीको": 1979,
      "▁सम्झ": 1980,
      "तको": 1981,
      "वरण": 1982,
      "▁१५": 1983,
      "वेद": 1984,
      "र्फत": 1985,
      "▁सुरक्षा": 1986,
      "▁सां": 1987,
      "ठा": 1988,
      "▁उपचार": 1989,
      "विधान": 1990,
      "▁आएका": 1991,
      "▁यस्तो": 1992,
      "ञ्ज": 1993,
      "नले": 1994,
      "तर्फ": 1995,
      "▁क्रममा": 1996,
      "▁कर्मचारी": 1997,
      "टमा": 1998,
      "त्मक": 1999,
      "▁मन्त्री": 2000,
      "▁अवस्थामा": 2001,
      "म्भ": 2002,
      "▁मान": 2003,
      "▁विद्या": 2004,
      "▁सहभाग": 2005,
      "▁भनि": 2006,
      "▁सक्ने": 2007,
      "▁अगा": 2008,
      "▁न्य": 2009,
      "▁उत्पादन": 2010,
      "के": 2011,
      "▁बजेट": 2012,
      "▁महिना": 2013,
      "▁बताउ": 2014,
      "होस्": 2015,
      "▁अद": 2016,
      "▁विषयमा": 2017,
      "▁निक": 2018,
      "लको": 2019,
      "दछ": 2020,
      "विधि": 2021,
      "समेत": 2022,
      "त्ति": 2023,
      "▁नीति": 2024,
      "▁उम्मेद": 2025,
      "▁चार": 2026,
      "▁१२": 2027,
      "डेल": 2028,
      "णाली": 2029,
      "मित": 2030,
      "▁कर्": 2031,
      "▁दश": 2032,
      "▁भइरहेको": 2033,
      "▁जुन": 2034,
      "राम": 2035,
      "▁सामाजिक": 2036,
      "▁अर्को": 2037,
      "हरूमा": 2038,
      "क्स": 2039,
      "ृद्धि": 2040,
      "▁अझ": 2041,
      "▁बनाउन": 2042,
      "▁रकम": 2043,
      "अनुसार": 2044,
      "तर": 2045,
      "ीर": 2046,
      "▁हुँदा": 2047,
      "▁सडक": 2048,
      "▁टोली": 2049,
      "▁सञ्चालन": 2050,
      "▁प्रतिनिधि": 2051,
      "▁विदेश": 2052,
      "▁११": 2053,
      "न्स": 2054,
      "▁श्रेष्ठ": 2055,
      "त्ता": 2056,
      "▁संविधान": 2057,
      "त्या": 2058,
      "▁संर": 2059,
      "▁प्रव": 2060,
      "यक": 2061,
      "▁खर्च": 2062,
      "र्ने": 2063,
      "हाल": 2064,
      "▁यसको": 2065,
      "युक्त": 2066,
      "▁पद": 2067,
      "▁मुलु": 2068,
      "▁साथै": 2069,
      "घा": 2070,
      "▁आयोग": 2071,
      "रोध": 2072,
      "▁उपा": 2073,
      "ल्लो": 2074,
      "ुवा": 2075,
      "▁विक": 2076,
      "नाव": 2077,
      "▁नग": 2078,
      "▁पै": 2079,
      "▁गर्नुपर्ने": 2080,
      "▁नेपालमा": 2081,
      "ोट": 2082,
      "गम": 2083,
      "ेपछि": 2084,
      "▁क्या": 2085,
      "▁लक्ष": 2086,
      "्दै": 2087,
      "▁पौ": 2088,
      "▁करि": 2089,
      "सन्धान": 2090,
      "▁अदाल": 2091,
      "▁कति": 2092,
      "पर": 2093,
      "▁नेपालको": 2094,
      "वाह": 2095,
      "▁दोस्रो": 2096,
      "▁१९": 2097,
      "▁उच्च": 2098,
      "▁राज्य": 2099,
      "ेरो": 2100,
      "▁क्र": 2101,
      "व्य": 2102,
      "▁सी": 2103,
      "बर": 2104,
      "▁यी": 2105,
      "ेन्ट": 2106,
      "▁बी": 2107,
      "।\n\n": 2108,
      "▁व्याप": 2109,
      "राष्ट्रिय": 2110,
      "▁फि": 2111,
      "▁बन्द": 2112,
      "▁थापा": 2113,
      "ग्रह": 2114,
      "ामी": 2115,
      "▁ची": 2116,
      "▁फिल्": 2117,
      "गायत": 2118,
      "▁अनुसन्धान": 2119,
      "▁मौ": 2120,
      "क्षक": 2121,
      "ष्टि": 2122,
      "▁लोक": 2123,
      "▁हाम्रो": 2124,
      "▁भु": 2125,
      "बल": 2126,
      "▁प्रहरीले": 2127,
      "जग": 2128,
      "ीत": 2129,
      "ैं": 2130,
      "नुभएको": 2131,
      "▁तत्": 2132,
      "▁नहु": 2133,
      "साद": 2134,
      "▁घोष": 2135,
      "▁पुगेको": 2136,
      "▁फो": 2137,
      "▁घटना": 2138,
      "पो": 2139,
      "▁परेको": 2140,
      "▁शर्": 2141,
      "▁पानी": 2142,
      "यात": 2143,
      "▁तयारी": 2144,
      "ओवादी": 2145,
      "▁खे": 2146,
      "▁महान": 2147,
      "▁बाहि": 2148,
      "▁परिवार": 2149,
      "▁।\\n": 2150,
      "▁लगायत": 2151,
      "▁विद्यालय": 2152,
      "▁ठाउँ": 2153,
      "दो": 2154,
      "▁जे": 2155,
      "▁अफ": 2156,
      "▁उपल": 2157,
      "▁ऐ": 2158,
      "▁कृष": 2159,
      "स्ताव": 2160,
      "वर्त": 2161,
      "न्छन्": 2162,
      "▁बनाउने": 2163,
      "वल": 2164,
      "▁विज्ञ": 2165,
      "माथि": 2166,
      "ल्या": 2167,
      "छा": 2168,
      "▁विद्यार्थ": 2169,
      "म्बर": 2170,
      "▁लागेको": 2171,
      "▁जनता": 2172,
      "▁आरो": 2173,
      "▁देखिएको": 2174,
      "▁समयमा": 2175,
      "▁दिएका": 2176,
      "धारण": 2177,
      "▁५०": 2178,
      "▁सफल": 2179,
      "झा": 2180,
      "दे": 2181,
      "▁सबैभन्दा": 2182,
      "▁विभाग": 2183,
      "▁\n\n": 2184,
      "▁अगाडि": 2185,
      "▁सचिव": 2186,
      "पनि": 2187,
      "▁ब्या": 2188,
      "▁शिक्षा": 2189,
      "स्व": 2190,
      "▁जोड": 2191,
      "त्रा": 2192,
      "▁भएपछि": 2193,
      "न्दोल": 2194,
      "▁प्रक्रिया": 2195,
      "क्राउ": 2196,
      "▁सक्छ": 2197,
      "▁सम्पन्न": 2198,
      "▁भएर": 2199,
      "कृति": 2200,
      "▁उपलब्": 2201,
      "न्छ।": 2202,
      "यी": 2203,
      "▁पाइ": 2204,
      "▁पढ": 2205,
      "▁फिल्म": 2206,
      "ट्ट": 2207,
      "▁अस": 2208,
      "▁गएको": 2209,
      "ोधन": 2210,
      "ृत": 2211,
      "ष्ण": 2212,
      "▁स्प": 2213,
      "▁संख्या": 2214,
      "▁आउने": 2215,
      "▁घोषणा": 2216,
      "▁नियन्त्र": 2217,
      "तम": 2218,
      "▁चाह": 2219,
      "▁गोल": 2220,
      "▁भनाइ": 2221,
      "यम": 2222,
      "धिका": 2223,
      "▁त्यहाँ": 2224,
      "▁कानु": 2225,
      "▁प्रस्ताव": 2226,
      "▁केन्द्रीय": 2227,
      "▁हामीले": 2228,
      "दर": 2229,
      "▁तयार": 2230,
      "▁गरिने": 2231,
      "▁कार": 2232,
      "मिक": 2233,
      "▁युवा": 2234,
      "▁पक्राउ": 2235,
      "▁सांसद": 2236,
      "▁अध्य": 2237,
      "ल्ला": 2238,
      "▁संसद": 2239,
      "एन": 2240,
      "काली": 2241,
      "▁अधिक": 2242,
      "द्दा": 2243,
      "तले": 2244,
      "▁न्या": 2245,
      "▁संक्रमण": 2246,
      "▁भएकाले": 2247,
      "▁खोज": 2248,
      "▁यहाँ": 2249,
      "▁जाने": 2250,
      "▁किस": 2251,
      "▁पी": 2252,
      "▁प्रकाश": 2253,
      "लब": 2254,
      "ंश": 2255,
      "टल": 2256,
      "▁रे": 2257,
      "▁अमेरिका": 2258,
      "▁काठमाडौँ": 2259,
      "▁समु": 2260,
      "▁ट्र": 2261,
      "▁आन्दोल": 2262,
      "▁पुर": 2263,
      "▁गर्छ": 2264,
      "▁थिए।": 2265,
      "भव": 2266,
      "▁हुनेछ": 2267,
      "▁पि": 2268,
      "ालिका": 2269,
      "▁राष्ट्रपति": 2270,
      "▁कसरी": 2271,
      "▁छि": 2272,
      "▁पौडेल": 2273,
      "▁एव": 2274,
      "▁नियन्त्रण": 2275,
      "षा": 2276,
      "ानो": 2277,
      "▁प्रत्य": 2278,
      "▁कार्यक्रममा": 2279,
      "कृत": 2280,
      "▁भाग": 2281,
      "▁गरा": 2282,
      "ेरि": 2283,
      "मध्ये": 2284,
      "▁२५": 2285,
      "एस": 2286,
      "▁अन": 2287,
      "न्ने": 2288,
      "थ्यो": 2289,
      "▁उठ": 2290,
      "▁मुद्दा": 2291,
      "तिमा": 2292,
      "▁उद्": 2293,
      "▁परिवर्त": 2294,
      "्वास": 2295,
      "▁प्रदान": 2296,
      "लग": 2297,
      "▁साल": 2298,
      "▁बैठक": 2299,
      "▁जीवन": 2300,
      "▁योग": 2301,
      "▁उम्मेदवार": 2302,
      "▁अभिय": 2303,
      "दैन": 2304,
      "▁होइन": 2305,
      "ंह": 2306,
      "▁निर": 2307,
      "▁कार्या": 2308,
      "▁आउ": 2309,
      "▁करिब": 2310,
      "स्तार": 2311,
      "कर्ष": 2312,
      "ल्ने": 2313,
      "▁डे": 2314,
      "लगायत": 2315,
      "▁३०": 2316,
      "▁कारो": 2317,
      "▁बारे": 2318,
      "▁माओवादी": 2319,
      "▁मानिस": 2320,
      "लाइ": 2321,
      "▁वर्षको": 2322,
      "▁हर": 2323,
      "▁फा": 2324,
      "▁चल": 2325,
      "सम्": 2326,
      "▁ग्र": 2327,
      "▁प्रशा": 2328,
      "▁बस्ने": 2329,
      "▁छुट": 2330,
      "▁चाल": 2331,
      "शु": 2332,
      "टै": 2333,
      "-१": 2334,
      "▁पूर्ण": 2335,
      "▁सरकारको": 2336,
      "▁सम्झौ": 2337,
      "कार्य": 2338,
      "▁१४": 2339,
      "र्स": 2340,
      "पटक": 2341,
      "▁व्यवस्थापन": 2342,
      "▁स्ट": 2343,
      "लव": 2344,
      "▁पैसा": 2345,
      "नेपाल": 2346,
      "▁१३": 2347,
      "▁मेरो": 2348,
      "▁लु": 2349,
      "▁आरोप": 2350,
      "▁फर": 2351,
      "▁कृषि": 2352,
      "▁बिक": 2353,
      "▁डा.": 2354,
      "ारि": 2355,
      "▁आधारमा": 2356,
      "हरुमा": 2357,
      "▁लामो": 2358,
      "▁स्थानमा": 2359,
      "▁पछिल्लो": 2360,
      "परि": 2361,
      "▁खेला": 2362,
      "▁प्रदर्श": 2363,
      "▁दुवै": 2364,
      "र्ज": 2365,
      "▁कार्यान्व": 2366,
      "ृह": 2367,
      "▁फर्": 2368,
      "▁सरकारी": 2369,
      "म्मे": 2370,
      "▁अध्ययन": 2371,
      "▁विज": 2372,
      "▁बढेको": 2373,
      "▁मैले": 2374,
      "▁विद्यार्थी": 2375,
      "▁प्रश्न": 2376,
      "▁तो": 2377,
      "▁सम्भाव": 2378,
      "ग्री": 2379,
      "ल्प": 2380,
      "पक्ष": 2381,
      "प्रसाद": 2382,
      "ेयर": 2383,
      "धिवेश": 2384,
      "▁सामान्य": 2385,
      "िकी": 2386,
      "▁फाइ": 2387,
      "मिका": 2388,
      "▁:": 2389,
      "▁उपलब्ध": 2390,
      "राई": 2391,
      "▁भाइ": 2392,
      "्नु": 2393,
      "न्ट": 2394,
      "िता": 2395,
      "चाल": 2396,
      "र्घ": 2397,
      "▁कारोबार": 2398,
      "कुमार": 2399,
      "▁भो": 2400,
      "▁यसले": 2401,
      "सका": 2402,
      "ैनिक": 2403,
      "डियो": 2404,
      "▁छन": 2405,
      "▁खेलमा": 2406,
      "▁कार्": 2407,
      "▁लिएर": 2408,
      "▁बनेको": 2409,
      "क्रमित": 2410,
      "▁भारतीय": 2411,
      "▁म्या": 2412,
      "▁सूचना": 2413,
      "▁शर्मा": 2414,
      "उँछन्": 2415,
      "▁ऋ": 2416,
      "ंगल": 2417,
      "लामा": 2418,
      "▁नभएको": 2419,
      "च्छ": 2420,
      "▁उनलाई": 2421,
      "तो": 2422,
      "जो": 2423,
      "तरण": 2424,
      "▁गुरु": 2425,
      "▁आगामी": 2426,
      "▁१६": 2427,
      "▁सहभागी": 2428,
      "▁आग्रह": 2429,
      "▁श्री": 2430,
      "सिक": 2431,
      "▁संस्": 2432,
      "▁देउ": 2433,
      "त्री": 2434,
      "तिर": 2435,
      "▁प्रणाली": 2436,
      "▁निकै": 2437,
      "▁प्रच": 2438,
      "▁दर्ता": 2439,
      "▁भनेको": 2440,
      "▁रोजग": 2441,
      "▁त्यसैले": 2442,
      "▁बिहान": 2443,
      "रले": 2444,
      "▁अन्तर्राष्ट्रिय": 2445,
      "नुहुन्छ": 2446,
      "न्तिम": 2447,
      ",'": 2448,
      "ेकी": 2449,
      "्ना": 2450,
      "कालीन": 2451,
      "▁सोम": 2452,
      "▁लिन": 2453,
      "▁यही": 2454,
      "▁निकाय": 2455,
      "▁परेका": 2456,
      "▁दाबी": 2457,
      "▁१८": 2458,
      "▁त्यस्तै": 2459,
      "▁फै": 2460,
      "▁विद्यु": 2461,
      "ेज": 2462,
      "वेदन": 2463,
      "▁स्वी": 2464,
      "▁अझै": 2465,
      "▁प्रया": 2466,
      "यस": 2467,
      "रत": 2468,
      "▁सहमति": 2469,
      "▁चुनाव": 2470,
      "विधा": 2471,
      "दार": 2472,
      "▁अन्तिम": 2473,
      "त्वपूर्ण": 2474,
      "▁शक्ति": 2475,
      "▁अभियान": 2476,
      "नाले": 2477,
      "▁सकिन्छ": 2478,
      "▁सन्द": 2479,
      "▁पूरा": 2480,
      "▁यस्तै": 2481,
      "▁प्रतियोग": 2482,
      "▁ज्ञ": 2483,
      "विरुद्ध": 2484,
      "▁पठ": 2485,
      "▁गरिरहेको": 2486,
      "▁जिम्मे": 2487,
      "तबार": 2488,
      "▁हुनु": 2489,
      "किएको": 2490,
      "▁सर्": 2491,
      "ग्गा": 2492,
      "श्चिम": 2493,
      "▁सुधार": 2494,
      "▁त्यसपछि": 2495,
      "▁बाँकी": 2496,
      "▁२४": 2497,
      "▁हो।\n": 2498,
      "▁परीक्षण": 2499,
      "▁पाउने": 2500,
      "ल्क": 2501,
      "मारी": 2502,
      "▁पदा": 2503,
      "▁स्रो": 2504,
      "▁गौ": 2505,
      "▁सम्झौता": 2506,
      "डान": 2507,
      "रिद": 2508,
      "स्क": 2509,
      "ची": 2510,
      "्ले": 2511,
      "बद्ध": 2512,
      "▁अवधि": 2513,
      "▁जु": 2514,
      "ते": 2515,
      "▁बाहिर": 2516,
      "▁कर": 2517,
      "लले": 2518,
      "▁निर्देशन": 2519,
      "▁तथ": 2520,
      "तार": 2521,
      "सकेका": 2522,
      "▁कायम": 2523,
      "उँदै": 2524,
      "ध्यम": 2525,
      "संघ": 2526,
      "▁व्यापार": 2527,
      "▁देखिन्छ": 2528,
      "▁सहज": 2529,
      "तिहा": 2530,
      "▁विस्तार": 2531,
      "▁रहने": 2532,
      "चित्र": 2533,
      "णी": 2534,
      "▁थाले": 2535,
      "▁वित्त": 2536,
      "▁नेपालले": 2537,
      "कर्म": 2538,
      "▁गति": 2539,
      "▁वितरण": 2540,
      "दू": 2541,
      "विद्य": 2542,
      "▁महानगर": 2543,
      "▁नम्बर": 2544,
      "▁जब": 2545,
      "▁पत्रकार": 2546,
      "▁खरिद": 2547,
      "▁जनाको": 2548,
      "▁मध": 2549,
      "थे": 2550,
      "▁अधिकार": 2551,
      "ियन": 2552,
      "▁भूमिका": 2553,
      "▁चरण": 2554,
      "राब": 2555,
      "▁?\n": 2556,
      "▁जस्तो": 2557,
      "▁स्थापना": 2558,
      "▁शुक्र": 2559,
      "स्थिति": 2560,
      "ढी": 2561,
      "▁परिवर्तन": 2562,
      "ेम": 2563,
      "▁प्रस्तु": 2564,
      "लेर": 2565,
      "▁भ्रम": 2566,
      "▁चला": 2567,
      "श्व": 2568,
      "र्चा": 2569,
      "▁बारेमा": 2570,
      "▁भण्ड": 2571,
      "▁याद": 2572,
      "▁विश्वास": 2573,
      "▁खेलाडी": 2574,
      "▁भट्ट": 2575,
      "निर्": 2576,
      "भू": 2577,
      "▁एवं": 2578,
      "▁रोग": 2579,
      "▁हरेक": 2580,
      "▁त्यसको": 2581,
      "▁वृद्धि": 2582,
      "योज": 2583,
      "२०": 2584,
      "ेक्": 2585,
      "न्।": 2586,
      "▁त्यही": 2587,
      "साइ": 2588,
      "▁टा": 2589,
      "▁आफ्ना": 2590,
      "▁बुध": 2591,
      "ल्न": 2592,
      "▁ध्यान": 2593,
      "▁बैंकले": 2594,
      "▁बलि": 2595,
      "▁भित्र": 2596,
      "्दा": 2597,
      "सक्ने": 2598,
      "▁हो,": 2599,
      "▁बाटो": 2600,
      "▁गर्दछ": 2601,
      "▁सवारी": 2602,
      "▁1": 2603,
      "▁गठबन्ध": 2604,
      "▁सात": 2605,
      "▁गण": 2606,
      "▁बजारमा": 2607,
      "▁जग्गा": 2608,
      "▁सुविधा": 2609,
      "▁मलाई": 2610,
      "▁१७": 2611,
      "▁ई": 2612,
      "क्षित": 2613,
      "▁क्षम": 2614,
      "▁प्रवेश": 2615,
      "वास": 2616,
      "पक": 2617,
      "▁बिक्री": 2618,
      "▁दी": 2619,
      "▁जन्": 2620,
      "ेता": 2621,
      "र्जन": 2622,
      "शील": 2623,
      "▁मानव": 2624,
      "दिन": 2625,
      "▁यसलाई": 2626,
      "▁अमेरिकी": 2627,
      "▁जोख": 2628,
      "▁देउवा": 2629,
      "▁सकिने": 2630,
      "▁पोखरा": 2631,
      "चित": 2632,
      "▁थियो।\n": 2633,
      "▁आइतबार": 2634,
      "ेप": 2635,
      "▁कम्पनीले": 2636,
      "▁अंक": 2637,
      "▁कला": 2638,
      "▁टि": 2639,
      "▁२०१": 2640,
      "र्ण": 2641,
      "▁दाहाल": 2642,
      "▁सेयर": 2643,
      "▁दक्ष": 2644,
      "▁थिएन": 2645,
      "▁कै": 2646,
      "एम": 2647,
      "▁धा": 2648,
      "विक": 2649,
      "वर": 2650,
      "द्धा": 2651,
      "▁न्यू": 2652,
      "▁सभापति": 2653,
      "▁पर्यटक": 2654,
      "▁स्पष्ट": 2655,
      "▁विवाद": 2656,
      "वान": 2657,
      "आर": 2658,
      "ज्य": 2659,
      "▁यसअघि": 2660,
      "तावरण": 2661,
      "▁छु": 2662,
      "नाको": 2663,
      "▁संक्रमित": 2664,
      "▁पुनः": 2665,
      "▁मै": 2666,
      "▁व्यवसायी": 2667,
      "हेक": 2668,
      "▁कुल": 2669,
      "आई": 2670,
      "▁निजी": 2671,
      "ङ्क": 2672,
      "▁लक्ष्य": 2673,
      "▁२१": 2674,
      "▁दू": 2675,
      "▁जल": 2676,
      "▁उहाँले": 2677,
      "▁प्रविधि": 2678,
      "▁टु": 2679,
      "▁वित्तीय": 2680,
      "▁जोखिम": 2681,
      "▁गि": 2682,
      "▁सोही": 2683,
      "ुरुष": 2684,
      "▁तुल": 2685,
      "श्चित": 2686,
      "▁किसान": 2687,
      "▁होला": 2688,
      "▁सोमबार": 2689,
      "▁विमान": 2690,
      "▁देखा": 2691,
      "▁अति": 2692,
      "ाल्": 2693,
      "▁आँ": 2694,
      "▁दृ": 2695,
      "ँड": 2696,
      "ालि": 2697,
      "▁सोच": 2698,
      "▁वातावरण": 2699,
      "सम्बन्ध": 2700,
      "ाउनु": 2701,
      "▁आफ्नै": 2702,
      "▁सम्भावना": 2703,
      "▁निरन्तर": 2704,
      "▁रहे": 2705,
      "▁\n": 2706,
      "▁वर्षीय": 2707,
      "▁स्वतन्त्र": 2708,
      "▁तत्काल": 2709,
      "ालले": 2710,
      "▁ग्रा": 2711,
      "यार": 2712,
      "▁जस": 2713,
      "▁संक": 2714,
      "▁प्रयास": 2715,
      "ैँ": 2716,
      "▁सुन": 2717,
      "ँदैन": 2718,
      "▁जसले": 2719,
      "▁फुट": 2720,
      "उनु": 2721,
      "णि": 2722,
      "च्चा": 2723,
      "▁यसै": 2724,
      "▁समुदाय": 2725,
      "▁सीमा": 2726,
      "सचिव": 2727,
      "▁उनका": 2728,
      "▁लिएको": 2729,
      "ताका": 2730,
      "▁भाइर": 2731,
      "▁चलचित्र": 2732,
      "▁बैठकमा": 2733,
      "▁मंगल": 2734,
      "▁पराज": 2735,
      "▁नहुने": 2736,
      "▁मिने": 2737,
      "▁दर": 2738,
      "ङको": 2739,
      "▁सिंह": 2740,
      "▁समाधान": 2741,
      "▁शै": 2742,
      "▁आई": 2743,
      "▁नारा": 2744,
      "▁तिनी": 2745,
      "ेस्रो": 2746,
      "▁गरेपछि": 2747,
      "▁पुर्या": 2748,
      "▁बनाएको": 2749,
      "▁ओलीले": 2750,
      "शि": 2751,
      "▁यदि": 2752,
      "▁फेरि": 2753,
      "हन": 2754,
      "▁हुँदैन": 2755,
      "▁एस": 2756,
      "▁पुरुष": 2757,
      "ुरो": 2758,
      "▁गरिरहेका": 2759,
      "टको": 2760,
      "▁बच": 2761,
      "▁यादव": 2762,
      "रामी": 2763,
      "▁,": 2764,
      "▁खाने": 2765,
      "▁पहिले": 2766,
      "ढा": 2767,
      "धु": 2768,
      "पानी": 2769,
      "▁मुलुक": 2770,
      "स्पर्": 2771,
      "▁बीच": 2772,
      "▁घण्": 2773,
      "म्मा": 2774,
      "ँजी": 2775,
      "रू": 2776,
      "जित": 2777,
      "▁प्रचण्ड": 2778,
      "▁थाहा": 2779,
      "▁संघीय": 2780,
      "▁गृह": 2781,
      "मार्फत": 2782,
      "▁शनि": 2783,
      "षद्": 2784,
      "▁मान्छ": 2785,
      "बेला": 2786,
      "र्जा": 2787,
      "ङले": 2788,
      "▁व्यक्त": 2789,
      "▁बुधबार": 2790,
      "भो": 2791,
      "रीको": 2792,
      "▁ऋण": 2793,
      "▁०": 2794,
      "▁बताउँछन्": 2795,
      "धे": 2796,
      "▁हेर्": 2797,
      "▁शुक्रबार": 2798,
      "▁एन": 2799,
      "▁तेस्रो": 2800,
      "▁झा": 2801,
      "नाथ": 2802,
      "▁फरक": 2803,
      "▁नजिक": 2804,
      "▁कार्यान्वयन": 2805,
      "सम्बन्धी": 2806,
      "▁जिम्मेवारी": 2807,
      "उँछ": 2808,
      "▁सर्वो": 2809,
      "▁४०": 2810,
      "लिक": 2811,
      "▁यात्रा": 2812,
      "लर": 2813,
      "▁दैनिक": 2814,
      "देश्य": 2815,
      "▁प्रतिस्पर्": 2816,
      "▁रू": 2817,
      "▁तर्फ": 2818,
      "पको": 2819,
      "▁त्रि": 2820,
      "▁अग्र": 2821,
      "▁गीत": 2822,
      "ंगा": 2823,
      "▁बहु": 2824,
      "म्भीर": 2825,
      "▁भ्रमण": 2826,
      "▁संगठ": 2827,
      "▁सम्ब": 2828,
      "रेल": 2829,
      "▁क्षति": 2830,
      "शाख": 2831,
      "▁नियु": 2832,
      "▁क्लब": 2833,
      "बाही": 2834,
      "गो": 2835,
      "▁संयुक्त": 2836,
      "▁सम्बन्धित": 2837,
      "कलन": 2838,
      "योजन": 2839,
      "▁चाहि": 2840,
      "▁गम्भीर": 2841,
      "▁प्रमाण": 2842,
      "▁मन्त्रालयले": 2843,
      "यण": 2844,
      "▁न्याय": 2845,
      "▁अरु": 2846,
      "हीबार": 2847,
      "षण": 2848,
      "▁विचार": 2849,
      "भिड": 2850,
      "▁प्राथ": 2851,
      "▁ऊ": 2852,
      "▁सामग्री": 2853,
      "ैर": 2854,
      "▁भई": 2855,
      "ौती": 2856,
      "ेलि": 2857,
      "▁छ।\n\n": 2858,
      "▁निष्": 2859,
      "र्घट": 2860,
      "▁ताल": 2861,
      "योजना": 2862,
      "▁प्रो": 2863,
      "कृतिक": 2864,
      "▁यस्ता": 2865,
      "▁पर्यटन": 2866,
      "▁बजे": 2867,
      "▁२२": 2868,
      "▁प्रस्तुत": 2869,
      "▁छौं": 2870,
      "▁ठाउँमा": 2871,
      "▁सुझा": 2872,
      "क्रिय": 2873,
      "▁प्राथमिक": 2874,
      "▁सहित": 2875,
      "डित": 2876,
      "ेले": 2877,
      "्युनि": 2878,
      "▁कार्की": 2879,
      "▁यति": 2880,
      "▁जस्ता": 2881,
      "▁चित": 2882,
      "▁गर्छन्": 2883,
      "▁गठन": 2884,
      "िल्लो": 2885,
      "ीकरण": 2886,
      "▁अधिकृत": 2887,
      "ल्य": 2888,
      "द्वार": 2889,
      "यो।": 2890,
      "लाको": 2891,
      "▁असार": 2892,
      "▁शेयर": 2893,
      "▁भण्डारी": 2894,
      "▁कम्पनीको": 2895,
      "धिकरण": 2896,
      "▁समाचार": 2897,
      "▁नं": 2898,
      "▁राई": 2899,
      "▁सहकारी": 2900,
      "प्ता": 2901,
      "▁ढु": 2902,
      "▁आमा": 2903,
      "▁हस्ता": 2904,
      "▁केपी": 2905,
      "▁श्रम": 2906,
      "▁बाट": 2907,
      "▁पूर्वा": 2908,
      "▁प्रदर्शन": 2909,
      "वासी": 2910,
      "▁कर्जा": 2911,
      "रुप": 2912,
      "एकी": 2913,
      "स्त्र": 2914,
      "▁लिने": 2915,
      "ता,": 2916,
      "▁घण्टा": 2917,
      "▁संरक्षण": 2918,
      "▁गुण": 2919,
      "\n-": 2920,
      "▁कमि": 2921,
      "▁मनो": 2922,
      "▁टिम": 2923,
      "▁शाखा": 2924,
      "▁जस्तै": 2925,
      "चान": 2926,
      "▁छैनन्": 2927,
      "▁दक्षि": 2928,
      "▁छोरा": 2929,
      "ल,": 2930,
      "कारा": 2931,
      "दु": 2932,
      "ेसम्म": 2933,
      "▁दुर्घट": 2934,
      "▁छैन।": 2935,
      "सद्": 2936,
      "सिया": 2937,
      "▁२३": 2938,
      "▁जीव": 2939,
      "▁चै": 2940,
      "▁हात": 2941,
      "▁रन": 2942,
      "लित": 2943,
      "▁मंगलबार": 2944,
      "▁महाधिवेश": 2945,
      "▁अभाव": 2946,
      "लै": 2947,
      "▁साँ": 2948,
      "पित": 2949,
      "क्क": 2950,
      "िकेट": 2951,
      "क्टर": 2952,
      "ाउँदै": 2953,
      "▁औष": 2954,
      "ीका": 2955,
      "▁वरि": 2956,
      "▁उपाध्यक्ष": 2957,
      "ारमा": 2958,
      "▁आत्म": 2959,
      "▁संश": 2960,
      "हल": 2961,
      "▁सर्वोच्च": 2962,
      "मत": 2963,
      "अन्त": 2964,
      "▁बिरामी": 2965,
      "▁द्व": 2966,
      "▁अवसर": 2967,
      "▁नाममा": 2968,
      "▁नियम": 2969,
      "▁विवरण": 2970,
      "▁ग्राह": 2971,
      "▁दिइ": 2972,
      "जर": 2973,
      "▁सिर्": 2974,
      "▁सिफ": 2975,
      "▁विदेशी": 2976,
      "ित्व": 2977,
      "▁रोजगारी": 2978,
      "दानी": 2979,
      "ङ,": 2980,
      "काले": 2981,
      "▁नेपालका": 2982,
      "▁चिक": 2983,
      "▁डो": 2984,
      "▁दशम": 2985,
      "▁सम्मेल": 2986,
      "▁छन्,": 2987,
      "▁उद्देश्य": 2988,
      "▁क्षेत्रको": 2989,
      "भु": 2990,
      "▁आदेश": 2991,
      "▁विगत": 2992,
      "▁बताए।": 2993,
      "▁भर्": 2994,
      "इन,": 2995,
      "▁खान": 2996,
      "▁मध्य": 2997,
      "▁कम्युनि": 2998,
      "▁लो": 2999,
      "▁भद": 3000,
      "▁विरोध": 3001,
      "पय": 3002,
      "▁सकेको": 3003,
      "रिया": 3004,
      "▁प्या": 3005,
      "▁अर्था": 3006,
      "▁सिर्जना": 3007,
      "धीश": 3008,
      "▁सुनि": 3009,
      "न्तरिक": 3010,
      "नो": 3011,
      "स्थान": 3012,
      "प्प": 3013,
      "▁बैठकले": 3014,
      "मे": 3015,
      "स्थल": 3016,
      "▁बताउनुभयो": 3017,
      "▁प्राधिकरण": 3018,
      "▁प्रशासन": 3019,
      "▁चिनि": 3020,
      "▁मना": 3021,
      "▁हट": 3022,
      "▁बसेको": 3023,
      "▁सुझाव": 3024,
      "▁आवश्यकता": 3025,
      "▁बीमा": 3026,
      "कृष्ट": 3027,
      "कम्प": 3028,
      "फो": 3029,
      "▁शी": 3030,
      "▁जिल्लामा": 3031,
      "▁च्या": 3032,
      "▁घरमा": 3033,
      "▁निम्": 3034,
      "▁पार्टीको": 3035,
      "ी,": 3036,
      "▁खुला": 3037,
      "▁त्यसै": 3038,
      "▁बालब": 3039,
      "▁कारबाही": 3040,
      "▁ब्य": 3041,
      "▁सञ्ज": 3042,
      "▁थिए।\n": 3043,
      "न्तरण": 3044,
      "▁२८": 3045,
      "▁स्रोत": 3046,
      "▁प्रवक्ता": 3047,
      "▁कानुन": 3048,
      "▁बर्ष": 3049,
      "▁शनिबार": 3050,
      "▁फिर्ता": 3051,
      "▁निर्वाचनमा": 3052,
      "▁किलो": 3053,
      "▁सिफारि": 3054,
      "्रै": 3055,
      "▁२७": 3056,
      "▁घाइ": 3057,
      "▁अन्तर्गत": 3058,
      "ष्टा": 3059,
      "▁औं": 3060,
      "▁बिहीबार": 3061,
      "▁सम्मान": 3062,
      "योजक": 3063,
      "▁माथि": 3064,
      "▁प्रकार": 3065,
      "▁प्रतिनिधिसभा": 3066,
      "ेश्व": 3067,
      "▁थालेको": 3068,
      "▁तथ्या": 3069,
      "▁विधे": 3070,
      "▁लगायतका": 3071,
      "▁गाडी": 3072,
      "संग": 3073,
      "याधीश": 3074,
      "▁आन्दोलन": 3075,
      "▁कोष": 3076,
      "▁नदि": 3077,
      "▁गुमा": 3078,
      "▁होइन,": 3079,
      "▁आन्तरिक": 3080,
      "▁निर्देशक": 3081,
      "▁आम": 3082,
      "▁अन्त्य": 3083,
      "▁हिमा": 3084,
      "▁हेर": 3085,
      "▁शान्ति": 3086,
      "▁संरचना": 3087,
      "▁विप": 3088,
      "▁शुरु": 3089,
      "▁बोर्ड": 3090,
      "डिया": 3091,
      "कारात्मक": 3092,
      "▁केसी": 3093,
      "वे": 3094,
      "▁गराउने": 3095,
      "इरा": 3096,
      "▁खेत": 3097,
      "▁अहिलेसम्म": 3098,
      "▁राख्ने": 3099,
      "▁लाग्ने": 3100,
      "▁पूर्वाधार": 3101,
      "▁दशमलव": 3102,
      "जेन्": 3103,
      "खु": 3104,
      "▁समर्थ": 3105,
      "▁कमा": 3106,
      "▁पुष्टि": 3107,
      "▁स्त": 3108,
      "फाइ": 3109,
      "ङमा": 3110,
      "▁समावेश": 3111,
      "▁चिकित्": 3112,
      "▁पर्छ": 3113,
      "▁भौ": 3114,
      "▁२६": 3115,
      "इँ": 3116,
      "▁सक्रिय": 3117,
      "▁असर": 3118,
      "▁दर्श": 3119,
      "▁भट्टराई": 3120,
      "▁समितिले": 3121,
      "▁वस्तु": 3122,
      "▁यसमा": 3123,
      "▁उमेर": 3124,
      "▁जेठ": 3125,
      "▁देशको": 3126,
      "▁घा": 3127,
      "▁वर्षमा": 3128,
      "▁पुग्ने": 3129,
      "▁तिम": 3130,
      "▁एक्": 3131,
      "रीले": 3132,
      "▁अस्पतालमा": 3133,
      "ंका": 3134,
      "▁कतिपय": 3135,
      "▁खड्": 3136,
      "िनी": 3137,
      "यता": 3138,
      "▁चुन": 3139,
      "▁एम": 3140,
      "स्ती": 3141,
      "ेटि": 3142,
      "अन्तर्": 3143,
      "▁रोक्": 3144,
      "टेड": 3145,
      "सरमा": 3146,
      "▁।'": 3147,
      "▁टे": 3148,
      "▁बालबालिका": 3149,
      "▁विकेट": 3150,
      "▁महत्वपूर्ण": 3151,
      "पान": 3152,
      "▁भिडियो": 3153,
      "▁घु": 3154,
      "मेन्ट": 3155,
      "▁प्रशि": 3156,
      "▁कहिले": 3157,
      "तियार": 3158,
      "न्,": 3159,
      "▁बैंकको": 3160,
      "▁प्रेम": 3161,
      "▁पराजित": 3162,
      "▁पुरा": 3163,
      "▁धार": 3164,
      "सँगको": 3165,
      "▁आश": 3166,
      "▁साउन": 3167,
      "▁आउन": 3168,
      "▁भ्र": 3169,
      "▁पुगेका": 3170,
      "▁घाइते": 3171,
      "▁धन": 3172,
      "▁भाषा": 3173,
      "▁भइसकेको": 3174,
      "▁क्षमता": 3175,
      "▁थिइन्": 3176,
      "वाफ": 3177,
      "▁नदी": 3178,
      "▁दक्षिण": 3179,
      "▁अन्तर": 3180,
      "▁भुक्ता": 3181,
      "लग्न": 3182,
      "▁सम्बोधन": 3183,
      "▁६०": 3184,
      "▁त्यति": 3185,
      "र्भ": 3186,
      "▁बन्न": 3187,
      "▁गुना": 3188,
      "▁फाग": 3189,
      "▁वन": 3190,
      "रान": 3191,
      "▁मिल्": 3192,
      "किङ": 3193,
      "▁निर्वाचित": 3194,
      "▁बताए।\n": 3195,
      "▁राख्न": 3196,
      "▁आठ": 3197,
      "▁लागू": 3198,
      "▁लाइ": 3199,
      "िमि": 3200,
      "मा,": 3201,
      "▁मन्द": 3202,
      "चार्य": 3203,
      "▁कले": 3204,
      "▁प्रतिस्पर्धा": 3205,
      "▁प्रभावित": 3206,
      "उनले": 3207,
      "पोर्ट": 3208,
      "सू": 3209,
      "▁शरी": 3210,
      "▁!": 3211,
      "▁हुन्छ।": 3212,
      "गी": 3213,
      "▁बराब": 3214,
      "पूर्व": 3215,
      "▁फर्कि": 3216,
      "▁दिनमा": 3217,
      "▁चौध": 3218,
      "▁जनताको": 3219,
      "▁लिग": 3220,
      "▁कृष्ण": 3221,
      "दाता": 3222,
      "▁थाल": 3223,
      "▁पाएको": 3224,
      "▁मतदान": 3225,
      "▁पार्टीका": 3226,
      "▁वर्षा": 3227,
      "ष्य": 3228,
      "्यास": 3229,
      "▁परिण": 3230,
      "▁2": 3231,
      "ध्या": 3232,
      "▁संसद्": 3233,
      "▁शीर्ष": 3234,
      "▁प्रत्येक": 3235,
      "▁समन्व": 3236,
      "▁सम्पूर्ण": 3237,
      "जोर": 3238,
      "▁हत्या": 3239,
      "▁अनुमति": 3240,
      "▁समाजवादी": 3241,
      "▁खोप": 3242,
      "▁सन्त": 3243,
      "शन": 3244,
      "कर्मी": 3245,
      "▁राजनीति": 3246,
      "▁बाध्य": 3247,
      "▁बनाएर": 3248,
      "▁कोभिड": 3249,
      "▁उत्कृष्ट": 3250,
      "▁ज्यान": 3251,
      "▁यसरी": 3252,
      "▁आफूलाई": 3253,
      "तः": 3254,
      "▁आक्रमण": 3255,
      "देशिक": 3256,
      "द्वारा": 3257,
      "▁वैशाख": 3258,
      "▁पेश": 3259,
      "▁माध्यम": 3260,
      "ल्दै": 3261,
      "▁पाल": 3262,
      "ब्द": 3263,
      "▁पहिचान": 3264,
      "काम": 3265,
      "▁मान्छे": 3266,
      "▁बढा": 3267,
      "▁शाह": 3268,
      "हत": 3269,
      "डो": 3270,
      "▁धर्म": 3271,
      "▁जवाफ": 3272,
      "▁संलग्न": 3273,
      "▁उत्तर": 3274,
      "▁अघ": 3275,
      "ाइएको": 3276,
      "▁सच": 3277,
      "▁गराउन": 3278,
      "रूप": 3279,
      "न्ज": 3280,
      "..": 3281,
      "▁क्रिकेट": 3282,
      "▁आफूले": 3283,
      "▁अपरा": 3284,
      "▁आकर्ष": 3285,
      "▁चर्चा": 3286,
      "▁चीन": 3287,
      "विद्यालय": 3288,
      "▁राखिएको": 3289,
      "द्द": 3290,
      "▁अर्थतन्त्र": 3291,
      "▁पोखरेल": 3292,
      "रीमा": 3293,
      "▁हरा": 3294,
      "▁हुनुपर्ने": 3295,
      "▁बच्चा": 3296,
      "लाइन": 3297,
      "▁विश्वक": 3298,
      "▁राखेर": 3299,
      "▁२०८": 3300,
      "रिक": 3301,
      "ानि": 3302,
      "▁समन्वय": 3303,
      "▁राजधान": 3304,
      "स,": 3305,
      "▁कथा": 3306,
      "▁भी": 3307,
      "▁महासंघ": 3308,
      "▁आम्": 3309,
      "▁सानो": 3310,
      "▁ट्रा": 3311,
      "▁संयोजक": 3312,
      "बाइ": 3313,
      "▁समितिको": 3314,
      "अन्तर्गत": 3315,
      "▁पक्षमा": 3316,
      "▁मुख्यमन्त्री": 3317,
      "हरूका": 3318,
      "▁लाई": 3319,
      "ित्त": 3320,
      "▁अनुभव": 3321,
      "▁नव": 3322,
      "▁देव": 3323,
      "▁सञ्जाल": 3324,
      "▁भुक्तानी": 3325,
      "▁प्रभावकारी": 3326,
      "▁अख": 3327,
      "▁बद": 3328,
      "छन्।": 3329,
      "ण्डकी": 3330,
      "▁वास्त": 3331,
      "▁२९": 3332,
      "▁गुनासो": 3333,
      "स्कार": 3334,
      "▁लै": 3335,
      "▁श्रेष्ठले": 3336,
      "न्दु": 3337,
      "नुहोस्": 3338,
      "▁कोइरा": 3339,
      "▁आप": 3340,
      "▁वीर": 3341,
      "त्यका": 3342,
      "वसाय": 3343,
      "हरण": 3344,
      "▁नसकेको": 3345,
      "▁माघ": 3346,
      "▁बन्ने": 3347,
      "▁पौडेलले": 3348,
      "ेलु": 3349,
      "▁वर्ग": 3350,
      "▁गर्नुपर्छ": 3351,
      "▁कार्यकारी": 3352,
      "▁सश": 3353,
      "▁याता": 3354,
      "▁आम्दानी": 3355,
      "▁पृ": 3356,
      "फ्": 3357,
      "▁इतिहा": 3358,
      "कुल": 3359,
      "नू": 3360,
      "▁वे": 3361,
      "हे": 3362,
      "▁भवन": 3363,
      "क्षेप": 3364,
      "▁आयात": 3365,
      "▁आयोगले": 3366,
      "गमन": 3367,
      "▁तामा": 3368,
      "जको": 3369,
      "▁विरा": 3370,
      "▁गैर": 3371,
      "▁कमजोर": 3372,
      "▁सुरक्षित": 3373,
      "लेका": 3374,
      "▁कप": 3375,
      "▁सजि": 3376,
      "लाले": 3377,
      "▁तपाईंको": 3378,
      "▁संशोधन": 3379,
      "▁पाठ": 3380,
      "▁हरि": 3381,
      "▁क्षेत्रका": 3382,
      "▁कस्तो": 3383,
      "',": 3384,
      "▁बताइएको": 3385,
      "▁सहकार्य": 3386,
      "▁जन्म": 3387,
      "▁भदौ": 3388,
      "▁खबर": 3389,
      "पद": 3390,
      "▁सत्ता": 3391,
      "▁अवधिमा": 3392,
      "▁राति": 3393,
      "रीय": 3394,
      "दल": 3395,
      "सै": 3396,
      "▁भाव": 3397,
      "▁देशमा": 3398,
      "सव": 3399,
      "▁गर्ने,": 3400,
      "▁दिइएको": 3401,
      "▁पे": 3402,
      "णिज्य": 3403,
      "कड": 3404,
      "▁महत्": 3405,
      "▁अदालत": 3406,
      "▁योगदान": 3407,
      "▁३५": 3408,
      "▁उपत्यका": 3409,
      "▁राखेको": 3410,
      "▁मिला": 3411,
      "चालन": 3412,
      "▁२०२": 3413,
      "▁पुष्": 3414,
      "सिर": 3415,
      "ज्ञा": 3416,
      "▁उदा": 3417,
      "▁सञ्चालनमा": 3418,
      "▁एकै": 3419,
      "▁गरेकी": 3420,
      "▁पाण्ड": 3421,
      "दम": 3422,
      "▁महामारी": 3423,
      "▁महानगरपालिका": 3424,
      "▁कार्यकर्ता": 3425,
      "▁आदि": 3426,
      "▁सकेन": 3427,
      "▁संस्कृति": 3428,
      "▁चुनौती": 3429,
      "▁तिन": 3430,
      "वाल": 3431,
      "न्त्रिक": 3432,
      "िपरि": 3433,
      "थो": 3434,
      "▁अल": 3435,
      "▁नियमित": 3436,
      "▁साह": 3437,
      "▁हालसम्म": 3438,
      "ंसा": 3439,
      "▁बनाइ": 3440,
      "▁प्रतिष्ठ": 3441,
      "▁जति": 3442,
      "▁ठा": 3443,
      "मार्ग": 3444,
      "▁गुणस्त": 3445,
      "▁कमिटी": 3446,
      "▁संसदीय": 3447,
      "▁उनीहरूको": 3448,
      "▁परीक्षा": 3449,
      "र्ब": 3450,
      "▁साथी": 3451,
      "ेसन": 3452,
      "▁चिन्": 3453,
      "जमा": 3454,
      "द्र": 3455,
      "००": 3456,
      "टाइ": 3457,
      "▁पर्व": 3458,
      "?\n": 3459,
      "सिल": 3460,
      "▁प्रत्यक्ष": 3461,
      "धानिक": 3462,
      "▁फे": 3463,
      "▁पीडित": 3464,
      "नेछ": 3465,
      "विधिक": 3466,
      "▁बर्": 3467,
      "▁गर्द": 3468,
      "बाटै": 3469,
      "▁साइ": 3470,
      "▁पुस्त": 3471,
      "िएका": 3472,
      "प्रधान": 3473,
      "▁विद्युत": 3474,
      "सलाई": 3475,
      "्रे": 3476,
      "’\n\n": 3477,
      "साथ": 3478,
      "▁थापाले": 3479,
      "▁तर्फबाट": 3480,
      "▁केहि": 3481,
      "▁अधिकांश": 3482,
      "▁बलियो": 3483,
      "▁स्थिति": 3484,
      "क्षर": 3485,
      "▁फागुन": 3486,
      "▁व्यवहार": 3487,
      "पश्चिम": 3488,
      "▁मं": 3489,
      "▁ठूला": 3490,
      "▁त्यसलाई": 3491,
      "▁ल्याएको": 3492,
      "▁गर्नुहोस्": 3493,
      "▁जोडि": 3494,
      "चारिक": 3495,
      "पूर्ति": 3496,
      "सित": 3497,
      "लाल": 3498,
      "▁सुना": 3499,
      "डे": 3500,
      "पर्ने": 3501,
      "▁कांग्रेसका": 3502,
      "▁३१": 3503,
      "▁वरिष्ठ": 3504,
      "▁शब्द": 3505,
      "▁वार्ष": 3506,
      "▁प्रतिवेदन": 3507,
      "▁इन्टर": 3508,
      "वटा": 3509,
      "▁सम्पत्ति": 3510,
      "▁इज": 3511,
      "▁अत्य": 3512,
      "▁भवि": 3513,
      "▁विकल्प": 3514,
      "▁प्रतियोगि": 3515,
      "▁शुभ": 3516,
      "▁तत्कालीन": 3517,
      "▁एका": 3518,
      "▁अवसरमा": 3519,
      "▁दिव": 3520,
      "▁अनुमान": 3521,
      "▁ऐन": 3522,
      "▁कठ": 3523,
      "▁सहा": 3524,
      "क्य": 3525,
      "▁भनिएको": 3526,
      "▁थियो,": 3527,
      "त्रु": 3528,
      "मन": 3529,
      "कलाई": 3530,
      "▁मन्त्रिपरि": 3531,
      "▁युद्ध": 3532,
      "ल्लाह": 3533,
      "▁गौतम": 3534,
      "▁उनीहरु": 3535,
      "ष्टाचार": 3536,
      "टे": 3537,
      "▁ब्रा": 3538,
      "कर": 3539,
      "▁उडान": 3540,
      "▁ल्याउन": 3541,
      "▁प्रकाशित": 3542,
      "▁विश्वविद्यालय": 3543,
      "चक": 3544,
      "▁धारणा": 3545,
      "▁पठा": 3546,
      "▁भारतको": 3547,
      "तान्त्रिक": 3548,
      "▁चो": 3549,
      "टनगर": 3550,
      "▁हुन्।": 3551,
      "▁यसका": 3552,
      "▁चैत": 3553,
      "्ला": 3554,
      "सिय": 3555,
      "▁गतिविधि": 3556,
      "▁महसु": 3557,
      "मको": 3558,
      "▁सँग": 3559,
      "▁सञ्चार": 3560,
      "▁संकलन": 3561,
      "भी": 3562,
      "बाहेक": 3563,
      "▁मैदान": 3564,
      "घु": 3565,
      "▁कसै": 3566,
      "▁अपे": 3567,
      "▁अरू": 3568,
      "कुद": 3569,
      "▁नपा": 3570,
      "पमा": 3571,
      "▁प्राविधिक": 3572,
      "▁नौ": 3573,
      "▁उपभो": 3574,
      "▁कर्णाली": 3575,
      "ताले": 3576,
      "▁गरिएका": 3577,
      "▁बोला": 3578,
      "▁भन्छन्": 3579,
      "▁रंग": 3580,
      "▁कक्षा": 3581,
      "▁अस्": 3582,
      "▁सिफारिस": 3583,
      "▁हुन्छन्": 3584,
      "▁विवाह": 3585,
      "▁प्रतिबद्ध": 3586,
      "▁बनेका": 3587,
      "▁औषधि": 3588,
      "▁उनीहरूले": 3589,
      "▁उद्ध": 3590,
      "▁कम्": 3591,
      "▁जानु": 3592,
      "▁अर्का": 3593,
      "रीक्षक": 3594,
      "▁भविष्य": 3595,
      "▁विरुद्ध": 3596,
      "साधारण": 3597,
      "▁कलाकार": 3598,
      "मती": 3599,
      "▁तरि": 3600,
      "▁लागी": 3601,
      "▁होटल": 3602,
      "मात्र": 3603,
      "▁यातायात": 3604,
      "▁चिनियाँ": 3605,
      "▁साता": 3606,
      "▁सरकारलाई": 3607,
      "▁परियोजना": 3608,
      "▁सङ्घ": 3609,
      "ेदेखि": 3610,
      "बन्द": 3611,
      "▁दबा": 3612,
      "▁उपम": 3613,
      "▁फु": 3614,
      "▁कानू": 3615,
      "▁जम्मा": 3616,
      "▁फर्क": 3617,
      "▁रोक": 3618,
      "▁खेलकुद": 3619,
      "▁सहर": 3620,
      "ल्ड": 3621,
      "▁असो": 3622,
      "▁बह": 3623,
      "▁ढि": 3624,
      "▁बल": 3625,
      "गि": 3626,
      "ल्ट": 3627,
      "▁भौतिक": 3628,
      "▁गरिन्छ": 3629,
      "▁प्रजा": 3630,
      "▁बढ्ने": 3631,
      "▁राजा": 3632,
      "▁पदाधिका": 3633,
      "लिएको": 3634,
      "म्परा": 3635,
      "जिम": 3636,
      "▁मिटर": 3637,
      "▁आवा": 3638,
      "▁शेर": 3639,
      "न्तु": 3640,
      "▁सम्भव": 3641,
      "लीमा": 3642,
      "▁टोलीले": 3643,
      "एक": 3644,
      "▁पुँजी": 3645,
      "▁विधेयक": 3646,
      "हित्य": 3647,
      "ृत्ति": 3648,
      "▁छान": 3649,
      "एफ": 3650,
      "▁आचार्य": 3651,
      "ममा": 3652,
      "सल": 3653,
      "▁पेट": 3654,
      "▁सामु": 3655,
      "नीय": 3656,
      "▁की": 3657,
      "▁कट": 3658,
      "▁रण": 3659,
      "▁शिक्षक": 3660,
      "▁पश्चिम": 3661,
      "ारो": 3662,
      "▁बढ्दै": 3663,
      "▁पदार्थ": 3664,
      "▁भक्त": 3665,
      "गु": 3666,
      "▁विनि": 3667,
      "▁मौसम": 3668,
      "▁नेतृत्वको": 3669,
      "▁पारित": 3670,
      "▁त्यस्तो": 3671,
      "▁प्रतिशतले": 3672,
      "तीमा": 3673,
      "▁चरणमा": 3674,
      "तिकै": 3675,
      "▁गठबन्धन": 3676,
      "▁कार्यालयले": 3677,
      "▁खण्ड": 3678,
      "▁देशका": 3679,
      ")\n": 3680,
      "▁अघिल्लो": 3681,
      "▁समितिका": 3682,
      "किस्ता": 3683,
      "▁शुल्क": 3684,
      "▁मार्फत": 3685,
      "▁पाउ": 3686,
      "▁नो": 3687,
      "▁पारि": 3688,
      "▁कवि": 3689,
      "बिन": 3690,
      "क्का": 3691,
      "▁पाएका": 3692,
      "),": 3693,
      "▁सम्पर्": 3694,
      "▁गर्नुभएको": 3695,
      "▁बढाउन": 3696,
      "▁समान": 3697,
      "ीकृत": 3698,
      "▁शहर": 3699,
      "▁उसले": 3700,
      "ज्ञान": 3701,
      "▁सरो": 3702,
      "कोट": 3703,
      "▁वाणिज्य": 3704,
      "▁कुन": 3705,
      "▁डु": 3706,
      "▁पुष्प": 3707,
      "ारम्भ": 3708,
      "▁हामीलाई": 3709,
      "ण्डा": 3710,
      "▁पर्या": 3711,
      "खो": 3712,
      "▁पहा": 3713,
      "▁ब्याज": 3714,
      "▁सेना": 3715,
      "▁नसक्ने": 3716,
      "दय": 3717,
      "डमा": 3718,
      "▁नियन्त्रणमा": 3719,
      "▁ब्र": 3720,
      "िकल": 3721,
      "▁परम्परा": 3722,
      "साब": 3723,
      "लत": 3724,
      "▁जहाँ": 3725,
      "यो,": 3726,
      "▁भएन": 3727,
      "▁मान्य": 3728,
      "▁।\nअ": 3729,
      "▁काग": 3730,
      "▁साधारण": 3731,
      "▁आयोजित": 3732,
      "मोजिम": 3733,
      "ःख": 3734,
      "▁चिकित्सक": 3735,
      "ज्": 3736,
      "▁गरे।": 3737,
      "▁केवल": 3738,
      "▁भन्न": 3739,
      "लोक": 3740,
      "िमिर": 3741,
      "▁सचेत": 3742,
      "▁राजी": 3743,
      "ारु": 3744,
      "▁परिणाम": 3745,
      "▁साँझ": 3746,
      "▁लगाउने": 3747,
      "ए।": 3748,
      "▁डलर": 3749,
      "▁ल्याउने": 3750,
      "तै": 3751,
      "▁प्रदेशका": 3752,
      "▁बताउँदै": 3753,
      "दन": 3754,
      "न्दर": 3755,
      "▁लाभ": 3756,
      "▁मोटर": 3757,
      "े,": 3758,
      "▁छाड": 3759,
      "ला,": 3760,
      "▁बताएको": 3761,
      "▁सध": 3762,
      "▁माइ": 3763,
      "▁दाय": 3764,
      "▁उनीहरू": 3765,
      "मिटर": 3766,
      "▁सकारात्मक": 3767,
      "यल": 3768,
      "ृद्ध": 3769,
      "▁प्रदेशमा": 3770,
      "लाका": 3771,
      "▁नप": 3772,
      "▁दिँदै": 3773,
      "▁सम्बन्धी": 3774,
      "▁त्यसमा": 3775,
      "▁वार्षिक": 3776,
      "▁चितवन": 3777,
      "▁कारणले": 3778,
      "म्बिनी": 3779,
      "▁लाग्छ": 3780,
      "बो": 3781,
      "▁मात्रा": 3782,
      "▁एकता": 3783,
      "▁भ्रष्टाचार": 3784,
      "री,": 3785,
      "▁भै": 3786,
      "न्थ्यो": 3787,
      "▁न्यून": 3788,
      "▁सालमा": 3789,
      "पदण्ड": 3790,
      "▁अर्थात्": 3791,
      "▁आँखा": 3792,
      "▁७०": 3793,
      "▁सचिवालय": 3794,
      "▁विराटनगर": 3795,
      "▁खन": 3796,
      "▁विद्युत्": 3797,
      "नगर": 3798,
      "▁विज्ञप्": 3799,
      "ाउँदा": 3800,
      "▁भूमि": 3801,
      "सम्मको": 3802,
      "▁प्रतियोगिता": 3803,
      "▁छौँ": 3804,
      "द्यपि": 3805,
      "पुरमा": 3806,
      "आफ": 3807,
      "ेदार": 3808,
      "हरा": 3809,
      "हरू,": 3810,
      "▁युव": 3811,
      "▁यू": 3812,
      "▁नियुक्त": 3813,
      "एल": 3814,
      "▁हुन्।\n": 3815,
      "लीको": 3816,
      "▁अनुदान": 3817,
      "▁मध्ये": 3818,
      "▁गएका": 3819,
      "▁दिउँ": 3820,
      "▁ऊर्जा": 3821,
      "▁कार्यालयमा": 3822,
      "ुट्": 3823,
      "▁साहित्य": 3824,
      "▁मापदण्ड": 3825,
      "▁लगानीकर्ता": 3826,
      "▁फेला": 3827,
      "▁संसार": 3828,
      "▁दलका": 3829,
      "▁ललित": 3830,
      "▁नेतृत्वमा": 3831,
      "▁भूकम्प": 3832,
      "शुल्क": 3833,
      "▁साना": 3834,
      "▁कालो": 3835,
      "▁गर्नेछ": 3836,
      "▁अपेक्षा": 3837,
      "▁वार्ता": 3838,
      "ेश्वर": 3839,
      "नेर": 3840,
      "▁स्थापित": 3841,
      "▁सक्दैन": 3842,
      "▁उपभोक्ता": 3843,
      "मूल": 3844,
      "▁ज्ञान": 3845,
      "यमा": 3846,
      "▁जम": 3847,
      "▁पुनर्": 3848,
      "▁आशा": 3849,
      "व्र": 3850,
      "द्रा": 3851,
      "जस्ता": 3852,
      "▁पुरस्कार": 3853,
      "▁छुट्": 3854,
      "▁३२": 3855,
      "▁दुःख": 3856,
      "ालको": 3857,
      "▁उदाहरण": 3858,
      "▁खाना": 3859,
      "▁स्थायी": 3860,
      "्यू": 3861,
      "नाई": 3862,
      "पचारिक": 3863,
      "सीसी": 3864,
      "▁बन्": 3865,
      "▁८०": 3866,
      "▁भे": 3867,
      "▁मेड": 3868,
      "ुक": 3869,
      "▁निश्चित": 3870,
      "यौं": 3871,
      "▁कसैले": 3872,
      "म्बा": 3873,
      "पत": 3874,
      "▁सहभागिता": 3875,
      "▁आजको": 3876,
      "▁मन्त्रालयका": 3877,
      "ाउँछ": 3878,
      "तह": 3879,
      "-२": 3880,
      "आइ": 3881,
      "▁अधिकारीले": 3882,
      "▁सिद्धा": 3883,
      "▁पहु": 3884,
      "▁राजस्व": 3885,
      "िमिटेड": 3886,
      "▁नर": 3887,
      "जाइ": 3888,
      "▁असोज": 3889,
      "▁एमालेका": 3890,
      "श्": 3891,
      "▁उपयोग": 3892,
      "▁अर्थमन्त्री": 3893,
      "▁सल्लाह": 3894,
      "दूर": 3895,
      "ेन्स": 3896,
      "▁गलत": 3897,
      "वाई": 3898,
      "▁जसमा": 3899,
      "▁भनेका": 3900,
      "▁राहत": 3901,
      "श्र": 3902,
      "▁मिनेटमा": 3903,
      "▁उपस्थिति": 3904,
      "▁अध्या": 3905,
      "तालाई": 3906,
      "जे": 3907,
      "▁तहमा": 3908,
      "▁आर": 3909,
      "▁मधेस": 3910,
      "▁दृष्टि": 3911,
      "नेको": 3912,
      "▁कोही": 3913,
      "▁जनालाई": 3914,
      "घाटन": 3915,
      "▁चन्द्र": 3916,
      "▁प्रचार": 3917,
      "▁बनाउ": 3918,
      "▁गण्डकी": 3919,
      "▁२००": 3920,
      "्वी": 3921,
      "▁एउटै": 3922,
      "▁दिउँसो": 3923,
      "▁तालिम": 3924,
      "▁पारेको": 3925,
      "▁पहल": 3926,
      "▁विधि": 3927,
      "▁विजयी": 3928,
      "▁लिमिटेड": 3929,
      "▁नम": 3930,
      "▁घिमिर": 3931,
      "▁उपकरण": 3932,
      "▁प्रदेशसभा": 3933,
      "▁युरो": 3934,
      "▁फुटबल": 3935,
      "▁लुम्बिनी": 3936,
      "▁लिएका": 3937,
      "ालो": 3938,
      "प्रधानमन्त्री": 3939,
      "ढे": 3940,
      "▁काममा": 3941,
      "▁सञ्चालक": 3942,
      "होर": 3943,
      "▁बढि": 3944,
      "▁सामान": 3945,
      "▁अक्": 3946,
      "हाम": 3947,
      "न्टर": 3948,
      "▁नाका": 3949,
      "▁तुलनामा": 3950,
      "शक्ति": 3951,
      "▁मोबाइ": 3952,
      "▁महाधिवेशन": 3953,
      "न्थ": 3954,
      "लन": 3955,
      "▁नारायण": 3956,
      "▁सम्बन्धमा": 3957,
      "▁'अ": 3958,
      "वधान": 3959,
      "▁पहुँच": 3960,
      "▁२०६": 3961,
      "▁आवेद": 3962,
      "बे": 3963,
      "▁दुर्घटना": 3964,
      "▁महसुस": 3965,
      "▁टिक": 3966,
      "नीति": 3967,
      "▁पुस": 3968,
      "▁ग्राहक": 3969,
      ";\n-": 3970,
      "र्सि": 3971,
      "▁उनीहरुले": 3972,
      "वैधानिक": 3973,
      "▁सर्वसाधारण": 3974,
      "▁नभए": 3975,
      "▁कानुनी": 3976,
      "▁एयर": 3977,
      "▁अनलाइन": 3978,
      "▁शिव": 3979,
      "धुनिक": 3980,
      "▁अहिलेको": 3981,
      "▁क्रिया": 3982,
      "▁आए": 3983,
      "हरूसँग": 3984,
      "▁उम्मेदवारी": 3985,
      "▁छिन्": 3986,
      "कूल": 3987,
      "▁प्रहार": 3988,
      "▁पुल": 3989,
      "▁बैं": 3990,
      "▁नगद": 3991,
      "▁धु": 3992,
      "▁भाइरस": 3993,
      "▁पहिरो": 3994,
      "▁थपि": 3995,
      "▁तेल": 3996,
      "▁वैदेशिक": 3997,
      "▁एकीकृत": 3998,
      "▁लकड": 3999,
      "▁दबाब": 4000,
      "▁४५": 4001,
      "पुग": 4002,
      "टु": 4003,
      "धव": 4004,
      "▁वर्त": 4005,
      "▁पाकिस्ता": 4006,
      "▁महो": 4007,
      "▁व्यक्तिगत": 4008,
      "▁व्यावसाय": 4009,
      "▁खर्ब": 4010,
      "सला": 4011,
      "▁गराएको": 4012,
      "▁सन्दर्भ": 4013,
      "▁जापान": 4014,
      "▁दिएर": 4015,
      "ँडा": 4016,
      "▁तथ्यांक": 4017,
      "▁मज": 4018,
      "▁यात्रु": 4019,
      "▁बढाउने": 4020,
      "▁हुनुपर्छ": 4021,
      "▁युनि": 4022,
      "▁कलेज": 4023,
      "▁प्रवाह": 4024,
      "▁स्या": 4025,
      "▁चयन": 4026,
      "▁विज्ञान": 4027,
      "हीन": 4028,
      "नीतिक": 4029,
      "▁अदालतले": 4030,
      "कुर": 4031,
      "▁बोक": 4032,
      "▁ट्या": 4033,
      "▁मार्ग": 4034,
      "▁सही": 4035,
      "ित्ता": 4036,
      "▁लगाएको": 4037,
      "▁नाफा": 4038,
      "तक": 4039,
      "ग्रा": 4040,
      "क्रो": 4041,
      "र्मिक": 4042,
      "▁निर्धारण": 4043,
      "ानु": 4044,
      "▁किसिम": 4045,
      "▁छनोट": 4046,
      "▁खोजी": 4047,
      "क्षिक": 4048,
      "▁जनक": 4049,
      "र,": 4050,
      "▁बताइन्": 4051,
      "फिक": 4052,
      "मिछा": 4053,
      "ल्यान्ड": 4054,
      "▁बढ्न": 4055,
      "▁कुमार": 4056,
      "▁कोठा": 4057,
      "ल्यै": 4058,
      "देव": 4059,
      "▁कडा": 4060,
      "पुरको": 4061,
      "▁मिडिया": 4062,
      "बीचको": 4063,
      "▁समर्थन": 4064,
      "▁साझ": 4065,
      "▁सभामुख": 4066,
      "सामा": 4067,
      "▁मंसिर": 4068,
      "समिति": 4069,
      "▁झापा": 4070,
      "जुरी": 4071,
      "▁आलो": 4072,
      "▁जिल्लाको": 4073,
      "▁मन्त्रिपरिषद्": 4074,
      "▁बढ्": 4075,
      "▁आफु": 4076,
      "▁बेच": 4077,
      "▁लड": 4078,
      "▁आफैं": 4079,
      "▁छोड": 4080,
      "क,": 4081,
      "ेली": 4082,
      "▁राजीनामा": 4083,
      "▁सपना": 4084,
      "▁तहको": 4085,
      "▁पुरानो": 4086,
      "▁नस": 4087,
      "▁गर्नका": 4088,
      "▁ढकाल": 4089,
      "खेत": 4090,
      "न्छु": 4091,
      "▁लागेका": 4092,
      "▁भनी": 4093,
      "▁मेयर": 4094,
      "▁सुन्दर": 4095,
      "▁दलको": 4096,
      "▁सिका": 4097,
      "▁एजेन्": 4098,
      "▁महिनामा": 4099,
      "▁हुन्छ,": 4100,
      "▁हाइ": 4101,
      "▁सन्देश": 4102,
      "▁प्रतिष्ठान": 4103,
      "औं": 4104,
      "काठमाड": 4105,
      "▁केन्द्रित": 4106,
      "▁छोरी": 4107,
      "▁इन्टरने": 4108,
      "▁मिति": 4109,
      "हानगर": 4110,
      "फी": 4111,
      "▁यद्यपि": 4112,
      "ँग्रेस": 4113,
      "▁नति": 4114,
      "▁लामिछा": 4115,
      "▁दिनुभयो": 4116,
      "प्रिय": 4117,
      "▁देशभर": 4118,
      "▁हेर्न": 4119,
      "व्या": 4120,
      "▁अपराध": 4121,
      "▁गी": 4122,
      "ङ्गा": 4123,
      "▁महत्त्वपूर्ण": 4124,
      "▁भरत": 4125,
      "▁राजधानी": 4126,
      "▁किलोमिटर": 4127,
      "पथ": 4128,
      "▁संगठन": 4129,
      "▁साधन": 4130,
      "▁जग": 4131,
      "क्ट": 4132,
      "▁प्रारम्भ": 4133,
      "खर": 4134,
      "▁शव": 4135,
      "▁हिसाब": 4136,
      "▁प्राय": 4137,
      "▁प्रतिक्रिया": 4138,
      "▁गर्नुभयो": 4139,
      "▁तीव्र": 4140,
      "भिजन": 4141,
      "▁विभागले": 4142,
      "▁न्यायाधीश": 4143,
      "ङका": 4144,
      "▁खेती": 4145,
      "नुपर्छ।": 4146,
      "▁जाँदा": 4147,
      "▁सजा": 4148,
      "▁रहेछ": 4149,
      "▁कांग्रेसले": 4150,
      "▁लगाउन": 4151,
      "कला": 4152,
      "ियम": 4153,
      "चन्द्र": 4154,
      "न्छ,": 4155,
      "▁स्वदेश": 4156,
      "शो": 4157,
      "▁साउ": 4158,
      "▁सै": 4159,
      "▁फोन": 4160,
      "▁स्थित": 4161,
      "मेल": 4162,
      "▁लघु": 4163,
      "▁भन्सार": 4164,
      "▁आधारित": 4165,
      "▁वर्तमान": 4166,
      "भने": 4167,
      "▁काठमाडौं,": 4168,
      "▁छैन,": 4169,
      "▁नभई": 4170,
      "▁नगर्ने": 4171,
      "रे": 4172,
      "पे": 4173,
      "▁शैक्षिक": 4174,
      "वाला": 4175,
      "▁कहाँ": 4176,
      "▁खुसी": 4177,
      "▁प्रदेशको": 4178,
      "दारी": 4179,
      "▁३३": 4180,
      "▁फाइदा": 4181,
      "▁अनुगमन": 4182,
      "▁हासिल": 4183,
      "▁पाउन": 4184,
      "पक्षी": 4185,
      "▁काँग्रेस": 4186,
      "▁पार्टीले": 4187,
      "▁विश्ले": 4188,
      "▁जरु": 4189,
      "▁भएपनि": 4190,
      "▁फल": 4191,
      "दायिक": 4192,
      "▁हेर्दा": 4193,
      "लगायतका": 4194,
      "प्रमुख": 4195,
      "गञ्ज": 4196,
      "▁घटेको": 4197,
      "▁परिस्थिति": 4198,
      "▁पर्याप्त": 4199,
      "▁है": 4200,
      "▁जरुरी": 4201,
      "▁समग्र": 4202,
      "▁दोहो": 4203,
      "▁सत्य": 4204,
      "▁अवि": 4205,
      "▁हुनुहुन्छ": 4206,
      "¥या": 4207,
      "लका": 4208,
      "▁मतदाता": 4209,
      "▁शेरबहादुर": 4210,
      "▁उद्घाटन": 4211,
      "तिको": 4212,
      "▁रिपोर्ट": 4213,
      "▁चासो": 4214,
      "▁बसेर": 4215,
      "▁पछा": 4216,
      "स्कृतिक": 4217,
      "▁प्रतिबद्धता": 4218,
      "हण": 4219,
      "▁शाही": 4220,
      "▁अंग": 4221,
      "जस्तो": 4222,
      "▁सरोकार": 4223,
      "▁बाबु": 4224,
      "▁प्ले": 4225,
      "▁निः": 4226,
      "▁चुना": 4227,
      "▁थालेका": 4228,
      "परेको": 4229,
      "▁स्म": 4230,
      "▁बराबरको": 4231,
      "त्सव": 4232,
      "▁सीमित": 4233,
      "रामा": 4234,
      "▁धार्मिक": 4235,
      "▁क्याम्प": 4236,
      "▁प्रेस": 4237,
      "▁शर्माले": 4238,
      "हरुका": 4239,
      "▁अधिवेश": 4240,
      "विद्यु": 4241,
      "्मी": 4242,
      "कमल": 4243,
      "ितो": 4244,
      "व्यक्ति": 4245,
      "चर": 4246,
      "▁उपयुक्त": 4247,
      "▁मल्": 4248,
      "▁सौ": 4249,
      "▁कदम": 4250,
      "▁नहुँदा": 4251,
      "▁धान": 4252,
      "▁माधव": 4253,
      "▁हस्ताक्षर": 4254,
      "▁सुदूर": 4255,
      "फि": 4256,
      "-१९": 4257,
      "▁जुट": 4258,
      "▁उनीहरुको": 4259,
      "▁भारतमा": 4260,
      "▁खानेपानी": 4261,
      "सकेपछि": 4262,
      "▁तरकारी": 4263,
      "डर": 4264,
      "▁हिमाल": 4265,
      "▁राख्": 4266,
      "▁व्यवस्थाप": 4267,
      "▁पास": 4268,
      "भे": 4269,
      "सहितको": 4270,
      "ोका": 4271,
      "▁चित्र": 4272,
      "▁मन्दिर": 4273,
      "स्टर": 4274,
      "00": 4275,
      "▁जिल्लाका": 4276,
      "▁पदाधिकारी": 4277,
      "▁जनाएका": 4278,
      "▁महासचिव": 4279,
      "प्रतिनिधि": 4280,
      "माव": 4281,
      "▁पूजा": 4282,
      "▁अख्": 4283,
      "▁७५": 4284,
      "दीको": 4285,
      "सिंह": 4286,
      "▁निर्माणको": 4287,
      "▁भर्ना": 4288,
      "त्ती": 4289,
      "▁दिनको": 4290,
      "लादेश": 4291,
      "वाइ": 4292,
      "▁भाडा": 4293,
      "▁प्रहरीको": 4294,
      "मले": 4295,
      "▁विभा": 4296,
      "▁लोकतान्त्रिक": 4297,
      "▁निगम": 4298,
      "▁सबैलाई": 4299,
      "ियर": 4300,
      "▁सडकमा": 4301,
      "▁राखेका": 4302,
      "▁बुट": 4303,
      "▁नब": 4304,
      "▁सिट": 4305,
      "ीया": 4306,
      "▁अपना": 4307,
      "भारत": 4308,
      "चन": 4309,
      "घाट": 4310,
      "त्तै": 4311,
      "्रु": 4312,
      "▁९०": 4313,
      "र्का": 4314,
      "▁देखिएका": 4315,
      "▁बाहेक": 4316,
      "▁गएर": 4317,
      "▁सशस्त्र": 4318,
      "टिङ": 4319,
      "▁गरिसकेको": 4320,
      "▁ट्रम्प": 4321,
      "▁विमानस्थल": 4322,
      "▁।’\n\n": 4323,
      "हुँ": 4324,
      "▁फोटो": 4325,
      "वार्य": 4326,
      "▁माया": 4327,
      "▁बंग": 4328,
      "वाट": 4329,
      "▁तोकिएको": 4330,
      "क्रा": 4331,
      "▁नाय": 4332,
      "भरि": 4333,
      "ट्टा": 4334,
      "देवी": 4335,
      "▁जहा": 4336,
      "म्बु": 4337,
      "नय": 4338,
      "निर्माण": 4339,
      "वनी": 4340,
      "▁पार्ने": 4341,
      "किलो": 4342,
      "स्वा": 4343,
      "गढी": 4344,
      "त्तिक": 4345,
      "िने": 4346,
      "▁नतिजा": 4347,
      "▁डाक्टर": 4348,
      "▁व्यावसायिक": 4349,
      "हिल्यै": 4350,
      "संख्या": 4351,
      "ल्याण्ड": 4352,
      "▁पुग्न": 4353,
      "▁अनिवार्य": 4354,
      "▁लोकतन्त्र": 4355,
      "▁जोग": 4356,
      "▁प्रग": 4357,
      "▁गर्यो": 4358,
      "▁छानबिन": 4359,
      "▁जाँच": 4360,
      "▁कार्यरत": 4361,
      "▁अनुरोध": 4362,
      "▁डी": 4363,
      "▁दिनु": 4364,
      "ुपयोग": 4365,
      "▁प्राकृतिक": 4366,
      "▁मद्द": 4367,
      "▁निर्यात": 4368,
      "▁तपाइँ": 4369,
      "▁आवेदन": 4370,
      "▁पुष्पकमल": 4371,
      "ट्या": 4372,
      "▁गरिदि": 4373,
      "▁सूच": 4374,
      "▁वास्तविक": 4375,
      "▁गए": 4376,
      "▁यथा": 4377,
      "त्न": 4378,
      "सीको": 4379,
      "▁ढा": 4380,
      "ीलाई": 4381,
      "सङ्": 4382,
      "वार्ड": 4383,
      "▁डिजि": 4384,
      "लम्ब": 4385,
      "▁मेडिकल": 4386,
      "भाइ": 4387,
      "▁मोर": 4388,
      "▁उठा": 4389,
      "▁उद्धार": 4390,
      "▁मर्म": 4391,
      "सक्दा": 4392,
      "▁हस्तान्तरण": 4393,
      "▁काठमा": 4394,
      "▁उपाधि": 4395,
      "▁सोध": 4396,
      "हारी": 4397,
      "▁अभिने": 4398,
      "▁सार": 4399,
      "▁9": 4400,
      "कट": 4401,
      "▁ज्ञा": 4402,
      "▁हिँड": 4403,
      "▁उपस्थित": 4404,
      "▁इच्छ": 4405,
      "कानी": 4406,
      "ंगो": 4407,
      "▁बार": 4408,
      "▁संकेत": 4409,
      "▁भर": 4410,
      "▁अभ्यास": 4411,
      "▁सामुदायिक": 4412,
      "मेश": 4413,
      "▁आवाज": 4414,
      "▁चुनावी": 4415,
      "▁हाम्रा": 4416,
      "त्सा": 4417,
      "▁सम्पर्क": 4418,
      "स्ट्र": 4419,
      "त्कार": 4420,
      "▁पृथ": 4421,
      "▁तस्": 4422,
      "▁उसको": 4423,
      "▁उजुरी": 4424,
      "▁लामिछाने": 4425,
      "▁खड्का": 4426,
      "▁प्रसार": 4427,
      "▁थुप": 4428,
      "▁भोलि": 4429,
      "▁काठमाडौंमा": 4430,
      "त,": 4431,
      "▁३६": 4432,
      "▁भयो।": 4433,
      "मिला": 4434,
      "▁हित": 4435,
      "▁महत्व": 4436,
      "▁संघर्ष": 4437,
      "▁मोड": 4438,
      "▁पुर्": 4439,
      "▁सक्छ।": 4440,
      "▁कार्यान्वय": 4441,
      "▁बनाएका": 4442,
      "▁रक्षा": 4443,
      "▁नगरी": 4444,
      "▁सक्छन्": 4445,
      "पण": 4446,
      "▁त्यसका": 4447,
      "▁आपूर्ति": 4448,
      "▁संवैधानिक": 4449,
      "▁भत्": 4450,
      "▁सुनिश्चित": 4451,
      "▁पालिका": 4452,
      "▁आयोज": 4453,
      "वाही": 4454,
      "प्रपा": 4455,
      "▁क्रा": 4456,
      "▁व्यक्तिको": 4457,
      "▁जनताले": 4458,
      "▁(ए": 4459,
      "▁कात्तिक": 4460,
      "▁वर्षदेखि": 4461,
      "क्षम": 4462,
      "▁जनसंख्या": 4463,
      "▁गोर": 4464,
      "▁मान्यता": 4465,
      "▁रमा": 4466,
      "शाखा": 4467,
      "चौ": 4468,
      "ेमा": 4469,
      "खेल": 4470,
      "छु": 4471,
      "▁मोबाइल": 4472,
      "▁बस्न": 4473,
      "▁एन्": 4474,
      "▁।\nउ": 4475,
      "▁दुर्": 4476,
      "स्की": 4477,
      "▁उपमहानगर": 4478,
      "▁साझा": 4479,
      "▁पुगेर": 4480,
      "▁सुरुवा": 4481,
      "▁कल": 4482,
      "▁छिटो": 4483,
      "प्रा": 4484,
      "▁सुख": 4485,
      "▁एमालेले": 4486,
      "▁सुदूरपश्चिम": 4487,
      "भूत": 4488,
      "नन्": 4489,
      "▁कम्युनिष्ट": 4490,
      "▁सबैको": 4491,
      "न्दे": 4492,
      "▁रोजगार": 4493,
      "▁चेता": 4494,
      "सरकार": 4495,
      "▁तर्क": 4496,
      "▁कार्यालयका": 4497,
      "▁किनभने": 4498,
      "▁औपचारिक": 4499,
      "▁हिजो": 4500,
      "▁।\nत्य": 4501,
      "ज्ञानिक": 4502,
      "▁भनाई": 4503,
      "▁कम्युनिस्ट": 4504,
      "▁उहाँको": 4505,
      "ष्णु": 4506,
      "रोह": 4507,
      "▁खटि": 4508,
      "द्व": 4509,
      "▁अत्या": 4510,
      "▁नआ": 4511,
      "प्पणी": 4512,
      "▁दुख": 4513,
      "▁केन्द्रका": 4514,
      "▁परिषद्": 4515,
      "▁भारतले": 4516,
      "▁जनाले": 4517,
      "▁खारे": 4518,
      "▁स्वीकार": 4519,
      "▁शो": 4520,
      "▁गल्": 4521,
      "▁उचित": 4522,
      "▁सूर्य": 4523,
      "▁थिएँ": 4524,
      "▁दोष": 4525,
      "छो": 4526,
      "▁चालु": 4527,
      "▁बिना": 4528,
      "▁चे": 4529,
      "▁५५": 4530,
      "▁जनामा": 4531,
      "▁लगातार": 4532,
      "▁चेतावनी": 4533,
      "▁अदालतमा": 4534,
      "▁बेलायत": 4535,
      "▁फेस": 4536,
      "▁बुझा": 4537,
      "▁यौ": 4538,
      "▁वर्षीया": 4539,
      "तिहासिक": 4540,
      "▁नियुक्ति": 4541,
      "▁साढे": 4542,
      "नल": 4543,
      "▁छन्।\n\n": 4544,
      "सीले": 4545,
      "▁कैला": 4546,
      "रीका": 4547,
      "▁हिंसा": 4548,
      "▁अख्तियार": 4549,
      "▁अग": 4550,
      "नलाई": 4551,
      "▁अम": 4552,
      "▁।\nयस": 4553,
      "▁हुनेछ।": 4554,
      "▁बैंकका": 4555,
      "▁सरकारका": 4556,
      "▁सजिलो": 4557,
      "▁प्राथमिकता": 4558,
      "तरा": 4559,
      "शाली": 4560,
      "विध": 4561,
      "▁निम्ति": 4562,
      "न्तव्य": 4563,
      "क्रममा": 4564,
      "▁जलविद्यु": 4565,
      "▁नम्ब": 4566,
      "▁नभएका": 4567,
      "▁उत्प": 4568,
      "▁त्यसले": 4569,
      "▁घरेलु": 4570,
      "▁समेट": 4571,
      "▁सिद्धान्त": 4572,
      "▁प्रतिवेद": 4573,
      "▁भावना": 4574,
      "▁तथ्य": 4575,
      "किने": 4576,
      "▁चिन्ता": 4577,
      "▁मेस": 4578,
      "▁झन्": 4579,
      "▁खेल्ने": 4580,
      "▁छिम": 4581,
      "▁आएर": 4582,
      "कारि": 4583,
      "▁आह": 4584,
      "▁कुरामा": 4585,
      "▁निर्माणका": 4586,
      "in": 4587,
      "▁डिजाइ": 4588,
      "▁जाग": 4589,
      "नियर": 4590,
      "ईं": 4591,
      "▁रोक्न": 4592,
      "▁पाए": 4593,
      "▁पाइएको": 4594,
      "ेलिया": 4595,
      "▁पदमा": 4596,
      "▁टेलि": 4597,
      "▁प्रकृति": 4598,
      "▁नागरिकता": 4599,
      "▁अधि": 4600,
      "▁आधुनिक": 4601,
      "▁नं.": 4602,
      "▁फ्रा": 4603,
      "मार्ट": 4604,
      "▁काउ": 4605,
      "द्योग": 4606,
      "श्वर": 4607,
      "जनक": 4608,
      "▁कमी": 4609,
      "▁विजय": 4610,
      "▁गराएका": 4611,
      "▁मिनेट": 4612,
      "पूर्वक": 4613,
      "▁जनाइएको": 4614,
      "▁पार्न": 4615,
      "▁प्ला": 4616,
      "▁बीचमा": 4617,
      "▁मानसिक": 4618,
      "▁होस्": 4619,
      "▁कुराकानी": 4620,
      "▁पछाडि": 4621,
      "▁मुलुकको": 4622,
      "स्वपा": 4623,
      "▁गतेसम्म": 4624,
      "▁सूची": 4625,
      "▁त्यसो": 4626,
      "▁निस्": 4627,
      "डिङ": 4628,
      "▁रू.": 4629,
      "▁पुस्ता": 4630,
      "▁“": 4631,
      "▁स्थग": 4632,
      "▁दलित": 4633,
      "▁मोटरसाइ": 4634,
      "भग": 4635,
      "▁शरीर": 4636,
      "▁बमोजिम": 4637,
      "लक": 4638,
      "नीले": 4639,
      "▁विघ": 4640,
      "चु": 4641,
      "▁भग": 4642,
      "तका": 4643,
      "तया": 4644,
      "▁३४": 4645,
      "▁गुरुङ": 4646,
      "▁त्यसैगरी": 4647,
      "्यो।": 4648,
      "▁केन्द्रमा": 4649,
      "▁अत्यन्त": 4650,
      "▁बसेका": 4651,
      "▁निकट": 4652,
      "▁संगीत": 4653,
      "▁दौ": 4654,
      "▁लाग्": 4655,
      "▁डिजिटल": 4656,
      "▁कहिल्यै": 4657,
      "▁कामदार": 4658,
      "▁आधा": 4659,
      "▁नेपाललाई": 4660,
      "ौला": 4661,
      "शासन": 4662,
      "टिल": 4663,
      "▁हार": 4664,
      "सेवा": 4665,
      "▁अने": 4666,
      "▁प्रतियोगितामा": 4667,
      "▁लकडाउन": 4668,
      "▁हेर्ने": 4669,
      "▁उपचारका": 4670,
      "्लो": 4671,
      "▁मेगा": 4672,
      "▁स्वय": 4673,
      "▁बन्दै": 4674,
      "▁आलोचना": 4675,
      "▁खि": 4676,
      "▁ज्या": 4677,
      "▁भन्नुभयो": 4678,
      "▁कोरिया": 4679,
      "▁बहादुर": 4680,
      "▁।\n\n‘": 4681,
      "▁पु¥या": 4682,
      "▁कप्ता": 4683,
      "▁सबैले": 4684,
      "▁दुर": 4685,
      "▁विकासका": 4686,
      "▁क्रान्ति": 4687,
      "र्ति": 4688,
      "गण": 4689,
      "▁मल": 4690,
      "▁जमिन": 4691,
      "▁देउवाले": 4692,
      "उँदा": 4693,
      "▁चलि": 4694,
      "▁हुन्थ्यो": 4695,
      "▁टी": 4696,
      "▁च्याम्प": 4697,
      "ाल,": 4698,
      "▁लगाएर": 4699,
      "मला": 4700,
      "▁टिप्पणी": 4701,
      "▁ऐतिहासिक": 4702,
      "▁चर्च": 4703,
      "ुरू": 4704,
      "▁निःशुल्क": 4705,
      "बन्दी": 4706,
      "▁स्वागत": 4707,
      "▁धारा": 4708,
      "▁सन्दर्भमा": 4709,
      "▁तपाईंले": 4710,
      "▁अर्य": 4711,
      "▁प्रतिबन्ध": 4712,
      "▁हक": 4713,
      "▁तराई": 4714,
      "▁प्रगति": 4715,
      "▁प्रतिनि": 4716,
      "परी": 4717,
      "फर": 4718,
      "▁सङ्ख्या": 4719,
      "▁एक्स": 4720,
      "▁सुनु": 4721,
      "▁हुँ": 4722,
      "▁बालुवा": 4723,
      "▁कित्ता": 4724,
      "ारायण": 4725,
      "स्को": 4726,
      "लाम": 4727,
      "▁।\nम": 4728,
      "▁मसा": 4729,
      "टीमा": 4730,
      "▁चौथो": 4731,
      "राख": 4732,
      "▁उत्सा": 4733,
      "▁ओभ": 4734,
      "▁भेला": 4735,
      "▁राजमार्ग": 4736,
      "▁मूल्या": 4737,
      "शुप": 4738,
      "▁दिनुपर्ने": 4739,
      "सपा": 4740,
      "ंकन": 4741,
      "▁माथ": 4742,
      "▁मद्दत": 4743,
      "▁मैदानमा": 4744,
      "▁मुलुकमा": 4745,
      "▁शासन": 4746,
      "न्धु": 4747,
      "र्को": 4748,
      "▁विजेता": 4749,
      "▁पाइन्छ": 4750,
      "राको": 4751,
      "क्कै": 4752,
      "▁दिला": 4753,
      "▁आएपछि": 4754,
      "▁यता": 4755,
      "्रोल": 4756,
      "रुपमा": 4757,
      "ोरै": 4758,
      "▁पेस": 4759,
      "ौं,": 4760,
      "▁योग्य": 4761,
      "ेलिक": 4762,
      "▁बिदा": 4763,
      "नीको": 4764,
      "्वान": 4765,
      "वार्ता": 4766,
      "▁उनीहरूलाई": 4767,
      "▁६५": 4768,
      "▁प्रवृत्ति": 4769,
      "हिरो": 4770,
      "-०": 4771,
      "▁बनाइएको": 4772,
      "▁तोक": 4773,
      "▁दशक": 4774,
      "चो": 4775,
      "▁रवि": 4776,
      "यन्त्र": 4777,
      "ौं।": 4778,
      "▁पुस्तक": 4779,
      "ाउनुपर्ने": 4780,
      "▁भव": 4781,
      "व्यापी": 4782,
      "▁प्रायः": 4783,
      "टाले": 4784,
      "▁द्वारा": 4785,
      "▁विश्वकप": 4786,
      "▁मधेश": 4787,
      "▁माध्यमबाट": 4788,
      "▁सफलता": 4789,
      "▁सिक्": 4790,
      "▁शे": 4791,
      "▁चढ": 4792,
      "▁सुर्": 4793,
      "▁गर्नुहु": 4794,
      "▁प्रशिक्षण": 4795,
      "▁बहस": 4796,
      "गमती": 4797,
      "श्चा": 4798,
      "▁परिचालन": 4799,
      "▁महाशाखा": 4800,
      "▁गतेदेखि": 4801,
      "▁'म": 4802,
      "▁३७": 4803,
      "कारण": 4804,
      "▁सांस्कृतिक": 4805,
      "हामी": 4806,
      "▁निरन्तरता": 4807,
      "▁कार्ड": 4808,
      "▁लोकप्रिय": 4809,
      "▁त्यस्ता": 4810,
      "लिया": 4811,
      "ेक्का": 4812,
      "▁मन्त्रालयको": 4813,
      "▁३८": 4814,
      "▁राउ": 4815,
      "▁गरियो": 4816,
      "आज": 4817,
      "▁सम्मेलन": 4818,
      "इरहेको": 4819,
      "▁बाढी": 4820,
      "▁ब्": 4821,
      "▁मगर": 4822,
      "▁भण्डारीले": 4823,
      "▁यादवले": 4824,
      "षद": 4825,
      "▁महिलाको": 4826,
      "जन्य": 4827,
      "▁आधिका": 4828,
      "▁आह्वान": 4829,
      "प्से": 4830,
      "टीको": 4831,
      "▁जसको": 4832,
      "▁प्रावधान": 4833,
      "▁ढंग": 4834,
      "▁कांग्रेसको": 4835,
      "▁लगाएका": 4836,
      "▁तल": 4837,
      "▁२०७४": 4838,
      "▁।\nय": 4839,
      "▁राप्रपा": 4840,
      "▁प्रबन्ध": 4841,
      "▁सेत": 4842,
      "▁लेखा": 4843,
      "▁नरहेको": 4844,
      "▁फैसला": 4845,
      "▁सदर": 4846,
      "लीले": 4847,
      "▁संवाद": 4848,
      "मय": 4849,
      "माको": 4850,
      "▁संस्थाले": 4851,
      "वडा": 4852,
      "▁देखाएको": 4853,
      "▁अग्रता": 4854,
      "▁काठमाडौं-": 4855,
      "▁व्यवस्थित": 4856,
      "ीक": 4857,
      "▁छिमेकी": 4858,
      "द्र्": 4859,
      "वट": 4860,
      "▁सर्वा": 4861,
      "▁विधान": 4862,
      "▁बाहिरि": 4863,
      "▁ठेक्का": 4864,
      "्याम": 4865,
      "ह्रो": 4866,
      "थम": 4867,
      "▁जनप्रतिनिधि": 4868,
      "▁बचत": 4869,
      "▁मिलेर": 4870,
      "▁लघुव": 4871,
      "▁बला": 4872,
      "▁थोरै": 4873,
      "▁धितो": 4874,
      "▁इट": 4875,
      "▁अन्": 4876,
      "निया": 4877,
      "▁दीर्घ": 4878,
      "▁बैंकिङ": 4879,
      "▁बुझ्न": 4880,
      "▁४२": 4881,
      "▁ट्राफिक": 4882,
      "▁सफा": 4883,
      "▁गर्दछ।": 4884,
      "▁लक्षित": 4885,
      "▁श्रीमती": 4886,
      "▁राजदू": 4887,
      "ूट": 4888,
      "नलमा": 4889,
      "रेको": 4890,
      "षे": 4891,
      "▁विद्यालयमा": 4892,
      "▁गरिरह": 4893,
      "▁गाँ": 4894,
      "नित": 4895,
      "▁ठु": 4896,
      "▁जनशक्ति": 4897,
      "▁आफन्त": 4898,
      "▁विनियोजन": 4899,
      "न्सर": 4900,
      "▁पशुप": 4901,
      "तु": 4902,
      "▁सजाय": 4903,
      "बारी": 4904,
      "▁कम्तीमा": 4905,
      "▁समी": 4906,
      "▁न्यु": 4907,
      "जस्तै": 4908,
      "यान": 4909,
      "▁मुद्रा": 4910,
      "▁युरोप": 4911,
      "▁विश्लेषण": 4912,
      "कृष्ण": 4913,
      "▁विविध": 4914,
      "▁बग": 4915,
      "े।": 4916,
      "▁कार्यक्रमको": 4917,
      "▁नजिकै": 4918,
      "▁खेलको": 4919,
      "▁।\nनेपाल": 4920,
      "्रिक": 4921,
      "ल्का": 4922,
      "▁बुद्ध": 4923,
      "▁एवम्": 4924,
      "▁निष्कर्ष": 4925,
      "▁फूल": 4926,
      "▁माछा": 4927,
      "वर्ष": 4928,
      "▁भएकोले": 4929,
      "ना,": 4930,
      "▁नवी": 4931,
      "▁राज्यको": 4932,
      "▁गराइ": 4933,
      "er": 4934,
      "▁विश्वा": 4935,
      "▁सेन्टर": 4936,
      "▁दुबै": 4937,
      "▁चालक": 4938,
      "▁जेल": 4939,
      "▁अभिव्यक्ति": 4940,
      "िल": 4941,
      "सेको": 4942,
      "▁बढेर": 4943,
      "▁आउँछ": 4944,
      "रुवा": 4945,
      "▁घो": 4946,
      "▁संस्थाको": 4947,
      "▁न्यौ": 4948,
      "▁आकार": 4949,
      "▁सहायक": 4950,
      "▁सरकारमा": 4951,
      "▁बाह": 4952,
      "▁लगभग": 4953,
      "▁मेला": 4954,
      "▁सैनिक": 4955,
      "र्नु": 4956,
      "दृ": 4957,
      "▁द्वन्द": 4958,
      "▁तिनीहरू": 4959,
      "रिक्त": 4960,
      "▁ठो": 4961,
      "▁चुनावमा": 4962,
      "▁मेल": 4963,
      "▁जहाज": 4964,
      "▁कतै": 4965,
      "लिन": 4966,
      "▁आय": 4967,
      "▁समाजमा": 4968,
      "▁असन्तु": 4969,
      "▁सामना": 4970,
      "▁समयदेखि": 4971,
      "▁गरे।\n": 4972,
      "▁अभिभाव": 4973,
      "▁मिश्र": 4974,
      "▁भ्या": 4975,
      "▁उत्पन्न": 4976,
      "▁खाद्य": 4977,
      "▁क्वार": 4978,
      "▁दिल्": 4979,
      "▁अवार्ड": 4980,
      "▁शू": 4981,
      "▁रेल": 4982,
      "र्द": 4983,
      "▁नगरेको": 4984,
      "स्थलमा": 4985,
      "जान": 4986,
      "▁देखिने": 4987,
      "भित्रै": 4988,
      "▁हप्ता": 4989,
      "▁सापको": 4990,
      "▁यसैगरी": 4991,
      "▁।\n\nअ": 4992,
      "▁अभिनय": 4993,
      "क्षेत्र": 4994,
      "▁समृद्धि": 4995,
      "▁बाले": 4996,
      "▁कपडा": 4997,
      "▁निरा": 4998,
      "▁समूहले": 4999,
      "▁बलमा": 5000,
      "▁इजला": 5001,
      "▁संस्थागत": 5002,
      "▁पत्ता": 5003,
      "▁टाढा": 5004,
      "▁जिम्मा": 5005,
      "न्यायाधीश": 5006,
      "धनको": 5007,
      "▁न्यौपा": 5008,
      "▁गृहमन्त्री": 5009,
      "▁आफै": 5010,
      "▁सम्पाद": 5011,
      "▁गाउँमा": 5012,
      "▁हवाई": 5013,
      "▁दाहालले": 5014,
      "र्चु": 5015,
      "राइ": 5016,
      "पुरका": 5017,
      "न्देही": 5018,
      "▁टिकट": 5019,
      "आफ्न": 5020,
      "निर्वाच": 5021,
      "जाने": 5022,
      "▁महिनाको": 5023,
      "▁चिया": 5024,
      "▁लिए": 5025,
      "▁राणा": 5026,
      "▁अतिरिक्त": 5027,
      "▁पहिला": 5028,
      "▁झु": 5029,
      "▁लाइन": 5030,
      "श्रम": 5031,
      "ेशन": 5032,
      "▁उपाय": 5033,
      "▁प्रचण्डले": 5034,
      "▁तहका": 5035,
      "'को": 5036,
      "▁टाइ": 5037,
      "▁निषे": 5038,
      "▁कन्": 5039,
      "▁उपमहानगरपालिका": 5040,
      "▁काट": 5041,
      "ियाँ": 5042,
      "▁सक्नुहु": 5043,
      "बास": 5044,
      "▁चीनको": 5045,
      "▁त्यस्तै,": 5046,
      "ेदारी": 5047,
      "▁आधिकारिक": 5048,
      "▁राख्नु": 5049,
      "सुकै": 5050,
      "▁सब": 5051,
      "▁बिजु": 5052,
      "गोल": 5053,
      "▁थुप्रै": 5054,
      "▁बढ्दो": 5055,
      "▁थिए,": 5056,
      "▁बंगलादेश": 5057,
      "▁मसान्त": 5058,
      "▁स्थगित": 5059,
      "▁खारेज": 5060,
      "▁संघका": 5061,
      "▁ओलीको": 5062,
      "▁बोल्दै": 5063,
      "ेलले": 5064,
      "▁गुरुङले": 5065,
      "ञ्चन": 5066,
      "▁गणेश": 5067,
      "▁विकासको": 5068,
      "▁बढाएको": 5069,
      "याम": 5070,
      "▁दिए।\n": 5071,
      "टव": 5072,
      "▁तनाव": 5073,
      "▁गाह्रो": 5074,
      "नाका": 5075,
      "ंकर": 5076,
      "▁अवरोध": 5077,
      "▁कोइराला": 5078,
      "ली,": 5079,
      "▁अनुहार": 5080,
      "▁छै": 5081,
      "▁लाभा": 5082,
      "▁प्रशास": 5083,
      "▁भट्टराईले": 5084,
      "वत": 5085,
      "▁सकिएको": 5086,
      "▁पहाडी": 5087,
      "▁फेसबु": 5088,
      "▁कार्कीले": 5089,
      "भुवन": 5090,
      "लाग": 5091,
      "पात": 5092,
      "▁परराष्ट्र": 5093,
      "▁इतिहास": 5094,
      "▁हिसाबले": 5095,
      "▁रेक": 5096,
      "एसपी": 5097,
      "्याल": 5098,
      "कुमारी": 5099,
      "ठी": 5100,
      "▁प्रकरण": 5101,
      "नन्द": 5102,
      "▁प्रसारण": 5103,
      "▁लागि,": 5104,
      "▁प्रारम्भिक": 5105,
      "▁उभि": 5106,
      "ण्डै": 5107,
      "्म": 5108,
      "▁उत्र": 5109,
      "▁व्यक्तिलाई": 5110,
      "वहार": 5111,
      "▁निर्माणमा": 5112,
      "बजार": 5113,
      "▁गणतन्त्र": 5114,
      "▁किनकि": 5115,
      "▁पञ्च": 5116,
      "▁गोली": 5117,
      "वक्ता": 5118,
      "▁पीडा": 5119,
      "▁जटिल": 5120,
      "▁थालेपछि": 5121,
      "▁सेट": 5122,
      "पत्रमा": 5123,
      "▁लागत": 5124,
      "▁आयोजनाको": 5125,
      "▁प्रकारको": 5126,
      "▁रिय": 5127,
      "▁दर्जन": 5128,
      "▁व्यापक": 5129,
      "▁मोटरसाइकल": 5130,
      "नुपा": 5131,
      "प्ले": 5132,
      "▁तु": 5133,
      "▁४१": 5134,
      "▁वर्षअघि": 5135,
      "शाला": 5136,
      "▁५१": 5137,
      "▁दायित्व": 5138,
      "▁महोत्सव": 5139,
      "▁सम्मेलनमा": 5140,
      "▁समारोह": 5141,
      "▁संकट": 5142,
      "▁समयमै": 5143,
      "▁नगरपालिकाले": 5144,
      "▁दिए।": 5145,
      "▁४८": 5146,
      "▁मुस्": 5147,
      "छ,": 5148,
      "▁तिमी": 5149,
      "कोण": 5150,
      "▁म्यान": 5151,
      "▁अप्र": 5152,
      "▁पशु": 5153,
      "▁होट": 5154,
      "र्ती": 5155,
      "▁क्षेत्रलाई": 5156,
      "▁राजनीतिमा": 5157,
      "▁श्रमिक": 5158,
      "▁जर्म": 5159,
      "▁समूहको": 5160,
      "▁तपाईंलाई": 5161,
      "ठो": 5162,
      "विश": 5163,
      "▁संविधानको": 5164,
      "▁हेट": 5165,
      "▁द्वन्द्व": 5166,
      "नुपातिक": 5167,
      "▁निस्क": 5168,
      "▁इरान": 5169,
      "स्वास्थ्य": 5170,
      "▁प्रतिनिध": 5171,
      "▁भोट": 5172,
      "▁रातो": 5173,
      "▁तलब": 5174,
      "▁३९": 5175,
      "▁प्रकारका": 5176,
      "▁बौ": 5177,
      "▁उद्देश्यले": 5178,
      "▁जनकपुर": 5179,
      "दीप": 5180,
      "▁उनीहरुलाई": 5181,
      "▁क्षेत्रीय": 5182,
      "▁रुपियाँ": 5183,
      "▁निधन": 5184,
      "▁सत्त": 5185,
      "▁सुनको": 5186,
      "जसो": 5187,
      "▁वर्षका": 5188,
      "▁गुणस्तर": 5189,
      "डको": 5190,
      "▁औँ": 5191,
      "ने,": 5192,
      "भाविक": 5193,
      "▁सँगै": 5194,
      "▁हस्त": 5195,
      "चय": 5196,
      "▁ते": 5197,
      "▁समीक्षा": 5198,
      "▁व्यक्तिले": 5199,
      "▁गोरखा": 5200,
      "▁रनको": 5201,
      "▁बागमती": 5202,
      "माओवादी": 5203,
      "▁प्रोत्सा": 5204,
      "▁पठाएको": 5205,
      "सिन्दा": 5206,
      "▁रणनीति": 5207,
      "▁भएकी": 5208,
      "कामना": 5209,
      "घर": 5210,
      "ेखा": 5211,
      "▁भएमा": 5212,
      "▁कानून": 5213,
      "रामर्श": 5214,
      "▁पर्न": 5215,
      "▁२०५": 5216,
      "▁भने।\n": 5217,
      "▁विष्णु": 5218,
      "▁चाँड": 5219,
      "▁व्यापारी": 5220,
      "काे": 5221,
      "▁क्रि": 5222,
      "▁?\\n": 5223,
      "▁चौधरी": 5224,
      "▁सिन्धु": 5225,
      "्वि": 5226,
      "▁असफल": 5227,
      "▁पोखरेलले": 5228,
      "▁यौन": 5229,
      "▁प्रसाद": 5230,
      "▁पसल": 5231,
      "▁जितेको": 5232,
      "▁तरिका": 5233,
      "▁जनतालाई": 5234,
      "▁निवेदन": 5235,
      "▁नगरपालिका-": 5236,
      "▁४४": 5237,
      "▁प्रतिनिधित्व": 5238,
      "▁राजेन्द्र": 5239,
      "तिका": 5240,
      "ियत": 5241,
      "▁फोहोर": 5242,
      "▁४३": 5243,
      "टामा": 5244,
      "▁पक्षले": 5245,
      "वृद्धि": 5246,
      "▁औद्योग": 5247,
      "▁झण्डै": 5248,
      "▁रक्त": 5249,
      "▁रौ": 5250,
      "▁पानीको": 5251,
      "▁भीम": 5252,
      "▁कठिन": 5253,
      "▁बहि": 5254,
      "▁निक्षेप": 5255,
      "▁छ,'": 5256,
      "▁एसिया": 5257,
      "▁विद्युतीय": 5258,
      "▁सङ्क्रमण": 5259,
      "▁एल": 5260,
      "काठमाडौं": 5261,
      "स्तरीय": 5262,
      "लोकन": 5263,
      "▁संक्रमितको": 5264,
      "▁आगो": 5265,
      "▁सक्षम": 5266,
      "मुकाम": 5267,
      "कर्षण": 5268,
      "▁हालै": 5269,
      "▁निर्मा": 5270,
      "▁एकल": 5271,
      "▁ध्या": 5272,
      "▁खाता": 5273,
      "▁शून्य": 5274,
      "▁वायु": 5275,
      "▁निको": 5276,
      "▁एमालेको": 5277,
      "▁स्वीकृति": 5278,
      "▁प्रशिक्षक": 5279,
      "▁देख्न": 5280,
      "नाम": 5281,
      "▁आधारभूत": 5282,
      "▁भन्छन्,": 5283,
      "▁बाग": 5284,
      "▁मुद्दामा": 5285,
      "▁विक्र": 5286,
      "▁प्रिम": 5287,
      "किन": 5288,
      "हरुसँग": 5289,
      "▁दुर्घटनामा": 5290,
      "संस्था": 5291,
      "▁3": 5292,
      "यौँ": 5293,
      "छ।\n": 5294,
      "▁।\n'": 5295,
      "▁भित्": 5296,
      "▁श्रेष्ठ,": 5297,
      "▁विभागका": 5298,
      "▁क्य": 5299,
      "▁सुर्खेत": 5300,
      "▁त्रिभुवन": 5301,
      "चाइ": 5302,
      "▁भइरहेका": 5303,
      "▁समितिमा": 5304,
      "▁स्वार्थ": 5305,
      "▁सुरू": 5306,
      "▁रिज": 5307,
      "▁अलि": 5308,
      "▁वृ": 5309,
      "▁'\n": 5310,
      "▁मले": 5311,
      "▁पूँजी": 5312,
      "▁लागु": 5313,
      "▁परामर्श": 5314,
      "▁राख्दै": 5315,
      "ल्पना": 5316,
      "जात": 5317,
      "▁थु": 5318,
      "▁पालना": 5319,
      "▁खोजि": 5320,
      "▁छैन।\n": 5321,
      "▁नगरपालिकाका": 5322,
      "▁पर्ख": 5323,
      "▁समानुपातिक": 5324,
      "▁अधिवेशन": 5325,
      "▁सहयोगमा": 5326,
      "ट,": 5327,
      "▁०७": 5328,
      "▁आयोगको": 5329,
      "▁२०७५": 5330,
      "▁साझेदारी": 5331,
      "▁जडान": 5332,
      "▁सुनस": 5333,
      "▁डिजाइन": 5334,
      "▁विकासमा": 5335,
      "▁अवै": 5336,
      "▁कप्तान": 5337,
      "▁नागरिकको": 5338,
      "▁संस्करण": 5339,
      "▁निर्वाचनको": 5340,
      "ाउको": 5341,
      "▁रहेकाले": 5342,
      "▁बुटवल": 5343,
      "▁१००": 5344,
      "▁बाँड": 5345,
      "गढ": 5346,
      "▁सक्नुहुन्छ": 5347,
      "वमा": 5348,
      "गन": 5349,
      "▁बनाए": 5350,
      "गन्ज": 5351,
      "टार": 5352,
      "▁नेप्से": 5353,
      "▁सङ्ग": 5354,
      "जनको": 5355,
      "▁स्मार्ट": 5356,
      "▁कोभिड-१९": 5357,
      "▁दिशा": 5358,
      "▁चितव": 5359,
      "▁चाहिँ": 5360,
      "इने": 5361,
      "▁दूध": 5362,
      "▁हावा": 5363,
      "▁जात": 5364,
      "▁वैज्ञानिक": 5365,
      "▁महानि": 5366,
      "▁दुरुपयोग": 5367,
      "▁मासु": 5368,
      "धिकार": 5369,
      "▁बहुमत": 5370,
      "▁गन्तव्य": 5371,
      "गरमा": 5372,
      "▁दस": 5373,
      "▁एजेन्सी": 5374,
      "▁बुढा": 5375,
      "▁ह्या": 5376,
      "▁'स": 5377,
      "▁लाग्यो": 5378,
      "▁महेन्द्र": 5379,
      "▁अपा": 5380,
      "▁इच्छा": 5381,
      "▁पात्र": 5382,
      "▁विघटन": 5383,
      "▁रगत": 5384,
      "▁पठाउने": 5385,
      "ल्स": 5386,
      "▁नभएर": 5387,
      "लिङ": 5388,
      "▁प्रथम": 5389,
      "▁लक्ष्मी": 5390,
      "▁वाम": 5391,
      "▁आफैँ": 5392,
      "द्रो": 5393,
      "▁दृश्य": 5394,
      "▁प्रयोगकर्ता": 5395,
      "▁वडाध्यक्ष": 5396,
      "▁जोडिएको": 5397,
      "▁दावी": 5398,
      "जुन": 5399,
      "▁सदरमुकाम": 5400,
      "▁मौका": 5401,
      "▁अग्": 5402,
      "▁नागरिकलाई": 5403,
      "▁अर": 5404,
      "क्षी": 5405,
      "▁तरिकाले": 5406,
      "चे": 5407,
      "ईको": 5408,
      "▁म्याद": 5409,
      "न्।\n": 5410,
      "क्सी": 5411,
      "▁कामको": 5412,
      "▁।'\n": 5413,
      "▁स्थल": 5414,
      "▁भाइरसको": 5415,
      "▁रेकर्ड": 5416,
      "▁ध्याना": 5417,
      "र्पा": 5418,
      "▁जीवनमा": 5419,
      "▁मुक्त": 5420,
      "▁खोजेको": 5421,
      "▁खति": 5422,
      "गाउँ": 5423,
      "सोले": 5424,
      "▁परम": 5425,
      "▁चाँ": 5426,
      "ब्जा": 5427,
      "▁बसो": 5428,
      "दुई": 5429,
      "नस": 5430,
      "▁दायर": 5431,
      "वीर": 5432,
      "मल": 5433,
      "▁दै": 5434,
      "▁फर्का": 5435,
      "वानी": 5436,
      "भार": 5437,
      "▁बौद्ध": 5438,
      "ियाली": 5439,
      "मुक्त": 5440,
      "▁मेट": 5441,
      "▁५२": 5442,
      "▁ढंगले": 5443,
      "▁मानिसको": 5444,
      "▁भेटि": 5445,
      "▁औद्योगिक": 5446,
      "/७": 5447,
      "▁स्कु": 5448,
      "▁रमेश": 5449,
      "▁छोटो": 5450,
      "▁अप्": 5451,
      "कवान": 5452,
      "▁क्रमश": 5453,
      "भेद": 5454,
      "▁खतरा": 5455,
      "राग": 5456,
      "▁विना": 5457,
      "▁घट्": 5458,
      "▁अल्": 5459,
      "▁पेट्रोल": 5460,
      "▁हुनुहु": 5461,
      "▁पर्यटकीय": 5462,
      "▁खतिवडा": 5463,
      "▁भरि": 5464,
      "▁लागिएको": 5465,
      "▁स्थिर": 5466,
      "▁आयोजनामा": 5467,
      "र्दै": 5468,
      "▁हाँ": 5469,
      "▁२०७७": 5470,
      "▁कार्यान्वयनमा": 5471,
      "▁चेक": 5472,
      "▁नसक्दा": 5473,
      "▁मी": 5474,
      "▁प्राधिकरणले": 5475,
      "▁लाग्न": 5476,
      "मका": 5477,
      "▁थान": 5478,
      "on": 5479,
      "▁दिवस": 5480,
      "▁न्यूनतम": 5481,
      "▁अन्न": 5482,
      "▁लाल": 5483,
      "▁जय": 5484,
      "▁हतियार": 5485,
      "क्ने": 5486,
      "▁लगाइएको": 5487,
      "▁र,": 5488,
      "▁सकेका": 5489,
      "म्स": 5490,
      "केको": 5491,
      "ड्रो": 5492,
      "▁प्रि": 5493,
      "▁।\nस": 5494,
      "▁बस्ती": 5495,
      "रोधी": 5496,
      "▁हटाउन": 5497,
      "▁परिचय": 5498,
      "▁फोर": 5499,
      "▁स्वीकृत": 5500,
      "▁बिमा": 5501,
      "ंख": 5502,
      "▁सर्वाधिक": 5503,
      "▁ओभरमा": 5504,
      "▁ध्यानाकर्षण": 5505,
      "▁४६": 5506,
      "▁बासिन्दा": 5507,
      "र्थी": 5508,
      "▁पाइने": 5509,
      "▁विषयलाई": 5510,
      "▁उपरीक्षक": 5511,
      "▁दृष्टिकोण": 5512,
      "िनो": 5513,
      "▁४७": 5514,
      "▁केसीले": 5515,
      "ग्राम": 5516,
      "▁आउट": 5517,
      "कल्प": 5518,
      "▁जसरी": 5519,
      "ेटिभ": 5520,
      "▁प्रजातन्त्र": 5521,
      "गमा": 5522,
      "▁वर्षसम्म": 5523,
      "▁भन्छ": 5524,
      "▁.": 5525,
      "▁नियमाव": 5526,
      "▁काठमाडौंको": 5527,
      "▁खुट्": 5528,
      "▁दफा": 5529,
      "▁अनेक": 5530,
      "▁चर्चित": 5531,
      "▁पुराना": 5532,
      "▁मूल्यमा": 5533,
      "▁खास": 5534,
      "▁निर्वाह": 5535,
      "▁प्रक्रियामा": 5536,
      "▁कमल": 5537,
      "▁मात्रामा": 5538,
      "▁यसबाट": 5539,
      ",\n": 5540,
      "खित": 5541,
      "▁बाइ": 5542,
      "▁खाली": 5543,
      "▁लगाए": 5544,
      "▁चेत": 5545,
      "▁एण्ड": 5546,
      "▁स्ना": 5547,
      "र्द्ध": 5548,
      "▁डर": 5549,
      "औँ": 5550,
      "जुर": 5551,
      "▁यसपटक": 5552,
      "▁नगरपालिकाको": 5553,
      "▁रुपैयाँको": 5554,
      "▁रूपैयाँ": 5555,
      "▁दिन्छ": 5556,
      "▁घटनामा": 5557,
      "▁फ्र": 5558,
      "▁संचाल": 5559,
      "▁नदिने": 5560,
      "▁अदालतको": 5561,
      "घन": 5562,
      "▁स्तर": 5563,
      "▁आउँ": 5564,
      "सत": 5565,
      "▁गर्न,": 5566,
      "an": 5567,
      "▁एन्ड": 5568,
      "▁५६": 5569,
      "▁बनि": 5570,
      "▁बलात्कार": 5571,
      "▁जरि": 5572,
      "▁५३": 5573,
      "▁ठहर": 5574,
      "▁मामिला": 5575,
      "▁२०७८": 5576,
      "al": 5577,
      "▁छे": 5578,
      "▁अस्वी": 5579,
      "▁संस्थान": 5580,
      "इरहेका": 5581,
      "▁रोकि": 5582,
      "▁बेलामा": 5583,
      "▁कार्यकाल": 5584,
      "▁आइपुग": 5585,
      "▁दीपक": 5586,
      "▁सधैं": 5587,
      "नारायण": 5588,
      "▁(अ": 5589,
      "▁सिने": 5590,
      "▁भरतपुर": 5591,
      "ताब": 5592,
      "हरी": 5593,
      "शल": 5594,
      "रिङ": 5595,
      "▁यस्तै,": 5596,
      "▁संख्यामा": 5597,
      "▁मञ्च": 5598,
      "▁प्रवद्र्": 5599,
      "्याउने": 5600,
      "▁खराब": 5601,
      "▁विष्ट": 5602,
      "▁अध्यादेश": 5603,
      "▁जान्छ": 5604,
      "▁एकजना": 5605,
      "▁इन": 5606,
      "दिने": 5607,
      "चार्ज": 5608,
      "ेमी": 5609,
      "'\n": 5610,
      "योग्य": 5611,
      "▁४९": 5612,
      "▁कम्पनीका": 5613,
      "▁च्याम्पियन": 5614,
      "▁संचालन": 5615,
      "▁अर्थात": 5616,
      "▁कारवाही": 5617,
      "▁इन्जि": 5618,
      "▁विगतमा": 5619,
      "▁चिसो": 5620,
      "▁कास्की": 5621,
      "▁लाग्दै": 5622,
      "▁क्यान": 5623,
      "▁बरु": 5624,
      "ग्राही": 5625,
      "तीको": 5626,
      "ेकै": 5627,
      "▁कञ्चन": 5628,
      "▁विज्ञप्तिमा": 5629,
      "▁माटो": 5630,
      "▁स्कुल": 5631,
      "▁मिल": 5632,
      "▁साथै,": 5633,
      "▁अवरुद्ध": 5634,
      "▁धन्य": 5635,
      "▁नाटक": 5636,
      "प्टर": 5637,
      "ुप्": 5638,
      "▁पछ": 5639,
      "▁रहेर": 5640,
      "▁प्रधानमन्त्रीको": 5641,
      "▁तोड": 5642,
      "सीमा": 5643,
      "ध्यापक": 5644,
      "नाल्": 5645,
      "▁राईले": 5646,
      "▁जै": 5647,
      "क्सा": 5648,
      "▁पार्टीमा": 5649,
      "विन": 5650,
      "▁छलफलमा": 5651,
      "▁ल्याएर": 5652,
      "पोख": 5653,
      "▁तामाङ": 5654,
      "▁कसैलाई": 5655,
      "▁चन्द": 5656,
      "परा": 5657,
      "▁रास्वपा": 5658,
      "▁शाक्य": 5659,
      "▁साथमा": 5660,
      "▁होम": 5661,
      "▁अलग": 5662,
      "न्थे": 5663,
      "▁बर": 5664,
      "▁सन्तोष": 5665,
      "▁ग्या": 5666,
      "▁युक्र": 5667,
      "नीमा": 5668,
      "▁राज्यले": 5669,
      "▁५४": 5670,
      "▁खेल्न": 5671,
      "▁अमेरिकाको": 5672,
      "▁खण्डमा": 5673,
      "▁पर्दछ": 5674,
      "▁ढोका": 5675,
      "▁इन्ड": 5676,
      "▁प्रधानन्यायाधीश": 5677,
      "▁नवल": 5678,
      "▁सन्ता": 5679,
      "▁अन्तरि": 5680,
      "▁रात": 5681,
      "▁राखि": 5682,
      "िमा": 5683,
      "▁श्रील": 5684,
      "▁स्वयं": 5685,
      "▁जेन": 5686,
      "▁सभामा": 5687,
      "ौट": 5688,
      "▁मोर्चा": 5689,
      "▁चरणको": 5690,
      "▁२०७६": 5691,
      "▁।\n\nयस": 5692,
      "▁कविता": 5693,
      "▁लघुवित्त": 5694,
      "भल": 5695,
      "▁मित्र": 5696,
      "▁यहाँका": 5697,
      "▁विदेशमा": 5698,
      "▁सरुवा": 5699,
      "▁म्याग्": 5700,
      "रूपमा": 5701,
      "▁समूहका": 5702,
      "हरु,": 5703,
      "▁रिट": 5704,
      "▁मिल्ने": 5705,
      "es": 5706,
      "▁भोग": 5707,
      "▁टाउको": 5708,
      "मुखी": 5709,
      "▁२०७९": 5710,
      "नेकपा": 5711,
      "▁स्वर्ण": 5712,
      "▁सुरुवात": 5713,
      "▁असु": 5714,
      "स्योर": 5715,
      "स्सा": 5716,
      "▁मण्ड": 5717,
      "▁आनन्द": 5718,
      "पान्तरण": 5719,
      "▁अमेरिकामा": 5720,
      "धारित": 5721,
      "कका": 5722,
      "▁चीनले": 5723,
      "▁प्रकाशन": 5724,
      "▁जिम्मेवार": 5725,
      "भोग": 5726,
      "▁सञ्जालमा": 5727,
      "▁७६": 5728,
      "उनुपर्ने": 5729,
      "▁नम्बरको": 5730,
      "▁हटा": 5731,
      "▁रहन": 5732,
      "▁विशेषज्ञ": 5733,
      "▁ललितपुर": 5734,
      "▁क्यान्सर": 5735,
      "-२०": 5736,
      "▁घरको": 5737,
      "▁चालू": 5738,
      "भूति": 5739,
      "▁विज्ञा": 5740,
      "धारणा": 5741,
      "▁सालको": 5742,
      "र्दा": 5743,
      "▁बनाउनु": 5744,
      "सिए": 5745,
      "▁तयारीमा": 5746,
      "▁घण्टामा": 5747,
      "‍या": 5748,
      "आफ्नो": 5749,
      "▁खुलेको": 5750,
      "मन्त्र": 5751,
      "▁परे": 5752,
      "छन्।\n": 5753,
      "▁शेर्पा": 5754,
      "▁हल": 5755,
      "▁गाउँपालिका-": 5756,
      "▁दम": 5757,
      "हरूबाट": 5758,
      "▁शुरू": 5759,
      "▁अथ": 5760,
      "▁कार्यसमिति": 5761,
      "▁प्रेर": 5762,
      "▁।\n\nय": 5763,
      "▁बिता": 5764,
      "▁कमजो": 5765,
      "▁कतार": 5766,
      "▁५७": 5767,
      "▁पढ्न": 5768,
      "जिल्ला": 5769,
      "▁राजदूत": 5770,
      "▁पत्": 5771,
      "ँ।": 5772,
      "▁ताप": 5773,
      "बिर": 5774,
      "▁काठमाण्ड": 5775,
      "▁प्राथमिकतामा": 5776,
      "▁बजेसम्म": 5777,
      "▁संसदमा": 5778,
      "▁गाउँपालिकाका": 5779,
      "▁बाँच": 5780,
      "▁एमसीसी": 5781,
      "▁सेनाले": 5782,
      "रका": 5783,
      "▁मोह": 5784,
      "▁उदय": 5785,
      "▁20": 5786,
      "▁आरोपमा": 5787,
      "▁बोकेर": 5788,
      "▁सिरि": 5789,
      "▁माल": 5790,
      "लिस": 5791,
      "▁लामा": 5792,
      "टीले": 5793,
      "▁उपलब्धि": 5794,
      "▁गरिसकेका": 5795,
      "▁सन्तुल": 5796,
      "बाबु": 5797,
      "▁हिम": 5798,
      "▁५८": 5799,
      "▁मौलिक": 5800,
      "▁जसपा": 5801,
      "▁नेताहरु": 5802,
      "▁उन्": 5803,
      "▁फिल्ममा": 5804,
      "त्वमा": 5805,
      "▁भारी": 5806,
      "ट्स": 5807,
      "▁विभाजन": 5808,
      "सरकारले": 5809,
      "▁हातमा": 5810,
      "ँस": 5811,
      "▁रोप": 5812,
      "छन्,": 5813,
      "▁'क": 5814,
      "डीले": 5815,
      "▁मकवान": 5816,
      "▁क्रमशः": 5817,
      "▁डिभिजन": 5818,
      "हीँ": 5819,
      "▁बारा": 5820,
      "▁७७": 5821,
      "▁छुट्टै": 5822,
      "▁रुपैयाँमा": 5823,
      "ठन": 5824,
      "टाको": 5825,
      "▁अच": 5826,
      "▁आउँदा": 5827,
      "▁जोशी": 5828,
      "▁आवास": 5829,
      "ालका": 5830,
      "▁हुनसक्": 5831,
      "▁ब्रि": 5832,
      "भूमि": 5833,
      "उप": 5834,
      "▁कार्यमा": 5835,
      "थी": 5836,
      "▁धर": 5837,
      "▁गाउँपालिकामा": 5838,
      "ar": 5839,
      "स्तै,": 5840,
      "्याउन": 5841,
      "at": 5842,
      "▁प्रतियोगिताको": 5843,
      "▁डेढ": 5844,
      "▁विपक्षी": 5845,
      "▁पन्त": 5846,
      "▁कार्यालयको": 5847,
      "▁असह": 5848,
      "जले": 5849,
      "कालमा": 5850,
      "▁आयोगका": 5851,
      "ानै": 5852,
      "▁भागमा": 5853,
      "▁केन्द्रले": 5854,
      "▁अवधारणा": 5855,
      "▁गाउँपालिकाको": 5856,
      "▁धरान": 5857,
      "▁८५": 5858,
      "▁हैन": 5859,
      "▁सदस्यीय": 5860,
      "▁परिवारका": 5861,
      "म,": 5862,
      "▁बरा": 5863,
      "प्रकाश": 5864,
      "▁सरस": 5865,
      "मण्ड": 5866,
      "▁आन्दोलनमा": 5867,
      "▁परम्परागत": 5868,
      "▁प्रष्ट": 5869,
      "▁हाउ": 5870,
      "▁ल्याइएको": 5871,
      "▁६४": 5872,
      "▁गायक": 5873,
      "▁शंका": 5874,
      "▁शिक्ष": 5875,
      "युद्ध": 5876,
      "विन्द": 5877,
      "▁साँच": 5878,
      "यरमा": 5879,
      "▁संघले": 5880,
      "▁रेग्": 5881,
      "राय": 5882,
      "▁अफग": 5883,
      "▁सञ्चालित": 5884,
      "▁कुट": 5885,
      "▁रुपन्देही": 5886,
      "▁न्यौपाने": 5887,
      "▁उड": 5888,
      "▁स्मरण": 5889,
      "▁सल्लाहकार": 5890,
      "▁सेवन": 5891,
      "▁अत्यधिक": 5892,
      "▁सरोकारवाला": 5893,
      "▁सकिन्छ।": 5894,
      "ईमा": 5895,
      "▁२०४": 5896,
      "▁ठीक": 5897,
      "▁कर्मचारीको": 5898,
      "▁२०८३": 5899,
      "▁त्यतिबेला": 5900,
      "▁अनुसार,": 5901,
      "▁लागेर": 5902,
      "▁तपाईलाई": 5903,
      "▁मेसिन": 5904,
      "▁कार्यविधि": 5905,
      "▁लक्षण": 5906,
      "पार्": 5907,
      "▁परिवारको": 5908,
      "▁७२": 5909,
      "▁प्रधानमन्त्रीले": 5910,
      "वद्ध": 5911,
      "▁शुभकामना": 5912,
      "▁अवैध": 5913,
      "▁हाइड्रो": 5914,
      "ल्पा": 5915,
      "▁गौर": 5916,
      "ारण": 5917,
      "▁तिर": 5918,
      "▁।\nवि": 5919,
      "मानित": 5920,
      "▁ठुलो": 5921,
      "-अ": 5922,
      "▁समाप्त": 5923,
      "वाना": 5924,
      "सनमा": 5925,
      "▁दीर्घकालीन": 5926,
      "राष्ट्रपति": 5927,
      "▁नीतिगत": 5928,
      "▁सेतो": 5929,
      "▁रोकिएको": 5930,
      "▁उसलाई": 5931,
      "▁खासै": 5932,
      "यद": 5933,
      "▁चलाउन": 5934,
      "▁दूता": 5935,
      "यको": 5936,
      "▁अगाडी": 5937,
      "▁मजदुर": 5938,
      "▁पुगि": 5939,
      "र्मा": 5940,
      "▁क्रियाकला": 5941,
      "▁सप्त": 5942,
      "▁पृथ्वी": 5943,
      "शै": 5944,
      "▁इन्स्योर": 5945,
      "छिन्": 5946,
      "त्यस": 5947,
      "▁एश": 5948,
      "▁बोल": 5949,
      "गल": 5950,
      "▁डुब": 5951,
      "महा": 5952,
      "▁नगर्न": 5953,
      "▁परा": 5954,
      "ौल": 5955,
      "▁धनु": 5956,
      "▁पर्दा": 5957,
      "मूलक": 5958,
      "सके": 5959,
      "तपा": 5960,
      "▁मर्मत": 5961,
      "▁सैन्य": 5962,
      "वादीले": 5963,
      "▁।\"": 5964,
      "▁बस्दै": 5965,
      "धारा": 5966,
      "▁5": 5967,
      "▁बिजुली": 5968,
      "▁आकर्षण": 5969,
      "▁विधा": 5970,
      "▁बुद्धि": 5971,
      "▁मन्त्रालयमा": 5972,
      "▁सृ": 5973,
      "ब्र": 5974,
      "ंग्": 5975,
      "▁क्षेत्रबाट": 5976,
      "▁सवारीसा": 5977,
      "▁प्रती": 5978,
      "▁पोस्ट": 5979,
      "▁विश्वव्यापी": 5980,
      "न्डै": 5981,
      "▁चाड": 5982,
      "▁कन्ट": 5983,
      "▁बेप": 5984,
      "▁कूट": 5985,
      "▁पुर्याउने": 5986,
      "ृति": 5987,
      "्याग": 5988,
      "खण्ड": 5989,
      "दरबार": 5990,
      "▁चरि": 5991,
      "▁सत": 5992,
      "▁वेब": 5993,
      "▁दलले": 5994,
      "▁व्यस्त": 5995,
      "विरुद्धको": 5996,
      "▁भक्तपुर": 5997,
      "▁आकर्षक": 5998,
      "उड": 5999,
      "▁खड्काले": 6000,
      "▁सल": 6001,
      "फोन": 6002,
      "▁पुनर्निर्माण": 6003,
      "रस": 6004,
      "▁देखिए": 6005,
      "▁आर्म": 6006,
      "▁आयोजक": 6007,
      "▁माओ": 6008,
      "▁परिवारलाई": 6009,
      "▁विशाल": 6010,
      "▁आकाश": 6011,
      "▁पूर्वी": 6012,
      "हामीले": 6013,
      "▁६१": 6014,
      "▁गरिनेछ": 6015,
      "▁महामन्त्री": 6016,
      "▁सुनुवाइ": 6017,
      "▁थालिएको": 6018,
      "३०": 6019,
      "▁घुम्": 6020,
      "यमित": 6021,
      "▁चलिरहेको": 6022,
      "▁लाभांश": 6023,
      "▁खुशी": 6024,
      "▁बालिका": 6025,
      "▁मन्दि": 6026,
      "खन": 6027,
      "▁बिस्तार": 6028,
      "▁धन्यवाद": 6029,
      "▁दिगो": 6030,
      "यले": 6031,
      "▁समृद्ध": 6032,
      "वती": 6033,
      "▁ब्याजदर": 6034,
      ")का": 6035,
      "▁विस्त": 6036,
      "शोर": 6037,
      "▁मानिन्छ": 6038,
      "▁संघको": 6039,
      "▁संविधानसभा": 6040,
      "▁जोड्ने": 6041,
      "▁संस्थापक": 6042,
      "▁वर्षपछि": 6043,
      "▁कर्मचारीलाई": 6044,
      "ारीरिक": 6045,
      "ुञ्ज": 6046,
      "▁हुनसक्ने": 6047,
      "▁किसिमको": 6048,
      "▁हिउँ": 6049,
      "लुङ": 6050,
      "▁चलन": 6051,
      "▁भुस": 6052,
      "▁बेल": 6053,
      "▁पढाइ": 6054,
      "▁समूहमा": 6055,
      "▁ठाकुर": 6056,
      "यो।\n": 6057,
      "▁भएसँगै": 6058,
      "▁अस्पतालको": 6059,
      "▁भइसकेका": 6060,
      "▁प्रमाणपत्र": 6061,
      "▁दिनसम्म": 6062,
      "▁लगाइ": 6063,
      "▁सिक": 6064,
      "▁विव": 6065,
      "▁सरकारसँग": 6066,
      "▁सजिलै": 6067,
      "▁चल्ने": 6068,
      "▁केन्द्रको": 6069,
      "स्थायी": 6070,
      "▁समयको": 6071,
      "▁विद्रो": 6072,
      "▁गरिन्": 6073,
      "▁बैङ्": 6074,
      "▁पाण्डे": 6075,
      "▁वर्षे": 6076,
      "▁तोकेको": 6077,
      "वेदनशील": 6078,
      "▁नकारात्मक": 6079,
      "▁टोल": 6080,
      "▁घटनाको": 6081,
      "▁आउनु": 6082,
      "▁नपाउने": 6083,
      "▁धितोपत्र": 6084,
      "▁आत": 6085,
      "▁ग्यास": 6086,
      "▁ड्र": 6087,
      "▁सहयोगी": 6088,
      "▁हल्का": 6089,
      "धै": 6090,
      "▁छाया": 6091,
      "▁भित्र्या": 6092,
      "▁सुत्": 6093,
      "धाम": 6094,
      "▁आकर्षित": 6095,
      "▁पारदर्श": 6096,
      "वायु": 6097,
      "टका": 6098,
      "▁खोला": 6099,
      "▁मलेसिया": 6100,
      "रहने": 6101,
      "▁गर्छु": 6102,
      "▁हुनाले": 6103,
      "▁ग्रहण": 6104,
      "▁पूर": 6105,
      "मित्व": 6106,
      "▁बेलु": 6107,
      "▁विशि": 6108,
      "▁६२": 6109,
      "र्फत्": 6110,
      "▁चौधरीले": 6111,
      "▁विश्वासको": 6112,
      "▁मृत": 6113,
      "▁जलविद्युत्": 6114,
      "▁माथिल्लो": 6115,
      "▁दीप": 6116,
      "▁गर्दैन": 6117,
      "▁निवास": 6118,
      "▁प्रतिवेदनमा": 6119,
      "▁भयो,": 6120,
      "▁५९": 6121,
      "▁भारतबाट": 6122,
      "▁उत्त": 6123,
      "बुझ": 6124,
      "▁मूर्": 6125,
      "ारुढ": 6126,
      "▁आइसोले": 6127,
      "▁६३": 6128,
      "▁पका": 6129,
      "▁पछिल्ला": 6130,
      "▁'प्र": 6131,
      "▁संयन्त्र": 6132,
      "▁नगरपालिकामा": 6133,
      "▁फैलिएको": 6134,
      "▁बयान": 6135,
      "▁चाम": 6136,
      "▁पृष्ठ": 6137,
      "होला": 6138,
      "रहे": 6139,
      "▁काठ": 6140,
      "▁खरी": 6141,
      "धीन": 6142,
      "षि": 6143,
      "▁झन्डै": 6144,
      "क्कली": 6145,
      "▁लैजाने": 6146,
      "नेन्द्र": 6147,
      "▁रामचन्द्र": 6148,
      "सङ्घ": 6149,
      "▁समयसम्म": 6150,
      "जत": 6151,
      "रल": 6152,
      "▁सके": 6153,
      "▁अक्सि": 6154,
      "ञ्जन": 6155,
      "▁सामान्यतया": 6156,
      "जीवन": 6157,
      "▁समुदायको": 6158,
      "▁उपप्रमुख": 6159,
      "लिज": 6160,
      "▁'ए": 6161,
      "▁पहिलोपटक": 6162,
      "झदारी": 6163,
      "थान": 6164,
      "▁बराम": 6165,
      "▁बेपत्ता": 6166,
      "लेट": 6167,
      "▁जीवनको": 6168,
      "भर्न": 6169,
      "▁चलाउने": 6170,
      "▁बिग्र": 6171,
      "▁पुगे": 6172,
      "▁मुक्ति": 6173,
      "▁देखिन्छ।": 6174,
      "▁हिन्द": 6175,
      "▁यसो": 6176,
      "जल": 6177,
      "▁शारीरिक": 6178,
      "उनका": 6179,
      "▁शुद्ध": 6180,
      "▁भत्ता": 6181,
      "▁उल्ल": 6182,
      "▁सूचीमा": 6183,
      "▁जन्मि": 6184,
      "▁स्टा": 6185,
      "▁नामक": 6186,
      "▁निर्माता": 6187,
      "▁ढुंगा": 6188,
      "▁९५": 6189,
      "ँ,": 6190,
      "▁६८": 6191,
      "▁विकसित": 6192,
      "▁कोरि": 6193,
      "▁जसलाई": 6194,
      "ामीण": 6195,
      "▁धनगढी": 6196,
      "▁शाहले": 6197,
      "▁नेताले": 6198,
      "▁सत्": 6199,
      "▁पुग्": 6200,
      "विहीन": 6201,
      "▁मासिक": 6202,
      "▁नेपालीको": 6203,
      "▁रेडियो": 6204,
      "▁बाटोमा": 6205,
      "जाम": 6206,
      "▁गाई": 6207,
      "▁बल्": 6208,
      ")ले": 6209,
      "िकार": 6210,
      "▁केश": 6211,
      "ूहिक": 6212,
      "▁स्टार": 6213,
      "▁निकालेको": 6214,
      "जय": 6215,
      "▁शैली": 6216,
      "लाग्": 6217,
      "▁अष्ट्र": 6218,
      "▁प्रोत्साहन": 6219,
      "▁एफ": 6220,
      "▁भोज": 6221,
      "▁सहि": 6222,
      "▁स्वामित्व": 6223,
      "▁तन": 6224,
      "▁व्याख्या": 6225,
      "▁टीका": 6226,
      "न्यास": 6227,
      "▁काभ": 6228,
      "▁ग्राम": 6229,
      "सूचक": 6230,
      "▁लेखक": 6231,
      "▁हस्तक्षेप": 6232,
      "▁६६": 6233,
      "प्रतिको": 6234,
      "▁फिल्मको": 6235,
      "तर,": 6236,
      "▁वाग्": 6237,
      "▁अर्जुन": 6238,
      "▁विश्वका": 6239,
      "▁ढुवानी": 6240,
      "▁गाय": 6241,
      "▁देवी": 6242,
      "▁तालिका": 6243,
      "▁अस्वीकार": 6244,
      "▁कोरोनाको": 6245,
      "▁संस्कार": 6246,
      "▁सिंहले": 6247,
      "जीको": 6248,
      "▁क्वारेन्": 6249,
      "▁बाध्यता": 6250,
      "▁सुदृ": 6251,
      "▁बुबा": 6252,
      "भक्त": 6253,
      "▁पाण्डेले": 6254,
      "▁भनिन्छ": 6255,
      "रीलाई": 6256,
      "▁कहिलेका": 6257,
      "▁।\nआ": 6258,
      "गरमाथा": 6259,
      "▁विपरी": 6260,
      "कुरा": 6261,
      "▁६७": 6262,
      "▁निकुञ्ज": 6263,
      "स्ने": 6264,
      "▁दरले": 6265,
      "▁सेवामा": 6266,
      "▁गावि": 6267,
      "कल्पिक": 6268,
      "▁गहिरो": 6269,
      "▁खाद्या": 6270,
      "▁ठेक": 6271,
      "स्टि": 6272,
      "▁भारतका": 6273,
      "▁१९९": 6274,
      "▁चाहना": 6275,
      "▁सेनाको": 6276,
      "▁उपभोग": 6277,
      "▁सीप": 6278,
      "▁बरामद": 6279,
      "दिएको": 6280,
      "▁शिवि": 6281,
      "▁फ्": 6282,
      "हाइ": 6283,
      "▁९९": 6284,
      "हत्या": 6285,
      "▁प्रवर्द्ध": 6286,
      "▁हकमा": 6287,
      "▁सुपर": 6288,
      "▁प्रणालीमा": 6289,
      "▁विशिष्ट": 6290,
      "ङक": 6291,
      "▁विस्तृत": 6292,
      "▁कोशी": 6293,
      "▁महँग": 6294,
      "▁भिड": 6295,
      "▁सामूहिक": 6296,
      "▁प्रदीप": 6297,
      "मैत्री": 6298,
      "▁बजेटमा": 6299,
      "बैंक": 6300,
      "▁छनौट": 6301,
      "▁अधिकतम": 6302,
      "▁गल्ती": 6303,
      "▁ग्लो": 6304,
      "वाको": 6305,
      "नुपर्दछ": 6306,
      "पुग्": 6307,
      "▁इन्ध": 6308,
      "▁शिक्षण": 6309,
      "▁यसबारे": 6310,
      "नी,": 6311,
      "▁बम": 6312,
      "▁आचार्यले": 6313,
      "▁प्रविधिको": 6314,
      "▁अस्ट्र": 6315,
      "पू": 6316,
      "▁सत्तारुढ": 6317,
      "▁चुक्ता": 6318,
      "▁भन्नु": 6319,
      "▁बहा": 6320,
      "▁।\nप्र": 6321,
      "▁मारि": 6322,
      "▁महिलालाई": 6323,
      "नीकरण": 6324,
      "▁चलेको": 6325,
      "▁जुम्": 6326,
      "नेपाली": 6327,
      "ईएको": 6328,
      "▁नक्कली": 6329,
      "डाइ": 6330,
      "स्पद": 6331,
      "▁आइरहेको": 6332,
      "रहँदा": 6333,
      "▁महतो": 6334,
      "ेरु": 6335,
      "ीप": 6336,
      "ँचा": 6337,
      "▁स्थानीयले": 6338,
      "▁संस्थाका": 6339,
      "▁विज्ञप्ति": 6340,
      "▁गाउँपालिकाले": 6341,
      "टले": 6342,
      "▁तब": 6343,
      "▁ग्रामीण": 6344,
      "▁करी": 6345,
      "▁त्र": 6346,
      "▁बित": 6347,
      "उनी": 6348,
      "▁पाठ्य": 6349,
      "▁कसैको": 6350,
      "ानिस्ता": 6351,
      "्वाइ": 6352,
      "सम्ममा": 6353,
      "▁मस्": 6354,
      "▁काराग": 6355,
      "▁दरबार": 6356,
      "▁सञ्चारमा": 6357,
      "क्सन": 6358,
      "▁मा,": 6359,
      "’,": 6360,
      "▁हृ": 6361,
      "गणना": 6362,
      "▁सेवाको": 6363,
      "▁अमेरिकाले": 6364,
      "▁नोट": 6365,
      "थ्य": 6366,
      "लम्बन": 6367,
      "▁खालको": 6368,
      "▁सस्तो": 6369,
      "▁रह्यो": 6370,
      "क्सि": 6371,
      "▁विज्ञापन": 6372,
      "▁बिष": 6373,
      "▁हिस्सा": 6374,
      "▁नेताहरू": 6375,
      "मुना": 6376,
      "फूल": 6377,
      "न्ती": 6378,
      "यू": 6379,
      "▁शेख": 6380,
      "▁हैसिय": 6381,
      "र्की": 6382,
      "▁बसि": 6383,
      "अल": 6384,
      "▁चोट": 6385,
      "एच": 6386,
      "▁भुट": 6387,
      "▁यथार्थ": 6388,
      "▁उत्साह": 6389,
      "▁टुंगो": 6390,
      "▁खडा": 6391,
      "▁प्रमाणित": 6392,
      "वश्यक": 6393,
      "▁जरिवाना": 6394,
      "▁लेखेका": 6395,
      "▁भार": 6396,
      "▁अल्प": 6397,
      "▁शक्तिशाली": 6398,
      "▁अफि": 6399,
      "▁पेशा": 6400,
      "पर्छ": 6401,
      "राले": 6402,
      "▁संवेदनशील": 6403,
      "▁अभियानमा": 6404,
      "▁स्रोतले": 6405,
      "▁तार": 6406,
      "▁सिमा": 6407,
      "▁रावल": 6408,
      "लभ": 6409,
      "हरुबाट": 6410,
      "▁विधेय": 6411,
      "▁चर": 6412,
      "▁पारेर": 6413,
      "▁टन": 6414,
      "▁हुन्छ।\n": 6415,
      "▁सभाको": 6416,
      "पहि": 6417,
      "▁गुणस्तरीय": 6418,
      "▁गराए": 6419,
      "उमा": 6420,
      "▁पशुपति": 6421,
      "शालामा": 6422,
      "▁सुरुमा": 6423,
      "काइ": 6424,
      "▁तिनीहरूले": 6425,
      "▁पत्रिका": 6426,
      ")को": 6427,
      "▁फैलि": 6428,
      "▁मुटु": 6429,
      "▁रौतह": 6430,
      "ेन्ड": 6431,
      "विद्": 6432,
      "सम्मका": 6433,
      "▁७४": 6434,
      "▁फ्रान्स": 6435,
      "▁गौतमले": 6436,
      "▁बढिरहेको": 6437,
      "▁अस्पतालका": 6438,
      "कां": 6439,
      "▁अस्थायी": 6440,
      "▁तथ्याङ्क": 6441,
      "ौंडा": 6442,
      "गरानी": 6443,
      "▁हेरेर": 6444,
      "▁गुल्": 6445,
      "▁कुर": 6446,
      "▁चक्र": 6447,
      "▁बोल्": 6448,
      "न्डर": 6449,
      "▁भेटिएको": 6450,
      "▁अनौ": 6451,
      "▁सुशासन": 6452,
      "नुभन्दा": 6453,
      "रा,": 6454,
      "▁नैतिक": 6455,
      "▁अफ्र": 6456,
      "▁रचना": 6457,
      "अहिले": 6458,
      "▁गणना": 6459,
      "निङ": 6460,
      "▁सहायता": 6461,
      "▁रोकथा": 6462,
      "▁दर्शक": 6463,
      "▁खेल्": 6464,
      "ँदे": 6465,
      "▁इलाका": 6466,
      "▁अथवा": 6467,
      "▁खरीद": 6468,
      "रात": 6469,
      "साई": 6470,
      "▁बनाउँदै": 6471,
      "दायी": 6472,
      "▁दिल्ली": 6473,
      "द्रिक": 6474,
      "▁मार्क": 6475,
      "▁घि": 6476,
      "▁भीड": 6477,
      "▁तरल": 6478,
      "▁सेमि": 6479,
      "▁निर्धारित": 6480,
      "ेनले": 6481,
      "▁भाउ": 6482,
      "▁पर्दैन": 6483,
      "केट": 6484,
      "▁निगरानी": 6485,
      "▁टेक": 6486,
      "▁७१": 6487,
      "हाम्रो": 6488,
      "▁गोविन्द": 6489,
      "▁कैद": 6490,
      "▁गभर्न": 6491,
      "अप": 6492,
      "▁अगुवा": 6493,
      "▁काल": 6494,
      "▁किताब": 6495,
      "▁महिलाले": 6496,
      "▁प्रशासक": 6497,
      "ः\n-": 6498,
      "▁यतिबेला": 6499,
      "टी,": 6500,
      "र्सिलो": 6501,
      "▁प्": 6502,
      "▁तस्क": 6503,
      "ंशिक": 6504,
      "▁खाद्यान्न": 6505,
      "▁सुवे": 6506,
      "▁सङ्घीय": 6507,
      "▁हाफ": 6508,
      "▁इन्द्र": 6509,
      "▁लाइफ": 6510,
      "एकाले": 6511,
      "▁बाबुराम": 6512,
      "▁तारा": 6513,
      "▁विश्वभर": 6514,
      "▁कीर्ति": 6515,
      "▁रेखा": 6516,
      "▁एनआर": 6517,
      "▁(एमाले": 6518,
      "▁गर्मी": 6519,
      "साथै": 6520,
      "▁ढकालले": 6521,
      "▁स्वस्थ": 6522,
      "औष": 6523,
      "▁पाल्": 6524,
      "▁मध्यम": 6525,
      "▁म्यु": 6526,
      "देख": 6527,
      "▁मेरा": 6528,
      "▁विभेद": 6529,
      "▁जंग": 6530,
      "▁पठाइएको": 6531,
      "▁अडान": 6532,
      "▁आबद्ध": 6533,
      "▁4": 6534,
      "▁टेलिक": 6535,
      "▁आन्दोलनको": 6536,
      "▁२०२०": 6537,
      "▁कोइरालाले": 6538,
      "▁बुझाइ": 6539,
      "▁कपि": 6540,
      "▁अप्ठ": 6541,
      "सनको": 6542,
      "▁सगरमाथा": 6543,
      "▁बताउनु": 6544,
      "ढु": 6545,
      "▁सञ्चारमाध्यम": 6546,
      "▁नष्ट": 6547,
      "▁गोप": 6548,
      "ङ्गो": 6549,
      "▁नसकिने": 6550,
      "लिम": 6551,
      "▁गरिब": 6552,
      "▁अश": 6553,
      "▁मेगावाट": 6554,
      "विका": 6555,
      "▁हिमाली": 6556,
      "▁खोज्ने": 6557,
      "त्तर": 6558,
      "▁मानवीय": 6559,
      "▁नेटव": 6560,
      "▁मनमा": 6561,
      "ङ्गल": 6562,
      "'मा": 6563,
      "▁ज्ञानेन्द्र": 6564,
      "पीओ": 6565,
      "▁रु.": 6566,
      "▁कार्यक्रमका": 6567,
      "▁इन्टरनेट": 6568,
      "▁प्रतिकिलो": 6569,
      "▁पर्सा": 6570,
      "ेलको": 6571,
      "▁सम्पदा": 6572,
      "▁पत्रकारि": 6573,
      "▁लिखित": 6574,
      "▁घाटा": 6575,
      "किल": 6576,
      "लाइन्": 6577,
      "▁ठेकेदार": 6578,
      "▁कसले": 6579,
      "▁प्रभु": 6580,
      "▁प्याके": 6581,
      "▁डाइ": 6582,
      "▁असन्तुष्टि": 6583,
      "▁७३": 6584,
      "▁चाँडै": 6585,
      "▁हो।\n\n": 6586,
      "▁२०७२": 6587,
      "▁उपचारको": 6588,
      "▁अस्पतालले": 6589,
      "▁ल्याएका": 6590,
      "▁समाजको": 6591,
      "▁टेक्": 6592,
      "▁७८": 6593,
      "स्थापना": 6594,
      "▁उपसभा": 6595,
      "्यानल": 6596,
      "▁समुह": 6597,
      "ः\n": 6598,
      "▁सडकको": 6599,
      "▁तै": 6600,
      "▁कुर्": 6601,
      "▁वटै": 6602,
      "▁अटो": 6603,
      "▁जलवायु": 6604,
      "एई": 6605,
      "▁तत्व": 6606,
      "जीकरण": 6607,
      "नुभएका": 6608,
      "क्न": 6609,
      "▁उपत्यकामा": 6610,
      "ँचाइ": 6611,
      "▁तनहुँ": 6612,
      "ैया": 6613,
      "▁चौकी": 6614,
      "▁कल्पना": 6615,
      "▁बसोबास": 6616,
      "▁कक्ष": 6617,
      "ुरुन्त": 6618,
      "▁विपद्": 6619,
      "▁पस": 6620,
      "▁दाजु": 6621,
      "▁धनुषा": 6622,
      "▁जोखिममा": 6623,
      "▁चरित्र": 6624,
      "▁आशंका": 6625,
      "▁सङ्कलन": 6626,
      "▁रहँदा": 6627,
      "लाही": 6628,
      "▁सेवाग्राही": 6629,
      "टीका": 6630,
      "▁समायोजन": 6631,
      "▁फरार": 6632,
      "▁मनोर": 6633,
      "ंस": 6634,
      "तन": 6635,
      "▁पुग्यो": 6636,
      "▁बिच": 6637,
      "▁सरल": 6638,
      "नेका": 6639,
      "▁भिसा": 6640,
      "▁चिकित्सा": 6641,
      "▁बार्सिलो": 6642,
      "चण्ड": 6643,
      "▁भूभाग": 6644,
      "▁खनाल": 6645,
      "स्थापित": 6646,
      "जिङ": 6647,
      "▁कटौती": 6648,
      "▁वृद्ध": 6649,
      "▁थापा,": 6650,
      "▁शरीरमा": 6651,
      "▁अनुकूल": 6652,
      "▁परिसूचक": 6653,
      "▁जाँदै": 6654,
      "▁भर्खर": 6655,
      "कुम": 6656,
      "▁तुरुन्त": 6657,
      "▁अस्ति": 6658,
      "▁पठाउन": 6659,
      "देशक": 6660,
      "▁अफगानिस्ता": 6661,
      "¥यो": 6662,
      "प्ने": 6663,
      "▁प्रकट": 6664,
      "▁मानिसहरू": 6665,
      "▁जागिर": 6666,
      "▁बाली": 6667,
      "▁भिन्न": 6668,
      "▁कर्मचारीले": 6669,
      "▁१,": 6670,
      "om": 6671,
      "▁हल्ला": 6672,
      "▁तिनीहरूलाई": 6673,
      "ब्बा": 6674,
      "▁समस्याको": 6675,
      "▁दिएपछि": 6676,
      "कार्यक्रममा": 6677,
      "याली": 6678,
      "▁प्रशासनले": 6679,
      "▁देशलाई": 6680,
      "▁दुईवटा": 6681,
      "▁समझदारी": 6682,
      "▁बर्दि": 6683,
      "▁खुद": 6684,
      "न्छन्।": 6685,
      "▁८४": 6686,
      "▁अभियोग": 6687,
      "▁पढेर": 6688,
      "▁खनालले": 6689,
      "ग्रस्त": 6690,
      "▁भनिन्,": 6691,
      "१०": 6692,
      "▁सिमेन्ट": 6693,
      "▁जनाए": 6694,
      "▁प्राप्": 6695,
      "▁आया": 6696,
      "टरमा": 6697,
      "▁कुराको": 6698,
      "▁सतह": 6699,
      "▁नु": 6700,
      "▁ग्रुप": 6701,
      "हिर": 6702,
      "▁विद्यार्थीलाई": 6703,
      "▁भविष्यमा": 6704,
      "इलो": 6705,
      "▁तल्लो": 6706,
      "▁कुरालाई": 6707,
      "▁उत्पादनमा": 6708,
      "▁अवलोकन": 6709,
      "▁अभिभावक": 6710,
      "▁प्रिमियर": 6711,
      "▁आसपा": 6712,
      "▁पठाइ": 6713,
      "▁ब्रान्ड": 6714,
      "▁काउन्": 6715,
      "▁अध्यक्षतामा": 6716,
      "▁छोराछो": 6717,
      "▁नपर्ने": 6718,
      "▁विशेषता": 6719,
      "▁लुका": 6720,
      "▁सम्भावित": 6721,
      "▁श्रेष्ठको": 6722,
      "▁जित्ने": 6723,
      "ङ्ग्र": 6724,
      "▁सेमिफाइ": 6725,
      "▁८८": 6726,
      "नयाँ": 6727,
      "▁हिरा": 6728,
      "▁आक्रो": 6729,
      "▁सिजन": 6730,
      "▁काँ": 6731,
      "▁नेताहरुले": 6732,
      "▁लुट": 6733,
      "ड्ड": 6734,
      "िनको": 6735,
      "▁ऐन,": 6736,
      "▁आपत्ति": 6737,
      "▁पुर्‍या": 6738,
      "▁बैङ्क": 6739,
      "▁ट्रम्पले": 6740,
      "न्ता": 6741,
      "निस": 6742,
      "▁६९": 6743,
      "▁कूल": 6744,
      "पक्षीय": 6745,
      "ह्न": 6746,
      "▁?\n\n": 6747,
      "▁बोर्डले": 6748,
      "मूल्य": 6749,
      "▁सिर": 6750,
      "▁निर्भर": 6751,
      "▁तपाईले": 6752,
      "▁लिइ": 6753,
      "सिस": 6754,
      "▁नदीमा": 6755,
      "जाति": 6756,
      "▁रेड": 6757,
      "▁फाइना": 6758,
      "▁वैकल्पिक": 6759,
      "▁सङ्क्रमित": 6760,
      "▁सामाग्री": 6761,
      "▁बाह्य": 6762,
      "▁९८": 6763,
      "▁सिँचाइ": 6764,
      "भित्रको": 6765,
      "धनी": 6766,
      "▁राखे": 6767,
      "लागी": 6768,
      "माल": 6769,
      "वादको": 6770,
      "▁यहाँको": 6771,
      "▁बजेदेखि": 6772,
      "▁किसानले": 6773,
      "▁बाढ": 6774,
      "▁गएपछि": 6775,
      "▁पुनरा": 6776,
      "सुन": 6777,
      "▁हिँ": 6778,
      "फर्म": 6779,
      "▁उत्तम": 6780,
      "▁प्रहरीका": 6781,
      "▁प्रशंसा": 6782,
      "▁(क": 6783,
      "▁चोरी": 6784,
      "▁उपहार": 6785,
      "▁सक्छ,": 6786,
      "सीय": 6787,
      "▁सधैँ": 6788,
      "▁मदन": 6789,
      "▁प्रतिस्पर्धी": 6790,
      "▁नेपाल,": 6791,
      "▁शिक्षा,": 6792,
      "▁गे": 6793,
      "पल्ट": 6794,
      "▁नराम": 6795,
      "en": 6796,
      "▁अंकले": 6797,
      "▁सिंहदरबार": 6798,
      "▁शता": 6799,
      "▁अतिथि": 6800,
      "▁पार्टीलाई": 6801,
      "ित्तिकै": 6802,
      "▁प्रालि": 6803,
      "▁व्यवसायीले": 6804,
      "शेर": 6805,
      "▁घन्": 6806,
      "▁राइ": 6807,
      "लेक्ट": 6808,
      "्स": 6809,
      "-३": 6810,
      "क्की": 6811,
      "▁शरण": 6812,
      "▁कर्त": 6813,
      "भ्य": 6814,
      "▁एप": 6815,
      "▁स्वच्छ": 6816,
      "▁जोगाउन": 6817,
      "▁हुनेछन्": 6818,
      "▁धनी": 6819,
      "▁छुट्या": 6820,
      "्रैमा": 6821,
      "▁चाप": 6822,
      "▁खुवा": 6823,
      "▁वीरगञ्ज": 6824,
      "▁बैंकमा": 6825,
      "▁गुणा": 6826,
      "▁खेलेको": 6827,
      "▁गौरव": 6828,
      "▁S": 6829,
      "नात्मक": 6830,
      "▁संग्रह": 6831,
      "निर्भर": 6832,
      "▁निर्वाचनका": 6833,
      "▁बजारको": 6834,
      "स्यौ": 6835,
      "▁हेटौंडा": 6836,
      "▁८२": 6837,
      "क्कर": 6838,
      "▁बराबर": 6839,
      "▁तस्बिर": 6840,
      "▁बनाउँछ": 6841,
      "▁परिसर": 6842,
      "▁बिन्दु": 6843,
      "▁महर्जन": 6844,
      "▁बाँध": 6845,
      "▁गयो": 6846,
      "▁जित्न": 6847,
      "ृंख": 6848,
      "or": 6849,
      "▁कमजोरी": 6850,
      "▁पारेका": 6851,
      "▁प्रतिपक्षी": 6852,
      "▁पाउँ": 6853,
      "▁अध्यक्षमा": 6854,
      "स्टिक": 6855,
      "▁उनि": 6856,
      "ब्या": 6857,
      "धाज्ञा": 6858,
      "स्फ": 6859,
      "सिद्ध": 6860,
      "▁नाइ": 6861,
      "▁प्रवद्र्धन": 6862,
      "दीले": 6863,
      "▁कार्यक्रमलाई": 6864,
      "घरमा": 6865,
      "▁सन": 6866,
      "▁जसका": 6867,
      "▁अभिनेता": 6868,
      "र्खा": 6869,
      "परिवार": 6870,
      "\",": 6871,
      "▁आंशिक": 6872,
      "वरी": 6873,
      "निय": 6874,
      "▁जुनसुकै": 6875,
      "▁किरण": 6876,
      "▁छवि": 6877,
      "यती": 6878,
      "▁वडामा": 6879,
      "▁आयु": 6880,
      "▁:\n": 6881,
      "▁अनियमित": 6882,
      "औषध": 6883,
      "▁निर्णा": 6884,
      "▁मार्च": 6885,
      "▁भेट्न": 6886,
      "▁८१": 6887,
      "▁हारा": 6888,
      "भमा": 6889,
      "▁विवेक": 6890,
      "▁गर्थे": 6891,
      "▁गुप्": 6892,
      "▁बिल": 6893,
      "▁दिनेश": 6894,
      "▁सशक्त": 6895,
      "▁त्रैमा": 6896,
      "ामक": 6897,
      "हिँ": 6898,
      "चाह": 6899,
      "किएका": 6900,
      "मैले": 6901,
      "दायक": 6902,
      "▁!\n": 6903,
      "▁ओलीलाई": 6904,
      "▁आर्जन": 6905,
      "▁नाच": 6906,
      "▁दुर्गा": 6907,
      "▁सुनाए": 6908,
      "▁उमेरमा": 6909,
      "▁मौद्रिक": 6910,
      "▁औसत": 6911,
      "▁मोडेल": 6912,
      "▁उत्पादक": 6913,
      "सन्त": 6914,
      "▁तुलसी": 6915,
      "▁तट": 6916,
      "भरी": 6917,
      "▁विभागको": 6918,
      "▁न्यूनीकरण": 6919,
      "▁अबको": 6920,
      "▁ध्व": 6921,
      "दछ।": 6922,
      "▁गीतमा": 6923,
      "▁नदिन": 6924,
      "▁तातो": 6925,
      "▁युनियन": 6926,
      "▁हुँदैछ": 6927,
      "▁सदस्यको": 6928,
      "▁फाइनल": 6929,
      "▁जितेका": 6930,
      "धनमा": 6931,
      "▁उद्यम": 6932,
      "▁भ्रमणमा": 6933,
      "यात्रा": 6934,
      "▁जला": 6935,
      "्योति": 6936,
      "▁अन्तरिम": 6937,
      "ेटिङ": 6938,
      "▁निरीक्षक": 6939,
      "म्बार": 6940,
      "▁साब": 6941,
      "म्की": 6942,
      "▁महासंघका": 6943,
      "▁कब्जा": 6944,
      "▁पदक": 6945,
      "▁घिमिरेले": 6946,
      "वास्ता": 6947,
      "▁करीब": 6948,
      "भौ": 6949,
      "▁रिलिज": 6950,
      "प्लव": 6951,
      "ज,": 6952,
      "▁क्रियाशील": 6953,
      "▁स्क": 6954,
      "▁फलफूल": 6955,
      "▁८३": 6956,
      "▁हाराहारी": 6957,
      "▁मोहन": 6958,
      "▁अनुमो": 6959,
      "एमा": 6960,
      "▁मनाइ": 6961,
      "▁त्रा": 6962,
      "दको": 6963,
      "▁८७": 6964,
      "्यारा": 6965,
      "▁लेखिएको": 6966,
      "लेले": 6967,
      "▁छात्र": 6968,
      "आउ": 6969,
      "▁तिर्न": 6970,
      "▁८६": 6971,
      "▁उता": 6972,
      "▁विपरीत": 6973,
      "▁सहजीकरण": 6974,
      "▁काली": 6975,
      "▁गतिमा": 6976,
      "▁सिम": 6977,
      "▁सन्दीप": 6978,
      "म्बुले": 6979,
      "डाको": 6980,
      "▁७९": 6981,
      "▁कार्यालय,": 6982,
      "▁दर्शन": 6983,
      "...": 6984,
      "▁चल्": 6985,
      "▁ब्रो": 6986,
      "▁नपुग": 6987,
      "▁ल्याइ": 6988,
      "▁मार्": 6989,
      "▁९१": 6990,
      "▁विक्री": 6991,
      "▁क्वा": 6992,
      "▁भेटघाट": 6993,
      "▁छाडेर": 6994,
      "▁उद्योगी": 6995,
      "▁सर्लाही": 6996,
      "▁अभिनेत्री": 6997,
      "ोषण": 6998,
      ".५": 6999,
      "▁देखेर": 7000,
      "ट्टै": 7001,
      "मात्रै": 7002,
      "हिता": 7003,
      "▁दुर्ग": 7004,
      "▁उचाइ": 7005,
      "▁माध्य": 7006,
      "▁करण": 7007,
      "▁सिस्ट": 7008,
      "▁बनाई": 7009,
      "▁गर्नेछन्": 7010,
      "▁शासक": 7011,
      "▁परिवारले": 7012,
      "शनल": 7013,
      "▁फाउ": 7014,
      "▁९२": 7015,
      "घाखा": 7016,
      "डामा": 7017,
      "▁कागजात": 7018,
      "▁आत्महत्या": 7019,
      "स्यौदा": 7020,
      "▁क्रियाकलाप": 7021,
      "▁वास्तवमा": 7022,
      "पाटी": 7023,
      "ियो": 7024,
      "▁कपाल": 7025,
      "ख्य": 7026,
      "▁एसो": 7027,
      "▁व्यापारिक": 7028,
      "कस्": 7029,
      "▁नरेन्द्र": 7030,
      "▁लिइएको": 7031,
      "फे": 7032,
      "▁सट्टा": 7033,
      "▁बेस": 7034,
      "▁एकपटक": 7035,
      "▁बिरुवा": 7036,
      "▁योजनामा": 7037,
      "सस": 7038,
      "▁ग्लोबल": 7039,
      "श्रमिक": 7040,
      "▁अह": 7041,
      "▁निरी": 7042,
      "▁२०८२": 7043,
      "▁रहन्छ": 7044,
      "▁पोखरामा": 7045,
      "▁बिरामीको": 7046,
      "▁सतर्क": 7047,
      "▁पराजु": 7048,
      "▁भैरह": 7049,
      "▁मास्क": 7050,
      "▁प्लेट": 7051,
      "▁गुट": 7052,
      "▁हृदय": 7053,
      "▁जना,": 7054,
      "▁बिज": 7055,
      "वारिक": 7056,
      "▁मालिक": 7057,
      "▁पारे": 7058,
      "▁दिनभित्र": 7059,
      "▁प्रशासनिक": 7060,
      "▁खुल्ला": 7061,
      "▁९६": 7062,
      "▁रेमि": 7063,
      "▁लाइस": 7064,
      "पुर,": 7065,
      "▁श्रीलंका": 7066,
      "▁गर्छन्।": 7067,
      "जनमा": 7068,
      "▁राय": 7069,
      "▁घटेर": 7070,
      "▁गोपाल": 7071,
      "▁डल": 7072,
      "▁मर्ज": 7073,
      "▁अक्सिजन": 7074,
      "डीको": 7075,
      "▁।\n\nउनले": 7076,
      "▁होइन।": 7077,
      "दमै": 7078,
      "▁पूरै": 7079,
      "न।": 7080,
      "▁हङक": 7081,
      "वासमा": 7082,
      "▁अनाव": 7083,
      "▁आ-": 7084,
      "▁दोषी": 7085,
      "▁शताब्": 7086,
      "कीय": 7087,
      "▁हुनेछ।\n": 7088,
      "वस्तु": 7089,
      "नालाई": 7090,
      "वन्ध": 7091,
      "▁नायब": 7092,
      "▁निषेधाज्ञा": 7093,
      "▁थिएन।": 7094,
      "▁निकायले": 7095,
      "▁लहर": 7096,
      "▁अलपत्र": 7097,
      "▁शंकर": 7098,
      "▁रहि": 7099,
      "▁अत्यावश्यक": 7100,
      "▁रोज": 7101,
      "▁।\n\nत्य": 7102,
      "ट्र": 7103,
      "▁क्षमताको": 7104,
      "नोद": 7105,
      "सनल": 7106,
      "▁प्रहरीलाई": 7107,
      "त्मा": 7108,
      "ेरा": 7109,
      "▁कुँ": 7110,
      "▁मस्यौदा": 7111,
      "▁अष्ट्रेलिया": 7112,
      "िरहेका": 7113,
      "▁तपाईँ": 7114,
      "▁घिमिरे": 7115,
      "▁मनाउने": 7116,
      "एनए": 7117,
      "▁फर्किएका": 7118,
      "▁दिइने": 7119,
      "▁बैशाख": 7120,
      "▁मधु": 7121,
      "▁नक्सा": 7122,
      "हिने": 7123,
      "ंदै": 7124,
      "▁उठाउन": 7125,
      "घाखाँच": 7126,
      "▁व्यक्तित्व": 7127,
      "▁पीसी": 7128,
      "▁विद्यालयको": 7129,
      "▁दिनदेखि": 7130,
      "▁आक्रोश": 7131,
      "▁टुक्रा": 7132,
      "▁N": 7133,
      "वृत्ति": 7134,
      "▁प्रतिपक्ष": 7135,
      "▁।\nक": 7136,
      "श्चात": 7137,
      "नुको": 7138,
      "▁पुर्याउन": 7139,
      "▁काठमाण्डौ": 7140,
      "▁अरब": 7141,
      "▁किशोर": 7142,
      "▁उत्तिकै": 7143,
      "्ने,": 7144,
      "▁९३": 7145,
      "▁भने।": 7146,
      "एमई": 7147,
      "▁बस्नेतले": 7148,
      "▁धादि": 7149,
      "ालु": 7150,
      "▁धेरैले": 7151,
      "वित": 7152,
      "▁टेलिभिजन": 7153,
      "▁रनमा": 7154,
      "▁बोनस": 7155,
      "▁पोष्ट": 7156,
      "▁साउदी": 7157,
      "▁नेपालगञ्ज": 7158,
      "▁सहुल": 7159,
      "▁नागरिकले": 7160,
      "▁संक्रमणको": 7161,
      "▁हेरि": 7162,
      "▁पावर": 7163,
      "▁देखिन": 7164,
      "▁आवको": 7165,
      "ब्य": 7166,
      "▁नलाग": 7167,
      "पुल": 7168,
      "▁चर्को": 7169,
      "▁खुट्टा": 7170,
      "ाधीन": 7171,
      "▁बनेर": 7172,
      "▁बुँदे": 7173,
      "▁भत्का": 7174,
      "▁गर्नुहोस्।": 7175,
      "▁सन्धि": 7176,
      "▁सहसचिव": 7177,
      "ुरे": 7178,
      "▁लैजान": 7179,
      "▁किन्न": 7180,
      "▁छैनन्।": 7181,
      "▁बराबरी": 7182,
      "▁ब्राजि": 7183,
      "्यारो": 7184,
      "▁आराम": 7185,
      "होस": 7186,
      "▁सिटी": 7187,
      "▁विमानस्थलमा": 7188,
      "▁सवारीसाधन": 7189,
      "▁हटाउने": 7190,
      "▁बजेटको": 7191,
      "▁स्वदेशी": 7192,
      "–१": 7193,
      "▁नवलपरा": 7194,
      "▁९४": 7195,
      "ड्दै": 7196,
      "▁९७": 7197,
      "▁?\n-": 7198,
      "ञ्चार": 7199,
      "▁खपत": 7200,
      "▁ज्व": 7201,
      "▁प्रतिवद्ध": 7202,
      "▁वेबसाइ": 7203,
      "▁पुग्छ": 7204,
      "▁अनावश्यक": 7205,
      "▁रमाइलो": 7206,
      "▁निष्कास": 7207,
      "▁कोठामा": 7208,
      "▁चाहने": 7209,
      "चोक": 7210,
      "▁लडा": 7211,
      "▁फैला": 7212,
      "▁जनमत": 7213,
      "▁सुवेदी": 7214,
      "▁भाषामा": 7215,
      "▁अध्यय": 7216,
      "▁थियौं": 7217,
      "▁देखाउन": 7218,
      "नाइटेड": 7219,
      "▁क्षण": 7220,
      "▁पर्छ।": 7221,
      "ेषण": 7222,
      "समक्ष": 7223,
      "ौली": 7224,
      "्यो,": 7225,
      "्रेजी": 7226,
      "▁सदस्यमा": 7227,
      "शास्त्र": 7228,
      "▁नियमन": 7229,
      "कन": 7230,
      "ed": 7231,
      "▁एकदमै": 7232,
      "अध्यक्ष": 7233,
      "▁कैलाली": 7234,
      "▁अभिवृद्धि": 7235,
      "०७": 7236,
      "बमोजिम": 7237,
      "▁मानिसले": 7238,
      "▁फिट": 7239,
      "▁पर्यट": 7240,
      "▁पुग्दा": 7241,
      "▁रुख": 7242,
      "▁होला।": 7243,
      "▁किशो": 7244,
      "▁गराइएको": 7245,
      "▁नेकपाका": 7246,
      "▁आएकी": 7247,
      "जका": 7248,
      "▁युवराज": 7249,
      "▁गरिबी": 7250,
      "▁कम्पनीलाई": 7251,
      "▁पुँजीगत": 7252,
      "▁निर्णायक": 7253,
      "▁निम": 7254,
      "▁ट्रे": 7255,
      "षाध्यक्ष": 7256,
      "▁माध्यमिक": 7257,
      "न्थी": 7258,
      "▁सहितको": 7259,
      "▁थापाको": 7260,
      "▁/": 7261,
      "▁आदर्श": 7262,
      "▁बताएकी": 7263,
      "▁तिहार": 7264,
      "▁माइक्रो": 7265,
      "▁सुरक्षाको": 7266,
      "▁अनुप": 7267,
      "▁दिदी": 7268,
      "▁सायद": 7269,
      "▁अधिवक्ता": 7270,
      "▁रियल": 7271,
      "▁नेताहरूले": 7272,
      "▁चाहेको": 7273,
      "▁बढाइ": 7274,
      "▁वर्ण": 7275,
      "▁देखियो": 7276,
      "▁सघ": 7277,
      "▁उठाउने": 7278,
      "▁कर्तव्य": 7279,
      "▁जातीय": 7280,
      "▁८९": 7281,
      "पाल्च": 7282,
      "▁फाइनलमा": 7283,
      "▁गर्छ।": 7284,
      "▁अस्ट्रेलिया": 7285,
      "वाली": 7286,
      "▁फार": 7287,
      "खोला": 7288,
      "▁विद्यार्थीको": 7289,
      "▁सरकारबाट": 7290,
      "▁घरमै": 7291,
      "▁ठोस": 7292,
      "▁ढिलो": 7293,
      "▁उत्पादनको": 7294,
      "पिट": 7295,
      "▁मुना": 7296,
      "▁श्रे": 7297,
      "्मण": 7298,
      "▁दाइ": 7299,
      "िको": 7300,
      "भाष": 7301,
      "ोस्": 7302,
      "पोर": 7303,
      "ङ्कन": 7304,
      "▁नृ": 7305,
      "▁त्याग": 7306,
      "▁मिस": 7307,
      "▁थालि": 7308,
      "टिभ": 7309,
      "▁पारिवारिक": 7310,
      "ानमा": 7311,
      "वान्": 7312,
      "▁कम्प्यु": 7313,
      "▁नमा": 7314,
      "▁गर्दछ।\n": 7315,
      "पावर": 7316,
      "टारमा": 7317,
      "ौँ,": 7318,
      "▁स्थानीयवासी": 7319,
      "▁हराएको": 7320,
      "▁उका": 7321,
      "▁गठबन्धनको": 7322,
      "▁मावि": 7323,
      "▁एसियाली": 7324,
      "▁संस्थामा": 7325,
      "▁घटा": 7326,
      "मलाई": 7327,
      "▁त्यसरी": 7328,
      "▁विनोद": 7329,
      "▁जिक": 7330,
      "▁हुनेको": 7331,
      "सरकारी": 7332,
      "्रिड": 7333,
      "▁झनै": 7334,
      "▁कच्चा": 7335,
      "▁शौ": 7336,
      "▁भू-": 7337,
      "डीमा": 7338,
      "▁।’": 7339,
      "▁हप्": 7340,
      "▁वाइ": 7341,
      "▁हद": 7342,
      "▁अस्थ": 7343,
      "▁बताइ": 7344,
      "▁गगन": 7345,
      "▁खातामा": 7346,
      "▁चाहन्छु": 7347,
      "▁गरिन्छ।": 7348,
      "▁शपथ": 7349,
      "सी,": 7350,
      "▁उड्ड": 7351,
      "▁नवीकरण": 7352,
      "ुक्त": 7353,
      "▁रत्न": 7354,
      "▁स्तरमा": 7355,
      "▁पह": 7356,
      "चीन": 7357,
      "▁मूल्यांकन": 7358,
      "▁अपरि": 7359,
      "▁बस्त": 7360,
      "▁हुँदैन।": 7361,
      "ानको": 7362,
      "▁इलेक्ट": 7363,
      "▁उद्यमी": 7364,
      "▁नोक्स": 7365,
      "वत्": 7366,
      "▁पद्ध": 7367,
      "▁(१": 7368,
      "▁हुनेमा": 7369,
      "▁पत्रमा": 7370,
      "▁अर्यालले": 7371,
      "▁फरा": 7372,
      "▁उपेन्द्र": 7373,
      "▁छिट्टै": 7374,
      "▁कुकुर": 7375,
      "▁समाजका": 7376,
      "▁बताउनुभएको": 7377,
      "▁जोश": 7378,
      "▁परिषद": 7379,
      "▁ओभर": 7380,
      "▁रहनेछ": 7381,
      "▁भेटवार्ता": 7382,
      "▁स्टक": 7383,
      "▁कल्या": 7384,
      "▁२०१९": 7385,
      "▁स्थानिय": 7386,
      "▁हिन्दु": 7387,
      "▁कुमारी": 7388,
      "▁बसे": 7389,
      "▁एक्लै": 7390,
      "हको": 7391,
      "▁गरिए": 7392,
      "मेरो": 7393,
      "▁हजुर": 7394,
      "ूले": 7395,
      "▁साझेदार": 7396,
      "न्नति": 7397,
      "▁गुरुङ,": 7398,
      "▁रोमा": 7399,
      "▁प्रकरणमा": 7400,
      "▁खोज्न": 7401,
      "नयन": 7402,
      "▁पारिश्रमिक": 7403,
      "▁वर": 7404,
      "▁।\nउनले": 7405,
      "स्थापन": 7406,
      "▁स्वि": 7407,
      "नियम": 7408,
      "▁नपाएको": 7409,
      "▁परिमा": 7410,
      "▁प्रादेशिक": 7411,
      "केही": 7412,
      "▁उहाँलाई": 7413,
      "▁तिर्": 7414,
      "▁भगवान": 7415,
      "▁आउँदै": 7416,
      "▁खोल्ने": 7417,
      "गृह": 7418,
      "▁ठगी": 7419,
      "▁देशले": 7420,
      "▁'आ": 7421,
      "▁स्क्र": 7422,
      "▁त्यसकारण": 7423,
      "▁उस्तै": 7424,
      "▁राखी": 7425,
      "▁प्रतिशत,": 7426,
      "▁मदि": 7427,
      "▁।\nयो": 7428,
      "▁पक्षको": 7429,
      "▁छोडेर": 7430,
      "▁सदस्यता": 7431,
      "गामी": 7432,
      "▁लम": 7433,
      "▁विपन्न": 7434,
      "लान्": 7435,
      "▁हुन्छन्।": 7436,
      "▁बाँडफा": 7437,
      "कता": 7438,
      "▁निर्देशिका": 7439,
      "▁मानिसलाई": 7440,
      "▁परिणत": 7441,
      "हाले": 7442,
      "▁कूटनीतिक": 7443,
      "▁पाल्पा": 7444,
      "▁नमुना": 7445,
      "सहितका": 7446,
      "▁आमाको": 7447,
      "▁भाषण": 7448,
      "▁ढिलाइ": 7449,
      "▁कामका": 7450,
      "▁नेपालबाट": 7451,
      "▁खिच": 7452,
      "▁सवाल": 7453,
      "▁पला": 7454,
      "▁वीरेन्द्र": 7455,
      "▁गिरा": 7456,
      "▁आचार": 7457,
      "▁पेट्रोलियम": 7458,
      "श्री": 7459,
      "▁।\n\nनेपाल": 7460,
      "समध्ये": 7461,
      "▁नलि": 7462,
      "▁जनाउँदै": 7463,
      "▁दोहोरो": 7464,
      "पीडित": 7465,
      "टिक": 7466,
      "ए,": 7467,
      "▁कानूनी": 7468,
      "▁\"\n": 7469,
      "▁लागे": 7470,
      "नैतिक": 7471,
      "▁१.": 7472,
      "▁रानी": 7473,
      "▁नमिल्": 7474,
      "ंगी": 7475,
      "▁पक्कै": 7476,
      "श्रो": 7477,
      "▁सिनेमा": 7478,
      "▁फुटब": 7479,
      "▁काय": 7480,
      "▁बालेन": 7481,
      "▁झो": 7482,
      "सोम": 7483,
      "डिएको": 7484,
      "▁संसद्मा": 7485,
      "▁मौन": 7486,
      "▁सभ्य": 7487,
      "▁सेन्ट": 7488,
      "▁रोगको": 7489,
      "▁महासंघले": 7490,
      "▁राह": 7491,
      "ाउनको": 7492,
      "▁एकीकरण": 7493,
      "▁ब्याटिङ": 7494,
      "▁ज्य": 7495,
      "पाइ": 7496,
      "▁क्षेत्रफल": 7497,
      "▁अन्ततः": 7498,
      "▁बन्यो": 7499,
      "घट": 7500,
      "▁ट्रान्स": 7501,
      "फ्ट": 7502,
      "▁भनिन्": 7503,
      "▁सक्छ।\n": 7504,
      "र्ना": 7505,
      "▁गुमाएका": 7506,
      "▁विन्दु": 7507,
      "▁छाप": 7508,
      "▁स्वतन्त्रता": 7509,
      "▁यिन": 7510,
      "▁स्वाद": 7511,
      "▁गेट": 7512,
      "▁सम्मानित": 7513,
      "▁महँगो": 7514,
      "▁सक्नेछन्": 7515,
      "▁थारु": 7516,
      "▁नियमावली": 7517,
      "▁जोडेर": 7518,
      "▁घाँ": 7519,
      "▁साँच्च": 7520,
      "▁अत्यन्तै": 7521,
      "▁अपर": 7522,
      "▁दिनअघि": 7523,
      "▁त्यहाँको": 7524,
      "▁भिडियोमा": 7525,
      "▁सापकोटा": 7526,
      "▁मिले": 7527,
      "▁मनोनयन": 7528,
      "▁मतगणना": 7529,
      "▁थियो।\n\n": 7530,
      "▁प्रिय": 7531,
      "▁युनाइटेड": 7532,
      "सेल": 7533,
      "▁अंश": 7534,
      "▁काठमाडौ": 7535,
      "▁पाकिस्तान": 7536,
      "जिन": 7537,
      "सिप": 7538,
      "▁भन्नेमा": 7539,
      "▁विश्वमा": 7540,
      "िरहेको": 7541,
      "▁एयरलाइन्": 7542,
      "तर्फको": 7543,
      "▁बुझाएको": 7544,
      "▁गभर्नर": 7545,
      "▁किसानलाई": 7546,
      "▁कसुर": 7547,
      "▁प्रणालीको": 7548,
      "▁अंग्रेजी": 7549,
      "खे": 7550,
      "▁बेड": 7551,
      "▁पोलि": 7552,
      "▁देखिँदैन": 7553,
      "▁सद्": 7554,
      "▁पहाड": 7555,
      "▁वरिपरि": 7556,
      "▁बानी": 7557,
      "ेकाले": 7558,
      "▁यद्यपि,": 7559,
      "▁स्कूल": 7560,
      "▁आन्दोलनका": 7561,
      "काई": 7562,
      "▁श्रीमा": 7563,
      "न्नु": 7564,
      "फिल्": 7565,
      "रालो": 7566,
      "▁हजारभन्दा": 7567,
      "▁जमा": 7568,
      "▁उम": 7569,
      "ष्कार": 7570,
      "▁मुम्ब": 7571,
      "प्रसार": 7572,
      "▁एच": 7573,
      "▁इंग्": 7574,
      "▁स्वास्थ्यकर्मी": 7575,
      "▁एड": 7576,
      "िकरण": 7577,
      "▁कौ": 7578,
      "▁परिवर्तनको": 7579,
      "स्थानीय": 7580,
      "▁हुनसक्छ": 7581,
      "▁लेखेको": 7582,
      "▁आलु": 7583,
      "▁बिस्तारै": 7584,
      "▁गोल्ड": 7585,
      "▁देवको": 7586,
      "▁आयोगमा": 7587,
      "▁गतेको": 7588,
      "िङ": 7589,
      "▁मृतक": 7590,
      "▁भैरहवा": 7591,
      "▁।\n\nस": 7592,
      "▁लगानीको": 7593,
      "▁साधारणसभा": 7594,
      "▁आजै": 7595,
      "बाद": 7596,
      "गण्डकी": 7597,
      "▁२०७३": 7598,
      "▁भाग्य": 7599,
      "▁अनुभूति": 7600,
      "ण्ट": 7601,
      "▁बोल्न": 7602,
      "▁रुपैयाँ,": 7603,
      "▁कर्ण": 7604,
      "▁पेन": 7605,
      "▁'प": 7606,
      "/८": 7607,
      "▁माधवकुमार": 7608,
      "ारको": 7609,
      "▁खरेल": 7610,
      "▁सुदृढ": 7611,
      "▁सर्त": 7612,
      "▁उड्डयन": 7613,
      "▁चित्त": 7614,
      "▁बाघ": 7615,
      "▁उपचारमा": 7616,
      "दलीय": 7617,
      "▁खोल्न": 7618,
      "▁बाँके": 7619,
      "जरको": 7620,
      "▁सहभागि": 7621,
      "ख्": 7622,
      "▁अर्घाखाँच": 7623,
      "▁टिका": 7624,
      "▁अर्ध": 7625,
      "▁सुरेन्द्र": 7626,
      "▁क्षतिपूर्ति": 7627,
      "▁सिन्धुपाल्च": 7628,
      "पाठ": 7629,
      "▁सम्पादन": 7630,
      "▁गराउँदै": 7631,
      "लवस्तु": 7632,
      "माया": 7633,
      "▁जित्": 7634,
      "जब": 7635,
      "▁रिस": 7636,
      "▁भए।": 7637,
      "▁संविधानले": 7638,
      "▁आरोहण": 7639,
      "प्टे": 7640,
      "▁निजाम": 7641,
      "▁बृह": 7642,
      "▁नुवा": 7643,
      "प्ती": 7644,
      "सूची": 7645,
      "▁।”": 7646,
      "▁स्पे": 7647,
      "▁ओम": 7648,
      "ट्टी": 7649,
      "▁अस्थिर": 7650,
      "▁बेवास्ता": 7651,
      "▁राष्ट्रियसभा": 7652,
      "▁स्वास्थ्यमा": 7653,
      "▁राम्रोसँग": 7654,
      "▁कल्याण": 7655,
      "▁ग्य": 7656,
      "▁हजार,": 7657,
      "▁सम्हाल": 7658,
      "▁उपाध्या": 7659,
      "▁फर्म": 7660,
      "सिना": 7661,
      "▁माओवादीले": 7662,
      "सक्नु": 7663,
      "▁पौडेल,": 7664,
      "▁अफ्रिका": 7665,
      "▁जाति": 7666,
      "स्टा": 7667,
      "▁पवि": 7668,
      "▁महानिर्": 7669,
      "▁ईश्वर": 7670,
      "▁डिग्री": 7671,
      "▁२०१८": 7672,
      "▁समस्यामा": 7673,
      "न्याय": 7674,
      "▁बिभिन्न": 7675,
      "▁व्यवस्थापनमा": 7676,
      "ालगायत": 7677,
      "ालमा": 7678,
      "▁गुल्मी": 7679,
      "जेल": 7680,
      "▁युट": 7681,
      "र्कि": 7682,
      "मीले": 7683,
      "▁गर्भ": 7684,
      "▁यात्रामा": 7685,
      "▁दिँदा": 7686,
      "▁लगानीमा": 7687,
      "सिङ": 7688,
      "टप": 7689,
      "▁थिएनन्": 7690,
      "▁खसेको": 7691,
      "▁जिकिर": 7692,
      "▁चर्चामा": 7693,
      "सैगरी": 7694,
      "▁बारम्बार": 7695,
      "▁लामिछानेले": 7696,
      "▁मोदी": 7697,
      "▁सकेनन्": 7698,
      "स)": 7699,
      "▁परियार": 7700,
      "▁गीतको": 7701,
      "▁पाउनु": 7702,
      "▁गरेकाले": 7703,
      "▁–": 7704,
      "▁स्वाभाविक": 7705,
      "स्तर": 7706,
      "▁गठबन्धनका": 7707,
      "▁विद्यालयका": 7708,
      "▁लुगा": 7709,
      "▁रेग्मी": 7710,
      "▁सिल": 7711,
      "जन्तु": 7712,
      "▁पाएपछि": 7713,
      "▁त्यसबेला": 7714,
      "▁पत्नी": 7715,
      "▁कृषक": 7716,
      "न्सको": 7717,
      "▁समाधानका": 7718,
      "▁म्याग्दी": 7719,
      "नुहोस्।": 7720,
      "▁विहान": 7721,
      "▁मही": 7722,
      "बाहिर": 7723,
      "▁निगमले": 7724,
      "▁हरियो": 7725,
      "▁अन्नपूर्ण": 7726,
      "▁नदेखि": 7727,
      "▁कर्पोर": 7728,
      "▁बस्नेत": 7729,
      "रानी": 7730,
      "▁स्तरो": 7731,
      "विपरी": 7732,
      "िल्ली": 7733,
      "▁इन्जिनियर": 7734,
      "िन्": 7735,
      "▁खै": 7736,
      "्ररी": 7737,
      "▁संयोजकत्वमा": 7738,
      "▁क्रान्तिकारी": 7739,
      "द्वय": 7740,
      "वरले": 7741,
      "▁लिटर": 7742,
      "▁गरेमा": 7743,
      "लाग्दो": 7744,
      "▁दशैं": 7745,
      "▁प्रदू": 7746,
      "ँट": 7747,
      "लगत्तै": 7748,
      "▁दिइन्": 7749,
      "खत": 7750,
      "▁माझ": 7751,
      "▁सर्वे": 7752,
      "▁कालोपत्र": 7753,
      "▁महाधिवेशनमा": 7754,
      "▁ज्येष्ठ": 7755,
      "▁मुस्ता": 7756,
      "▁शिक्षाको": 7757,
      "▁एम्बुले": 7758,
      "▁थो": 7759,
      "▁बताउँछन्।": 7760,
      "▁)": 7761,
      "▁स्वर्ग": 7762,
      "▁कुखु": 7763,
      "▁दिनुभएको": 7764,
      "▁कालि": 7765,
      "▁काठमाडौं।": 7766,
      "▁छौं।": 7767,
      "▁कोषमा": 7768,
      "डोर": 7769,
      "▁अवस्थित": 7770,
      "▁किसिमका": 7771,
      "र्जी": 7772,
      "पछिल्लो": 7773,
      "▁सदस्यले": 7774,
      "▁जोडी": 7775,
      "▁लिनु": 7776,
      "▁तीनै": 7777,
      "▁किम": 7778,
      "▁ढिला": 7779,
      "▁मुलुकका": 7780,
      "▁ठिक": 7781,
      "▁चाहिने": 7782,
      "सम्पाद": 7783,
      "▁विश्वको": 7784,
      "गरि": 7785,
      "▁प्रतिभा": 7786,
      "▁उल्लेख्य": 7787,
      "▁केजी": 7788,
      "▁हात्ती": 7789,
      "▁खालका": 7790,
      "▁निम्न": 7791,
      "▁तथापि": 7792,
      "▁सामग्र": 7793,
      "शेष": 7794,
      "▁क्ला": 7795,
      "▁अनुमोदन": 7796,
      "ञ्चल": 7797,
      "▁पर्यो": 7798,
      "गरीय": 7799,
      "▁अर्थतन्त्रमा": 7800,
      "ोलखा": 7801,
      "▁बिहे": 7802,
      "▁खेल्दै": 7803,
      "▁पञ्चा": 7804,
      "▁समारोहमा": 7805,
      "▁अलिक": 7806,
      "▁५००": 7807,
      "▁परिक": 7808,
      "▁'ब": 7809,
      "▁काला": 7810,
      "धर": 7811,
      "ह्र": 7812,
      "वहारिक": 7813,
      "▁सरसफाइ": 7814,
      "▁भूमिकामा": 7815,
      "▁पदार्थको": 7816,
      "▁हेक्टर": 7817,
      "षक": 7818,
      "▁मातृ": 7819,
      "▁क्याम्पस": 7820,
      "▁आत्मनिर्भर": 7821,
      "मणि": 7822,
      "ेसी": 7823,
      "पार्क": 7824,
      "▁दान": 7825,
      "काउ": 7826,
      "▁सत्र": 7827,
      "▁भलि": 7828,
      "▁आगलागी": 7829,
      "▁रहँदै": 7830,
      "▁6": 7831,
      "▁सहुलियत": 7832,
      "▁महोत्त": 7833,
      "▁फराकिलो": 7834,
      "▁थाल्यो": 7835,
      "▁शाहीले": 7836,
      "▁महेश": 7837,
      "्युब": 7838,
      "▁रोपनी": 7839,
      "र्पण": 7840,
      "▁।\n\nउ": 7841,
      "▁संशो": 7842,
      "▁विद्यार्थीले": 7843,
      "▁लाइसेन्स": 7844,
      "▁फ्या": 7845,
      "▁ओटा": 7846,
      "▁पक्षका": 7847,
      "▁विसं": 7848,
      "'ले": 7849,
      "सतमा": 7850,
      "▁रूपान्तरण": 7851,
      "▁अधिकारीको": 7852,
      "▁मोरङ": 7853,
      "▁नेपालीले": 7854,
      "ज्व": 7855,
      "▁परिचित": 7856,
      "▁एसपी": 7857,
      "▁कोषाध्यक्ष": 7858,
      "▁डिसे": 7859,
      "एमाले": 7860,
      "▁गर्दछन्": 7861,
      "कोरोना": 7862,
      "मन्त्रालय": 7863,
      "▁गर्दछ,": 7864,
      "▁खेलाडीले": 7865,
      "सनले": 7866,
      "गको": 7867,
      "▁ज्ञापन": 7868,
      "जेन": 7869,
      "▁राजेश": 7870,
      "▁मर्या": 7871,
      "▁नियन्त्रणका": 7872,
      "▁बढीको": 7873,
      "▁प्रको": 7874,
      "ञ्चित": 7875,
      "▁विशेषगरी": 7876,
      "▁गइरहेको": 7877,
      "▁परेपछि": 7878,
      "▁चोक": 7879,
      "जाको": 7880,
      "थर": 7881,
      "▁दिनुपर्छ": 7882,
      "▁मन्त्रिपरिषद्को": 7883,
      "▁सन्तान": 7884,
      "ज्यालो": 7885,
      "▁बगा": 7886,
      "▁दाङ": 7887,
      "▁पुगेपछि": 7888,
      "डिट": 7889,
      "व्": 7890,
      "▁निष्पक्ष": 7891,
      "ेरोजग": 7892,
      "पार": 7893,
      "▁सागर": 7894,
      "▁इस्": 7895,
      "क्व": 7896,
      "▁बोल्ने": 7897,
      "▁एशिया": 7898,
      "▁नवीन": 7899,
      "▁तारि": 7900,
      "▁बढुवा": 7901,
      "▁जोडिएका": 7902,
      "▁महामारीको": 7903,
      "आउट": 7904,
      "▁व्यवसायिक": 7905,
      "▁लिमिटेडले": 7906,
      "▁क्लि": 7907,
      "▁तालमेल": 7908,
      "लम्प": 7909,
      "▁चाहन्छ": 7910,
      "▁चौका": 7911,
      "▁आतंक": 7912,
      "▁कम्प्युटर": 7913,
      "टाम": 7914,
      "▁थिइन्।": 7915,
      "▁दिवसको": 7916,
      "▁विपक्ष": 7917,
      "▁प्रशासकीय": 7918,
      "▁महरा": 7919,
      "▁आदिवासी": 7920,
      "▁कुशल": 7921,
      "▁हेड": 7922,
      "▁केटा": 7923,
      "▁डिस्": 7924,
      "ामन्त्री": 7925,
      "▁चरम": 7926,
      "जनी": 7927,
      "▁मनि": 7928,
      "तपाईं": 7929,
      "बहि": 7930,
      "▁निकायको": 7931,
      "▁बेलुका": 7932,
      "▁स्रोतको": 7933,
      "अधिकार": 7934,
      "प्रद": 7935,
      "▁बीउ": 7936,
      "ब्लिक": 7937,
      "▁सृजना": 7938,
      "नियाँ": 7939,
      "ण्डर": 7940,
      "ब्बर": 7941,
      "▁अड्": 7942,
      "▁नेताको": 7943,
      "▁पक्षलाई": 7944,
      "▁दाँ": 7945,
      "ेक्ट": 7946,
      "दित": 7947,
      "खेर": 7948,
      "स्थलको": 7949,
      "▁प्रतिनिधिसभाको": 7950,
      "▁अपि": 7951,
      "▁पाउँदा": 7952,
      "▁परेर": 7953,
      "भेट": 7954,
      "▁विरोधी": 7955,
      "▁स्मृति": 7956,
      "▁रुचि": 7957,
      "▁सहमत": 7958,
      "▁मल्ल": 7959,
      "निकी": 7960,
      "▁नर्स": 7961,
      "माथिको": 7962,
      "▁दूरी": 7963,
      "▁।\nब": 7964,
      "▁छौ": 7965,
      "स्तरमा": 7966,
      "बासी": 7967,
      "०,": 7968,
      "▁हुने,": 7969,
      "▁।\n\nआ": 7970,
      "नुपर्यो": 7971,
      "▁लगत्तै": 7972,
      "▁प्रतितो": 7973,
      "▁उदाहरणका": 7974,
      "-४": 7975,
      "▁कान्ति": 7976,
      "▁वस्तुको": 7977,
      "▁प्रा.": 7978,
      "▁मानिसहरु": 7979,
      "▁काठमाडौँ,": 7980,
      "मुक्ति": 7981,
      "▁टोलीको": 7982,
      "is": 7983,
      "▁A": 7984,
      "गोलिक": 7985,
      "▁सहकार्यमा": 7986,
      "▁वर्षाको": 7987,
      "▁तिनै": 7988,
      "▁पक्का": 7989,
      "▁जनताका": 7990,
      "केन्द्र": 7991,
      "दिए": 7992,
      "पहिलो": 7993,
      "मानमा": 7994,
      "वाहक": 7995,
      "ँचो": 7996,
      "▁ली": 7997,
      "▁ष": 7998,
      "▁भएकै": 7999,
      "▁समुदायका": 8000,
      "▁नृत्य": 8001,
      "▁तहले": 8002,
      "▁हौ": 8003,
      "▁प्रत्या": 8004,
      "▁अधिकारी,": 8005,
      "▁नभएपछि": 8006,
      "▁(रा": 8007,
      "▁।\n\nवि": 8008,
      "▁बनाउनुपर्ने": 8009,
      "▁त्यहाँका": 8010,
      "▁उठेको": 8011,
      "▁विप्लव": 8012,
      "▁गरे,": 8013,
      "▁थपिएको": 8014,
      "▁अस्तित्व": 8015,
      "▁वसन्त": 8016,
      "▁लाख,": 8017,
      "▁बालबालिकालाई": 8018,
      "▁छाला": 8019,
      "▁सवै": 8020,
      "▁पढ्ने": 8021,
      "▁छु।": 8022,
      "it": 8023,
      "▁नमू": 8024,
      "कानु": 8025,
      "▁बोकेको": 8026,
      "▁पुर्याएको": 8027,
      "▁बढे": 8028,
      "▁अन्यो": 8029,
      "क्या": 8030,
      "▁अर्जेन्": 8031,
      "वृ": 8032,
      "▁201": 8033,
      "▁मधेसी": 8034,
      "ब्ब": 8035,
      "▁ज्योति": 8036,
      "▁वर्षभित्र": 8037,
      "▁उद्योगमा": 8038,
      "▁देखाउने": 8039,
      "▁२०२२": 8040,
      "▁दौड": 8041,
      "हक": 8042,
      "ैमा": 8043,
      "श्चात्": 8044,
      "▁निषेध": 8045,
      "▁बदली": 8046,
      "▁धो": 8047,
      "▁२,": 8048,
      "▁पोल": 8049,
      "▁चीनमा": 8050,
      "▁शौच": 8051,
      "▁बताए।\n\n": 8052,
      "क्षि": 8053,
      "▁साहले": 8054,
      "▁अधिकारको": 8055,
      "▁वु": 8056,
      "▁नगरि": 8057,
      "▁नराम्रो": 8058,
      "▁राशि": 8059,
      "▁एकदम": 8060,
      "▁भोग्": 8061,
      "▁प्रदर्शनमा": 8062,
      "▁पाइप": 8063,
      "थु": 8064,
      "▁पारिएको": 8065,
      "भाषा": 8066,
      "▁चलचित्रमा": 8067,
      "▁फेर": 8068,
      "▁फार्म": 8069,
      "कियो": 8070,
      "▁विद्यमान": 8071,
      "बाजी": 8072,
      "विपरीत": 8073,
      "सम्मत": 8074,
      "▁शान्त": 8075,
      "▁गरौं": 8076,
      "▁जन्मा": 8077,
      "ारू": 8078,
      "▁प्रसिद्ध": 8079,
      "▁राजु": 8080,
      "▁दिएकी": 8081,
      "▁२.": 8082,
      "चल": 8083,
      "▁सवार": 8084,
      "▁बेइ": 8085,
      "▁बन्दा": 8086,
      "▁बिका": 8087,
      "▁शल्य": 8088,
      "▁बढ्छ": 8089,
      "म्मद": 8090,
      "▁कम्पनीमा": 8091,
      "▁चाहिन्छ": 8092,
      "▁प्रतितोला": 8093,
      "▁विस्थापित": 8094,
      "▁आइपुग्": 8095,
      "▁उपयोगी": 8096,
      "▁कम्तिमा": 8097,
      "क्ष्मी": 8098,
      "न्धि": 8099,
      "▁नराख": 8100,
      "▁होटलमा": 8101,
      "ैगरी": 8102,
      "▁मन्त्रिपरिषद": 8103,
      "▁त्रिवि": 8104,
      "▁एकको": 8105,
      "वर्तमान": 8106,
      "▁लिई": 8107,
      "▁लिनुपर्ने": 8108,
      "जीले": 8109,
      "्नुपर्ने": 8110,
      "▁गर्नको": 8111,
      "▁युक्रे": 8112,
      "डाँडा": 8113,
      "वारण": 8114,
      "▁खेलेका": 8115,
      "▁राई,": 8116,
      "ण्डित": 8117,
      "▁दोलखा": 8118,
      "▁अर्जेन्टि": 8119,
      "▁खटिएको": 8120,
      "▁कार्ययोजना": 8121,
      "▁ठक्कर": 8122,
      "▁नदिएको": 8123,
      "मुनि": 8124,
      "▁हालको": 8125,
      "टिन": 8126,
      "▁युवती": 8127,
      "▁प्रयोजन": 8128,
      "▁विद्यादेवी": 8129,
      "▁दिई": 8130,
      "▁कारागार": 8131,
      "▁यसैले": 8132,
      "▁इतिहासमा": 8133,
      "पिटल": 8134,
      "▁गर्नुपर्छ।": 8135,
      "▁दियो": 8136,
      "ौता": 8137,
      "▁महाशाखाले": 8138,
      "▁पुरानै": 8139,
      "▁रद्द": 8140,
      "▁पर्नेमा": 8141,
      "▁बचाउन": 8142,
      "▁रोनाल्": 8143,
      "▁टिमले": 8144,
      "▁सुरक्षाकर्मी": 8145,
      "▁त्यसबाट": 8146,
      "▁छापा": 8147,
      "▁म्युजिक": 8148,
      "कस्मिक": 8149,
      "सुवा": 8150,
      "▁भरमा": 8151,
      "▁प्रयोगमा": 8152,
      "▁बालबालिकाको": 8153,
      "▁मनोज": 8154,
      "२०७": 8155,
      "िए": 8156,
      "▁सुकु": 8157,
      "▁सर्वेक्षण": 8158,
      "▁पछ्या": 8159,
      "▁उल्लं": 8160,
      "▁'य": 8161,
      "भावना": 8162,
      "▁मुनाफा": 8163,
      "▁गिरावट": 8164,
      "▁निमित्त": 8165,
      "▁सम्पर्कमा": 8166,
      "▁कृष्णप्रसाद": 8167,
      "▁जनतामा": 8168,
      "▁भर्खरै": 8169,
      ",’": 8170,
      "▁अभावमा": 8171,
      "▁संकल": 8172,
      "डा,": 8173,
      "▁पति": 8174,
      "▁धम्की": 8175,
      "▁पश्चिमी": 8176,
      "ानले": 8177,
      "▁एन्फा": 8178,
      "▁मङ्": 8179,
      "ङ्का": 8180,
      "▁संसदको": 8181,
      "▁हुन्न": 8182,
      "▁बैंक,": 8183,
      "एनन्": 8184,
      "-पटक": 8185,
      "ालीले": 8186,
      "▁राजकुमार": 8187,
      "▁कागज": 8188,
      "▁बू": 8189,
      "ण्डको": 8190,
      "▁ओलम्प": 8191,
      "▁बर्दिया": 8192,
      "▁भएकोमा": 8193,
      "▁जात्रा": 8194,
      "▁उज्यालो": 8195,
      "▁सचिवालयले": 8196,
      "र्यो": 8197,
      "▁डाटा": 8198,
      "ई,": 8199,
      "▁पुनले": 8200,
      "▁राष्ट्रको": 8201,
      "क्रामक": 8202,
      "सर्थ": 8203,
      "▁बताउँछन्।\n": 8204,
      "▁निरीक्षण": 8205,
      "▁म्याने": 8206,
      "▁लगायतको": 8207,
      "▁लाग्दा": 8208,
      "▁सेप्टे": 8209,
      "▁कामलाई": 8210,
      "▁श्याम": 8211,
      "▁शिशु": 8212,
      "लस": 8213,
      "▁गर्नै": 8214,
      "▁घरबाट": 8215,
      "▁सिन्धुपाल्चोक": 8216,
      "▁प्रय": 8217,
      "▁मोडल": 8218,
      "ेलिकप्टर": 8219,
      "विना": 8220,
      "▁जनकपुरधाम": 8221,
      "▁गराउ": 8222,
      "▁केशव": 8223,
      "il": 8224,
      "▁प्रतिवद्धता": 8225,
      "▁सावधान": 8226,
      "▁सुधारका": 8227,
      "▁महारा": 8228,
      "▁पट": 8229,
      "▁राम्रा": 8230,
      "▁भण्डारण": 8231,
      "ड्य": 8232,
      "स्न": 8233,
      "▁स्रोतका": 8234,
      "▁गर्नुहुन्छ": 8235,
      "▁पार्दै": 8236,
      "▁मिलाउन": 8237,
      "ड,": 8238,
      "▁निम्त्या": 8239,
      "▁बेरोजग": 8240,
      "पन्थी": 8241,
      "▁स्वरुप": 8242,
      "▁उनकी": 8243,
      "▁पार्टीभित्र": 8244,
      "▁।\nप": 8245,
      "▁बलिउड": 8246,
      "न्यजन्तु": 8247,
      "▁अभिलेख": 8248,
      "▁जनस्वास्थ्य": 8249,
      "▁रोजगारीमा": 8250,
      "शैली": 8251,
      "▁प्रतिशतभन्दा": 8252,
      "▁असल": 8253,
      "▁सकिँदैन": 8254,
      "▁खतिवडाले": 8255,
      "▁मन्दिरमा": 8256,
      "पर्व": 8257,
      "▁जसमध्ये": 8258,
      "▁फौ": 8259,
      "▁जितेर": 8260,
      "▁सुन्त": 8261,
      "▁बढाइएको": 8262,
      "▁रणनीतिक": 8263,
      "▁नभएकाले": 8264,
      "▁महानगरीय": 8265,
      "▁इलाम": 8266,
      "▁थाइ": 8267,
      "कोभिड": 8268,
      "▁तामाङले": 8269,
      "शरण": 8270,
      "▁खस": 8271,
      "ठू": 8272,
      "▁चीज": 8273,
      "▁पीसीआर": 8274,
      "▁प्रस्ट": 8275,
      "▁देखिएपछि": 8276,
      "▁उद्योग,": 8277,
      "▁टुंग": 8278,
      "▁सुरक्षाका": 8279,
      "▁विवादमा": 8280,
      "▁धेरैजसो": 8281,
      "▁औषधी": 8282,
      "▁शरणा": 8283,
      "▁फेसबुक": 8284,
      "▁अमर": 8285,
      "▁उत्पादित": 8286,
      "ुरि": 8287,
      "होस्।": 8288,
      "▁P": 8289,
      "▁भित्री": 8290,
      "▁घन": 8291,
      "▁महिनादेखि": 8292,
      "▁बुवा": 8293,
      "▁एकेड": 8294,
      "अर्का": 8295,
      "विश्वास": 8296,
      "▁सम्मको": 8297,
      "वेदीले": 8298,
      "▁देशभरका": 8299,
      "▁प्रतिफल": 8300,
      "▁सिं": 8301,
      "▁सापकोटाले": 8302,
      "▁विषा": 8303,
      "परित": 8304,
      "▁अनिल": 8305,
      "▁२०१७": 8306,
      "पेक्ष": 8307,
      "▁निवासी": 8308,
      "▁प्राधिकरणको": 8309,
      "▁आप्र": 8310,
      "ड्दा": 8311,
      "चाँ": 8312,
      "▁ढाँचा": 8313,
      "▁रही": 8314,
      "▁भौगोलिक": 8315,
      "▁भवनमा": 8316,
      "▁गर्भव": 8317,
      "लागि": 8318,
      "जारी": 8319,
      "▁बाक्": 8320,
      "▁अन्तरक्रिया": 8321,
      "▁दोश्रो": 8322,
      "▁आचारसं": 8323,
      "▁खेलाडीको": 8324,
      "▁पर्यटकको": 8325,
      "▁उत्तरी": 8326,
      "वरको": 8327,
      "ुरेन्ट": 8328,
      "▁।\n\nम": 8329,
      "रहित": 8330,
      "▁लोड": 8331,
      "▁प्रस्तावित": 8332,
      "▁गाउ": 8333,
      "▁निवारण": 8334,
      "▁पं": 8335,
      "▁पार्क": 8336,
      "▁परिमार्जन": 8337,
      "खाना": 8338,
      "▁सिरहा": 8339,
      "▁मानिएको": 8340,
      "णु": 8341,
      "▁पैदा": 8342,
      "▁तापक्रम": 8343,
      "▁मान्ने": 8344,
      "▁मेलम्": 8345,
      "▁नगरपालिका-१": 8346,
      "▁श्रद्धा": 8347,
      "▁पारी": 8348,
      "▁०.": 8349,
      "▁निष्कासन": 8350,
      "▁।\n-": 8351,
      "▁आकस्मिक": 8352,
      "▁सक्नुहुन्छ।": 8353,
      "▁मकै": 8354,
      "▁जनजाति": 8355,
      "▁२०८०": 8356,
      "चाप": 8357,
      "▁मङ्गल": 8358,
      "▁सिलि": 8359,
      "▁पैदल": 8360,
      "▁गिरि": 8361,
      "▁धरौ": 8362,
      "पछिको": 8363,
      "▁सेल्": 8364,
      "▁राष्ट्रसंघ": 8365,
      "▁समावेशी": 8366,
      "▁किरा": 8367,
      "▁प्राधिकरणका": 8368,
      "▁रोचक": 8369,
      "▁ठप्प": 8370,
      "▁स्थितिमा": 8371,
      "▁तीमध्ये": 8372,
      "सामान्य": 8373,
      "ेन्ज": 8374,
      "▁प्रतिशतसम्म": 8375,
      "▁निजामती": 8376,
      "मेट": 8377,
      "ईले": 8378,
      "लट": 8379,
      "▁बैत": 8380,
      "▁आफैंले": 8381,
      "▁कठि": 8382,
      "▁मनाउन": 8383,
      "ou": 8384,
      "▁हेलिकप्टर": 8385,
      "▁गर्यो।": 8386,
      "▁हुन्,": 8387,
      "तवार": 8388,
      "▁बिहानै": 8389,
      "▁महानिर्देशक": 8390,
      "▁इजलासले": 8391,
      "फ्ले": 8392,
      "▁शौचालय": 8393,
      "ेग": 8394,
      "▁थपिएका": 8395,
      "ुप्र": 8396,
      "ौँ।": 8397,
      "▁इन्धन": 8398,
      "बैठ": 8399,
      "▁अशोक": 8400,
      "▁तीनवटा": 8401,
      "▁फाइनान्स": 8402,
      "▁इजराय": 8403,
      "▁कपिलवस्तु": 8404,
      "▁सहरी": 8405,
      "▁रहनु": 8406,
      "▁ज्ञवाली": 8407,
      "▁जानकार": 8408,
      "▁विरोधमा": 8409,
      "▁पात": 8410,
      "▁हजारौं": 8411,
      "▁व्यवसायमा": 8412,
      "▁नारी": 8413,
      "▁माग्": 8414,
      "▁नमिल्ने": 8415,
      "▁प्राध्यापक": 8416,
      "▁उर्जा": 8417,
      "चरण": 8418,
      "▁लियो": 8419,
      "ण्ठ": 8420,
      "▁पटक-पटक": 8421,
      "▁डेभल": 8422,
      "ेन्टि": 8423,
      "▁संयोजन": 8424,
      "▁पारदर्शी": 8425,
      "▁नामाव": 8426,
      "सी)": 8427,
      "▁लामाले": 8428,
      "सीका": 8429,
      "▁वि.": 8430,
      "▁जलविद्युत": 8431,
      "▁सार्वभौ": 8432,
      "▁क्यापिटल": 8433,
      "▁विस्तारै": 8434,
      "लेपछि": 8435,
      "▁लिगमा": 8436,
      "केका": 8437,
      "▁स्को": 8438,
      "▁आख": 8439,
      "▁नदीको": 8440,
      "▁जाडो": 8441,
      "▁एआई": 8442,
      "▁कार्यद": 8443,
      "▁रिहा": 8444,
      "▁हतार": 8445,
      "▁बीचको": 8446,
      "ारोपण": 8447,
      "▁भद्र": 8448,
      "▁प्रस्तुति": 8449,
      "▁'यो": 8450,
      "▁२०२१": 8451,
      "ाचार": 8452,
      "▁शिखर": 8453,
      "▁मात": 8454,
      "▁सुवेदीले": 8455,
      "पछ": 8456,
      "न्दर्य": 8457,
      "▁एकताको": 8458,
      "ट्री": 8459,
      "चाहिँ": 8460,
      "▁लगानीकर्ताले": 8461,
      "▁विक्रम": 8462,
      "▁हिमालयन": 8463,
      "▁प्रश्नको": 8464,
      "चको": 8465,
      "▁हामीसँग": 8466,
      "किए": 8467,
      "▁सुशा": 8468,
      "▁दैलेख": 8469,
      "▁उत्सव": 8470,
      "▁करोडको": 8471,
      "▁शल्यक्रिया": 8472,
      "▁C": 8473,
      "▁भोक": 8474,
      "▁ढुङ्गा": 8475,
      "▁सन्तु": 8476,
      "प्लेजु": 8477,
      "▁इन्स्योरेन्स": 8478,
      "▁फ्रि": 8479,
      "▁बनाउँदा": 8480,
      "▁नबि": 8481,
      "▁कडाइ": 8482,
      "▁एसोसिए": 8483,
      "चेत": 8484,
      "▁राजश्व": 8485,
      "स्कृत": 8486,
      "▁हेम": 8487,
      "▁गाली": 8488,
      "▁इम": 8489,
      "▁महानगरपालिकाले": 8490,
      "▁कुव": 8491,
      "▁पूर्वप्रधानमन्त्री": 8492,
      "▁स्याउ": 8493,
      "▁डरा": 8494,
      "लेखा": 8495,
      "▁गराएर": 8496,
      "▁बुधवार": 8497,
      "▁निकाल्न": 8498,
      "▁कृति": 8499,
      "▁s": 8500,
      "वटै": 8501,
      "भियोग": 8502,
      "सेन": 8503,
      "▁समृद्धिको": 8504,
      "म्वा": 8505,
      "बिया": 8506,
      "▁सकिनेछ": 8507,
      "▁वी": 8508,
      "▁क्षेत्रले": 8509,
      "▁मूर्ति": 8510,
      "▁क्यामे": 8511,
      "वधि": 8512,
      "▁टोलीमा": 8513,
      "▁विकास,": 8514,
      "च्या": 8515,
      "लोजी": 8516,
      "लोमा": 8517,
      "▁जोशीले": 8518,
      "तीन": 8519,
      "▁दुइ": 8520,
      "▁बैठकको": 8521,
      "▁अक्टो": 8522,
      "▁बुझाउन": 8523,
      "सुर": 8524,
      "!\n": 8525,
      "▁काठमाडौंका": 8526,
      "वक": 8527,
      "ेल,": 8528,
      "▁मैत्री": 8529,
      "▁निकास": 8530,
      "छौं": 8531,
      "▁आफैले": 8532,
      "▁प्रशस्त": 8533,
      "▁घुस": 8534,
      "▁मापन": 8535,
      "▁(माओवादी": 8536,
      "▁रोनाल्डो": 8537,
      "▁8": 8538,
      "▁M": 8539,
      "ic": 8540,
      "▁हुँदैन,": 8541,
      "▁रेस्ट": 8542,
      "▁मिलियन": 8543,
      "▁हुदै": 8544,
      "पालन": 8545,
      "▁मार": 8546,
      "▁'वि": 8547,
      "▁अचम्म": 8548,
      "नेस": 8549,
      "▁नायिका": 8550,
      "ले,": 8551,
      "▁बच्न": 8552,
      "▁खोलामा": 8553,
      "च्छेद": 8554,
      "▁रङ्ग": 8555,
      "▁राज्यका": 8556,
      "िनमा": 8557,
      "▁प्रान्त": 8558,
      "▁टोलीका": 8559,
      "▁टेस्ट": 8560,
      "ेन्सन": 8561,
      "▁उत्साहित": 8562,
      "वालीले": 8563,
      "▁उठाएको": 8564,
      "▁अतिक्रमण": 8565,
      "▁असन्तुष्ट": 8566,
      "▁उपाध्यक्षमा": 8567,
      "▁स्ट्र": 8568,
      "▁हुनुभएको": 8569,
      "▁सिद्धार्थ": 8570,
      "▁सम्झना": 8571,
      "▁खटिएका": 8572,
      "त्रि": 8573,
      "▁श्रीमान": 8574,
      "▁एजे": 8575,
      "▁रजि": 8576,
      "ण्डमा": 8577,
      "▁ओपन": 8578,
      "▁किस्ता": 8579,
      "▁जवान": 8580,
      "▁पुरुषको": 8581,
      "▁ट्रेड": 8582,
      "ईन": 8583,
      "कहाँ": 8584,
      "ब्रु": 8585,
      "▁सदुपयोग": 8586,
      "▁विरुद्धको": 8587,
      "▁घुमा": 8588,
      "▁सहजै": 8589,
      "रहेकी": 8590,
      "▁संविधानमा": 8591,
      "मशेर": 8592,
      "▁खेलबाट": 8593,
      "▁7": 8594,
      "रोग": 8595,
      "चानक": 8596,
      "निर्वाचन": 8597,
      "▁संचार": 8598,
      "▁प्रतिशतको": 8599,
      "▁बाबा": 8600,
      "▁पवित्र": 8601,
      "▁नाघ": 8602,
      "▁गराउनु": 8603,
      "▁कँ": 8604,
      "▁निवेद": 8605,
      "ेलमा": 8606,
      "▁पाठ्यक्रम": 8607,
      "▁विधेयकमा": 8608,
      "▁राजपा": 8609,
      "▁विभाजित": 8610,
      "-म": 8611,
      "▁दूतावा": 8612,
      "▁गाउँका": 8613,
      "▁वर्": 8614,
      "▁क्रे": 8615,
      "▁किसानको": 8616,
      "▁साविक": 8617,
      "▁रिक्त": 8618,
      "▁गायिका": 8619,
      "▁नेपालीलाई": 8620,
      "▁प्रकोप": 8621,
      "▁जग्गामा": 8622,
      "▁प्रवर्द्धन": 8623,
      "▁ग्राहकले": 8624,
      "▁डाय": 8625,
      "▁शुक्": 8626,
      "-५": 8627,
      "▁जेनजी": 8628,
      "१५": 8629,
      "▁गोदा": 8630,
      "▁कान्छ": 8631,
      "अगा": 8632,
      "ईओ": 8633,
      "स्पो": 8634,
      "▁बाढीले": 8635,
      "सङ्ख्या": 8636,
      "▁गर्नुपर्नेमा": 8637,
      "▁अविश": 8638,
      "▁(एमाले)": 8639,
      "▁गर्छौं": 8640,
      "▁प्रतिलि": 8641,
      "हीं": 8642,
      "▁चलचित्रको": 8643,
      "▁अना": 8644,
      "▁लगेर": 8645,
      "▁कार्यालयबाट": 8646,
      "▁शैलीमा": 8647,
      "▁गुज": 8648,
      "▁हाराहारीमा": 8649,
      "बिना": 8650,
      "कुनै": 8651,
      "▁झरेको": 8652,
      "▁गोर्खा": 8653,
      "▁सौन्दर्य": 8654,
      "▁(नेकपा": 8655,
      "ड्नु": 8656,
      "▁राष्ट्रपतिको": 8657,
      "राजनीतिक": 8658,
      "▁दलहरू": 8659,
      "अब": 8660,
      "त्तिकै": 8661,
      "▁अभ्या": 8662,
      "▁नमूना": 8663,
      "विज": 8664,
      "▁दाउ": 8665,
      "▁नबुझ": 8666,
      "▁चरा": 8667,
      "▁जग्गाको": 8668,
      "▁भयो।\n": 8669,
      "▁३.": 8670,
      "▁वीरगन्ज": 8671,
      "▁एसि": 8672,
      "▁प्रेरणा": 8673,
      "▁अरुण": 8674,
      "▁रामबहादुर": 8675,
      "▁प्रदूषण": 8676,
      "बापत": 8677,
      "▁मुस्लिम": 8678,
      "▁उम्मेदवारको": 8679,
      "▁एकातिर": 8680,
      "▁सञ्चालनका": 8681,
      "▁करिव": 8682,
      "▁घाम": 8683,
      "▁जुलाई": 8684,
      "▁मेट्रिक": 8685,
      "▁क्वारेन्टाइ": 8686,
      "▁खानु": 8687,
      "हिक": 8688,
      "भाग्य": 8689,
      "▁सामेल": 8690,
      "▁पटकपटक": 8691,
      "▁ठग": 8692,
      "▁काठमाडा": 8693,
      "▁तसर्थ": 8694,
      "मानको": 8695,
      "▁विश्वस": 8696,
      "▁अन्ध": 8697,
      "▁बास": 8698,
      "▁महामारीका": 8699,
      "▁उद": 8700,
      "▁रोक्ने": 8701,
      "तिष्": 8702,
      "▁आर्": 8703,
      "▁क्रो": 8704,
      "▁सारा": 8705,
      "▁हुम्": 8706,
      "▁घोषित": 8707,
      "▁अन्तराष्ट्रिय": 8708,
      "▁त्यहाँबाट": 8709,
      "▁गरेपनि": 8710,
      "▁भाडामा": 8711,
      "▁सम्झौतामा": 8712,
      "▁ग्री": 8713,
      "▁समाजले": 8714,
      "▁बत्ती": 8715,
      "▁राती": 8716,
      "▁दोब्बर": 8717,
      "▁झड": 8718,
      "▁द्वि": 8719,
      "▁उच्चस्तरीय": 8720,
      "▁लेख्न": 8721,
      "▁रोल्पा": 8722,
      "▁तत्कालै": 8723,
      "▁रङ": 8724,
      "▁महासङ्घ": 8725,
      "लाय": 8726,
      "▁शीत": 8727,
      "▁बुझ्ने": 8728,
      "▁भनेपछि": 8729,
      "▁आपसी": 8730,
      "▁उद्योगको": 8731,
      "लास": 8732,
      "▁ज्ञवालीले": 8733,
      "▁चिन्ह": 8734,
      "▁जानुपर्ने": 8735,
      "स्पि": 8736,
      "न्सले": 8737,
      "लू": 8738,
      "▁खासगरी": 8739,
      "भित्रका": 8740,
      "▁नियाम": 8741,
      "▁स्वर": 8742,
      "▁धनकु": 8743,
      "▁दलीय": 8744,
      "▁पेनाल्": 8745,
      "द्वन्द": 8746,
      "▁वन्यजन्तु": 8747,
      "▁नेपालगन्ज": 8748,
      "▁संस्थालाई": 8749,
      "▁व्यवस्थापनका": 8750,
      "▁हराउँदै": 8751,
      "चनामा": 8752,
      "▁खुकु": 8753,
      "▁आदान": 8754,
      "फेर": 8755,
      "शिल": 8756,
      "वण": 8757,
      "▁अपाङ्ग": 8758,
      "▁काभ्र": 8759,
      "▁ज्वरो": 8760,
      "▁समर्थक": 8761,
      "▁सुन्न": 8762,
      "▁रोजगारीको": 8763,
      "▁पदका": 8764,
      "▁साइकल": 8765,
      "▁दिनपछि": 8766,
      "▁सङ्क": 8767,
      "ङ्ख": 8768,
      "▁गोप्य": 8769,
      "▁कार्यदल": 8770,
      "▁नायक": 8771,
      "ियल": 8772,
      "्र्या": 8773,
      "▁राम्रै": 8774,
      "▁मानिने": 8775,
      "▁समुद्र": 8776,
      "▁सामग्रीबारे": 8777,
      "▁महत्त्व": 8778,
      "▁बालुवाटारमा": 8779,
      "लम": 8780,
      "▁राम्ररी": 8781,
      "▁खोटा": 8782,
      "स्रोत": 8783,
      "▁जगत": 8784,
      "▁रै": 8785,
      "▁अर्थतन्त्रको": 8786,
      "▁राजधानीमा": 8787,
      "कृया": 8788,
      "मानी": 8789,
      "▁रोजगारीका": 8790,
      "▁पौडेलको": 8791,
      "▁मदिरा": 8792,
      "▁बन": 8793,
      "▁२०३": 8794,
      "▁मध्यन": 8795,
      "▁विश्वकपमा": 8796,
      "ब्रि": 8797,
      "▁राखिएका": 8798,
      "▁व्यावहारिक": 8799,
      "▁नोभे": 8800,
      "▁स्याङ्": 8801,
      "▁बोहरा": 8802,
      "तर्फी": 8803,
      "▁गंगा": 8804,
      "टिस": 8805,
      "▁यसपाल": 8806,
      "-७": 8807,
      "▁अचानक": 8808,
      "▁प्रशोधन": 8809,
      "सह": 8810,
      "▁शनिवार": 8811,
      "▁गर्नुको": 8812,
      "▁शर्मा,": 8813,
      "▁तौल": 8814,
      "▁भन्नुभयो,": 8815,
      "▁विद्रोह": 8816,
      "▁केटी": 8817,
      "▁गर्भवती": 8818,
      "▁खेलाडीलाई": 8819,
      "▁तिनको": 8820,
      "▁निकायमा": 8821,
      "▁यसैबीच": 8822,
      "▁तपाईको": 8823,
      "▁अग्नि": 8824,
      "▁कर्जाको": 8825,
      "▁c": 8826,
      "▁तुरुन्तै": 8827,
      "▁दिमा": 8828,
      "डिओ": 8829,
      "▁बाहिरी": 8830,
      "▁एल्": 8831,
      "▁आकां": 8832,
      "स्वरूप": 8833,
      "▁प्रचारप्रसार": 8834,
      "▁समुदायमा": 8835,
      "▁आश्वा": 8836,
      "▁आवद्ध": 8837,
      "झो": 8838,
      "र्भिक": 8839,
      "हरि": 8840,
      "निज": 8841,
      "▁खानेकुरा": 8842,
      "ha": 8843,
      "दर्शन": 8844,
      "▁गर्नुका": 8845,
      "▁बेल्": 8846,
      "▁परिवारमा": 8847,
      "▁अनुगम": 8848,
      "▁बुँदा": 8849,
      "▁बताउँ": 8850,
      "▁ध्यानमा": 8851,
      "▁देखाएर": 8852,
      "-आ": 8853,
      "▁महाकाली": 8854,
      "▁ड्राइ": 8855,
      "▁पाटन": 8856,
      "सां": 8857,
      "▁कामना": 8858,
      "▁।\n\nयो": 8859,
      "▁नम्बरमा": 8860,
      "▁मरि": 8861,
      "▁मध्यनजर": 8862,
      "प्ट": 8863,
      "▁सहिद": 8864,
      "▁दृढ": 8865,
      "▁व्यहो": 8866,
      "कांग्रेस": 8867,
      "ड्ने": 8868,
      "▁प्याकेज": 8869,
      "डक": 8870,
      "▁सकेसम्म": 8871,
      "स्फोट": 8872,
      "▁हिन्दू": 8873,
      "▁लगाउनु": 8874,
      "▁लडाइ": 8875,
      "▁रोहित": 8876,
      "▁।\n\nप्र": 8877,
      "तापूर्वक": 8878,
      "▁जीवित": 8879,
      "ख्रा": 8880,
      "राज्य": 8881,
      "▁बढाउ": 8882,
      "▁आवत": 8883,
      "▁जबकि": 8884,
      "▁उक्": 8885,
      "▁कोट": 8886,
      "▁खोल्": 8887,
      "▁परिमाण": 8888,
      "▁शिला": 8889,
      "▁भलिबल": 8890,
      "▁झर": 8891,
      "▁रेमिट्या": 8892,
      "ंदा": 8893,
      "▁अनुपात": 8894,
      "▁नेटवर्क": 8895,
      "ुटि": 8896,
      "▁चामल": 8897,
      "गाह": 8898,
      "▁परिस्थितिमा": 8899,
      "थोकी": 8900,
      "▁ओलम्पिक": 8901,
      "▁चम": 8902,
      "▁मुल्य": 8903,
      "▁रहेन": 8904,
      "▁शक्तिको": 8905,
      "▁रहेकी": 8906,
      "▁सुनिल": 8907,
      "▁आत्मा": 8908,
      "▁महाधिवेशनको": 8909,
      "▁बढेपछि": 8910,
      "▁परमेश्व": 8911,
      "▁चलाएको": 8912,
      "▁(म": 8913,
      "▁आवमा": 8914,
      "▁कँडेल": 8915,
      "▁लिभर": 8916,
      "▁शरीरको": 8917,
      "▁रोकथाम": 8918,
      "▁कन्स": 8919,
      "▁संसद्को": 8920,
      "▁निराशा": 8921,
      "▁शर्त": 8922,
      "▁तिवारी": 8923,
      "▁दिनका": 8924,
      "▁आयुक्त": 8925,
      "▁कार्की,": 8926,
      "र्इ": 8927,
      "▁रेस": 8928,
      "▁बढ्नु": 8929,
      "▁अपनाउन": 8930,
      "▁तर्": 8931,
      "▁छैन्": 8932,
      "▁गरेकोमा": 8933,
      "▁स्वभाव": 8934,
      "▁अवकाश": 8935,
      "मिता": 8936,
      "वले": 8937,
      "▁पत्रकारिता": 8938,
      "▁लगाउँदै": 8939,
      "▁मिल्दैन": 8940,
      "तालिका": 8941,
      "▁प्रदर्शनी": 8942,
      "▁एम्बुलेन्स": 8943,
      "▁बृद्धि": 8944,
      "ञ्जी": 8945,
      "▁श्रो": 8946,
      "▁स्वतः": 8947,
      "▁चिनी": 8948,
      "▁उप्र": 8949,
      "▁कैदी": 8950,
      "▁मोहम्मद": 8951,
      "▁उखु": 8952,
      "▁खरिददर": 8953,
      "▁अण्डा": 8954,
      "र्तामो": 8955,
      "▁चितवनको": 8956,
      "▁श्रीमान्": 8957,
      "ृंखला": 8958,
      "▁शुक्रवार": 8959,
      "सन्न": 8960,
      "▁सिस्टम": 8961,
      "▁अब्": 8962,
      "▁डाँडा": 8963,
      "▁आउँदो": 8964,
      "▁कार्यसम्पाद": 8965,
      "▁तिब्ब": 8966,
      "▁एपी": 8967,
      "श्चिमा": 8968,
      "▁ब्रेक": 8969,
      "▁करा": 8970,
      "▁बढाएर": 8971,
      "▁अवस्थाको": 8972,
      "ङ्गले": 8973,
      "▁नेत्र": 8974,
      "▁क्लबले": 8975,
      "▁जाहे": 8976,
      "▁भट्टले": 8977,
      "▁रुसी": 8978,
      "▁मङ्सिर": 8979,
      "▁अखिल": 8980,
      "▁शताब्दी": 8981,
      "▁बिरामीलाई": 8982,
      "▁कहिलेकाहीँ": 8983,
      "▁लाखको": 8984,
      "▁रहस्य": 8985,
      "▁प्रतिस्पर्धामा": 8986,
      "मेरिका": 8987,
      "▁न्यौपानेले": 8988,
      "▁अफर": 8989,
      "▁हुनुहुन्थ्यो": 8990,
      "▁केन्द्रिय": 8991,
      "ञ्जि": 8992,
      "▁संस्कृति,": 8993,
      "▁पेसा": 8994,
      "▁अक्ष": 8995,
      "▁नेपाल-": 8996,
      "▁रेश": 8997,
      "▁उम्मे": 8998,
      "▁सिधै": 8999,
      "▁आईपीओ": 9000,
      "▁पोर्ट": 9001,
      "▁जनयुद्ध": 9002,
      "▁ट्वी": 9003,
      "▁मेहन": 9004,
      "▁रुपैयाँले": 9005,
      "▁फाइल": 9006,
      "▁नसकेपछि": 9007,
      "▁पठन": 9008,
      "▁गराई": 9009,
      "▁प्रेरित": 9010,
      "▁१९८": 9011,
      "▁तापनि": 9012,
      "▁बैंकि": 9013,
      "▁उल्लंघन": 9014,
      "ें": 9015,
      "▁रूपमा,": 9016,
      "▁लक्ष्मण": 9017,
      "▁कमाएको": 9018,
      "▁जैविक": 9019,
      "▁झण्डा": 9020,
      "लोड": 9021,
      "▁बौद्धिक": 9022,
      "▁युरोपेली": 9023,
      "▁धमा": 9024,
      "▁टोलीलाई": 9025,
      "▁कायमै": 9026,
      "▁अपहरण": 9027,
      "▁देखिन्छन्": 9028,
      "▁वक्त": 9029,
      "▁जिता": 9030,
      "▁कारोबारमा": 9031,
      "▁बाधा": 9032,
      "▁अर्याल": 9033,
      "▁अपिल": 9034,
      "हुँदै": 9035,
      "▁प्रयत्न": 9036,
      "▁राप्ती": 9037,
      "▁लमजु": 9038,
      "▁देउवालाई": 9039,
      "▁पुलिस": 9040,
      "▁हो?": 9041,
      "▁एन्टि": 9042,
      "▁देखाउँछ": 9043,
      "श्चर्य": 9044,
      "▁मातहत": 9045,
      "▁निष्काश": 9046,
      "▁आफुले": 9047,
      "▁फ्लो": 9048,
      "▁मैन": 9049,
      "▁विदेशबाट": 9050,
      "▁छुट्टा": 9051,
      "भ्या": 9052,
      "▁उन्न": 9053,
      "▁फेरी": 9054,
      "▁सुवास": 9055,
      "संर": 9056,
      "▁पछि,": 9057,
      "मोर्चा": 9058,
      "▁अप्ठ्यारो": 9059,
      "▁p": 9060,
      "▁लिगको": 9061,
      "देन": 9062,
      "▁एभर": 9063,
      "दैन,": 9064,
      "▁बालुवाटार": 9065,
      "वर्ती": 9066,
      "▁दलहरु": 9067,
      "▁रसुवा": 9068,
      "साना": 9069,
      "▁ब्यक्ति": 9070,
      "▁आश्वासन": 9071,
      "म्पा": 9072,
      "व्यवस्था": 9073,
      "।\\n": 9074,
      "▁सांसदले": 9075,
      "▁पन्छ": 9076,
      "▁उल्लेखनीय": 9077,
      "▁शान्तिपूर्ण": 9078,
      "▁घन्टा": 9079,
      "▁कार्तिक": 9080,
      "▁एजेन्डा": 9081,
      "▁हेल्": 9082,
      "▁सञ्चारकर्मी": 9083,
      "▁न्यायिक": 9084,
      "सायनिक": 9085,
      "▁खत्री": 9086,
      "▁छक्का": 9087,
      "यणी": 9088,
      "▁माउ": 9089,
      "▁मसान्तसम्म": 9090,
      "न्ह": 9091,
      "हिबार": 9092,
      "▁नेतृत्वले": 9093,
      "▁२०१६": 9094,
      "▁महानिरीक्षक": 9095,
      "▁उहाँका": 9096,
      "▁मनोरञ्जन": 9097,
      "घात": 9098,
      "▁ताप्लेजु": 9099,
      "▁प्राइ": 9100,
      "बन": 9101,
      "▁चेतना": 9102,
      "▁चितवनमा": 9103,
      "▁गिरी": 9104,
      "▁संघीयता": 9105,
      "▁सुशील": 9106,
      "▁२०८१": 9107,
      "▁खोज्दा": 9108,
      "प्रेषण": 9109,
      "▁व्यवहारमा": 9110,
      "▁मकवानपुर": 9111,
      "ँु": 9112,
      "▁गिरीले": 9113,
      "▁परिसरमा": 9114,
      "▁हो,'": 9115,
      "▁भू-भाग": 9116,
      "▁ख्याल": 9117,
      "▁हकप्रद": 9118,
      "▁सारेको": 9119,
      "et": 9120,
      "▁मर्": 9121,
      "▁संक्रमणबाट": 9122,
      "▁सेलि": 9123,
      "▁रिसो": 9124,
      "▁वृत्त": 9125,
      "चारु": 9126,
      "▁त्यहीँ": 9127,
      "योजित": 9128,
      "ेरिया": 9129,
      "▁यहि": 9130,
      "फु": 9131,
      "▁उपसभापति": 9132,
      "-क": 9133,
      "वालले": 9134,
      "च्छा": 9135,
      "▁बस्नु": 9136,
      "▁दरबन्दी": 9137,
      "▁बेहो": 9138,
      "बुल": 9139,
      "▁स्थानीयको": 9140,
      "रूद्ध": 9141,
      "▁लेन": 9142,
      "▁थप्": 9143,
      "▁स्टोर": 9144,
      "र्सले": 9145,
      "▁रुकुम": 9146,
      "▁आयल": 9147,
      "ब्रुअ": 9148,
      "खबर": 9149,
      "न्तिक": 9150,
      "▁ट्रक": 9151,
      "▁पण्डित": 9152,
      "▁मिलन": 9153,
      "▁०६": 9154,
      "▁डेभलप": 9155,
      "▁सक्दछ": 9156,
      "काजी": 9157,
      "पोर्": 9158,
      "नेछ।": 9159,
      "▁आश्चर्य": 9160,
      "▁सत्तामा": 9161,
      "धाई": 9162,
      "प्स": 9163,
      "बीचमा": 9164,
      "▁जोन": 9165,
      "▁बसाइ": 9166,
      "क्ताको": 9167,
      "▁उठाएका": 9168,
      "▁सदा": 9169,
      "▁जापानी": 9170,
      "▁जनावर": 9171,
      "▁गर्दछु": 9172,
      "▁स्थानको": 9173,
      "▁एकअर्का": 9174,
      "▁अवधिको": 9175,
      "जग्गा": 9176,
      "▁परिक्षण": 9177,
      "▁कुराले": 9178,
      "▁उनकै": 9179,
      "▁सुत्के": 9180,
      "▁शिविर": 9181,
      "▁उप्रेत": 9182,
      "▁बिक्रीदर": 9183,
      "▁विगतका": 9184,
      "▁फोरम": 9185,
      "▁खोज्दै": 9186,
      "▁नेकपाको": 9187,
      "▁भव्य": 9188,
      "▁ब्यवस्था": 9189,
      "अर": 9190,
      "नाल्ड": 9191,
      "▁पाहु": 9192,
      "ञ्जु": 9193,
      "▁माथिको": 9194,
      "▁स्पष्टीकरण": 9195,
      "नेट": 9196,
      "▁जोड्न": 9197,
      "काको": 9198,
      "▁जिन्द": 9199,
      "▁प्रयोजनका": 9200,
      "कप": 9201,
      "▁क्वारेन्टाइनमा": 9202,
      "▁तालि": 9203,
      "▁भेटमा": 9204,
      "▁व्र": 9205,
      "▁साँच्चै": 9206,
      "▁बुढाथोकी": 9207,
      "▁खानी": 9208,
      "▁नवराज": 9209,
      "▁बर्खा": 9210,
      "▁नसकेका": 9211,
      "▁राष्ट्रपतिले": 9212,
      "जेन्ट": 9213,
      "▁कार्यलाई": 9214,
      "▁योजनाको": 9215,
      "▁यादव,": 9216,
      "नेता": 9217,
      "▁सँ": 9218,
      "▁कोषको": 9219,
      "▁'उ": 9220,
      "▁४.": 9221,
      "▁पाई": 9222,
      "▁कुटपिट": 9223,
      "▁ध्रु": 9224,
      "▁उपराष्ट्रपति": 9225,
      "▁बीबी": 9226,
      "▁अनुरुप": 9227,
      "▁मूल्याङ्कन": 9228,
      "▁काफ्ले": 9229,
      "▁आयोजकले": 9230,
      "लेन्द्र": 9231,
      "धाना": 9232,
      "▁हुनुपर्छ।": 9233,
      "पठ": 9234,
      "▁काटि": 9235,
      "धना": 9236,
      "▁अदालतका": 9237,
      "▁लागतमा": 9238,
      "▁भैरहेको": 9239,
      "▁पोज": 9240,
      "▁यिनी": 9241,
      "▁पथ": 9242,
      "चालित": 9243,
      "▁लाखौं": 9244,
      "वधिक": 9245,
      "सिएको": 9246,
      "▁असं": 9247,
      "▁ताजा": 9248,
      "▁छैट": 9249,
      "दले": 9250,
      "ूर": 9251,
      "▁चाहे": 9252,
      "लामी": 9253,
      "सूच": 9254,
      "▁समितिलाई": 9255,
      "▁साम्रा": 9256,
      "▁ह्वा": 9257,
      "▁विकृति": 9258,
      "डु": 9259,
      "सरी": 9260,
      "▁पदबाट": 9261,
      "▁मुद्दाको": 9262,
      "तारी": 9263,
      "▁साताको": 9264,
      "शुक्र": 9265,
      "▁देउवाको": 9266,
      "▁दायरा": 9267,
      "र्दन": 9268,
      "▁परिवेश": 9269,
      "▁अनौपचारिक": 9270,
      "तीले": 9271,
      "▁एक-": 9272,
      "विक्रम": 9273,
      "▁सूचक": 9274,
      "▁असा": 9275,
      "सबै": 9276,
      "▁सिंगा": 9277,
      "▁राजन": 9278,
      "▁इमा": 9279,
      "सय": 9280,
      "▁बोलाएर": 9281,
      "▁आस्था": 9282,
      "बाटो": 9283,
      "▁एजेण्डा": 9284,
      "ितीय": 9285,
      "▁सुरेश": 9286,
      "बुध": 9287,
      "कारको": 9288,
      "स्,": 9289,
      "▁अधिकृ": 9290,
      "▁मेस्": 9291,
      "▁लगिएको": 9292,
      "▁ज्वा": 9293,
      "ेन्टी": 9294,
      "नासाथ": 9295,
      "ing": 9296,
      "धम": 9297,
      "▁संसारमा": 9298,
      "▁बन्ध": 9299,
      "▁भेटिएका": 9300,
      "▁घटनास्थल": 9301,
      "‍यो": 9302,
      "▁जनसङ्ख्या": 9303,
      "विशेष": 9304,
      "नाक": 9305,
      "▁पुलि": 9306,
      "▁पूर्वानु": 9307,
      "▁गठित": 9308,
      "▁सिकाइ": 9309,
      "▁खाएर": 9310,
      "▁नज": 9311,
      "▁सुब्बा": 9312,
      "नेपालमा": 9313,
      "▁सहयोगको": 9314,
      "▁रकमको": 9315,
      "चित्य": 9316,
      "▁पोषण": 9317,
      "▁महिनासम्म": 9318,
      "▁पत्राचार": 9319,
      "▁मिलेको": 9320,
      "▁प्रचलन": 9321,
      "▁विल": 9322,
      "▁अन्तर्वार्ता": 9323,
      "जस्ती": 9324,
      "▁दसैं": 9325,
      "▁रहेकोमा": 9326,
      "▁बुढ": 9327,
      "▁भईरहेको": 9328,
      "▁गई": 9329,
      "मिर": 9330,
      "खल": 9331,
      "▁घटाउन": 9332,
      "▁मू": 9333,
      "▁संगठित": 9334,
      "▁केसीको": 9335,
      "आवास": 9336,
      "▁गरेन": 9337,
      "▁दायरामा": 9338,
      "▁डलरको": 9339,
      "▁दुब": 9340,
      "डब्": 9341,
      "▁रुपैया": 9342,
      "▁भन्नेबारे": 9343,
      "नबाट": 9344,
      "▁अन्तरराष्ट्रिय": 9345,
      "▁व्यवसायीलाई": 9346,
      "▁महासंघको": 9347,
      "▁।\nत्यस्तै": 9348,
      "▁सतर्कता": 9349,
      "▁तेज": 9350,
      "▁तिम्रो": 9351,
      "▁।\nकार्यक्रममा": 9352,
      "▁विभागमा": 9353,
      "▁रायमा": 9354,
      "▁सीता": 9355,
      "▁मुलुकलाई": 9356,
      "▁10": 9357,
      "उने,": 9358,
      "्छन्": 9359,
      "▁राना": 9360,
      "▁विच": 9361,
      "▁घरपरिवार": 9362,
      "▁अनुसारको": 9363,
      "धुरा": 9364,
      "▁पुर्व": 9365,
      "▁सरस्व": 9366,
      "नर": 9367,
      "धेरै": 9368,
      "▁थिए।\n\n": 9369,
      "▁२०१५": 9370,
      "▁लापर": 9371,
      "▁नेम्वा": 9372,
      "▁योसँगै": 9373,
      "▁आर्मी": 9374,
      "▁क्ल": 9375,
      "▁फर्किने": 9376,
      "▁विनिमय": 9377,
      "केश": 9378,
      "▁पृष्ठभूमि": 9379,
      "▁मान्न": 9380,
      "▁गाइ": 9381,
      "▁अवतरण": 9382,
      "न्डा": 9383,
      "▁'हामी": 9384,
      "▁गतेबाट": 9385,
      "▁तरलता": 9386,
      "▁सद्भाव": 9387,
      "▁अग्रसर": 9388,
      "▁लाखभन्दा": 9389,
      "▁तारिख": 9390,
      "▁अन्यत्र": 9391,
      "रेड": 9392,
      "▁व्यवस्थापनको": 9393,
      "मोहन": 9394,
      "▁स्थाय": 9395,
      "आमा": 9396,
      "-प": 9397,
      "ज्जा": 9398,
      "▁स्टो": 9399,
      "▁आयोजनाले": 9400,
      "▁फेसबुकमा": 9401,
      "▁औचित्य": 9402,
      "▁सेक": 9403,
      "▁पेरि": 9404,
      "▁विनाश": 9405,
      "▁व्यवसायीको": 9406,
      "▁बागलुङ": 9407,
      "त्यो": 9408,
      "▁पर्खाल": 9409,
      "लाइभमा": 9410,
      "पार्टी": 9411,
      "पठाउनु": 9412,
      "▁त्यसअघि": 9413,
      "ढुंगा": 9414,
      "▁बेनी": 9415,
      "▁बोलाएको": 9416,
      "▁छात्रा": 9417,
      "▁हस्पि": 9418,
      "▁गुनासो,\n": 9419,
      "▁गुनासो,\nपठाउनु": 9420,
      "▁दिशामा": 9421,
      "▁पर्वत": 9422,
      "▁बेलायती": 9423,
      "▁गाँउ": 9424,
      "▁लगाउ": 9425,
      "▁कता": 9426,
      "▁सम्बन्धलाई": 9427,
      "▁हाफमा": 9428,
      "▁भानु": 9429,
      "▁अभियोगमा": 9430,
      "▁विरामी": 9431,
      "▁संगी": 9432,
      "▁एकेडेमी": 9433,
      "▁पार्टीबाट": 9434,
      "▁तत्कालिन": 9435,
      "िला": 9436,
      "▁पद्धति": 9437,
      "▁फला": 9438,
      "▁साग": 9439,
      "पले": 9440,
      "▁फर्कने": 9441,
      "▁प्रतिशतमा": 9442,
      "▁निर्देशनमा": 9443,
      "▁अपमान": 9444,
      "यौ": 9445,
      "▁चल्न": 9446,
      "ra": 9447,
      "▁लिँदै": 9448,
      "▁प्रचलित": 9449,
      "▁सहरमा": 9450,
      "▁युग": 9451,
      "▁ट्रया": 9452,
      "▁टस": 9453,
      "▁किनकी": 9454,
      "ेछा": 9455,
      "▁गै": 9456,
      "▁प्लास्टिक": 9457,
      "▁झग": 9458,
      "▁'प्रचण्ड": 9459,
      "▁तोडफो": 9460,
      "▁नसक": 9461,
      "▁थ्री": 9462,
      "▁मनाङ": 9463,
      "▁मेघ": 9464,
      "-प्र": 9465,
      "▁बनायो": 9466,
      "च्": 9467,
      "▁सकिन्छ।\n": 9468,
      "▁नामको": 9469,
      "▁चिन्त": 9470,
      "▁बच्चाको": 9471,
      "▁स्नातक": 9472,
      "राही": 9473,
      "▁मार्ने": 9474,
      "▁निर्माणाधीन": 9475,
      "▁भान्": 9476,
      "▁लोकतन्त्रको": 9477,
      "▁गरेसँगै": 9478,
      "क्रान्ति": 9479,
      "▁सूचीकृत": 9480,
      "▁सोलु": 9481,
      "▁भवनको": 9482,
      "▁मुल": 9483,
      "▁अवस्थालाई": 9484,
      "▁महिलाहरु": 9485,
      "▁डोनाल्ड": 9486,
      "ाउँमा": 9487,
      "▁हुन्छन्,": 9488,
      "▁३,": 9489,
      "झै": 9490,
      "▁साहित्यकार": 9491,
      "▁महिनाभित्र": 9492,
      "▁शेखर": 9493,
      "२५": 9494,
      "▁वक्तव्य": 9495,
      "▁रायमाझ": 9496,
      "▁बनाउँ": 9497,
      "▁रहेछन्": 9498,
      "▁आइरहेका": 9499,
      "▁दीपेन्द्र": 9500,
      "द्री": 9501,
      "ेन्टमा": 9502,
      "▁सर्भि": 9503,
      "▁कुवेत": 9504,
      "ियन्स": 9505,
      "▁अनुशासन": 9506,
      "▁बधाई": 9507,
      "▁मता": 9508,
      "याे": 9509,
      "▁त्रास": 9510,
      "▁मस्तिष्": 9511,
      "▁बिषयमा": 9512,
      "▁संघसंस्था": 9513,
      "▁खर्": 9514,
      "▁बाजु": 9515,
      "▁उपप्रधानमन्त्री": 9516,
      "▁पल्": 9517,
      "▁गर्नुपर्": 9518,
      "▁छानविन": 9519,
      "टरको": 9520,
      "▁जिज्ञा": 9521,
      "-६": 9522,
      "▁समेटिएको": 9523,
      "▁सुचारु": 9524,
      "▁पूर्वानुमान": 9525,
      "आत": 9526,
      "▁निर्माण,": 9527,
      "पास": 9528,
[...]
