<pad>
<unk>
<s>
</s>
\n
!
"
#
$
%
&
'
(
)
*
+
,
-
.
/
0
1
2
3
4
5
6
7
8
9
:
;
<
=
>
?
@
A
B
C
D
E
F
G
H
I
J
K
L
M
N
O
P
Q
R
S
T
U
V
W
X
Y
Z
[
\\
]
^
_
`
a
b
c
d
e
f
g
h
i
j
k
l
m
n
o
p
q
r
s
t
u
v
w
x
y
z
{
|
}
~



¡
¢
£
¤
¥
¦
§
©
«
¬
­
®
°
±
·
»
¿
À
Á
Â
Ã
Å
Æ
Ç
È
É
Ï
Ð
Ò
Ó
Ô
Õ
Ö
×
Ø
Ù
Ú
Û
Ü
Ý
Þ
ß
à
á
â
ã
ä
å
æ
ç
è
é
ê
ë
ì
í
î
ï
ð
ñ
ò
ó
ô
ö
÷
ø
ù
ú
û
ü
ý
ā
ă
ć
Č
č
ē
ě
ğ
ī
İ
ı
ł
ń
ō
Œ
œ
ř
Ş
ş
Š
š
ū
ů
Ż
ž
ǁ
ǎ
ǐ
ǒ
ǔ
ɐ
ɑ
ɔ
ə
ɛ
ɪ
ʁ
ʊ
ʌ
ʹ
ʻ
ʼ
ʽ
ʾ
ʿ
ˆ
ˈ
ː
˗
˟
ˮ
˴
́
̃
̄
̆
̈
̊
̋
̎
̥
̧
̨
̯
̵
̷
̸
͵
Γ
Δ
Π
Σ
Φ
Ω
έ
ί
α
β
γ
δ
ε
η
θ
ι
κ
λ
μ
ν
ο
π
ρ
ς
σ
τ
υ
φ
ω
ό
І
А
Б
В
Ж
З
И
К
Л
М
Н
П
Р
С
Т
У
Ф
Х
Ц
а
б
в
г
д
е
ж
з
и
й
к
л
м
н
о
п
р
с
т
у
ф
х
ц
ч
ш
щ
ъ
ы
ь
э
ю
я
ё
є
і
҆
ӓ
ְ
ֲ
ִ
ֶ
ַ
ָ
ֹ
ּ
ֽ
׀
ׁ
א
ב
ד
ה
ו
ז
ח
ט
י
ך
כ
ל
מ
נ
ק
ר
ש
ת
׳
،
ؘ
؟
ء
آ
أ
ؤ
إ
ئ
ا
ب
ة
ت
ث
ج
ح
خ
د
ذ
ر
ز
س
ش
ص
ض
ط
ظ
ع
غ
ف
ق
ك
ل
م
ن
ه
و
ى
ي
َ
ُ
ِ
ّ
ْ
٠
٪
ټ
پ
چ
ړ
ک
گ
ہ
ی
ې
۔
܀
ऀ
ँ
ं
ः
ऄ
अ
आ
इ
ई
उ
ऊ
ऋ
ऌ
ऍ
ऎ
ए
ऐ
ऑ
ऒ
ओ
औ
क
ख
ग
घ
ङ
च
छ
ज
झ
ञ
ट
ठ
ड
ढ
ण
त
थ
द
ध
न
ऩ
प
फ
ब
भ
म
य
र
ऱ
ल
ळ
ऴ
व
श
ष
स
ह
ऺ
ऻ
़
ऽ
ा
ि
ी
ु
ू
ृ
ॄ
ॅ
ॆ
े
ै
ॉ
ॊ
ो
ौ
्
ॎ
ॏ
ॐ
॑
॒
॓
॔
ॕ
ॖ
ॗ
क़
ख़
ग़
ज़
ड़
ढ़
फ़
य़
ॠ
ॡ
ॢ
ॣ
।
॥
०
१
२
३
४
५
६
७
८
९
॰
ॱ
ॲ
ॳ
ॴ
ॵ
ॶ
ॷ
ॸ
ॹ
ॺ
ॻ
ॼ
ॽ
ॾ
ॿ
ং
অ
আ
ই
উ
এ
ও
ক
খ
গ
ঘ
চ
ছ
জ
ঞ
ট
ড
ণ
ত
থ
দ
ধ
ন
প
ফ
ব
ভ
ম
য
র
ল
শ
ষ
স
হ
়
া
ি
ী
ু
ূ
ে
ো
্
০
১
২
৪
৫
৳
৷
ਂ
ਆ
ਕ
ਜ
ਤ
ਦ
ਨ
ਬ
ਮ
ਰ
ਲ
ਸ
ਹ
਼
ਾ
ਿ
ੀ
ੁ
ੂ
ੇ
ੈ
ੋ
ੰ
ੱ
ક
ર
ે
્
૪
୵
க
ச
த
ந
ம
ய
ர
ல
வ
ஸ
ா
ி
ு
்
ಂ
ಕ
ಗ
ಡ
ತ
ದ
ನ
ಪ
ಬ
ಮ
ಯ
ರ
ಲ
ಸ
ಾ
ಿ
ು
ೆ
್
ม
้
་
།
ཀ
ག
ང
ད
ན
པ
བ
མ
འ
ར
ལ
ཤ
ས
ི
ུ
ེ
ོ
ྒ
ྟ
ྱ
ྲ
ა
ს
ᅳ
ᆰ
​
‌
‍
‎
‐
‒
–
—
―
‘
’
‚
‛
“
”
„
‟
†
‡
•
‣
 
‪
‬
‰
′
‵
‹
›
※
⁃
⁄
⁎
⁕
⁠
€
₹
⃣
←
↑
→
↓
↔
↩
⇒
⇔
⇨
∅
−
∕
∙
√
∞
∩
∪
∫
∶
≈
≠
≤
≥
≫
⋆
⋲
⎯
⏩
─
▁
█
■
□
▪
△
▸
►
▼
◆
◈
◊
○
◎
●
◦
⟲
⟳
⠀
⦁
⬆
⬇
⭐
⸻
、
。
〇
《
》
「
」
【
】
あ
い
う
お
か
が
き
く
け
こ
ご
さ
し
じ
す
せ
た
だ
ち
っ
て
で
と
ど
な
に
の
は
ま
も
ゃ
ら
り
る
を
ん
イ
カ
ク
コ
サ
ジ
ス
ッ
ト
ド
ナ
ニ
フ
マ
ラ
リ
ル
ロ
ン
・
ー
一
七
三
中
人
住
你
保
公
分
動
北
区
司
合
吗
啶
啷
喜
嗎
国
在
大
好
学
官
定
小
工
師
平
年
快
您
我
技
新
日
明
春
曜
書
月
有
木
本
東
板
欄
水
活
火
焼
爐
生
的
社
神
立
節
老
花
藏
行
証
語
謝
谢
赛
車
送
通
金
闆
高
ꜛ
가
고
관
구
국
기
나
네
는
니
다
대
로
를
민
병
부
사
서
성
시
심
아
어
에
오
원
은
의
이
인
전
정
지
팔
하
한
해
후


































︎
️
﻿
﾿
￷
￼
�
🆀
🤓
🤣
🤦
🤱
🥇
को
▁स
मा
र्
का
▁प
्र
न्
▁ग
ले
▁र
ने
्य
▁ब
▁।
ला
▁भ
▁अ
▁क
▁व
▁ह
ार
▁छ
▁न
▁म
▁त
▁प्र
▁द
▁ज
स्
▁आ
ाल
ता
ति
क्
ना
▁उ
एको
यो
ान
▁गर
▁का
हर
नि
▁वि
▁गर्
ेको
त्र
म्
लाई
नु
वा
िक
ित
▁।\n
या
▁हु
था
▁च
▁नि
▁मा
▁ला
रा
्या
▁ल
री
▁ख
▁ए
▁रा
▁य
▁श
न्द
क्ष
▁थ
त्
ल्
▁स्
▁ने
▁सा
▁सं
पाल
▁पनि
ेश
ेर
बा
▁दि
नी
हि
▁सम
ष्
▁लाग
हरू
ाउ
▁थि
ुर
ेका
हा
एका
पा
दै
▁हो
रि
▁फ
र्य
दा
▁१
।\n
हरु
▁छन्
िका
▁भएको
बाट
▁२
स्त
द्
न्छ
▁नेपाल
क्र
न्त्र
▁पा
भा
▁भने
▁त्य
▁रह
वि
▁लागि
कार
▁निर्
ष्ट
▁के
▁को
ेख
▁गरि
रण
सा
▁पु
▁गरेको
▁गर्न
▁घ
छि
लो
▁सम्
रो
ेल
▁एक
ाम
ही
ीय
▁कार्य
▁ट
▁यो
र्ष
्न
▁गर्ने
▁ध
▁कु
▁प्रति
ारी
न्त
स्था
▁उन
▁सु
देश
्च
▁बा
▁यस
गा
ध्य
▁बता
▁व्य
▁थियो
भि
ली
▁ड
▁आफ
ँग
▁तथा
ेखि
▁क्
टा
▁अनु
पछि
म्म
धि
पर्
▁सर
कि
धान
रह
योग
िय
▁बढ
बार
गर
ुप
्रो
टी
▁सह
ण्
ौं
▁उप
▁हुने
की
ालय
सँग
र्थ
िन
▁जना
▁दु
स्थ
ेट
▁वर्ष
▁राज
ाइ
▁क्ष
▁बि
▁सि
जार
ंग
ेस
क्रम
प्र
▁वा
▁'
वस्था
▁थिए
न्न
ूर्
▁मु
्व
िल्
ण्ड
ेत
नमा
प्
सार
ष्ट्र
कारी
ीले
न्द्र
एर
क्त
याँ
▁इ
▁रहेको
▁सरकार
ङ्
▁नै
िम
द्ध
▁बै
न्य
▁तर
नुपर्
▁परि
▁त्यस
▁बना
ँदै
सी
बै
न्त्री
▁ठ
▁स्थ
मु
नको
▁विश
▁लि
▁से
न्दा
द्य
▁उनले
▁३
▁छ।
डा
ठमा
▁काम
▁गरेका
सि
ेत्र
▁रुप
▁२०
ानी
जा
लि
न्ध
जना
▁क्षेत्र
उन
म्प
ाउँ
ती
ठमाड
▁कि
▁सबै
▁समा
धार
डि
▁भन्
ंक
▁भए
हिले
सम्म
त्य
स्ता
हाँ
हु
▁गरिएको
▁पार्
▁(
▁प्रा
▁देखि
▁हाम
दी
▁उनी
ुरु
▁भएका
उने
▁सो
▁हजार
▁रो
▁।\n\n
▁काठमाड
क्षा
ैन
▁५
▁मि
्ने
वार
▁पर्
▁मात्र
चार
ेद
र्म
▁जन
▁मह
क्ति
▁अर्
ध्यक्ष
▁राष्ट्र
▁गर्दै
ेला
मन्त्री
ग्र
ञ्च
▁गरे
▁जा
▁ना
▁सक्
सक
▁उत्
▁स्थान
तिक
जी
▁अध
▁बु
टर
पालिका
▁राख
▁आफ्न
माण
रहेको
बन्ध
गत
▁समय
िति
▁छैन
▁जो
▁जान
▁४
▁बताए
▁दिन
शा
भाव
▁गरी
छन्
▁हुन्छ
मान
▁प्रहर
▁कम
कु
▁पुग
ूप
दि
नै
▁पर
मुख
▁महि
▁भन्ने
्रा
▁गत
▁ती
र्व
लेख
▁नेपाली
नुभ
िल्ला
▁हुन
कृ
बी
त्व
स्तो
टक
▁कारण
▁स्व
निक
ेक
▁ओ
▁काठमाडौं
▁पार्टी
रमा
्रम
▁प्रदेश
र्फ
▁कुरा
र्ता
▁था
नुपर्ने
▁आफ्नो
▁६
▁छ।\n
▁अव
▁दा
ेन्
ेरै
▁लग
रु
▁लाख
ोल
ाउने
डी
▁हुन्
▁जिल्ला
सो
▁स्वा
▁दुई
▁पहि
िया
▁कार्यक्रम
ुट
▁अहिले
▁चा
चि
ारत
ूल
जन
▁अध्यक्ष
▁व्यवस्था
ाउन
्ञ
▁साथ
▁झ
▁खो
▁केही
ँदा
घि
▁धेरै
कास
▁केन्द्र
देखि
▁पूर्
▁रूप
▁हि
▁देश
▁भा
▁आव
▁सय
स्य
▁अन्त
▁खा
कै
▁निर्माण
▁महा
▁अनुसार
▁बो
ुन
मि
ँच
म्ब
पूर्
यर
▁यु
ाली
वाच
दान
▁सञ्च
▁अवस्था
भन्दा
फल
स्तै
▁लगा
▁भारत
ोर
▁शि
▁निय
▁७
▁सद
▁कुनै
ब्
▁जानकारी
▁विकास
पुर
▁या
ौँ
्यो
हित
श्य
भाग
पी
▁शा
ष्ठ
र्च
▁कार्यालय
स्ट
यत
▁नगर
▁हा
हरूको
▁समेत
▁अधिका
मै
▁निर्वाच
▁?
▁पो
▁गु
न,
▁आयो
▁विष
हरूले
मी
▁प्रहरी
▁बैंक
▁कम्प
▁प्रधान
ारा
▁घर
च्च
खा
टो
\n\n
▁तपा
▁प्रमुख
ग्
▁भइ
▁खेल
▁राम
▁रूपमा
कमा
वन
जि
शत
▁सकि
▁श्र
सम
▁अभि
यन
▁नेता
▁स्थानीय
ैले
सको
हरुले
माले
इएको
ैयाँ
मेर
▁गरेर
हो
▁विषय
उँ
▁चि
▁८
▁प्रतिशत
थि
न्दै
▁विश्व
धा
▁सरकारले
टि
▁नयाँ
▁सेवा
▁तय
▁कम्पनी
▁ल्या
▁बज
ताको
णा
श्यक
ीमा
सले
▁मो
▁गाउँ
ज्ञ
वी
सन
स्प
▁‘
▁मन्त्र
▁आएको
रोड
स्थ्य
▁समिति
▁सदस्य
स्या
▁रहेका
ट्
लमा
▁आज
▁रुपैयाँ
▁ढ
▁प्रयोग
हरुको
प्त
▁९
▁करोड
्रेस
▁सामा
▁सञ्चाल
▁खु
राज
क्षण
रको
▁भि
▁तपाई
▁बढी
ेन
्यान
भिन्न
ोक
यु
छ।
▁सुरु
▁दल
र्या
मो
▁गर्नु
▁गा
सद
▁सुर
▁व्यव
जिक
पति
करण
▁समस्या
▁रुपमा
सं
▁मत
▁देख
पाद
वादी
▁१०
▁उनको
▁नभ
▁आइ
▁पछि
सर
वेश
▁-
दुर
▁पहिलो
साय
▁आवश्यक
▁बैठ
लु
णय
र्थिक
र्श
पि
\\n
समा
▁व्यक्ति
▁घट
▁स्वास्थ्य
▁विभिन्न
▁भन्दै
ताल
▁निर्णय
▁हामी
सु
इन
ोग
▁औ
▁संघ
▁गर्दा
▁राष्ट्रिय
▁दो
नामा
▁आर्थिक
▁राजनी
▁ति
▁अन्य
▁प्रधानमन्त्री
▁महिला
▁पार
▁त्यो
▁छन्।
र्त
▁विद्य
वाद
धन
त्त
▁जी
▁आफू
रहेका
▁संस्था
पूर्ण
▁सम्बन्ध
नुभयो
▁डा
र्ग
▁भयो
▁एउ
▁सभा
▁दिए
न्ड
▁भू
टन
श्च
▁रि
ङ्ग
ेड
▁कस
▁मूल
त्म
▁व्या
ित्
रोना
र्ड
चना
▁तीन
हादुर
▁डि
तन्त्र
ेष
न्ति
▁जनाएको
▁अप
सकेको
▁जि
▁हुँदै
ंग्रेस
वारी
▁कृ
सहित
▁आधार
▁सहयोग
▁मन्त्रालय
▁ठू
▁गते
पन
▁उल्
▁नाम
▁शु
स्पताल
▁छो
▁दिने
वास
ञ्
▁रु
▁प्रश
ख्या
तृ
▁मन
▁सू
▁माग
▁चु
▁उत्पाद
▁मानि
्छ
▁उक्त
र्क
▁कोरोना
▁अस्पताल
क्ता
▁सार्व
▁कांग्रेस
▁क्षेत्रमा
न्या
▁छ,
▁आयोजना
िएको
▁अब
हार
▁मुख
जु
▁दिएको
गरिक
क्रमण
स्थित
▁थप
▁हे
जनिक
िर
तामा
▁क्रम
▁मृ
चिव
▁पत्र
▁बस्
▁नगरपालिका
▁उहाँ
▁लेख
▁अमेर
▁छा
से
हरूलाई
कम
चा
▁समाज
▁बजार
्रि
▁नागरिक
▁हाल
▁एमाले
सँगै
▁सार्वजनिक
ड्
▁सम्प
अघि
के
▁तपाईं
▁भन्दा
हरुलाई
बीच
▁सड
कको
भित्र
▁बने
▁गो
राष्ट्र
▁ओली
कले
बहादुर
▁एउटा
सभा
बु
▁प्रभाव
शी
▁दे
▁भनेर
काल
▁उद्य
▁बेला
▁पुन
द्या
▁ता
ोष
नुपर्छ
▁निर्देश
ूह
▁बाल
▁स्था
धिक
▁लगानी
▁बाँ
पत्र
क्रिया
स्तु
▁नेतृ
लेको
हान
▁मे
ीत
▁निर्वाचन
्यु
▁निका
▁व्यवसाय
फा
कपा
▁बस
▁नेतृत्व
एपछि
▁तह
वै
▁बे
काश
▁पक्ष
▁छन्।\n
▁उल्लेख
▁अर्थ
▁अघि
भर
▁संग
▁टो
▁योजना
पु
▁किन
र्न
प्रति
▁प्राप्त
▁बुझ
निधि
▁पू
र्ट
्री
▁मुख्य
पना
न्व
▁विशेष
▁इन्
▁वै
नुहु
▁"
इन्
▁नग
▁२०७
▁पूर्व
ध्ये
▁भने,
सक्
द्धि
बारे
▁गाउँपालिका
▁गठ
▁तर,
ेष्ठ
▁पोख
▁थियो।
▁अन्तर्
धी
▁सक
▁कर्म
▁जारी
▁वडा
त्यु
▁ठूलो
▁अधिकारी
▁मात्रै
▁पर्य
▁नी
▁पटक
▁पर्ने
नाइ
▁बताउ
▁साम
▁वटा
ारे
रुद्ध
अनु
▁अनि
दाय
नका
मति
चारी
बि
▁चौ
▁ले
▁सर्व
▁सन्
न्तर
▁राजनीतिक
सन्
▁सम्म
▁मृत्यु
ेन्द्र
▁समूह
ुल
▁भेट
▁नेकपा
लफल
ीको
▁अर्ब
कल
▁सङ्
▁राम्रो
▁मूल्य
मार
▁परी
विधान
▁जित
▁पाँच
▁हो।
कर्ता
▁उद्योग
▁छलफल
स्रो
▁आग
तमा
▁मान
दर्श
▁सम्झ
▁बताएका
ठा
▁उपचार
▁आएका
▁अगा
▁विद्या
▁भनि
▁सुरक्षा
▁यस्तो
वरण
ञ्ज
वेद
▁सहभाग
▁कर्मचारी
▁क्रममा
र्फत
▁सां
त्मक
▁अवस्थामा
▁उम्म
▁१५
नले
▁निक
▁न्य
लको
म्भ
दछ
युक्त
टमा
▁सक्ने
▁महिना
राम
विधि
▁विषयमा
▁सामाजिक
तर
त्ति
समेत
▁उत्पादन
तर्फ
त्या
▁चार
▁संविधान
▁अद
डेल
▁अर्को
▁मन्त्री
▁नीति
र्ने
▁विश्
▁श्रेष्ठ
▁अझ
▁बनाउन
मित
▁बजेट
ेरो
णाली
▁जुन
यक
▁भइरहेको
▁१२
▁हुँदा
ीर
होस्
त्ता
हाल
▁सञ्चालन
घा
▁विदेश
रोध
▁सडक
क्स
▁रकम
नुभएको
▁संर
▁उपा
▁दश
▁उम्मेद
ृद्धि
▁मुलु
▁प्रव
▁साथै
हरूमा
न्स
▁पद
अनुसार
▁यसको
▁टोली
गरी
▁कर्
्दै
▁कति
वाह
नाव
▁प्रतिनिधि
▁नेपालमा
▁११
▁राज्य
व्य
ोट
▁नेपालको
▁गर्नुपर्ने
▁हाम्रो
▁क्या
▁पै
▁खर्च
ेपछि
ल्लो
तको
▁पौ
पर
▁आयोग
गम
सन्धान
▁लक्ष
▁थापा
बर
क्षक
▁करि
ग्रह
राष्ट्रिय
▁यी
▁अदाल
▁बन्द
▁लोक
▁क्र
▁१९
▁लगायत
▁उच्च
ुवा
ैं
▁बी
▁नहु
साद
जग
▁ची
▁घटना
▁परिवार
▁फो
पो
▁विद्यालय
▁फि
▁फिल्
▁विक
▁दोस्रो
गायत
▁अनुसन्धान
ामी
▁भु
ेन्ट
▁प्रहरीले
▁परेको
ष्टि
▁तत्
▁व्याप
▁शर्
▁ठाउँ
▁घोष
▁मौ
ओवादी
दो
न्छन्
▁तयारी
बल
▁जनता
र्थी
पनि
▁सी
▁बाहि
▁जे
▁कृष
▁खे
▁बनाउने
▁महान
वर्त
▁उपल
▁सफल
छा
▁लागेको
दे
झा
▁विज्ञ
▁ऐ
म्बर
▁शिक्षा
▁आरो
वल
▁अफ
▁अगाडि
माथि
▁पुगेको
▁समयमा
यात
स्ताव
▁पढ
▁भएर
▁पानी
ल्या
▁सम्पन्न
त्रा
▁सचिव
▁दिएका
न्दोल
▁पाइ
▁देखिएको
यान
▁भएपछि
कृति
▁जोड
धारण
▁सक्छ
ट्ट
क्राउ
▁५०
ष्ण
▁हामीले
▁विभाग
▁आउने
▁चाह
यी
▁उपलब्
▁अस
▁सबैभन्दा
▁गएको
ृत
▁युवा
▁प्रक्रिया
▁फिल्म
▁ब्या
ोधन
स्व
ल्ला
▁गरिने
▁घोषणा
▁नियन्त्र
एन
तम
धिका
▁अध्य
▁त्यहाँ
।\n\n
▁तयार
▁खोज
न्छ।
▁समु
▁जाने
▁यहाँ
▁कार
मिक
▁कानु
▁प्रकाश
▁रे
▁पक्राउ
▁भएकाले
षा
▁भनाइ
▁स्प
▁किस
▁प्रस्ताव
▁गर्छ
तले
▁केन्द्रीय
▁पि
▁संख्या
थ्यो
▁पुर
यम
▁न्या
▁संसद
▁कार्यक्रममा
काली
▁पी
▁एव
द्दा
▁सांसद
▁अमेरिका
▁आन्दोल
लब
▁गोल
▁अधिक
ालिका
▁।\\n
दर
▁छि
भव
न्ने
▁संक्रमण
दैन
नेपाल
ंश
▁अन
▁कसरी
▁ट्र
▁नियन्त्रण
ेरि
▁गरा
टल
▁साल
▁भाग
▁पौडेल
▁हुनेछ
▁उद्
▁मानिस
▁जीवन
तिमा
▁राष्ट्रपति
ानो
▁काठमाडौँ
▁उठ
▁प्रत्य
लग
▁परिवर्त
▁चल
▁मेरो
▁होइन
▁\n\n
▁बारे
▁प्रदान
कार्य
कृत
लाइ
▁मुद्दा
▁आउ
▁२५
▁थिए।
एस
शु
मध्ये
▁निर
▁हर
▁योग
ल्ने
टै
▁बैठक
हरुमा
सम्
▁बस्ने
▁माओवादी
ंह
▁मैले
▁कार्या
▁फा
कर्ष
लगायत
▁प्रशा
स्तार
▁छुट
▁ग्र
▁डे
▁सरकारको
▁करिब
र्स
▁पूर्ण
▁व्यवस्थापन
पटक
▁आरोप
▁३०
▁:
डियो
▁सम्झौ
यस
▁कृषि
▁फर
▁उम्मेदवार
▁चाल
▁लु
ारि
▁पैसा
▁वर्षको
▁स्ट
▁डा.
▁विद्यार्थी
▁आधारमा
परि
चाल
▁छन
र्ज
▁गीत
▁अध्ययन
लव
▁लामो
▁१४
ृह
▁फर्
्नु
▁कार्यान्व
म्मे
▁दुवै
राई
▁बिक
मिका
▁१३
▁सरकारी
▁खेला
▁प्रदर्श
▁भो
प्रसाद
ल्प
▁पछिल्लो
▁भाइ
▁श्री
▁स्थानमा
▁कारो
▁प्रश्न
िता
ग्री
पक्ष
▁गुरु
▁लिएर
▁विज
▁सम्भाव
ैनिक
र्घ
जो
▁उपलब्ध
च्छ
▁तो
▁कार्
▁सामान्य
कुमार
▁बढेको
▁भारतीय
▁निकै
▁यसले
▁नभएको
▁शर्मा
नुहुन्छ
▁फाइ
तिर
▁प्रच
िकी
▁भनेको
लामा
▁संस्
न्ट
धिवेश
▁उनलाई
▁आग्रह
▁बनेको
त्री
तरण
▁सूचना
उँछन्
▁म्या
▁सहभागी
्ना
सिक
तो
-१
▁त्यसैले
ेकी
ेयर
ंगल
▁रोजग
रले
▁अभियान
▁यही
▁?\n
क्रमित
▁सकिन्छ
▁देउ
दार
▁लिन
▁आगामी
▁ऋ
▁ज्ञ
▁परेका
▁बिहान
नाले
रत
▁शक्ति
▁खेलमा
▁दर्ता
▁फै
▁हुनु
▁निकाय
ते
▁पठ
▁अन्तर्राष्ट्रिय
▁१६
▁प्रया
▁अझै
▁सहमति
▁चुनाव
कालीन
न्तिम
▁प्रणाली
▁सन्द
▁विद्यु
▁प्रतियोग
▁स्वी
वेदन
▁पूरा
▁सोम
▁पत्रकार
▁गरिरहेको
▁१८
▁गौ
▁कारोबार
▁जिम्मे
त्वपूर्ण
चित्र
▁त्यस्तै
विधा
▁दाबी
▁हो,
लले
स्क
ग्गा
मारी
▁जु
▁पाउने
▁अन्तिम
सका
▁सर्
श्चिम
संघ
ल्क
कर्म
ेज
▁स्रो
▁बाहिर
किएको
▁जस्तो
विरुद्ध
▁पदा
▁परीक्षण
थे
डान
सकेका
तबार
▁सुधार
तिहा
▁अधिकार
ची
▁यस्तै
▁थाले
▁निर्देशन
▁त्यसपछि
▁मध
▁बाँकी
▁सम्झौता
बद्ध
र्चा
ध्यम
उँदै
भू
▁देखिन्छ
▁सहज
▁बारेमा
लेर
णी
श्व
▁रहने
▁स्थापना
▁कर
▁नम्बर
▁वितरण
तार
▁रोग
योज
▁उहाँले
▁गति
ेम
▁मलाई
विद्य
रिद
▁तथ
▁भूमिका
▁प्रस्तु
▁२४
▁चला
दू
▁एवं
▁भ्रम
▁विस्तार
▁हो।\n
▁नेपालले
ढी
▁याद
▁भट्ट
श्
▁कायम
▁त्यसको
▁चरण
▁त्यही
▁हरेक
स्थिति
▁विश्वास
▁भित्र
२०
निर्
▁परिवर्तन
▁जब
▁बाटो
▁व्यापार
▁भण्ड
▁अवधि
▁जन्
▁आफ्ना
▁महानगर
▁जनाको
▁,
्दा
▁शुक्र
साइ
ल्न
▁छु
▁मानव
▁खरिद
दिन
सक्ने
ेक्
▁कला
▁टा
▁ई
▁ध्यान
ियन
▁खेलाडी
▁गर्दछ
राब
▁गण
पक
चित
र्ण
▁जग्गा
▁प्रवेश
▁बलि
न्।
क्षित
▁पोखरा
▁वित्त
▁क्षम
▁बुध
▁थिएन
▁सात
वान
द्धा
▁सवारी
शील
▁धा
र्जन
▁होला
▁दी
▁२०१
▁कै
▁सुविधा
▁टि
▁रहे
▁वृद्धि
▁दाहाल
▁सकिने
नाको
▁बजारमा
▁यसलाई
▁अति
▁जोख
आर
▁गठबन्ध
वर
▁१७
विक
▁दक्ष
▁न्यू
ज्य
तावरण
▁प्
▁सोच
▁आँ
▁पर्यटक
ेता
▁ताल
▁देउवा
ैँ
▁विवाद
▁प्रविधि
▁मै
हेक
ाउनु
▁अमेरिकी
▁दृ
▁आफ्नै
▁समुदाय
▁सभापति
ाल्
▁दू
▁चलचित्र
उनु
▁देखा
▁टु
▁बिक्री
एम
▁व्यवसायी
ँड
▁स्पष्ट
ुरुष
▁गि
ेप
शि
▁बैंकले
▁आइतबार
▁पुनः
▁जोखिम
▁किसान
▁वातावरण
ङ्क
▁तुल
ँदैन
▁निजी
▁थियो।\n
▁तत्काल
▁विमान
▁निरन्तर
श्चित
▁जल
सम्बन्ध
▁लक्ष्य
यार
▁यसअघि
ताका
▁कम्पनीले
▁जस
▁सोही
▁२१
ालले
▁नारा
सचिव
▁शै
▁प्रयास
▁संक्रमित
▁पुर्या
▁सम्भावना
च्चा
आई
▁फुट
▁हुँदैन
▁नहुने
▁अंक
▁थाहा
▁1
▁सुन
णि
▁भाइर
▁वर्षीय
▁जसले
▁सोमबार
ङको
रामी
▁सीमा
▁स्वतन्त्र
▁खाने
▁कुल
▁मान्छ
जित
▁संक
हन
▁लिएको
,'
▁यसै
▁गरेपछि
ढा
▁समाधान
▁प्रचण्ड
\n-
▁सिंह
▁यादव
▁सेयर
▁ओलीले
▁फेरि
▁गरिरहेका
▁उनका
धु
बेला
▁आई
▁तिनी
▁ग्रा
▁दर
▁बच
ुरो
▁पुरुष
▁बनाएको
▁मुलुक
रू
▁पहिले
▁एस
म्मा
टको
▁हेर्
▁बैठकमा
▁मंगल
▁वित्तीय
▁व्यक्त
नाथ
▁पराज
ेस्रो
रीको
पानी
▁बीच
लिक
▁यदि
▁मिने
▁अरु
▁तर्फ
ङले
▁संघीय
भो
उँछ
▁झा
▁गृह
▁शनि
▁दैनिक
▁फरक
▁नजिक
धे
▁संगठ
▁घण्
पको
..
▁चाहि
▁सम्ब
षद्
देश्य
▁एन
ंगा
स्पर्
▁यात्रा
▁भ्रमण
▁समाचार
रेल
▁कार्यान्वयन
▁जिम्मेवारी
▁बताउनुभयो
▁बहु
▁सहित
मार्फत
▁बताउँछन्
र्जा
लर
यण
ैर
▁भई
▁त्रि
गो
▁०
▁विचार
▁शुक्रबार
▁छौं
▁बुधबार
्युनि
शाख
सम्बन्धी
द्वार
ालि
म्भीर
ँजी
▁यस्ता
डित
▁तेस्रो
▁ठाउँमा
▁न्याय
कृतिक
भिड
▁सर्वो
बाही
▁क्लब
षण
रुप
▁ऋण
ेलि
ल्य
▁आमा
▁प्रमाण
▁सम्बन्धित
▁४०
▁अग्र
▁क्षति
योजना
▁राई
▁जस्ता
▁संयुक्त
▁प्रतिस्पर्
कलन
▁यति
र्घट
योजन
▁पर्यटन
▁गम्भीर
▁नं
▁सुझा
▁नियु
▁प्रस्तुत
ेले
▁प्राथ
▁\n
दु
लाको
▁बजे
▁ऊ
▁बाट
▁सामग्री
ौती
▁गठन
▁प्रो
▁गर्छन्
▁।’
▁मन्त्रालयले
एकी
▁कार्की
▁भण्डारी
▁ढु
▁छोरा
▁अधिकृत
हीबार
▁प्राथमिक
स्त्र
क्रिय
ता,
▁चित
▁कमि
▁श्रम
▁रू
▁हस्ता
▁संरक्षण
▁सहकारी
▁निष्
चान
▁केपी
▁असार
हल
▁लिने
ीकरण
▁२२
ेश्व
▁हात
▁जस्तै
खु
▁ब्य
▁छैनन्
▁बर्ष
▁जीव
धिकरण
▁शाखा
▁मनो
▁गुण
िल्लो
यो।
▁औष
क्क
प्ता
कारा
▁पूर्वा
▁आत्म
▁साँ
लै
▁टिम
▁चै
▁दुर्घट
▁प्रदर्शन
ीका
▁दक्षि
▁उपाध्यक्ष
पित
संग
ल,
क्टर
▁अभाव
▁बिरामी
सिया
▁कम्युनि
▁घण्टा
ाउँदै
ेसम्म
मत
रिया
▁खान
लित
▁नाममा
ारमा
वासी
▁अवसर
▁नेपालका
▁दिइ
फ्
▁वरि
▁सम्मेल
काले
▁घरमा
भु
ङ,
▁भर्
▁मना
सद्
जर
▁तिम
पय
▁छन्,
िकेट
▁छैन।
अन्त
▁नियम
योजक
▁चिक
▁शेयर
▁निम्
▁रोजगारी
▁विरोध
▁लो
▁बालब
▁सिर्
▁संश
ित्व
▁२३
▁मंगलबार
▁डो
▁उद्देश्य
▁मध्य
▁क्षेत्रको
▁सकेको
▁सम्मान
▁द्व
▁शुरु
▁अर्था
नो
स्थान
▁कम्पनीको
▁विदेशी
▁विगत
▁सुनि
▁सर्वोच्च
▁सुझाव
पान
▁चिनि
▁प्रशासन
▁भद
▁महाधिवेश
▁भिडियो
मे
इन,
स्थल
▁कर्जा
▁जिल्लामा
कम्प
▁लगायतका
▁आवश्यकता
फो
▁आदेश
▁बसेको
डिया
ी,
▁पर्छ
▁सिर्जना
▁त्यसै
▁पार्टीको
▁प्या
न्तरिक
▁ग्राह
न्तरण
▁बैठकले
कृष्ट
▁विवरण
▁च्या
▁छ।\n\n
▁हट
▁शान्ति
▁नदि
ष्टा
धीश
्रै
▁खुला
▁आन्दोलन
▁गाडी
▁प्राधिकरण
▁आम
▁सिफ
▁सञ्ज
▁माथि
▁प्रकार
▁रन
▁हेर
▁दर्श
▁कानुन
▁बताए।
▁राख्ने
▁कारबाही
▁थालेको
▁निर्देशक
▁हिमा
▁गराउने
▁स्रोत
▁लाग्ने
▁भाषा
▁घाइ
▁अन्त्य
▁स्त
▁प्रवक्ता
दानी
▁खेत
▁फिर्ता
▁किलो
▁शनिबार
प्प
इरा
न्,
कारात्मक
▁अन्तर्गत
▁विधे
▁प्रेम
▁शी
▁औं
▁भट्टराई
सरमा
▁बालबालिका
वे
▁२८
▁!
▁कमा
▁चिकित्
▁निर्वाचनमा
▁सिफारि
▁होइन,
▁अस्पतालमा
▁भौ
▁बीमा
▁उमेर
रीले
▁देशको
▁घु
▁आन्तरिक
▁कतिपय
▁पुरा
▁घा
▁विप
▁अहिलेसम्म
याधीश
▁२७
▁जेठ
▁संरचना
▁थिए।\n
▁खड्
▁यसमा
उनले
▁कहिले
▁बिहीबार
स्ती
जेन्
▁गुमा
▁पुग्ने
▁असर
▁एक्
▁कोष
ङमा
▁महत्वपूर्ण
ंका
▁त्यति
▁समर्थ
इँ
▁समितिले
▁तथ्या
▁पूर्वाधार
▁सक्रिय
▁धार
▁आउन
▁अन्तर
▁बोर्ड
यता
▁मन्द
▁प्रतिनिधिसभा
▁चुन
▁जनताको
फाइ
चार्य
▁बन्न
▁रोक्
ध्या
▁मिल्
▁दशम
िनी
▁भ्र
ेटि
र्भ
▁प्रशि
▁टे
▁धन
▁वर्षमा
▁थाल
तियार
▁नदी
▁समावेश
▁पुष्टि
▁थिइन्
▁कृष्ण
▁क्षमता
लग्न
▁राख्न
काम
▁शरी
द्वारा
▁पुगेका
▁कले
▁२६
▁हत्या
▁सम्बोधन
▁वन
▁गुना
▁फर्कि
▁घाइते
▁चौध
वाफ
सँगको
▁भइसकेको
▁वस्तु
▁एम
पोर्ट
▁धर्म
▁दक्षिण
कर्मी
▁दिनमा
पूर्व
अन्तर्
▁साउन
▁मान्छे
▁समन्व
▁फाग
ब्द
मेन्ट
▁सम्पूर्ण
▁आठ
▁राजनीति
▁यसरी
▁पाएको
▁प्रभावित
▁सन्त
मा,
▁बनाएर
▁लाइ
ष्य
▁बाध्य
▁चर्चा
रान
▁पाल
दाता
▁निर्वाचित
न्ज
▁संयोजक
गी
▁लागू
▁माध्यम
ल्दै
▁हुन्छ।
▁पहिचान
▁ज्यान
▁आफूलाई
▁पार्टीका
▁गराउन
हत
▁पेश
▁खोप
▁सच
शन
टेड
▁६०
▁पराजित
▁कोभिड
▁लाई
▁परिण
्यास
डो
▁प्रत्येक
▁प्रतिस्पर्धा
▁अपरा
देशिक
विद्यालय
▁उत्तर
▁समन्वय
▁उत्कृष्ट
▁कथा
▁भुक्ता
जोर
▁राखेर
▁संलग्न
▁आफूले
▁राजधान
▁।\nअ
▁बताए।\n
▁बैंकको
स्कार
▁शाह
किङ
लाइन
▁पोखरेल
▁मतदान
▁दशमलव
रूप
▁चीन
सू
▁महासंघ
िमि
▁बढा
रीमा
▁जवाफ
ज्ञा
▁अनुमति
▁समाजवादी
ाइएको
तः
▁लिग
▁आक्रमण
▁वर्षा
▁बराब
▁देव
▁हुनुपर्ने
▁राखिएको
▁आकर्ष
्वा
▁विकेट
▁लै
▁अनुभव
द्द
▁संसद्
▁बच्चा
▁वैशाख
▁नव
▁शीर्ष
▁2
हे
▁भी
▁अभ
▁पक्षमा
▁तामा
ानि
रिक
▁हरा
▁श्रेष्ठले
लेका
▁जन्म
स,
▁गर्नुपर्छ
▁क्रिकेट
हरूका
▁समितिको
▁माघ
सै
▁ट्रा
चालन
बाइ
▁पृ
मन्त्र
▁कोइरा
कुल
▁आप
▁गुनासो
▁बन्ने
▁सानो
दल
▁अख
नू
सीले
▁सञ्जाल
▁अघ
▁पाठ
▁वीर
▁इतिहा
▁वास्त
▁वर्ग
▁प्रभावकारी
सव
▁आदि
▁नसकेको
ित्त
▁गैर
▁अर्थतन्त्र
▁सश
वसाय
▁।'
▁खबर
हरण
न्दु
त्यका
▁याता
▁विश्वक
ेलु
ण्डकी
जको
▁भवन
गमन
▁वे
▁भाव
▁जति
कड
लाले
▁देशमा
▁सजि
छन्।
अन्तर्गत
▁कार्यकारी
▁कस्तो
▁तिन
▁२९
▁सुरक्षित
ंसा
▁गर्ने,
▁ठा
▁कार्यकर्ता
▁पौडेलले
▁हरि
▁आम्
▁पर्व
▁मुख्यमन्त्री
▁साथी
▁क्षेत्रका
▁मिला
सिर
प्रधान
पद
▁बताइएको
▁संस्कृति
नुहोस्
रीय
▁सहकार्य
▁संशोधन
▁कमजोर
▁कप
▁भदौ
▁विरा
▁गरेकी
▁पुष्
▁बद
▁भुक्तानी
▁पुस्त
वाल
न्त्रिक
▁महामारी
▁योगदान
▁पाण्ड
▁सत्ता
▁परीक्षा
▁फे
▁राखेको
नेछ
▁प्रतिष्ठ
▁एकै
▁साह
▁दिइएको
मको
▁कमिटी
सित
▁राति
▁आयोगले
साथ
▁बर्
क्षेप
▁पे
णिज्य
▁अदालत
▁पीडित
▁उदा
मार्ग
▁उपत्यका
▁दिव
▁तपाईंको
▁शब्द
▁केहि
जमा
▁सञ्चालनमा
लाल
▁बनाइ
▁चिन्
▁साइ
▁नियमित
▁सकेन
्रे
सलाई
बाटै
सिल
ेसन
▁त्यसलाई
टाइ
▁व्यवहार
▁“
▁अवसरमा
थो
००
▁अल
▁चुनौती
▁थापाले
▁शुभ
त्रु
▁महानगरपालिका
▁गुणस्त
विधिक
िएका
ल्लाह
▁सुना
▁आयात
धानिक
▁२०८
▁मं
▁तर्फबाट
▁आम्दानी
पर्ने
िपरि
▁महत्
डे
▁३५
▁संसदीय
द्र
▁उनीहरु
▁जोडि
▁गर्द
सीको
▁एका
▁अत्य
▁ठूला
टे
▁भन्छन्
मन
क्षर
▁स्थिति
वटा
▁कसै
▁इन्टर
चारिक
▁प्रत्यक्ष
▁फागुन
▁गौतम
▁भवि
▁विद्युत
▁सँग
▁अधिकांश
कलाई
▁हालसम्म
▁भनिएको
▁कलाकार
हित्य
▁ल्याएको
▁वरिष्ठ
▁उनीहरूको
▁अवधिमा
▁कठ
▁चो
?\n
▁सहा
▁थियो,
मती
▁कक्षा
▁बलियो
▁प्रतियोगि
पश्चिम
▁२०२
▁प्रकाशित
▁विकल्प
पूर्ति
▁विवाह
▁ल्याउन
सिय
तान्त्रिक
श्र
▁नपा
▁धारणा
▁पठा
▁हुन्छन्
क्य
▁ऐन
▁प्रतिवेदन
▁गर्नुभएको
▁अनुमान
▁विश्वविद्यालय
ताले
▁भारतको
दम
▁तत्कालीन
▁सञ्चार
ष्टाचार
▁यसका
▁इज
गि
कर
र्ब
▁अरू
र्षिक
▁शिक्षक
▁फु
▁विरुद्ध
▁जानु
▁उडान
एक
टनगर
▁राजा
▁लागी
▁अर्का
▁गर्नुहोस्
▁गतिविधि
▁गरिएका
▁सङ्घ
▁युद्ध
▁औषधि
▁मन्त्रिपरि
▁प्राविधिक
▁अस्
बन्द
▁सामु
▁कांग्रेसका
▁चैत
▁महसु
▁उपभो
रीक्षक
मात्र
▁कानू
▁कवि
▁संकलन
▁३१
▁कर्णाली
▁सम्पत्ति
कुद
▁उद्ध
▁फर्क
▁नौ
▁ब्रा
बाहेक
टु
भी
▁बोला
पमा
▁असो
▁तरि
▁अपे
▁भविष्य
▁गरिन्छ
▁सरकारलाई
तिकै
▁प्रजा
म्परा
▁बनेका
▁रोक
',
▁कम्
▁यातायात
▁हामीलाई
▁परियोजना
गु
▁आचार्य
▁उपम
▁चिनियाँ
▁त्यस्तो
▁आवा
▁हुन्।
▁मैदान
▁प्रतिबद्ध
ारो
सल
▁बह
▁रंग
▁भौतिक
▁जम्मा
▁मार्फत
▁समितिका
ल्ट
ुक
साधारण
▁ढि
▁सहर
▁होटल
लीमा
▁सिफारिस
▁साता
▁खेलकुद
लिएको
ममा
ेदेखि
▁दबा
▁भै
ृत्ति
▁भन्न
आफ
▁बढ्ने
▁सम्पर्
▁पश्चिम
▁पदाधिका
नीय
कोट
ज्ञान
चक
तै
▁उनीहरूले
जिम
ल्ड
▁उसले
▁मिटर
▁पेट
▁बल
▁लाग्छ
ण्डा
तीमा
▁भक्त
▁पारि
▁बढ्दै
▁पाउ
▁सम्भव
खो
▁शेर
▁शहर
▁भएन
▁की
▁टोलीले
▁सरो
▁छान
न्थ्यो
▁रण
▁विधेयक
▁साहित्य
▁नेतृत्वको
यो,
▁देशका
▁चरणमा
नगर
लत
▁पदार्थ
ृद्ध
▁कुन
दय
ारु
▁नसक्ने
▁मान्य
ःख
▁पहा
साब
▁सेना
लाका
▁परम्परा
▁खण्ड
काठमाड
▁एकता
▁सचेत
▁डु
▁युव
▁बताउँदै
िकल
क्का
डमा
▁लगाउने
▁कारणले
लोक
▁बढाउन
▁पारित
▁पुष्प
ला,
ज्
ेश्वर
▁छौँ
▁नप
▁छाड
▁सध
▁चिकित्सक
िमिर
▁पाएका
▁कार्यालयले
▁आँखा
▁त्यसमा
▁नो
▁नियन्त्रणमा
▁आयोजित
न्दर
बिन
▁समान
री,
▁जहाँ
घु
े,
▁ब्र
▁पुँजी
▁शुल्क
ारम्भ
एफ
▁साँझ
नाई
किस्ता
▁ल्याउने
बो
हरा
▁गठबन्धन
▁सालमा
▁काग
▁विनि
ीकृत
दन
▁पर्या
▁सकारात्मक
▁खन
मोजिम
▁मोटर
न्तु
▁उनीहरू
▁संसार
▁सम्बन्धी
▁मात्रा
नेर
यल
ाउँदा
▁वाणिज्य
▁ज्ञान
यौं
▁दाय
▁परिणाम
▁राजी
पदण्ड
▁माइ
▁सक्दैन
▁प्रतियोगिता
▁कसैले
▁दिँदै
▁भ्रष्टाचार
)\n
▁पुरस्कार
यमा
लीको
▁गएका
मिटर
▁विज्ञप्
ुट्
▁बताएको
पुरमा
▁भूमि
▁साधारण
▁प्रदेशका
ालको
▁लाभ
▁चितवन
▁अर्थात्
),
▁सल्लाह
▁अघिल्लो
▁जम
शुल्क
छु
▁डलर
▁आए
▁सचिवालय
म्बिनी
▁मध्ये
▁प्रदेशमा
▁वार्ता
▁दुःख
्यू
▁स्थापित
▁खाना
सम्मको
▁मापदण्ड
▁आशा
ेदार
▁नेतृत्वमा
▁कार्यालयमा
▁विद्युत्
▁बन्
▁तालिम
▁छुट्
▁अनुदान
▁विराटनगर
▁आफु
▁फेला
▁सहभागिता
▁न्यून
हाम
▁केवल
▁यू
▁दिनुभयो
▁वार्षिक
▁भे
▁कोही
▁साना
▁ब्याज
▁भूकम्प
▁स्थायी
▁दलका
▁मेड
▁गरे।
▁उपभोक्ता
जस्ता
आइ
▁भनेका
एल
▁कालो
▁प्रतिशतले
▁७०
▁नर
▁नियुक्त
▁असोज
म्बा
घाटन
▁गलत
जे
पत
▁प्रचार
▁पहल
तालाई
▁राहत
▁दिउँ
पचारिक
▁अपेक्षा
मूल
▁।\nउ
▁अधिकारीले
▁आजको
▁दृष्टि
नेको
▁चन्द्र
द्यपि
▁मधेस
▁सिद्धा
▁बनाउ
▁काममा
शक्ति
▁उदाहरण
▁निश्चित
न्थ
▁बढि
▁एउटै
▁गर्नुभयो
▁ललित
हरू,
▁तहमा
व्र
तह
▁पहु
▁घिमिर
्वी
▁उपयोग
▁उपस्थिति
▁ऊर्जा
द्रा
▁पुनर्
वाई
तिको
लन
▁नारायण
▁धु
▁२००
▁नाका
▁छिन्
▁मौसम
▁विधि
ए।
▁आर
▁मन्त्रालयका
▁नम
▁उनीहरुले
▁महो
▁हुन्।\n
न्टर
▁शिव
▁अध्या
▁क्रिया
▁जनालाई
▁टिक
▁नभए
▁३२
▁अनलाइन
▁यात्रु
▁सम्बन्धमा
▁८०
▁पारेको
▁मोबाइ
प्रधानमन्त्री
ालो
होर
▁दुर्घटना
▁लकड
जाइ
दूर
▁फुटबल
▁२०६
▁सामान
ेन्स
ढे
▁दिएर
▁जसमा
▁अहिलेको
ँडा
▁लगानीकर्ता
▁प्रदेशसभा
▁लिएका
बे
पुग
▁किसिम
▁मिडिया
▁कुमार
वधान
▁जापान
▁मज
▁बोक
न्छु
▁अक्
▁दिउँसो
▁पहुँच
▁सन्दर्भ
क,
▁युरो
र्मिक
धव
▁।\nयस
▁छोरी
▁भाइरस
र्सि
कुर
ल्यै
▁महसुस
▁एमालेका
धुनिक
▁पुस
देव
वैधानिक
▁हुनुपर्छ
▁एयर
▁कट
ँग्रेस
▁खोजी
▁कलेज
▁मिनेटमा
क्षिक
कूल
▁गण्डकी
▁पुल
▁लुम्बिनी
▁उपकरण
▁भनी
▁सिका
▁सपना
▁वर्त
सला
▁राजस्व
▁युनि
▁कानुनी
सामा
िमिटेड
▁गराएको
▁विजयी
समिति
▁पहिरो
▁जिल्लाको
▁लगाएको
▁सर्वसाधारण
▁स्या
▁आश
▁विज्ञान
ानु
ेली
▁प्रहार
▁बढाउने
▁मार्ग
▁नगद
ग्रा
▁सञ्चालक
▁गर्नेछ
▁।\nत्य
▁व्यक्तिगत
▁बेच
▁कोठा
▁सही
▁वैदेशिक
▁दबाब
▁छोड
खर
▁रहेछ
हीन
फिक
▁गर्नका
▁बढ्
▁महाधिवेशन
खेत
▁कडा
▁लड
▁हुन्छ,
▁ट्या
▁थपि
▁लागेका
▁एकीकृत
नीतिक
▁नस
हरूसँग
पुरको
▁हेर्न
▁सुन्दर
▁लिमिटेड
▁प्रतिष्ठान
जुरी
▁तुलनामा
▁चयन
▁व्यावसाय
▁पाकिस्ता
▁मंसिर
क्रो
▁तहको
ङ्गा
▁झापा
▁बढ्न
▁उम्मेदवारी
▁जनक
▁ग्राहक
▁ढकाल
▁आवेद
▁आलो
हानगर
▁अदालतले
▁सन्देश
▁आफैं
कला
▁स्थित
▁राजधानी
▁मिति
तक
▁काँग्रेस
▁इन्टरने
▁संगठन
▁४५
▁मेयर
▁भएपनि
▁पुरानो
▁निर्धारण
▁प्रवाह
▁बताइन्
ाउँछ
मिछा
▁समर्थन
बीचको
मेल
▁छनोट
चर
▁सत्य
▁जाँदा
▁शव
-२
▁तेल
▁अपराध
¥या
▁सभामुख
▁जग
▁साधन
▁हुनुहुन्छ
▁कहाँ
फी
▁फोन
भिजन
▁केन्द्रित
प्रमुख
▁तथ्यांक
▁जरु
व्या
▁हिसाब
शो
▁बाबु
▁एजेन्
लका
हरुका
दायिक
▁शैक्षिक
▁साझ
ङका
▁लगाउन
▁बैं
▁प्रतिक्रिया
▁राजीनामा
▁दलको
▁छैन,
▁जरुरी
चन्द्र
पथ
त्सव
पे
स्कृतिक
▁मन्त्रिपरिषद्
▁संगीत
चन
प्रिय
नीति
वाला
▁महिनामा
▁खेती
▁भरत
भने
▁दिनु
▁नति
न्छ,
▁अनुगमन
▁पाउन
दारी
▁नगर्ने
▁हेर्दा
▁किलोमिटर
▁बसेर
क्ट
▁है
▁सजा
▁फाइदा
▁स्वदेश
▁नभई
▁लामिछा
जस्तो
लेट
▁क्याम्प
औं
▁हाइ
▁अंग
▁साउ
भारत
रे
ल्यान्ड
▁प्रारम्भ
▁सै
▁वर्तमान
हण
▁प्राय
▁उद्घाटन
▁अर्थमन्त्री
▁प्रेस
▁आधारित
▁माया
▁पूजा
▁शाही
लगायतका
▁धार्मिक
▁प्रदेशको
▁न्यायाधीश
▁स्म
▁हासिल
▁सरोकार
▁खर्ब
▁उनीहरुको
▁फल
▁पार्टीले
▁चासो
▁देशभर
▁परिस्थिति
रामा
पक्षी
▁पछा
▁मन्दिर
▁विश्ले
▁कांग्रेसले
▁रिपोर्ट
नुपर्छ।
▁विभागले
▁दोहो
सकेपछि
गञ्ज
▁नाफा
मले
डर
ित्ता
▁तीव्र
परेको
▁थालेका
▁यद्यपि
▁तरकारी
प्रतिनिधि
▁भन्नुभयो
▁'अ
▁सौ
▁शर्माले
▁काठमाडौं,
▁अवि
▁सबैलाई
▁राख्
्मी
▁पास
▁महासचिव
▁उहाँको
▁समग्र
▁गएर
नय
म्बु
स्वा
▁महत्त्वपूर्ण
▁हिमाल
▁जिल्लाका
▁जुट
▁भन्सार
वाट
▁नहुँदा
ोका
▁चुना
सीसी
▁भर्ना
▁प्रतिबद्धता
▁पर्याप्त
घाट
▁व्यवस्थाप
;\n-
▁निर्माणको
▁उपयुक्त
▁माधव
▁मल्
र्का
▁शेरबहादुर
कमल
व्यक्ति
▁खानेपानी
▁निः
▁फोटो
▁नाय
▁प्रहरीको
▁डाक्टर
हिल्यै
ीया
▁नब
▁अधिवेश
त्ती
▁काठमा
▁भारतमा
त्कार
▁बाहेक
▁जनाएका
फि
▁३३
सहितको
विद्यु
▁मतदाता
▁राखेका
▁हस्ताक्षर
▁अपना
▁अनुरोध
सिंह
▁क्रा
▁तिमी
वाइ
▁पदाधिकारी
▁चित्र
▁लोकतान्त्रिक
▁कार्यरत
▁हाम्रा
त्तै
दीको
देवी
▁धान
क्रममा
▁पार्ने
सरकार
भरि
भे
▁बुट
▁सडकमा
▁गए
▁महत्व
ियम
▁भाडा
भूत
क्रा
▁यौ
▁उसको
▁गर्यो
▁दिनको
▁सीमित
▁गरिदि
▁देखिएका
▁पुग्न
▁सशस्त्र
िने
त्न
ट्टा
्रु
▁ब्
हुँ
▁अख्
स्टर
गढी
माव
निर्माण
▁गरिसकेको
लादेश
वाही
▁जोग
▁प्रग
▁भनाई
वार्य
▁सामुदायिक
▁लोकतन्त्र
भाइ
र,
कानी
▁विभा
हारी
च्छा
▁बराबरको
▁हस्तान्तरण
▁विमानस्थल
▁निगम
▁आवाज
▁सुदूर
▁सिट
▁भर
▁जाँच
▁यथा
ुपयोग
▁ज्ञा
▁सम्पर्क
ल्याण्ड
▁उपस्थित
▁हिँड
▁मेडिकल
▁थुप
▁जहा
▁अनिवार्य
▁।\nम
सङ्
▁।\nनेपाल
▁सोध
▁रमा
वार्ड
▁दुख
त्तिक
▁हित
वनी
▁अभिने
मेश
▁घटेको
▁सार
▁पृथ
▁जनताले
▁कम्युनिष्ट
▁प्रसार
▁उठा
▁ढा
▁संघर्ष
कट
ंगो
▁प्राकृतिक
पण
▁तस्
▁।\nय
प्रा
▁वास्तविक
▁७५
▁ट्रम्प
▁खड्का
▁फेस
▁नतिजा
▁पुष्पकमल
▁मर्म
त्सा
टिङ
▁बंग
संख्या
▁आयोज
▁सुख
लम्ब
▁थिएँ
काठमाडौं
▁उद्धार
▁सबैको
▁तपाइँ
▁तोकिएको
▁बार
▁खुसी
ट्या
ितो
▁छानबिन
▁भोलि
▁मद्द
सक्दा
मिला
चौ
▁बस्न
▁मोड
▁निम्ति
▁उजुरी
▁व्यावसायिक
खेल
स्ट्र
▁त्यसका
▁डी
▁लघु
▁अभ्यास
▁दुर्
▁९०
▁लाग्
▁कम्युनिस्ट
▁मान्यता
त,
▁केसी
किलो
▁पालिका
▁कल
स्की
ष्णु
▁हिजो
▁हिंसा
▁रोजगार
छो
▁भत्
कारि
▁मोर
▁व्यक्तिको
▁रक्षा
ियर
▁कार्यान्वय
▁कदम
▁बहादुर
▁सूच
▁सक्छन्
ज्ञानिक
▁पुगेर
▁उपाधि
▁बनाएका
▁गोर
▁चुनावी
▁उपमहानगर
नन्
▁साझा
रोह
▁वर्षदेखि
न्तव्य
00
▁कुरामा
▁अत्या
▁लामिछाने
▁आएर
▁भयो।
▁मोबाइल
▁अग
▁आवेदन
रीका
▁संकेत
▁गल्
क्षम
▁निर्यात
▁संवैधानिक
▁नआ
▁भारतले
▁काठमाडौंमा
-१९
▁जाग
▁क्रान्ति
▁डिजि
▁स्वीकार
▁अम
▁उचित
▁छिटो
▁खटि
▁दोष
▁किनभने
▁सुनिश्चित
▁कात्तिक
▁नगरी
शाखा
▁तर्क
▁वर्षीया
▁शो
तिहासिक
▁नं.
▁पाए
▁होस्
▁बेलायत
▁सुरुवा
▁जनसंख्या
ईं
राको
▁त्यसले
▁नभएका
▁छिम
▁औपचारिक
▁टेलि
किने
▁केन्द्रका
नलाई
▁बुझा
▁कार्यालयका
▁सरकारका
प्पणी
▁आपूर्ति
द्व
▁चेता
न्दे
▁भग
▁सूर्य
▁परिषद्
▁समेट
प्रपा
▁उत्प
▁भावना
▁पुर्
▁सिद्धान्त
▁दलित
▁सजिलो
▁झन्
▁निर्माणका
राख
वासको
▁बिना
▁चिन्ता
▁कैला
शाली
▁एन्
▁मानसिक
▁खारे
▁कुराकानी
ेलिया
▁अने
▁मेस
▁तथ्य
बन्दी
▁कोरिया
▁अधि
▁स्वागत
▁नागरिकता
▁पु¥या
श्वर
तका
▁३६
▁कहिल्यै
▁पार्न
▁जनाले
▁प्रकृति
▁चेतावनी
▁साढे
▁हुन्थ्यो
▁एमालेले
लक
▁अदालतमा
▁चे
▁सबैले
▁प्राथमिकता
▁(ए
नल
▁अत्यन्त
▁कामदार
▁गुरुङ
नियर
▁नियुक्ति
▁आह
▁अख्तियार
▁रोक्न
▁हुँ
▁पाइएको
▁सक्छ।
मन्त्रीले
▁सुदूरपश्चिम
चु
▁पदमा
▁विजय
▁बसेका
▁नम्ब
▁स्वय
▁कमी
▁चर्च
▁निस्
जनक
▁खेल्ने
▁हेर्ने
▁काउ
▁बीचमा
▁ज्या
▁लगातार
▁घरेलु
ौला
▁शरीर
in
मार्ट
▁खि
पूर्वक
▁मुलुकको
▁लकडाउन
▁लगाएर
▁त्यसो
▁जलविद्यु
▁विकासका
▁आधुनिक
▁गराएका
▁पछाडि
▁प्रतिवेद
द्योग
रुपमा
▁।’\n\n
▁पाइन्छ
डिङ
▁उपचारका
▁पुस्ता
▁५५
विध
▁जनाइएको
क्कै
सेवा
▁प्ला
▁आधा
▁स्थग
▁नेपाललाई
ाल,
▁बन्दै
▁गर्नुहु
▁दौ
ारायण
हामी
▁मोटरसाइ
र्ति
▁मधेश
नीले
उँदा
▁मगर
▁बमोजिम
▁सन्दर्भमा
▁जमिन
▁केन्द्रमा
र्को
लाम
▁डिजाइ
▁चालु
▁।\nआ
▁आलोचना
▁निकट
▁मिनेट
▁माथ
▁विघ
▁प्रतिनि
▁दुर
▁चलि
स्को
▁शे
▁तराई
▁ऐतिहासिक
▁पुस्तक
फर
ेमा
भग
▁फ्रा
▁प्रतियोगितामा
▁धारा
▁9
▁जनामा
▁भेला
न्धु
▁गतेसम्म
▁बैंकका
टिल
मला
शासन
▁फ्
▁चढ
कारण
▁सिक्
्यो।
▁प्रतिबन्ध
▁तपाईंले
▁शासन
शुप
चो
▁सुनु
▁मल
वार्ता
▁हक
▁मेगा
▁बला
▁आएपछि
▁टिप्पणी
▁हुनेछ।
▁प्रगति
श्चा
गण
▁निःशुल्क
▁मुलुकमा
▁देउवाले
▁सङ्ख्या
▁उत्सा
टीमा
▁ठु
▁कार्यक्रमको
ंकन
माको
▁गरियो
▁त्यसैगरी
▁त्यस्ता
▁हार
▁सूची
▁परम
▁बालुवा
परी
▁अर्य
ोरै
▁श्रीमती
ुरू
▁दिनुपर्ने
▁सुर्
षद
नीको
थम
▁बिदा
▁महिलाको
टाले
काे
▁सांस्कृतिक
▁राजमार्ग
▁ढंग
▁भव
▁माध्यमबाट
▁सम्मेलन
वडा
▁प्रवृत्ति
▁यता
▁टी
यन्त्र
▁दशक
▁राउ
ठी
▁मद्दत
▁निरन्तरता
▁डिजिटल
▁विद्यार्थ
▁सफलता
▁प्रशिक्षण
सपा
▁दिला
▁भएकोले
्वान
▁२०७४
▁।\nस
▁सदर
▁योग्य
▁बुद्ध
द्र्
▁३४
टीको
▁मूल्या
▁बहस
▁बनाइएको
लीले
जन्य
्रोल
▁मिलेर
तया
▁परिचालन
व्यापी
ेलिक
▁चौथो
▁छिमेकी
इरहेको
▁जनप्रतिनिधि
▁गाँ
▁इतिहास
ाउनुपर्ने
हिरो
▁यादवले
▁च्याम्प
▁भण्डारीले
▁तोक
▁विद्यालयमा
्याम
ह्रो
▁विजेता
▁एक्स
▁गरिरह
▁उनीहरूलाई
▁एवम्
▁बाढी
▁जसको
▁मैदानमा
▁समाजमा
▁कप्ता
▁आफन्त
▁लोकप्रिय
▁बुझ्न
▁तल
र्नु
▁अन्
लिया
तरा
ेक्का
आफ्न
▁नरहेको
र्द
▁फैसला
▁लगाएका
▁गतेदेखि
▁प्रावधान
निया
बारी
▁रवि
▁राजदू
▁मन्त्रालयको
मय
▁महाशाखा
▁आह्वान
कृष्ण
▁संवाद
▁अभिभाव
▁सम्पाद
▁पेस
▁दुबै
▁अभिनय
▁कतै
▁सेत
न्सर
▁छन्।\n\n
▁व्यवस्थित
ौं।
▁आफै
▁ग्
▁थोरै
षे
▁संस्थाले
▁लेखा
▁न्यु
▁मेला
▁जनशक्ति
▁आउँछ
नित
▁जेल
▁सजाय
▁समृद्धि
▁राज्यको
▁ट्राफिक
जान
▁मसा
▁घो
▁कार्ड
जस्तै
▁बग
▁आधिका
▁६५
▁देखाएको
▁लक्षित
▁पशुप
▁प्रबन्ध
▁विधान
▁कांग्रेसको
▁क्वार
गमती
▁फूल
▁ठेक्का
▁नजिकै
▁न्यौ
▁मेल
▁प्रायः
▁विविध
▁सफा
▁रेल
▁गराइ
▁फेसबु
स्वपा
रेको
वर्ष
▁राप्रपा
ना,
▁गाउँमा
▁सापको
▁इट
▁विश्लेषण
▁सेन्टर
▁सैनिक
▁सर्वा
▁विश्वकप
रुवा
िल
▁झु
▁बाहिरि
▁भ्या
▁३७
▁रू.
▁दीर्घ
▁अवार्ड
▁जिम्मा
ूट
▁सके
▁देखिने
▁चालक
तु
▁उत्पन्न
▁द्वारा
▁द्वन्द
▁ओभ
▁सरकारमा
▁बचत
▁कित्ता
▁३८
▁माछा
क्षेत्र
▁बाह
▁निष्कर्ष
श्रम
▁ठो
▁दिल्
▁चुनावमा
▁नगरेको
▁पत्ता
सुकै
▁संस्थाको
▁कम्तीमा
▁अभिव्यक्ति
▁न्यौपा
ेशन
▁संघका
▁थुप्रै
▁निरा
भित्रै
▁युरोप
▁सहायक
▁चिया
जाने
▁यौन
▁प्रचण्डले
▁प्रशास
बास
स्थलमा
▁।\nवि
ौं,
ीक
▁हप्ता
वत
▁टाढा
▁समयदेखि
▁खाद्य
er
▁बोल्दै
नलमा
▁उपाय
निर्वाच
▁पहिला
▁विनियोजन
र्चु
दृ
धनको
ञ्चन
कामना
वट
▁समूहले
राइ
▁सब
पुरका
▁आय
▁महोत्सव
▁काट
▁विकासको
▁सामना
▁।\n\n‘
लिन
▁जहाज
▁गणेश
▁असन्तु
नन्द
सेको
▁कपडा
▁मिश्र
▁तहका
▁गुरुङले
ल्का
▁दाहालले
▁अग्रता
▁खेलको
▁समी
लाग
▁निषे
▁राणा
गोल
▁उपमहानगरपालिका
्म
रिक्त
▁टिकट
े।
▁नवी
▁छै
▁चीनको
▁लगभग
▁पीडा
-०
▁तिनीहरू
▁गाह्रो
▁बिजु
्रिक
▁४२
न्देही
▁पञ्च
▁थिए,
स्वास्थ्य
्याल
▁अनुहार
▁कन्
ण्डै
न्यायाधीश
▁गणतन्त्र
ठो
▁संस्थागत
ेलले
▁प्रसाद
▁गर्दछ।
ंकर
▁हिसाबले
▁भन्छन्,
▁राख्नु
▁दर्जन
▁महिनाको
एसपी
▁प्रसारण
▁इजला
नाका
▁भट्टराईले
▁लाइन
▁ओलीको
▁आकार
ली,
▁नगरपालिकाले
▁मुद्रा
▁परराष्ट्र
वहार
▁उभि
▁निर्माणमा
▁हवाई
▁मुस्
▁कोइराला
▁व्यक्तिलाई
▁प्रकारको
घर
▁टाइ
▁धितो
▁बढ्दो
छ,
▁पशु
▁बौ
र्ती
▁उनीहरुलाई
▁थालेपछि
▁स्थगित
▁तनाव
▁तु
▁बैंकिङ
भुवन
▁निधन
▁सक्नुहु
प्से
▁समारोह
▁सम्मेलनमा
▁सकिएको
बजार
▁गोली
कोण
▁सँगै
माओवादी
ने,
शाला
▁लघुव
▁अतिरिक्त
▁उत्र
▁गरे।\n
वक्ता
▁कार्कीले
चय
▁खारेज
▁राजनीतिमा
टव
ेदारी
▁निस्क
▁जनतालाई
▁भोट
कुमारी
▁अवरोध
▁होट
▁बढाएको
▁शू
▁रेक
▁यसैगरी
▁आयोजनाको
▁बढेर
यौँ
▁श्रमिक
▁क्षेत्रीय
▁भएकी
▁वर्षअघि
▁लिए
भाविक
तिका
▁आधिकारिक
याम
▁व्यापक
▁व्यक्तिले
जसो
▁रक्त
▁समयमै
▁काठमाडौं-
पात
▁मोटरसाइकल
▁विष्णु
▁तलब
▁कानून
▁हस्त
▁भएमा
▁पहाडी
▁२०७५
▁अप्र
▁संविधानको
▁दायित्व
▁जटिल
▁किनकि
▁हेट
▁बहि
दीप
▁प्रतिनिध
▁प्रकरण
▁बंगलादेश
▁क्षेत्रलाई
▁प्रकारका
▁व्यापारी
मुकाम
▁संकट
डको
▁पर्न
▁द्वन्द्व
सिन्दा
▁चौधरी
▁औँ
▁अलि
▁सङ्क्रमण
▁उद्देश्यले
पत्रमा
▁देख्न
▁जात
ियाँ
▁पसल
संस्था
▁नगरपालिकाका
▁प्रारम्भिक
▁सङ्ग
▁'म
▁रातो
▁लाग्यो
▁ते
▁पठाएको
▁दिए।\n
▁असफल
▁२०५
रामर्श
▁प्रोत्सा
▁झण्डै
▁जनकपुर
▁गुणस्तर
▁तपाईंलाई
नुपा
▁सिन्धु
▁राजेन्द्र
▁गोरखा
▁सत्त
▁म्यान
हरुसँग
ल्पना
▁लागत
▁गृहमन्त्री
लोकन
नाम
▁सहयोगमा
▁पोखरेलले
▁चाँड
किन
▁बलमा
र्पा
▁।\nप्र
▁रिय
▁भीम
विन
ईको
▁प्रतिनिधित्व
ेखा
▁जर्म
▁फोहोर
▁मसान्त
गाउँ
नुपातिक
▁त्यस्तै,
▁मले
▁चाहिँ
▁रगत
▁वर्षका
▁श्रेष्ठ,
गन्ज
▁सेट
लेन
▁दिए।
▁थु
धिकार
▁तरिका
▁आगो
▁निर्मा
▁पानीको
▁प्रथम
▁बुढा
▁सुर्खेत
▁पक्षले
▁ध्या
▁महेन्द्र
▁रौ
कर्षण
▁खोजि
▁पालना
▁एकल
▁अपा
▁लाभा
▁लागु
▁–
टामा
▁आधारभूत
▁कठिन
स्तरीय
▁भित्
जुन
▁निवेदन
▁विकासमा
▁समूहको
ाउको
वमा
भार
▁वृ
▁इच्छा
▁सक्षम
▁५१
▁बाग
गढ
▁कामको
गरमा
▁नभएर
▁राख्दै
▁औद्योग
▁नागरिकको
चाइ
▁वैज्ञानिक
▁संचालन
जात
वृद्धि
▁भइरहेका
क्षी
▁परामर्श
▁समीक्षा
▁वाम
▁सदरमुकाम
▁दुर्घटनामा
▁४८
▁४१
▁हालै
▁एमालेको
▁प्रशिक्षक
▁क्रि
▁मानिसको
▁लागि,
▁एसिया
▁क्य
▁निको
▁त्रिभुवन
▁विद्युतीय
इने
▁रिज
▁रुपियाँ
▁समितिमा
▁दावी
भेद
▁३९
▁हाँ
▁गन्तव्य
▁पर्ख
▁मौका
▁लक्ष्मी
▁मुद्दामा
▁हुनुहु
▁विभागका
–१
▁जीवनमा
▁सुनको
▁अवै
▁स्थल
▁पात्र
▁हावा
▁पठाउने
▁वायु
▁मुक्त
▁बागमती
▁जडान
▁दिवस
▁वडाध्यक्ष
▁बुटवल
▁०७
दुई
▁।\n\nअ
▁भने।\n
▁मासु
क्सी
▁भन्छ
▁जितेको
▁चर्चित
छ।\n
▁रहेकाले
▁तरिकाले
द्रो
▁दिशा
जनको
▁एल
वीर
▁स्वीकृति
▁बौद्ध
▁महानि
▁खाता
▁सक्नुहुन्छ
▁दै
'को
टार
▁सुनस
▁बहुमत
▁नागरिकलाई
▁आयोगको
▁आयोजनामा
▁दस
▁अप्
▁खोजेको
▁अधिवेशन
र्दै
▁निर्वाचनको
▁अग्
▁बसो
▁दृश्य
▁ढंगले
मल
▁दुरुपयोग
▁बलात्कार
▁चितव
हरी
▁आफैँ
▁जोडिएको
▁पर्यटकीय
▁इरान
▁अर
▁संचाल
लिङ
▁भरि
▁लगाए
जुर
▁बाँड
▁स्मार्ट
▁भेटि
▁अन्न
▁दूध
▁जय
▁खति
▁रमेश
▁ह्या
ब्जा
▁विक्र
▁समानुपातिक
▁एजेन्सी
प्ले
▁सुरू
▁लाग्न
▁साझेदारी
▁अनेक
▁रणनीति
▁४४
▁भाइरसको
▁विना
▁प्रयोगकर्ता
▁ध्याना
▁स्कु
▁विघटन
मका
▁बनाए
▁जसरी
▁छैन।\n
▁संक्रमितको
▁४३
▁परिचय
▁थान
क्ने
▁फोर
▁म्याद
सोले
गन
▁१००
▁लागिएको
▁प्रिम
▁लाल
▁डिजाइन
▁संस्करण
▁रनको
पोख
▁चेत
रोधी
गमा
▁स्वार्थ
▁खतिवडा
▁शून्य
▁केसीले
कवान
▁२०७७
शेष
▁पूँजी
▁र,
▁खास
▁रेकर्ड
▁नगरपालिकाको
▁पाइने
▁सकेका
▁फर्का
चे
नेकपा
▁अल्
जिल्ला
▁सिने
on
▁दृष्टिकोण
▁कमल
▁रहन
▁छोटो
▁चेक
▁निर्वाह
▁बेलामा
▁उपरीक्षक
▁तामाङ
छिन्
तीको
▁धन्य
म्स
िन्
केको
’,
िनो
▁डर
▁निक्षेप
▁हतियार
▁कारवाही
▁प्रजातन्त्र
▁मोर्चा
▁मी
ल्स
▁बासिन्दा
ियाली
▁पर्दछ
▁खुट्
ीलाई
▁एकजना
▁अर्थात
▁कप्तान
▁बस्ती
▁औद्योगिक
,\n
राग
▁मात्रामा
वानी
▁२०७६
▁चाँ
▁मेट
▁ध्यानाकर्षण
▁यसबाट
मुक्त
▁लगाइएको
▁नसक्दा
▁कार्यान्वयनमा
नारायण
▁विषयलाई
▁दायर
िमा
▁बनि
▁घट्
दिने
▁वर्षसम्म
▁नदिने
▁बाइ
▁क्रमश
ेकै
ेटिभ
खित
▁छे
▁कविता
ताब
ध्यापक
कल्प
ग्राम
▁खाली
▁कास्की
▁3
▁मञ्च
▁स्तर
ंख
▁रहेर
▁जान्छ
▁पेट्रोल
▁आउँ
▁सन्ता
ुप्
▁बर
▁दिन्छ
▁एण्ड
▁कसैलाई
्याउने
▁विष्ट
चार्ज
▁स्कुल
्वि
आफ्नो
▁पुराना
▁नगरपालिका-
ेमी
▁हटाउन
सरकारले
▁प्रवद्र्
▁रोकि
ट,
▁स्ना
▁घटनामा
▁चन्द
an
▁प्राधिकरणले
▁शेर्पा
▁कञ्चन
▁आइपुग
हरु,
आज
▁बरु
▁?\\n
▁प्रक्रियामा
▁राईले
▁रात
▁पछ
▁न्यूनतम
श्वास
प्टर
घन
▁ठहर
परा
▁राज्यले
▁माटो
▁अथ
▁काठमाण्ड
▁नाटक
▁गायक
▁मामिला
▁।”
इरहेका
▁काठमाडौंको
▁छ,'
क्सा
▁स्वीकृत
▁सन्तोष
▁इन्जि
▁सधैं
▁नियमाव
al
▁कार्यकाल
तपा
▁जरि
▁लाग्दै
▁होम
▁हैन
▁मण्ड
▁।\n'
▁संख्यामा
न्थे
सीमा
▁अदालतको
ग्राही
▁दीपक
▁कोभिड-१९
▁चिसो
▁स्थिर
▁यसपटक
▁शाक्य
▁५२
▁मित्र
▁स्वयं
▁दफा
▁अस्वी
▁अमेरिकाको
▁विदेशमा
औँ
शल
▁नवल
▁पार्टीमा
▁साथमा
▁एन्ड
▁नेप्से
▁आनन्द
रिङ
▁अगाडी
▁अलग
▁प्रकाशन
▁भोग
नीमा
▁इन
र्द्ध
▁चरणको
...
▁खण्डमा
/७
▁पढ्न
▁प्रधानमन्त्रीको
▁विगतमा
▁परे
▁फ्र
▁लामा
▁मूल्यमा
▁ल्याएर
▁यहाँका
▁विज्ञप्तिमा
▁बिमा
▁ढोका
▁क्यान्सर
▁गर्न,
सत
▁२०७८
▁शुभकामना
थी
▁सर्वाधिक
योग्य
कका
▁टाउको
▁भरतपुर
▁मिल्ने
ड्रो
▁खेल्न
▁बनाउनु
▁हुनसक्
ौट
▁गरिन्
▁बाँच
▁अध्यादेश
र्दा
▁अमेरिकामा
▁दम
▁तोड
▁४६
भूति
▁म्याग्
▁घरको
▁'\n
▁कतार
▁बिता
ँ।
▁खराब
मुखी
पान्तरण
रूपमा
▁बोकेर
▁जिम्मेवार
▁अवरुद्ध
▁गाउँपालिकाका
▁४७
▁मिल
▁ग्या
त्वमा
नाल्
▁खतरा
▁आउट
भोग
▁मौलिक
▁क्यान
▁सालको
▁संस्थान
प्रकाश
▁प्रेर
▁ठुलो
▁तयारीमा
▁जै
▁तिर
▁विज्ञा
युद्ध
▁अन्तरि
ठन
▁'स
▁।'\n
▁आवास
▁हातमा
▁सरुवा
▁शिक्ष
▁विशेषज्ञ
▁20
▁समूहका
▁राजदूत
▁सुरुवात
▁नेताहरु
▁सरस
▁आरोपमा
▁हल
यको
▁कुट
▁सभामा
उनुपर्ने
बिर
धारणा
▁कार्यमा
▁छलफलमा
▁पत्
▁रुपैयाँको
ालका
छन्,
▁हटा
▁सेवन
बाबु
▁प्रधानन्यायाधीश
▁कम्पनीका
▁चीनले
▁सञ्जालमा
▁खुलेको
▁प्रष्ट
▁पन्त
▁अच
▁सल्लाहकार
▁५६
पार्
▁उन्
ानै
▁कमजो
▁माल
▁असु
▁गाउँपालिकाको
▁५३
वद्ध
नस
▁नम्बरको
कालमा
▁छुट्टै
▁.
▁च्याम्पियन
विन्द
टाको
▁ओभरमा
्याउन
▁श्रील
▁गरिसकेका
ँस
▁(अ
▁धरान
ल्पा
▁राखि
▁सृ
▁रूपैयाँ
es
भूमि
र्मा
▁कार्यसमिति
▁साँच
वासमा
हरूबाट
▁उपलब्धि
▁संसदमा
▁रोप
सिए
▁आउँदा
हीँ
ईमा
▁परिवारका
▁सेनाले
भल
टीले
▁रेग्
उप
स्सा
▁गाउँपालिकामा
▁इन्ड
▁फिल्ममा
▁रिट
▁खुशी
▁जोशी
▁लक्षण
▁उदय
▁हिम
▁४९
▁गौर
ar
▁लागेर
▁ललितपुर
सके
▁मोह
▁उसलाई
▁चाड
▁आन्दोलनमा
▁मकवान
'\n
▁प्राथमिकतामा
▁डेढ
▁मजदुर
▁उड
हामीले
धारित
▁स्मरण
▁सरोकारवाला
▁स्वर्ण
▁परिवारको
▁न्यौपाने
▁शंका
▁यस्तै,
▁शुरू
रका
▁परा
राष्ट्रपति
▁सन्तुल
▁पर्दा
▁साथै,
मण्ड
लिस
▁खासै
▁भागमा
▁डिभिजन
▁असह
▁बालिका
▁२०७९
▁बुद्धि
▁क्रियाकला
▁युक्र
म,
▁मेसिन
▁बजेसम्म
▁माओ
▁कार्यालयको
▁त्यतिबेला
▁ठीक
▁समृद्ध
▁धन्यवाद
▁सिरि
▁बोल
▁अवधारणा
▁५४
▁बारा
▁ताप
स्तै,
यद
▁धर
▁चलाउन
त्यस
▁दूता
▁२०४
▁प्रतियोगिताको
▁सल
जले
छन्।\n
▁केन्द्रले
▁प्रधानमन्त्रीले
▁सदस्यीय
ृति
▁घुम्
▁विभाजन
डीले
▁हाउ
▁परम्परागत
▁बताउनु
ंग्
मानित
▁संघले
▁चलन
▁ब्रि
▁परिवारलाई
▁भारी
ारण
ब्र
सनमा
▁वेब
▁चरि
गल
शै
▁आयोगका
▁विधा
▁कर्मचारीको
ौल
▁ल्याइएको
▁सञ्चालित
▁नगर्न
▁पृथ्वी
▁रुपन्देही
वादीले
धारा
▁विपक्षी
▁बस्दै
▁किसिमको
▁आउनु
▁७६
▁सप्त
्याग
▁रेडियो
▁सिक
▁पुर्याउने
▁मन्दि
▁संविधानसभा
जय
▁आयोजक
▁हुनाले
ियत
वती
▁समाप्त
▁बरा
वाना
▁क्रमशः
▁संघको
at
ट्स
▁चालू
▁अफग
▁व्यस्त
▁गर्छु
▁जसपा
▁।\n\nयस
▁टोल
▁सुत्
मूलक
स्योर
▁अवैध
▁बिस्तार
▁गरिनेछ
▁डुब
महा
कार्यक्रममा
▁आकर्षण
▁बिजुली
उड
▁अत्यधिक
अहिले
▁बिष
ारीरिक
▁कार्यविधि
▁लघुवित्त
▁आकाश
▁बेल
ँ,
▁थालिएको
▁देखिए
▁रोकिएको
▁सत
▁निवास
▁५७
▁गाय
▁मर्मत
▁मानिन्छ
▁अस्पतालको
रहे
रस
▁भक्तपुर
▁५८
▁बेप
▁पोस्ट
▁क्षेत्रबाट
▁खड्काले
षि
▁लगाइ
▁सकिन्छ।
शोर
खन
यमित
▁आत
▁मुक्ति
▁छाया
▁ग्रहण
▁हुनसक्ने
▁७७
लुङ
▁रास्वपा
▁धनु
न्डै
▁भयो,
▁पुग्
▁सेतो
फोन
▁हिन्द
▁सहयोगी
राय
▁घण्टामा
▁भन्नु
▁पढाइ
▁प्रती
▁मलेसिया
ईएको
स्थायी
तर,
▁मन्त्रालयमा
▁मूर्
जल
▁केन्द्रको
रहने
▁चलिरहेको
▁ठाकुर
▁जन्मि
यरमा
धै
▁दिनसम्म
▁हिउँ
▁वर्षपछि
▁समुदायको
▁घटनाको
▁दलले
▁चल्ने
▁नीतिगत
▁अनुसार,
▁पाण्डे
▁नपाउने
▁विव
बुझ
-२०
▁एश
दरबार
▁यसो
▁८५
लिज
यले
३०
▁आकर्षक
▁विश्वव्यापी
▁जोड्ने
▁पूर्वी
▁बेलु
होला
▁कन्ट
▁तपाईलाई
▁।\nप
▁कूट
▁जेन
▁चाम
धाम
ुञ्ज
▁प्रमाणपत्र
▁पुगे
▁रुपैयाँमा
▁संस्थापक
▁विशाल
▁दीर्घकालीन
▁सैन्य
▁सहि
▁समयको
▁संस्कार
▁विद्रो
▁नकारात्मक
▁सजिलै
साधन
कुरा
भक्त
▁नेपालीको
▁वर्षे
▁गाई
▁खोला
उनका
▁चलाउने
▁बाटोमा
थ्य
▁सरकारसँग
▁कर्मचारीलाई
▁चौधरीले
▁दिगो
▁पृष्ठ
▁भित्र्या
▁लैजाने
▁कोरि
▁६४
▁जीवनको
विरुद्धको
▁केश
▁देवी
▁नामक
▁मृत
▁गर्दैन
▁भइसकेका
रै
▁विस्त
▁नगरपालिकामा
▁भुस
नेन्द्र
र्फत्
▁शारीरिक
▁बल्
▁७२
▁माथिल्लो
▁टीका
▁विशि
▁फैलिएको
सङ्घ
हत्या
▁अक्सि
वेदनशील
▁क्वारेन्
▁हाइड्रो
▁आर्म
अप
▁उपप्रमुख
न्यास
▁सत्
▁अर्जुन
▁पुनर्निर्माण
▁गाउँपालिका-
▁चाहना
▁सुनुवाइ
▁जसलाई
िकार
ञ्जन
▁ढुंगा
थान
▁भारतबाट
▁बित
▁भत्ता
▁आइसोले
)का
▁ड्र
▁दीप
ारुढ
धीन
▁भएसँगै
लाग्
जत
▁अष्ट्र
न्ती
झदारी
▁आकर्षित
▁बिग्र
▁गावि
▁संयन्त्र
नेपाली
लेले
▁समयसम्म
‍या
▁पत्रिका
▁बुबा
▁शिवि
▁मेरा
▁तोकेको
▁नेताले
स्ने
▁महिलालाई
▁भनिन्छ
▁बेपत्ता
जीवन
गरमाथा
नुभएका
▁बयान
▁लेखक
▁काठ
▁बराम
नुपर्दछ
▁विकसित
क्कली
▁रामचन्द्र
▁तब
▁निर्माता
यो।\n
▁समूहमा
▁सिमा
▁झन्डै
▁ग्यास
▁पहिलोपटक
▁भोज
रल
खण्ड
▁प्रतिवेदनमा
▁पेशा
▁सीप
▁हस्तक्षेप
▁मासिक
ामीण
▁विश्वासको
▁पका
रीलाई
▁जलविद्युत्
ङक
▁पुगि
दिएको
वाको
वायु
▁बाध्यता
▁काभ
▁कोरोनाको
▁स्टा
प्रतिको
जाम
▁पारदर्श
मित्व
▁शाहले
▁कसैको
▁इन्स्योर
▁संस्थाका
▁बम
▁विश्वका
▁भिड
▁महामन्त्री
▁प्रोत्साहन
▁शिक्षण
▁उल्ल
आरएन
▁खालको
ूहिक
▁पछिल्ला
द्यान्न
विहीन
▁धनगढी
▁ठेक
▁हृ
▁एफ
▁सेनाको
हरुबाट
▁शुद्ध
▁गल्ती
साई
▁अथवा
रात
▁निकुञ्ज
▁सेवामा
▁गाउँपालिकाले
▁सिंहले
▁६१
मुना
▁पाण्डेले
▁शैली
▁तन
▁फिल्मको
▁चलेको
▁१९९
▁व्याख्या
▁भारतका
पर्छ
▁मुटु
▁अभियानमा
▁बिच
▁मारि
▁जुम्
▁पत्रकारि
मैत्री
▁मस्
▁त्र
उनी
▁सूचीमा
▁यसबारे
▁स्टार
▁दरबार
▁हल्का
केन्द्र
▁समुह
▁खरी
देख
पुग्
▁ब्याजदर
▁।’\n
▁आचार्यले
▁हैसिय
टका
▁ग्राम
स्टि
▁देखिन्छ।
जीको
▁बहा
▁दर्शक
▁पारेर
▁उपभोग
▁म्यु
▁प्रविधिको
▁२०८३
▁छनौट
▁अस्वीकार
हाम्रो
)ले
एच
▁कुर
▁लेखेका
▁पाठ्य
कल्पिक
▁अगुवा
▁हकमा
▁5
उमा
नी,
▁विशिष्ट
▁खाद्यान्न
▁बसि
▁करी
▁आइरहेको
▁बरामद
▁पर्दैन
▁रचना
▁प्रदीप
▁दरले
▁महतो
▁बोल्
▁काल
▁विभेद
रहँदा
हाइ
▁महिलाले
▁हेरेर
▁स्वामित्व
¥यो
वश्यक
▁स्थानीयले
▁सामूहिक
▁'क
▁ढुवानी
▁तार
▁तस्क
▁दाजु
▁कहिलेका
▁६२
यू
▁यथार्थ
▁निकालेको
▁लाभांश
▁६३
▁खडा
स्पद
विका
▁।"
▁अफि
▁विपरी
▁अस्पतालका
▁विज्ञप्ति
▁विज्ञापन
लम्बन
▁सुदृ
▁समाजको
▁५९
पू
▁धितोपत्र
▁गोविन्द
▁ग्रामीण
▁फैलि
काइ
▁गुल्
▁अस्ट्र
▁बाबुराम
▁गहिरो
,’
▁भार
जाति
▁सत्तारुढ
नुभन्दा
▁रह्यो
▁वाग्
▁चर
फूल
▁बैङ्
ेरु
▁सञ्चारमा
▁कार्यक्रमका
▁प्रमाणित
नीकरण
▁स्रोतले
▁नोट
▁महँग
क्सन
राले
▁भुट
▁नक्कली
▁तालिका
▁इलाका
डाइ
▁प्रणालीमा
▁किताब
भर्न
▁चोट
ँचा
▁विस्तृत
रा,
▁सेवाको
▁रोकथा
▁सामान्यतया
टले
▁शक्तिशाली
ौंडा
▁अनौ
▁सस्तो
▁टुंगो
▁सुवे
र्की
ानिस्ता
▁सुपर
▁उत्साह
▁पशुपति
▁काराग
▁गौतमले
साथै
▁स्वस्थ
▁अध्यक्षतामा
▁विधेय
▁अमेरिकाले
▁अल्प
▁प्रि
▁रावल
त्तर
▁मनमा
▁भेटिएको
▁जरिवाना
क्सि
▁टेक
▁गुणस्तरीय
▁९५
विद्
▁अस्थायी
▁तिनीहरूले
▁अप्ठ
▁बजेटमा
▁६८
▁।\n\nय
▁चौकी
ङ्गो
कां
▁गरिब
▁बढिरहेको
▁कपि
दायी
▁ग्लो
▁उनि
▁पाल्
▁इन्द्र
▁अतिथि
ँदे
▁नेताहरू
▁सङ्घीय
▁सहायता
▁खेल्
▁यतिबेला
▁इन्ध
▁सभाको
▁दिल्ली
▁हुन्छ।\n
सम्मका
▁गराए
गरानी
▁खोज्ने
▁कैद
अल
)को
▁सुरुमा
▁कोशी
ङ्ग्र
▁सगरमाथा
▁६६
▁प्रवर्द्ध
▁नैतिक
▁संवेदनशील
▁प्ले
शालामा
ीप
▁अधिकतम
सस
▁जंग
▁भीड
▁चक्र
गणना
ढु
लभ
सकीय
▁तारा
▁कल्पना
▁बनाउँदै
▁२०२०
▁रौतह
▁निगरानी
▁।\nउनले
नयाँ
▁उत्त
ैया
▁एमसीसी
▁नष्ट
ेन्ड
▁कुराको
▁नसकिने
निङ
▁इन्टरनेट
बैंक
▁घि
▁कसले
केट
्वाइ
▁हिस्सा
▁आन्दोलनको
▁भाउ
▁जागिर
▁प्रकट
▁तथ्याङ्क
▁कुरालाई
▁तै
▁बुझाइ
▁ढकालले
टी,
ङ्गल
▁चरित्र
एकाले
▁।\nयो
▁कोइरालाले
सम्ममा
▁भनिन्,
▁अडान
▁ज्ञानेन्द्र
▁शरीरमा
टीका
न्डर
▁६७
क्न
लिम
▁लिखित
▁बसोबास
▁गोप
▁पठाउन
किल
▁मानवीय
▁पस
▁मनोर
▁अस्पतालले
▁ठेकेदार
▁उपचारको
▁अभिभावक
▁फ्रान्स
▁अस्ति
-अ
▁पठाइएको
▁तत्व
▁९९
सनको
▁भर्खर
▁।\nक
ेलको
▁वटै
▁२०७२
▁सुशासन
▁!\n
चण्ड
तन
▁मानिसहरू
▁आबद्ध
▁पाउँ
▁पर्सा
▁मार्क
▁टेक्
इलो
मैले
्यानल
▁थापा,
स्थापना
नेका
प्ने
ः\n
▁हल्ला
▁शेख
▁खनाल
याली
▁'प्र
▁सञ्चारमाध्यम
▁रेखा
औष
▁टन
▁पुग्यो
▁सम्पदा
▁अफ्र
▁विश्वभर
▁आशंका
▁मेगावाट
▁सडकको
ब्बा
▁विद्यार्थीलाई
▁प्रभु
ुरुन्त
▁कक्ष
▁सेमि
▁चुक्ता
जीकरण
▁खरीद
▁हिमाली
▁समस्याको
माल
▁सेवाग्राही
▁बर्दि
▁देशलाई
ेनले
▁जोखिममा
▁फरार
▁सामाग्री
om
▁हाफ
वादको
▁अवलोकन
ंस
लाही
▁भनिन्
▁निर्धारित
▁टेलिक
न्ता
▁डाइ
देशक
▁बाली
▁चाँडै
▁नराम
▁भिन्न
▁गर्मी
▁ल्याएका
र्सिलो
सूचक
▁समायोजन
▁प्याके
▁अश
▁श्रेष्ठको
▁काँ
लाइन्
▁खनालले
▁काउन्
▁जाँदै
▁चिकित्सा
▁रहँदा
▁नेटव
प्लव
▁रु.
▁कीर्ति
▁तुरुन्त
▁छोराछो
▁नपर्ने
▁नेताहरुले
कुम
▁कर्मचारीले
▁उपत्यकामा
▁वृद्ध
▁असन्तुष्टि
▁तल्लो
▁दिएपछि
एई
▁गणना
▁तनहुँ
स्थापित
▁समझदारी
▁धनुषा
िनको
▁जनाए
▁'ए
▁कर्त
▁उपसभा
▁सङ्कलन
भ्य
▁दुईवटा
▁मध्यम
▁सरल
▁७४
▁गयो
▁प्रशासनले
▁(एमाले
▁पठाइ
▁कुर्
▁घाटा
▁लुट
बाहि
▁प्राप्
टरमा
▁हिरा
en
▁भिसा
▁तरल
▁नाच
ँचाइ
▁हिँ
▁अटो
▁मदन
▁चोरी
▁लिइ
ंशिक
▁अभियोग
▁विपद्
▁नु
▁खुवा
▁भविष्यमा
▁।\nब
▁लाइफ
▁गएपछि
लागी
▁गभर्न
▁उत्तम
र्खा
ित्तिकै
▁आक्रो
▁लुका
▁यहाँको
▁आसपा
होस
▁७१
▁अनुकूल
जिङ
सिस
पल्ट
▁जलवायु
▁अफगानिस्ता
घरमा
▁प्रशंसा
▁मा,
द्रिक
▁रेड
or
▁सङ्क्रमित
▁नदीमा
▁भूभाग
▁धनी
▁गौरव
▁उपहार
▁आयु
ड्ड
न्छन्।
हिँ
परिवार
▁सधैँ
▁उत्पादनमा
▁स्थानिय
▁बाँध
▁सिर
▁राखे
निय
▁शता
भित्रको
▁दुर्गा
▁शिक्षा,
▁जित्ने
शेर
▁देखेर
▁ग्रुप
▁कटौती
▁शरण
▁आपत्ति
▁गर्थे
▁कार्यक्रमलाई
▁बाढ
क्की
▁तुलसी
▁तिनीहरूलाई
धाज्ञा
निस
ग्रस्त
▁बार्सिलो
▁जुनसुकै
▁गीतमा
पक्षीय
▁नेपाल,
भरी
▁आया
न्टा
▁पार्टीलाई
▁तस्बिर
▁सम्भावित
▁वडामा
▁सिमेन्ट
▁वैकल्पिक
▁जोगाउन
▁प्रवद्र्धन
क्कर
▁७३
दीले
▁किसानले
▁S
▁बैशाख
▁तपाईले
▁भेट्न
▁एप
▁बनाई
▁सतह
▁गे
▁विशेषता
यती
यात्रा
निर्भर
▁मनाइ
स्फ
चाह
▁७८
▁4
वन्ध
▁पढेर
▁बजेदेखि
▁किरण
▁हेटौंडा
▁नदिन
▁प्रहरीका
▁मोहन
▁सिजन
▁गुप्
▁उमेरमा
ोषण
▁ऐन,
▁बाह्य
▁१,
▁कमजोरी
म्बुले
▁संग्रह
्योति
▁लेखिएको
▁दिनेश
नात्मक
ह्न
भौ
▁पर्यट
▁प्रतिकिलो
▁कूल
▁युनियन
▁जसका
▁जित्न
वरी
स्यौ
▁हुनेछन्
▁राइ
▁:\n
▁स्वच्छ
▁अभिनेता
▁पुनरा
▁बनाउँछ
▁प्रालि
▁निरीक्षक
ब्य
▁पारेका
ंदै
▁रिलिज
सीय
▁प्रतिपक्षी
सिद्ध
▁सन
▁ट्रम्पले
▁सेमिफाइ
▁दर्शन
सुन
▁अध्यक्षमा
▁अनियमित
▁निर्णा
▁सिँचाइ
▁अबको
▁चाप
▁बोर्डले
म्की
▁फाउ
▁खेलेको
▁आत्महत्या
▁ब्रान्ड
▁प्रिमियर
दमै
लेक्ट
▁निर्भर
▁व्यवसायीले
▁मनाउने
▁हृदय
▁परिवारले
▁छुट्या
▁सशक्त
▁नाइ
▁पराजु
▁महर्जन
▁विवेक
एमा
फर्म
ख्य
▁प्रतिस्पर्धी
दको
्यारा
किएका
ट्टै
▁प्लेट
▁गुणा
▁छाडेर
▁रहन्छ
▁त्रा
पीओ
▁सिंहदरबार
▁क्रियाकलाप
धनमा
▁ओलीलाई
▁हुँदैछ
त्मा
▁भ्रमणमा
▁भेटघाट
▁उता
▁चल्
मलाई
▁पोष्ट
▁परिसर
▁छात्र
▁खुल्ला
▁तातो
▁माध्य
▁बजारको
▁काठमाण्डौ
ृंख
▁अभिनेत्री
▁छवि
▁कब्जा
▁जला
▁घिमिरेले
ः\n-
▁हारा
▁साब
▁रहि
▁८४
’\n\n
म्बार
▁ल्याइ
▁महासंघका
▁मार्च
▁करीब
मूल्य
्स
▁निर्वाचनका
▁/
▁सुनाए
▁अह
धनी
ेरा
▁मास्क
पुर,
▁९८
सन्त
▁ध्व
▁पोखरामा
▁वीरगञ्ज
▁गर्भ
▁गोपाल
मन्त्रालय
▁काली
▁नरेन्द्र
श्चात
कन
▁नपुग
▁क्रियाशील
▁दुर्ग
▁विद्यालयको
▁न्यूनीकरण
स्टिक
▁गुट
मात्रै
वास्ता
वस्तु
▁बराबर
'मा
▁६९
ेसी
औषध
▁सदस्यको
▁टेलिभिजन
दायक
▁प्रहरीलाई
▁दिदी
वारिक
▁बिज
डाको
▁व्यक्तित्व
डामा
▁सहजीकरण
▁जोडी
▁बिल
▁कपाल
▁८८
▁फलफूल
ब्या
फे
▁बैंकमा
▁गतिमा
▁मार्
श्रमिक
ज,
अध्यक्ष
▁एकपटक
▁फाइनल
पाटी
्ने,
▁सहितको
▁अन्तरिम
▁कार्यालय,
▁बिरामीको
▁उत्पादक
१०
▁बैङ्क
▁मानिसले
▁उत्तिकै
ामक
▁अष्ट्रेलिया
केही
दछ।
हिता
ालु
▁प्रतिवद्ध
▁हाराहारी
▁सक्छ,
षाध्यक्ष
▁विभागको
▁मधु
कस्
▁पदक
▁तिर्न
▁सिस्ट
▁उचाइ
▁खुद
▁करण
▁धादि
▁घिमिरे
▁हो।\n\n
▁भाषामा
▁तपाईँ
▁सर्लाही
▁वास्तवमा
▁एकदमै
नालाई
▁नलाग
▁तट
ियो
▁ज्व
मेरो
वित
▁हङक
सक्नु
▁अनुमो
▁शंकर
▁विपरीत
▁जातीय
▁पूरै
▁सिम
▁(क
स्यौदा
▁पुर्याउन
ेटिङ
▁निषेधाज्ञा
▁राय
▁हेरि
▁रमाइलो
▁नेकपाका
शनल
▁रुख
▁अक्सिजन
्यारो
▁सट्टा
▁परिसूचक
▁नायब
▁कुँ
▁बनेर
▁योजनामा
▁फाइना
▁कोठामा
▁लिइएको
▁गर्नेछन्
▁नक्सा
▁शताब्
▁आएकी
▁आर्जन
▁नृ
▁अलपत्र
▁अत्यावश्यक
▁निरी
▁बस्नेतले
▁दोषी
▁बिन्दु
नैतिक
▁सतर्क
▁दिइने
▁जितेका
▁पारे
▁बताउनुभएको
ौली
▁उद्यम
▁किशो
▁देखिन
▁मावि
▁एसो
स्थानीय
▁लहर
▁क्वा
▁लैजान
▁अनाव
▁किशोर
▁दिनदेखि
हिने
▁दाइ
▁८२
▁निकायले
▁आंशिक
▁धेरैले
▁नेपालगञ्ज
जनमा
▁लडा
▁सुवेदी
▁मालिक
▁थारु
▁रोज
▁तिहार
▁पुग्छ
नोद
▁चर्को
िरहेका
▁स्क
▁हजुर
▁कागजात
▁थिएनन्
कीय
▁होइन।
ुरे
▁समाजका
▁नागरिकले
ed
्रेजी
▁क्षमताको
▁कर्तव्य
▁भैरह
▁खुट्टा
▁बिभिन्न
▁मिस
▁देखाउन
▁हिन्दु
▁फर्किएका
▁व्यापारिक
जका
▁सायद
▁प्रशासनिक
▁बिरुवा
▁लाइस
▁संक्रमणको
▁साउदी
▁वेबसाइ
▁थियौं
▁प्रतिपक्ष
▁सन्दीप
▁अरब
▁थापाको
▁सघ
चोक
वृत्ति
▁आक्रोश
ट्र
लास
▁मस्यौदा
शास्त्र
▁उठाउन
▁थिएन।
▁निम
िको
▁भत्का
▁औसत
▁नवलपरा
▁फैला
वाली
▁त्यसरी
पहि
▁पुग्दा
▁दिनभित्र
▁मोडेल
▁देखियो
्मण
▁सहसचिव
.५
▁८१
ड्दै
▁परिषद
▁चाहने
▁ब्रो
▁विद्यार्थीको
न।
▁किन्न
▁उद्योगी
न्नु
▁घरमै
▁उहाँलाई
सनल
▁सन्धि
▁युवराज
सरकारी
▁गर्छन्।
▁भगवान
▁क्षण
आउ
०७
▁माध्यमिक
▁थाल्यो
▁रेमि
न्थी
पिट
▁अध्यय
▁भिडियोमा
▁बुँदे
ोस्
हाले
्रैमा
▁नमा
▁विक्री
▁सकेनन्
▁अंकले
▁थालि
▁चाहेको
पाल्च
▁त्याग
घट
▁सहुल
▁सवाल
▁श्रीलंका
कोरोना
▁बसे
▁पुर्‍या
ञ्चार
▁विमानस्थलमा
▁सुरक्षाको
घाखा
वान्
▁ग्लोबल
▁चाहन्छु
फ्ट
▁अनावश्यक
▁पद्ध
-३
▁सिनेमा
श्रो
▁त्यसकारण
▁मौद्रिक
▁हटाउने
▁?\n\n
▁बताइ
▁हप्
भाष
▁सिटी
▁जनमत
▁कम्प्यु
▁आराम
ेषण
ाधीन
ूले
▁गराइएको
▁कैलाली
चीन
▁आमाको
लेन्द्र
▁डल
गामी
▁८७
▁पारिवारिक
▁बढाइ
▁काठमाडौ
▁मानिसलाई
▁अनुप
▁भन्नुभयो,
▁बताएकी
कता
▁खपत
▁गरिबी
▁८३
▁उठाउने
▁छिट्टै
▁निर्णायक
▁फिट
▁८६
खोला
▁संस्थामा
▁गुरुङ,
श्री
▁कल्या
▁N
▁पहाड
▁झनै
▁आदर्श
▁शौ
▁एनआरएन
▁वाइ
▁कुकुर
बमोजिम
पीडित
हको
ङ्कन
समक्ष
▁उपेन्द्र
सोम
▁त्रैमा
▁छैनन्।
▁सभ्य
▁लागे
▁स्तरमा
▁पीसी
▁परमेश्व
▁खिच
▁छोडेर
▁वर्ण
▁गीतको
▁जाति
ंगी
▁अधिवक्ता
▁बजेटको
▁राखी
▁छौ
▁२०७३
▁९१
▁श्रीमा
▁भने।
ौँ,
ाउनको
▁७९
▁उस्तै
▁कामका
▁स्वदेशी
▁बस्त
▁पावर
▁श्रे
िकरण
▁हद
▁ब्राजि
▁ढिलो
▁सदस्यमा
▁रत्न
▁अभिवृद्धि
▁एक्लै
▁९२
▁हुनेछ।\n
घाखाँच
▁सरकारबाट
▁मर्ज
▁यिन
▁बराबरी
▁गरिए
सी,
▁टुक्रा
▁सवारीसाधन
▁कम्पनीलाई
▁जना,
गृह
▁जोश
▁पह
▁नेताहरूले
डीमा
▁नियमन
टिभ
▁ठोस
▁झो
▁एकीकरण
▁अत्यन्तै
बाद
▁रोगको
▁नपाएको
▁अस्ट्रेलिया
▁वर
▁ट्रे
▁फार
▁भाषण
▁जिक
▁मदि
▁नमुना
▁हुनसक्छ
स्थापन
▁पर्छ।
▁पक्कै
▁खोज्न
▁पला
▁९६
▁अपरि
▁पाल्पा
",
▁प्रिय
▁विनोद
टारमा
▁विपन्न
▁युट
▁कुमारी
एमई
▁आउँदै
वत्
▁उका
ख्
▁वीरेन्द्र
▁गर्छ।
▁हुनेमा
नाइटेड
▁पारिश्रमिक
▁सद्
▁नलि
▁सहभागि
▁परिणत
▁पक्षको
▁प्रादेशिक
▁जमा
▁हुँदैन।
▁सापकोटा
▁पत्रमा
▁माझ
▁२०१९
▁कानूनी
▁।\n-
▁पवि
▁सम्पादन
▁दिनुभएको
▁देशले
▁बिका
▁फरा
पछिल्लो
▁आ-
▁स्वतन्त्रता
▁फाइनलमा
▁उत्पादनको
▁उद्यमी
▁क्रान्तिकारी
▁बोल्न
र्ना
▁एसियाली
▁विहान
जब
ानमा
▁सम्मानित
▁नुवा
▁लेखेको
▁टिका
▁स्वास्थ्यकर्मी
▁नेपालबाट
▁गठबन्धनको
▁अस्थ
▁हराएको
▁परिमा
▁रोमा
▁अंश
▁घटेर
▁नमिल्
▁मौन
सैगरी
खे
▁निर्देशिका
▁घाँ
जरको
ालमा
▁साँच्च
▁उड्ड
▁लिनु
▁खोल्ने
▁तिर्
▁रहनेछ
▁सवै
गण्डकी
▁बन्यो
ए,
▁रियल
डिएको
▁भेटवार्ता
▁देवको
पोर
▁अर्यालले
न्नति
▁छाप
▁भन्नेमा
▁त्यहाँको
▁९३
▁रिस
▁माइक्रो
▁बोनस
▁नोक्स
▁चित्त
▁उपाध्या
▁काय
न्याय
▁आचार
▁विद्यालयका
▁आश्
प्ती
▁अंग्रेजी
▁विश्वमा
▁चर्चामा
गरि
प्रसार
▁लम
▁जनाउँदै
▁मूल्यांकन
एमाले
▁?\n-
▁स्कूल
▁ज्य
▁घटा
▁बाँके
▁पर्यो
▁अनुभूति
सिना
▁कृषक
▁ठगी
▁आदिवासी
▁गर्नुहोस्।
लवस्तु
▁होला।
काई
▁क्याम्पस
▁हुन्छन्।
२०७
पावर
▁निष्कास
▁९४
▁मृतक
▁९७
▁पौडेल,
▁शपथ
▁।\nयसै
▁इलेक्ट
▁परियार
▁मुना
▁सदस्यता
▁कौ
▁गेट
ेकाले
▁बिस्तारै
सहितका
▁स्क्र
▁पाउनु
▁बिहे
▁खातामा
▁कल्याण
फिल्
्रिड
पार
▁बृह
िरहेको
▁आजै
▁कच्चा
▁प्रकरणमा
ञ्चल
▁अलिक
▁रनमा
▁राह
▁दान
▁गगन
लान्
▁बेड
पाइ
▁उम
माया
▁स्वि
▁कूटनीतिक
व्
▁गरिन्छ।
वाहक
▁जोडेर
▁उपचारमा
▁वरिपरि
▁दशैं
▁क्षेत्रफल
नयन
▁आलु
▁माओवादीले
▁कर्ण
▁दिनअघि
▁फुटब
सह
▁दोहोरो
▁ओम
▁समस्यामा
▁२०८२
नियम
▁सिल
ण्ट
▁ठिक
▁स्वर्ग
मीले
▁सुरेन्द्र
▁परिवर्तनको
▁भाग्य
▁(१
▁संविधानले
▁राम्रोसँग
▁खरेल
▁साझेदार
▁ढिलाइ
▁अन्नपूर्ण
▁स्वास्थ्यमा
▁नवीकरण
▁गर्दछन्
▁एम्बुले
▁पाएपछि
▁गोल्ड
▁किसानलाई
▁रानी
▁रेग्मी
▁आवको
▁पोलि
टप
▁हुनेको
▁देखिँदैन
डीको
▁सिन्धुपाल्च
▁महँगो
ष्कार
▁कोषाध्यक्ष
जगार
▁गुल्मी
ेल,
▁मोदी
▁२०१८
▁किसिमका
▁बुझाएको
जिन
▁शिक्षाको
िल्ली
▁गर्दछ।\n
▁गुमाएका
▁मातृ
पाठ
▁आरोहण
▁खालका
▁प्रतिभा
्युब
▁काला
▁पेट्रोलियम
▁बाँडफा
▁बस्नेत
▁।\n\nउनले
▁अपर
स्टा
▁गरेमा
▁गराउँदै
्यो,
▁बाघ
▁ट्रान्स
सिप
▁सर्त
▁ओभर
▁पत्नी
▁नियमावली
▁संसद्मा
िङ
▁कुखु
▁ईश्वर
▁महासंघले
जन्तु
▁त्यसबेला
▁कसुर
▁अन्ततः
▁परिक
▁एच
▁स्वाद
▁गरेकाले
र्कि
▁।\n\nत्य
▁पुँजीगत
▁विप्लव
स्तर
▁लगानीमा
▁चाहिने
▁खोल्न
▁संयोजकत्वमा
सम्पाद
बहि
समध्ये
दलीय
▁क्षतिपूर्ति
▁एयरलाइन्
▁म्याग्दी
▁आन्दोलनका
भमा
▁नेपालीले
ह्र
▁निजाम
▁पाकिस्तान
▁इन्जिनियर
तपाईं
▁ज्ञापन
▁बेस
▁पञ्चा
प्टे
▁महरा
▁कालि
▁प्रणालीको
▁बारम्बार
▁लुगा
खत
र्पण
▁सन्तान
्ररी
एनन्
▁ग्य
▁८९
वरले
टिक
▁स्टक
नियाँ
▁सम्हाल
काउ
▁गाउ
▁महानिर्
▁हजारभन्दा
ालगायत
▁व्यवस्थापनमा
▁दिँदा
▁यात्रामा
▁जित्
▁माधवकुमार
▁सेन्ट
▁आयोगमा
लाग्दो
▁म्युजिक
बासी
ट्टी
▁केटा
▁स्वाभाविक
▁लगानीको
▁गतेको
▁खै
▁नदेखि
सिङ
वासन
धर
गरीय
▁तारि
▁राष्ट्रियसभा
▁मनोनयन
▁बेवास्ता
▁मानिसहरु
▁जिकिर
▁उड्डयन
▁फर्म
▁हौ
ानको
लगत्तै
▁समाधानका
▁)
▁पेन
▁भैरहवा
▁अधिकारीको
र्जी
▁नृत्य
▁युवती
st
गको
▁मुम्ब
न्धि
▁सरसफाइ
▁एड
▁किम
▁राजेश
रालो
▁शाहीले
ोलखा
▁सक्नेछन्
▁बोल्ने
▁ज्येष्ठ
▁ढिला
▁सुदृढ
▁समारोहमा
▁युनाइटेड
मणि
▁पढ्ने
▁साधारणसभा
▁दिवसको
▁तीनै
पार्क
▁अस्थिर
▁अवस्थित
बाहिर
▁सृजना
▁महेश
तर्फको
▁थो
▁प्रको
▁परिचित
▁मतगणना
▁गिरा
जाको
▁विद्यार्थीले
▁सदस्यले
▁मर्या
▁।\n\nवि
द्वय
▁दाङ
खेर
▁पुगेपछि
▁विश्वको
▁कान्ति
▁एसपी
▁मुलुकका
▁सक्छ।\n
▁सर्वे
▁।\nकार्यक्रममा
▁जनताका
▁लामिछानेले
सेल
ञ्चित
▁लिटर
दिए
▁हात्ती
नुपर्यो
▁मुस्ता
▁विन्दु
अधिकार
▁तिनै
▁स्तरो
ले,
▁ष
▁चाहन्छ
ँट
दित
▁संशो
▁दिनुपर्छ
▁आत्मनिर्भर
▁प्रा.
▁भू-
▁सामग्र
▁खसेको
ज्यालो
▁गभर्नर
▁परेर
▁मधेसी
▁भूमिकामा
▁भलि
▁प्रतिशत,
▁अर्ध
▁गइरहेको
▁चलचित्रमा
विपरी
▁आतंक
▁हरियो
▁नियन्त्रणका
▁दिइन्
▁सागर
▁हुने,
▁सत्र
▁कम्प्युटर
ज्व
▁फ्या
▁प्रशासकीय
▁निगमले
▁प्रदू
▁भए।
▁डिग्री
▁बगा
▁गराउ
▁विसं
ईन
▁हजार,
▁पदार्थको
▁इंग्
▁महोत्त
▁बानी
▁उल्लेख्य
▁चरम
▁छौं।
▁महामारीको
▁समुदायका
▁बेलुका
▁नराम्रो
▁ब्याटिङ
▁निम्न
▁कारागार
▁परेपछि
▁रोपनी
▁गर्नको
ैमा
▁अफ्रिका
▁चोक
▁व्यवसायिक
ँचो
▁आगलागी
क्षि
▁बताउँछन्।
▁स्पे
क्या
डोर
▁गठबन्धनका
टाम
षक
▁यद्यपि,
▁फराकिलो
▁स्मृति
ण्डर
▁‘अ
▁मही
▁अनुमोदन
भाषा
▁भएकै
▁कालोपत्र
▁केजी
▁जन्मा
▁पाउँदा
चल
सूची
▁१.
▁मनि
▁हुन्न
▁अर्घाखाँच
▁अधिकारी,
सतमा
▁विरोधी
▁कर्पोर
▁नर्स
▁खेल्दै
▁डिसे
▁अधिकारको
भेट
▁नेताको
▁A
वहारिक
▁दाँ
न्सको
▁त्यहाँका
▁हुदै
▁अस्तित्व
▁रहँदै
▁फेसबुक
▁सहुलियत
▁५००
लागि
▁लगायतको
▁निकायको
▁अपि
▁अड्
▁पक्षका
निकी
स्तरमा
ण्डित
▁लगत्तै
▁हेक्टर
▁जनजाति
▁वु
▁विपक्ष
▁क्लि
▁जोडिएका
▁बोकेको
▁बालबालिकालाई
गोलिक
▁ज्योति
जनी
▁लाइसेन्स
▁पक्षलाई
▁महाधिवेशनमा
▁देखाउने
ब्ब
▁काठमाडौँ,
▁गरौं
▁सहकार्यमा
▁सहमत
वृ
▁राजु
▁रुचि
नुको
▁छु।
▁बढुवा
▁तहले
▁नगरि
▁औषधी
स्थलको
▁कोषमा
थर
▁रूपान्तरण
▁राई,
▁भोग्
▁मोरङ
▁ओटा
▁बुवा
▁स्रोतको
मानमा
र्यो
▁201
थु
▁स्वरुप
▁नमू
▁नभएपछि
ब्लिक
▁'आ
▁दियो
▁शौच
▁शान्त
▁दिई
ेक्ट
▁मल्ल
▁इस्
▁अर्थतन्त्रमा
▁"\n
▁तालमेल
मुक्ति
▁नवीन
भावना
रानी
▁बालेन
▁नराख
▁फेर
▁शल्य
▁हेड
कानु
▁लिई
ण्डको
▁कुशल
▁निष्पक्ष
▁राशि
▁थिइन्।
▁होटलमा
▁प्रत्या
वर्तमान
▁विशेषगरी
▁पति
▁खेलाडीले
▁पक्का
ब्बर
क्व
▁पारिएको
▁एशिया
▁बीउ
▁चाहिन्छ
▁जनतामा
कोभिड
▁असल
▁प्रय
च्छुक
▁गर्नै
लेपछि
▁पुर्याएको
▁बचाउन
▁छाला
▁मन्त्रिपरिषद्को
▁निषेध
▁दिएकी
▁धो
▁उठेको
▁नारी
▁दूरी
▁कम्तिमा
सर्थ
▁बढीको
▁निमित्त
श्चात्
▁प्रतिवद्धता
▁वर्षभित्र
▁भरमा
बाजी
▁बढ्छ
▁।\n\nनेपाल
लम्प
▁ली
▁रुपैयाँ,
▁बनाउनुपर्ने
▁त्यसबाट
▁प्रदर्शनमा
▁अन्यो
पर्व
▁बालबालिकाको
डाँडा
▁तथापि
▁पोल
▁राम्रा
▁कामलाई
▁फार्म
/८
it
▁श्याम
▁मनोज
माथिको
▁चीनमा
▁भर्खरै
िए
सम्मत
▁अभावमा
▁दौड
ारू
▁मोडल
▁साहले
ङ्का
▁बर्दिया
▁विद्यमान
सनले
पछ
▁काठमाडौं।
ई,
▁डिस्
▁पर्नेमा
▁दुइ
▁दोश्रो
नुहोस्।
▁नदिएको
▁सम्पर्कमा
▁घरबाट
ठू
ेलमा
परित
▁ठक्कर
▁पं
्नुपर्ने
▁थपिएको
स)
डिट
▁इतिहासमा
▁जात्रा
स्न
▁गर्नुहुन्छ
▁किरा
▁कार्ययोजना
▁वसन्त
▁विस्थापित
▁श्रीमान
पेक्ष
▁शिशु
▁टिमले
▁बढे
▁राष्ट्रको
▁वस्तुको
▁केशव
▁राजकुमार
▁थियो।\n\n
▁बेइ
▁अमर
कियो
बैठ
▁बन्दा
मुनि
ानीले
▁मन्दिरमा
▁जनस्वास्थ्य
▁धम्की
▁आइपुग्
▁रहनु
▁बेरो
ीता
▁लाग्दा
▁मङ्
▁प्रयोगमा
il
▁दोलखा
▁सवार
सुर
▁कम्पनीमा
▁पाइप
वासले
ामन्त्री
▁गरे,
क्ष्मी
▁उद्योगमा
▁प्रसिद्ध
वेदीले
▁मान्ने
▁फौ
▁विद्यादेवी
▁पार्दै
जीले
पन्थी
▁अन्तरक्रिया
▁बू
ेग
▁सुरक्षाकर्मी
▁मन्त्रिपरिषद
▁पुरानै
▁निवासी
▁गायिका
▁संकल
वारण
▁लिनुपर्ने
”,
▁उज्यालो
▁प्रतिनिधिसभाको
विना
आउट
▁सिं
▁पैदा
▁गिरि
▁पट
▁संचार
▁महारा
▁त्रिवि
▁पुनले
विपरीत
▁डाटा
कस्मिक
▁आख
▁गर्भव
जारी
डा,
▁टोलीको
▁संसदको
▁सिन्धुपाल्चोक
अर्का
▁मनाउन
▁तामाङले
म्मद
▁इलाम
▁भएकोमा
सुवा
▁सम्मको
▁उनकी
न्यजन्तु
▁हामीसँग
▁बलिउड
▁श्रद्धा
▁सुन्न
▁लिमिटेडले
▁कृष्णप्रसाद
▁उपयोगी
▁कृति
▁P
▁सुरक्षाका
▁सुन्त
▁२०१७
▁मिलाउन
▁अर्जेन्
ईले
▁एकदम
▁खस
▁म्याने
ou
शरण
▁गर्दछ,
▁निम्त्या
ालीले
▁सकिँदैन
ुरि
▁यसैले
▁कागज
▁खटिएको
▁उल्लं
शिल
▁प्रस्ट
खाना
▁धेरैजसो
भित्रका
▁विषा
▁छापा
▁सापकोटाले
▁खतिवडाले
▁6
▁देखिएपछि
▁अनिल
▁अभिलेख
▁सर्वेक्षण
०,
लट
चाप
▁घन
ेलिकप्टर
जेन
▁महानगरीय
▁२०२२
▁नायिका
▁प्रस्तुति
▁'प
प्रद
▁(रा
▁पारी
हिक
तीन
▁गाली
▁हालको
ौता
▁२,
▁कुव
▁नभएकाले
▁C
टिन
▁भौगोलिक
केका
▁प्रयोजन
विश्वास
ारोपण
चेत
▁रोनाल्
▁ज्ञवाली
▁रद्द
▁उर्जा
▁सेप्टे
लस
▁पश्चिमी
▁हेम
▁सुकु
कुनै
▁लामाले
शैली
ड,
▁हुन्,
▁पवित्र
▁पर्यटकको
स्कृत
▁गराउनु
मध
▁वर्षाको
▁वी
अभि
▁एकेड
▁समृद्धिको
▁शरणा
▁एकताको
त्रि
▁तपाईको
▁माग्
▁आफैले
▁महिनादेखि
ड्य
▁बाक्
▁उत्पादित
ड्दा
▁कपिलवस्तु
णु
▁अन्तराष्ट्रिय
▁ढुङ्गा
▁सावधान
सबै
▁भित्री
▁निरीक्षण
चाहिँ
▁विस्तारै
▁भवनमा
चरण
▁राष्ट्रसंघ
▁हजारौं
▁मकै
▁रोजगारीमा
▁सन्तु
▁सुधारका
▁टुंग
▁शौचालय
▁विवादमा
▁गर्नुपर्छ।
▁अर्जेन्टि
ण्ठ
▁मेलम्
▁लोड
▁उदाहरणका
’\n
▁सुवेदीले
▁बिहानै
▁हतार
र्इ
तवार
▁रही
▁विरोधमा
▁ब्यक्ति
ुरेन्ट
▁पार्क
▁प्राध्यापक
▁मानिएको
▁खेलेका
▁पछ्या
▁स्रोतका
▁लाख,
▁चौका
कृया
▁अशोक
▁केन्द्रिय
▁थाइ
क्रामक
▁महाशाखाले
▁जानकार
▁राजपा
▁भण्डारण
▁सार्वभौ
▁पैदल
▁हुनुभएको
▁वि.
▁सिरहा
▁छैन्
▁उत्तरी
▁।\n‘
▁कठि
▁जनकपुरधाम
▁आफैंले
▁मूर्ति
ण्डमा
▁जाडो
▁निवारण
▁ओलम्प
च्या
▁उद्योग,
▁अपाङ्ग
▁एन्फा
वरको
▁नदीको
▁पात
रहित
▁भोक
▁भद्र
▁आप्र
▁स्थितिमा
▁सिलि
▁प्राधिकरणको
कहाँ
▁परिमार्जन
▁खानु
न्दर्य
लोमा
त्तिकै
रोग
छौं
▁बढाइएको
'ले
▁आकस्मिक
सामान्य
▁विक्रम
िब
▁ठप्प
▁महानिर्देशक
▁नमिल्ने
▁आचारसं
▁कान्छ
▁गराएर
किए
▁हेलिकप्टर
ुप्र
▁देशभरका
▁शल्यक्रिया
▁व्यवसायमा
-४
▁बाबा
▁बैत
▁मङ्गल
▁आफुले
पछिको
▁बदली
▁राती
सीका
▁शिखर
▁रणनीतिक
▁तापक्रम
▁दैलेख
थ्
▁नेपालीलाई
▁सेल्
▁प्रतिफल
▁जितेर
▁प्रशस्त
ेन्टि
▁M
▁अचम्म
▁निजामती
▁एजे
▁संविधानमा
▁युक्रे
▁लगेर
▁बताउँछन्।\n
ौँ।
▁बच्न
▁पीसीआर
▁रङ्ग
▁सचिवालयले
पालन
▁प्राधिकरणका
चको
▁श्रो
▁संयोजन
▁चीज
▁मैत्री
मेट
▁तीनवटा
▁डरा
▁समाजले
ारको
▁खेलाडीको
▁प्रान्त
उहाँ
▁प्रस्तावित
▁स्वर
रहेकी
वण
▁।\nत्यस्तै
वटै
▁स्वभाव
▁करिव
▁जोशीले
▁प्रतिशतभन्दा
▁सदुपयोग
▁रोचक
▁गोर्खा
वक
▁नेपालगन्ज
▁उद
▁चलचित्रको
▁प्रतितो
▁लियो
!\n
म्वा
▁नबुझ
▁मात
▁गाउँका
▁बन
ेन्ज
▁ढाँचा
▁धरौ
▁शुक्
१५
सेन
च्छेद
▁सम्झना
तिष्
ड्नु
▁राजश्व
▁उत्सव
▁अतिक्रमण
वालीले
▁जसमध्ये
▁(नेकपा
▁प्रकोप
▁बुझ्ने
▁उत्साहित
▁रिहा
▁हुँदैन,
▁फेरी
▁अन्ध
▁प्रश्नको
▁मुनाफा
▁घाम
टाइनमा
निर्वाचन
▁एकको
▁राज्यका
पिटल
▁निकाल्न
▁कार्यद
ख्रा
▁बास
▁'ब
▁जगत
▁पत्रकारिता
यौ
▁बुझाउन
▁पुरुषको
▁कार्तिक
आमा
▁ज्वरो
प्लेजु
िनमा
▁तीमध्ये
▁निकास
▁ब्यवस्था
▁सहजै
▁लेख्न
▁इजलासले
▁बीचको
▁विरुद्धको
▁खटिएका
▁सारा
▁कडाइ
▁घुस
▁नामाव
▁तसर्थ
▁मार
▁रोल्पा
वधि
▁दाउ
▁गरेपनि
▁हिन्दू
▁शासक
▁भनेपछि
▁खोलामा
▁सहरी
▁बनाउँदा
▁प्रेरणा
▁समावेशी
स्पि
▁बैंक,
▁विकास,
▁२.
▁चरा
▁समुदायमा
कांग्रेस
▁जवान
▁जग्गामा
▁कँ
▁जलविद्युत
▁क्यामे
▁जनयुद्ध
राज्य
चाँ
प्रदेश
▁स्याउ
राजनीतिक
▁साइकल
▁यहि
लोजी
▁गिरावट
▁डाय
▁गर्छौं
▁अक्टो
▁दिमा
▁कामना
▁नायक
▁ट्रेड
▁२०८०
▁नमूना
▁इम
भाग्य
▁इन्धन
ट्री
▁करोडको
▁आदान
▁उठाएको
▁मुस्लिम
▁पाठ्यक्रम
▁काफ्
▁राम्रै
▁खानेकुरा
चानक
▁सुशा
▁बुधवार
▁सौन्दर्य
▁मिले
मशेर
▁गर्यो।
बिना
▁हुनुहुन्थ्यो
ड्ने
▁असन्तुष्ट
▁क्षेत्रले
▁रामबहादुर
▁आवद्ध
▁त्यहाँबाट
▁अरुण
▁उपाध्यक्षमा
▁बैठकको
▁अना
▁ठग
▁प्रतिशतसम्म
ंदा
▁प्रतितोला
▁स्थानीयवासी
▁पाई
▁एसोसिए
▁फ्रि
मेरिका
मानको
▁शर्मा,
सी)
सां
▁रेस्ट
ानले
▁पुर्व
▁।\n\nआ
मानी
▁रै
▁साविक
▁मुल्य
▁सामेल
▁रोक्ने
▁विधेयकमा
▁बोहरा
▁२०२१
▁गर्नुको
▁तत्कालै
▁महानगरपालिकाले
▁रोनाल्डो
ब्रु
▁लगाउनु
हरि
▁खुकु
डक
▁इजराय
▁शनिवार
▁एकातिर
▁रजि
▁सक्नुहुन्छ।
▁लिगमा
▁श्रीमान्
-पटक
▁गर्नुपर्नेमा
▁जग्गाको
▁ज्ञवालीले
▁परिक्षण
उक्त
▁केटी
▁तिनको
▁सञ्चालनका
ेन्सन
▁निवेद
▁खासगरी
्नुहोस्
▁मदिरा
लम
अगा
▁बत्ती
▁गोदा
▁आत्मा
▁गंगा
▁शैलीमा
स्रोत
▁किसानको
▁किस्ता
▁परिवारमा
▁वर्
ic
▁हुम्
▁राष्ट्रपतिको
▁गोप्य
▁एम्बुलेन्स
▁कार्यालयबाट
▁रोजगारीको
▁विभाजित
▁बाढीले
▁महाकाली
▁हिमालयन
▁सहिद
▁घुमा
▁(माओवादी
▁राम्ररी
▁बृद्धि
▁हाराहारीमा
▁सँ
▁पूर्वप्रधानमन्त्री
▁मानिने
स्पो
▁घोषित
▁उहाँका
▁गर्भवती
▁सकिनेछ
▁पटकपटक
नेस
▁।\nग
▁रिक्त
▁मापन
▁शीत
▁भाडामा
ङ्ख
▁झड
▁टेस्ट
▁टोलीमा
▁जानुपर्ने
▁पौडेलको
▁निष्कासन
▁वन्यजन्तु
चनामा
सङ्ख्या
▁शिला
मिता
▁आपसी
▁गुज
▁क्रो
▁बताए।\n\n
▁महामारीका
▁२०३
ङ्गले
▁राखिएका
▁शक्तिको
▁एसि
▁काठमाडौंका
▁पार्टीभित्र
▁गर्नुका
▁भैरहेको
▁राजधानीमा
लेखा
थोकी
▁उप्र
ाचार
▁देखाएर
▁मध्यन
विज
▁रहेन
▁अभ्या
हिबार
▁महासङ्घ
▁नाघ
झो
▁धनकु
याे
▁महत्त्व
▁काभ्र
जीवी
▁सिद्धार्थ
▁।\nसो
▁वीरगन्ज
लाय
दर्शन
▁बताउँ
▁डाँडा
वले
▁सकेसम्म
▁मिलियन
▁डेभल
▁गराई
▁प्रचारप्रसार
▁उच्चस्तरीय
▁स्ट्र
▁काठमाडा
▁झर
बापत
▁टोलीका
▁तिवारी
▁दिनपछि
श्चिमा
▁आवत
▁जुलाई
टिस
▁नेत्र
▁पठन
▁ट्वी
लिपि
▁नबि
▁संस्थालाई
▁व्यहो
हक
▁दलहरू
▁द्वि
▁जिन्द
ईओ
▁रोजगारीका
र्भिक
▁मिल्दैन
तर्फी
▁थपिएका
▁प्रदूषण
▁अक्ष
लोड
▁पारदर्शी
▁तौल
▁एल्
▁चिन्ह
▁निकायमा
▁खोल्
▁फाइनान्स
▁प्रयत्न
▁अनुगम
▁दृढ
▁मध्यनजर
▁रहेकी
▁करा
▁भयो।\n
▁व्यवस्थापनका
▁तर्
▁उद्योगको
▁अखिल
▁चामल
▁अचानक
▁पदका
▁क्यापिटल
▁स्को
▁कार्यदल
▁सुनिल
ें
▁यसपाल
▁उम्मे
▁झण्डा
▁रोकथाम
▁दोब्बर
▁बाहिरी
▁समर्थक
फु
▁सम्झौतामा
▁कार्की,
▁चलाएको
▁चेतना
ाराम
जेल
▁इन्स्योरेन्स
स्,
▁विद्रोह
धेरै
▁शरीरको
नेता
निज
स्फोट
▁बेल्
▁विश्वस
▁०.
▁मरि
▁तिम्रो
ञ्जि
▁खोटा
▁आकां
तापूर्वक
प्ट
▁तिब्ब
शुक्र
▁प्रवर्द्धन
▁सङ्क
▁स्याङ्
▁दिनका
▁बालुवाटारमा
▁लडाइ
▁'वि
▁ग्राहकले
ुटि
▁लक्ष्मण
▁नोभे
▁(एमाले)
▁बुँदा
▁ध्यानमा
▁गरेकोमा
▁मेहन
हीं
▁अवस्थाको
▁पण्डित
▁राप्ती
ेछा
▁भट्टले
▁कँडेल
▁गर्दछु
▁प्रतिशतको
▁आर्
–२
▁फोरम
▁कन्स
▁अपहरण
▁बस्नु
▁उम्मेदवारको
▁मङ्सिर
▁नगरपालिका-१
▁तुरुन्तै
▁एआई
लू
▁शर्त
▁क्ला
▁।\nअहिले
▁बिरामीलाई
सरी
▁पाटन
▁पटक-पटक
▁अनुरुप
▁परमेश्वर
▁ड्राइ
▁लगानीकर्ताले
साना
▁दलीय
फेर
▁नेटवर्क
▁लाखको
▁रहस्य
▁सुत्के
▁ख्याल
बुध
▁खेलाडीलाई
▁लगाउँदै
▁बढेपछि
घात
▁अग्नि
▁क्रे
▁नवराज
▁हराउँदै
▁पेनाल्
▁अब्
▁व्यावहारिक
▁सदा
▁अपिल
▁शुक्रवार
▁खत्री
▁आयुक्त
र्तामो
▁परिस्थितिमा
हुँदै
ँु
▁भव्य
▁न्यौपानेले
▁दलहरु
▁।\nसं
▁जीवित
▁प्रशोधन
▁खेलबाट
▁तापनि
दैन,
▁मिलन
▁चिनी
▁आउँदो
▁भलिबल
धाना
खबर
▁झरेको
▁रङ
▁खोज्दा
▁देखिन्छन्
▁कुटपिट
▁साहित्यकार
▁शताब्दी
द्वन्द
▁मेट्रिक
▁आश्वासन
आवास
▁जाहे
▁नम्बरमा
▁उन्न
▁ग्री
स्वरूप
▁अर्थतन्त्रको
▁प्याकेज
▁कोट
▁अप्ठ्यारो
▁पेसा
न्ह
▁संस्कृति,
▁निराशा
▁शिविर
▁कुराले
▁सुवास
गाह
भ्या
▁उप्रेत
▁अपनाउन
▁जिता
▁चितवनको
▁ओपन
▁दरबन्दी
▁प्रेरित
▁मैन
▁बाधा
▁बिषयमा
▁आस्था
▁सञ्चारकर्मी
▁घन्टा
▁बौद्धिक
▁गिरी
यदि
▁यिनी
▁विदेशबाट
▁राजनैतिक
श्चर्य
▁त्यहीँ
मोर्चा
सन्न
▁परिमाण
▁धमा
▁c
▁समुद्र
ha
▁p
▁सिधै
डिओ
बीचमा
काको
▁गिरीले
▁विरामी
▁रुपैया
▁नसकेपछि
▁सुशील
न्तिक
▁अवकाश
नेपालमा
▁भईरहेको
▁हेल्
▁व्र
▁वक्त
▁२०१६
▁विच
▁नसक्नु
▁शान्तिपूर्ण
▁क्वारेन्टाइनमा
▁क्लबले
अब
व्यवस्था
कप
धाई
▁मनोरञ्जन
त्यो
▁शरणार्थी
▁साम्रा
▁१९८
▁बढ्नु
▁प्रदर्शनी
धना
▁नेकपाको
▁गई
▁आयोजकले
▁उक्
▁न्यायिक
पार्टी
▁गाँउ
ियल
▁रेश
▁कार्यलाई
▁8
ृंखला
▁खोज्दै
म्या
संर
▁अण्डा
▁संघीयता
▁छुट्टा
▁असा
मध्य
सय
▁जैविक
५०
▁चम
▁बुढाथोकी
▁मुल
▁सिस्टम
▁चैत्र
▁मर्
गं
▁जबकि
▁रुकुम
वर्ती
▁व्यवहारमा
▁सिकाइ
▁कायमै
ेरिया
क्रान्ति
▁इमा
▁ब्रेक
▁रेस
▁उल्लंघन
▁मातहत
▁पन्छ
रेड
▁स्वतः
▁विकृति
▁बढाएर
▁प्रचलन
▁परिवेश
▁नियाम
▁यादव,
▁7
▁लगायतले
▁नेतृत्वले
▁उनकै
▁अर्याल
काजी
▁'यो
is
▁बढाउ
▁सहयोगको
▁महानिरीक्षक
▁लगाउ
▁संसद्को
▁मोहम्मद
▁खाएर
▁विश्वकपमा
ञ्जु
▁ओलम्पिक
▁कैदी
रूद्ध
▁उखु
▁मकवानपुर
ब्रि
संगै
▁सत्तामा
बन
तालिका
▁सांसदले
यणी
▁बालुवाटार
▁रेमिट्या
▁सुरेश
▁कहिलेकाहीँ
▁बसाइ
म्पा
▁बन्ध
चारु
▁फाइल
▁नज
▁आश्चर्य
▁पोज
▁चाहे
le
▁थप्
▁स्थानीयको
▁प्रतिस्पर्धामा
देन
▁राजन
▁तारिख
▁संसारमा
▁एजेण्डा
तीले
▁कुराहरु
▁छात्रा
▁तत्कालिन
▁रसुवा
▁पुलिस
▁लिभर
▁कार्यसम्पाद
न्सले
▁केसीको
बाटो
▁रुसी
तारी
▁ज्वा
सामाजिक
▁सुब्बा
च्
▁वृत्त
▁।\nयस्तै
▁मिलेको
▁रहेछन्
प्रेषण
▁ध्रु
▁जनावर
▁परिसरमा
▁३.
विक्रम
▁अफर
योजित
▁स्टोर
▁देउवालाई
▁रोहित
▁युरोपेली
▁अन्तर्वार्ता
▁ताप्लेजु
▁युग
▁नसकेका
▁चिन्त
▁सक्दछ
▁टोलीलाई
सत्ता
▁लमजु
▁कर्जाको
▁आफुलाई
▁जापानी
▁बुढ
▁पोर्ट
▁महाधिवेशनको
▁माउ
केश
▁फेसबुकमा
सिएको
▁बोलाएर
नासाथ
▁बेहो
▁साँच्चै
▁कता
▁सरस्व
महि
▁सारेको
▁लाखौं
▁०६
▁अनुसारको
र्दिक
▁मान्न
▁राना
▁बैंकि
▁एन्टि
▁एकअर्का
▁एपी
▁चितवनमा
▁ट्रक
अर
▁एजेन्डा
▁भानु
▁एभर
गडा
▁हस्पि
राही
▁उठाएका
▁काटि
नेट
क्ताको
्छन्
सायनिक
▁खानी
▁तेज
▁असं
▁जोन
▁कमाएको
खल
▁मू
▁प्राइ
ज्जा
▁लागतमा
पोर्
धुरा
▁पाहु
▁विगतका
जस्ती
आवासीय
▁उल्लेखनीय
▁लेन
▁अा
उने,
▁बर्खा
▁गरेन
▁छ,’
▁अग्रसर
▁पर्वत
▁लगिएको
दले
▁बीबी
▁राष्ट्रपतिले
▁माथिको
चित्य
▁आयल
ब्रुअ
▁योजनाको
▁बेनी
▁सीता
वालले
शनि
डु
▁उपराष्ट्रपति
▁दवा
▁सद्भाव
▁घटनास्थल
▁जोड्न
झै
▁गै
्छु
▁ताजा
चालित
▁लापर
ing
▁घरपरिवार
सक्यो
जेन्ट
कारको
हिन
प्स
▁अनौपचारिक
▁भेटमा
लामी
▁संक्रमणबाट
▁महासंघको
▁मुलुकलाई
▁दिप
▁उपसभापति
▁भेटिएका
▁आवमा
▁लिगको
▁मार्ने
▁नसक
▁पद्धति
▁गाइ
धम
▁पोषण
▁शास्त्र
▁संघसंस्था
▁अन्यत्र
मोहन
१२
▁फला
▁निष्काश
डा.
▁स्थानको
▁कुवेत
ाउँमा
र्दन
▁जिज्ञा
▁यसैबीच
ँदैनन्
▁किनकी
ितीय
▁मूल्याङ्कन
▁हो?
▁अनुपात
▁कोषको
▁देउवाको
▁फर्कने
▁गठित
▁दायरा
ेन्टी
▁सिंगा
▁फ्लो
▁समि
▁अदालतका
▁समितिलाई
ूर
ललाई
▁महिनासम्म
र्सले
▁मस्तिष्
▁हार्दिक
▁फर्किने
जग्गा
▁जेनजी
▁सामग्रीबारे
-७
▁जनसङ्ख्या
▁व्यवस्थापनको
नाल्ड
▁२०१५
▁अभिय
▁देखेको
▁औचित्य
▁महिलाहरु
्र्या
▁नामको
पहिलो
▁मुद्दाको
▁बाख्रा
▁रायमा
▁गतेबाट
▁निर्देशनमा
▁भन्नेबारे
▁देखाउँछ
▁अवतरण
पले
▁रिसो
▁पदबाट
▁समाजवाद
▁ह्वा
धारी
▁सम्बन्धि
नाक
▁स्पष्टीकरण
▁प्रयोजनका
▁दिशामा
▁संगठित
▁रामेछा
१.
नबाट
मिर
िला
▁पश्चात
▁हेर्नु
▁पल्
▁दुब
▁पुलि
▁रुपान्तरण
▁अपमान
▁पढा
▁गाविस
▁विभागमा
▁ऋषि
न्डा
▁छानविन
▁त्रास
▁अध्ययनरत
▁सम्बन्धलाई
▁दायरामा
▁चल्न
▁अधिकृ
▁दसैं
▁पत्राचार
▁भवनको
▁बधाई
▁मसान्तसम्म
▁नेम्वा
▁बेलायती
काठमाडौँ
▁कारोबारमा
▁रूपमा,
ढुंगा
▁समुदायले
▁अभियोगमा
नेछ।
▁सेलि
▁पृष्ठभूमि
ँगा
▁छायांकन
जम
▁आयोजनाले
▁सोलु
▁विदा
▁शिक्षामा
▁जनआ
▁दैनिकमा
▁विल
कर्मीको
▁सिद्ध
▁किट
▁आइरहेका
▁पिता
▁छैट
▁प्रचलित
▁देख्दा
द्धान्तिक
▁अनुसन्धानमा
▁अस्व
▁सतर्कता
प्रदान
▁बनायो
▁एकेडेमी
▁आउँछन्
▁घटाउन
▁विनाश
जीव
▁रकमको
▁स्वाब
यसै
▁नहुनु
न्द्रा
▁मेस्
▁बागलुङ
वर्ग
▁सरा
▁खरिददर
▁पानीमा
नर
▁स्टो
ेन्टमा
▁सेक
▁थाल्
▁व्यवसायीलाई
▁सहरमा
▁नेपालमै
डब्
▁ट्रया
▁एक-
▁स्थाय
▁समेटिएको
....
▁लिम्ब
▁आमाले
जेट
▁हुन्छन्,
▁हुनुपर्छ।
▁थ्री
▁t
▁रायमाझ
वधिक
फाई
▁अवस्थालाई
▁गर्नुपर्
▁अनियमितता
▁पेरि
▁हलमा
▁छक्का
भिडियो
▁थिइन
फरक
▁विपरित
ौलाले
▁डेभलप
▁संगठनको
▁नेपाल-
▁निकाल्ने
सोमबार
▁साग
▁पोजेटिभ
▁व्यवसायीको
▁बच्चाको
▁टेवा
▁कोरोनाभाइ
▁निर्माण,
विज्ञान
▁उपप्रधानमन्त्री
▁।\n\nयो
▁वक्तव्य
▁मर
▁लिँदै
▁पछि,
▁s
▁सरकार,
रोप
▁महिला,
▁चिन्ति
▁मनाङ
▁प्रधाना
▁हरु
▁बनाउँ
▁माइती
▁लोकतन्त्रको
टरको
▁पर्खाल
▁महिनाभित्र
▁आर्मी
▁काँग्रेसका
▁तोडफो
▁कष्ट
दत्त
त्रीले
।\\n
▁सुचारु
कुलपति
▁सालदेखि
▁खर्
▁अनुशासन
प्रेर
▁सकिएपछि
▁अलिकति
▁निराश
▁पहलमा
▁रुपैयाँले
▁आफूहरु
▁।\nजिल्ला
▁आईपीओ
▁नगरे
सूच
सेवी
▁बालक
▁घुम्न
न्च
▁रहेकोमा
▁चुनावको
▁तिनीहरूको
▁रहर
▁मिलाएर
▁बाजु
▁गइ
▁निर्माणाधीन
▁इन्चार्ज
▁अनुसन्धानका
▁क्ल
▁पूर्वानु
▁कमिटीको
▁नुवाकोट
▁अन्यथा
▁दिदै
▁दार्चु
▁हकप्रद
आत
▁चिन
▁लाखभन्दा
▁समक्ष
▁बोलाएको
१९
▁सम्वन्ध
▁अन्तरराष्ट्रिय
म्भव
▁बनेपछि
▁डलरको
▁गरेसँगै
▁जाजरको
▁शहरी
▁।\nउक्त
ेटर
▁रासस
-क
▁देखी
▁स्वरूप
-५
▁अवधिको
▁कार्यपालिका
▁हमा
▁सूचक
▁डाउन
▁लाग्दैन
▁निवर्तमान
▁मन्तव्य
▁हिरासतमा
क्वा
▁देखाइ
▁गर्दैछ
▁पार्टीबाट
▁सर्भि
▁भ्रमणका
▁चिन्तित
▁युट्युब
▁खाँ
ङ्ग्रेस
ंगे
▁हौं
वात
▁नभएसम्म
▁डोनाल्ड
▁बर्षको
▁मिर्ग
डी,
▁सचेतना
▁ताला
’को
▁हाफमा
देशमा
▁गाडीमा
▁सन्तुलन
▁सकिन्छ।\n
▁बन्दी
▁दूतावास
▁थापालाई
▁अवलम्बन
डेट
न्छन्,
▁मेघ
पास
▁हान
▁साताको
▁कमला
▁कार्यान्वयनका
आइतबार
▁म्याच
दश
्यौं
▁३,
▁व्यवस्थाको
▁सकिन
▁रेष्ट
▁लम्
▁शर्माको
▁पृथ्व
िन्छ
▁धमाधम
▁जाम
▁दीपेन्द्र
▁मजबु
▁खेर
▁प्रवि
▁प्रकृया
जिट
▁स्नातक
▁सामग्रीको
▁उजा
स्त्री
▁आश्र
▁लम्ब
ठूला
▁इमेल
▁त्यसअघि
▁बङ्ग
▁भू-भाग
▁फागु
▁तुलना
▁विद्यालयले
छाम
▁अन्त्यमा
▁राहदानी
हना
▁'य
▁सैद्धान्तिक
लियो
▁प्रचण्डको
▁मेची
ूको
▁आवतजा
▁अभियानको
शुक्रबार
क्षकको
▁प्लास्टिक
▁सुमन
▁पाउनेछन्
▁प्रतिशतमा
▁खग
मर
▁।\n\nस
▁परीक्षणका
▁चाइ
▁पोर्चु
▁राज्यमन्त्री
▁कुराहरू
▁हुन्थे
▁बिक्रीदर
▁उतार
▁भान्
▁परिचयपत्र
बेर
▁स्वास्थ्य,
म्बरमा
ालयमा
▁बल्ल
ङ्गी
▁तिनका
ियन्स
▁२०८१
ra
▁च्यानल
▁लागेपछि
▁।\nज
▁वार
▁महिनापछि
▁छेउमा
▁प्रधानमन्त्रीलाई
▁प्रहरीमा
फ्र
▁फेब्रुअ
उदै
▁गौरी
▁छु,
▁संकटमा
▁तस्वीर
ाउँछन्
िकन
राति
▁बाहु
▁जबर
▁हो,'
▁फाल
▁श्
▁४.
याको
▁तीर्थ
बुधबार
तेको
प्या
▁घटाउने
▁सकिए
▁राख्नुपर्ने
त्तम
▁अभियुक्त
▁कारबाहीको
चिएको
▁मता
▁हुनै
▁बुझाउने
▁महानगरले
▁विवा
▁सूचीकृत
मुख्य
▁नच
▁गर्नेलाई
उनुपर्छ
▁वर्षभन्दा
▁शेखर
▁तरलता
नेश्वर
▁ग¥यो
▁तपाइँको
▁खोजिएको
▁हाउस
▁पुस्तकाल
▁निमा
▁झि
▁आयोजनाका
▁साधनको
▁मागेको
कालिन
▁प्रब
भिर
▁ट्वि
▁इमान
पेर
▁युवालाई
▁भय
धमा
▁सिलसि
▁महतले
▁कलेजमा
▁सकियो
▁।\nगत
▁१९७
रक
▁बालकृष्ण
▁Ne
▁जू
▁जंगल
न्दी
▁विनिमय
▁पु¥याउने
▁लड्न
ञ्जा
▁मल्लले
▁हुनुको
गुन
▁स्थायित्व
द्री
▁कथ
▁सल्यान
▁साइट
▁संस्थापन
▁नेताहरुको
▁सयौं
▁विस्फोट
▁पूर्वानुमान
प,
▁निकायका
▁सङ्गठ
▁गिर
▁उकालो
▁ल्
▁(एन
▁नामावली
बुल
▁जनवरी
▁बन्छ
रिष्ठ
▁आइतवार
▁डिसेम्बर
कर्मीले
▁10
▁सोमवार
गंगा
▁भाइरल
▁योसँगै
त्तिको
एँ
नागरिक
▁भन्यो
▁निर्णयमा
▁जुत्ता
▁रूपले
▁मान्छेले
योर्क
▁संस्कृतिको
वियु
खी
▁प्रकृतिको
▁श्रेष्ठलाई
▁दलहरूले
विश्व
▁।\nतर
▁T
▁नारायणी
▁किनारमा
▁छात्रवृत्ति
▁लडाइँ
▁शहरमा
▁सचेतक
▁हर्क
\n–
▁विष्टले
ंड
▁बहिनी
▁चार्
ँदो
▁पालन
▁राख्नुहोस्
▁हेलि
पेट
लीका
▁असुर
▁मान्छेको
▁बोर्डको
पठ
▁विषयवस्तु
▁चार्ज
▁माओवादीका
▁सफाइ
व्यवसाय
न्डो
▁तामाङ,
▁विश्वकै
▁मिच
सान
▁प्रत्यारोपण
▁डोज
▁भाई
▁सफ्
▁विमानस्थलको
न्दि
▁रासायनिक
▁लिभरपु
▁बिकास
दायित्व
▁टस
▁बागलु
▁भूगोल
▁परिकार
▁सेमिफाइनलमा
▁पोखरी
▁सम्बद्ध
▁गठबन्धनले
▁चम्
▁प्रक्षेप
जुद
▁।\nउनी
सन,
▁स्तरीय
▁भरिएको
▁युएई
ेन्सी
▁घोराही
ग्रहण
ह,
▁लम्स
▁प्रतिद्वन्द
भावी
▁दस्ताव
▁खोजीमा
▁।\nत्यस
उनको
▁समस्यालाई
▁चाडपर्व
छुट्
▁स्तरको
▁परीक्षणमा
रिय
▁अख्तियारले
▁भारतसँग
▁गैरआवासीय
▁२०१४
▁मानवअधिकार
▁रुपैयाँसम्म
▁चाँडो
▁निकालेर
त्रो
▁कृषि,
▁अपराधी
▁कमाइ
▁आशि
▁डिएसपी
▁सहमतिमा
▁ठे
▁सक्नुहुनेछ
▁बराबरीमा
▁फिफा
▁आश्रम
गाईं
▁प्रोज
▁गुमाउने
▁बीपी
▁इन्जिनिय
सिन
▁प्रमाणीकरण
▁कार्यान्वयनको
▁योग्यता
re
▁रिसोर्ट
▁नहोस्
करणको
कानुनी
▁प्रस्थान
थ्यो।
▁भरपर्
