<pad>
<unk>
<s>
</s>
\n
!
"
#
$
%
&
'
(
)
*
+
,
-
.
/
0
1
2
3
4
5
6
7
8
9
:
;
<
=
>
?
@
A
B
C
D
E
F
G
H
I
J
K
L
M
N
O
P
Q
R
S
T
U
V
W
X
Y
Z
[
\\
]
^
_
`
a
b
c
d
e
f
g
h
i
j
k
l
m
n
o
p
q
r
s
t
u
v
w
x
y
z
{
|
}
~




¡
¢
£
¤
¥
¦
§
©
«
¬
­
®
°
±
·
»
¿
À
Á
Ä
Å
Æ
Ç
È
É
Ê
Í
Ï
Ð
Ò
Ó
Ô
Õ
Ö
×
Ø
Ù
Ú
Û
Ü
Ý
Þ
ß
à
á
â
ä
å
æ
ç
è
é
ê
ë
ì
í
î
ï
ð
ñ
ò
ó
ô
ö
÷
ø
ù
ú
û
ü
ý
ā
ă
ć
Č
č
ē
ě
ğ
ī
İ
ı
ł
ń
ŋ
ō
Œ
œ
ř
Ş
ş
Š
š
ť
ū
ŭ
ů
Ż
ž
ǁ
ǃ
ǎ
ǐ
ǒ
ǔ
ɐ
ɑ
ɔ
ə
ɛ
ɡ
ɪ
ʁ
ʃ
ʊ
ʌ
ʻ
ʼ
ʽ
ʾ
ʿ
ˆ
ˈ
ː
˗
˟
ˮ
́
̃
̄
̆
̈
̊
̋
̎
̒
̕
̥
̧
̨
̯
̵
̶
̷
̸
͵
Γ
Δ
Π
Σ
Φ
Ω
ά
έ
ί
α
β
γ
δ
ε
η
θ
ι
κ
λ
μ
ν
ο
π
ρ
ς
σ
τ
υ
φ
χ
ω
ό
І
А
Б
В
Д
Е
Ж
З
И
К
Л
М
Н
П
Р
С
Т
Ф
Х
Ш
а
б
в
г
д
е
ж
з
и
й
к
л
м
н
о
п
р
с
т
у
ф
х
ц
ч
ш
щ
ы
ь
э
ю
я
ё
і
҆
Ґ
ӓ
ְ
ִ
ֶ
ַ
ָ
ֹ
ּ
׀
ׁ
א
ב
ד
ה
ו
ז
ח
י
ל
מ
נ
ק
ר
ש
ת
׳
،
ؘ
؟
ء
آ
أ
ؤ
إ
ئ
ا
ب
ة
ت
ث
ج
ح
خ
د
ذ
ر
ز
س
ش
ص
ض
ط
ظ
ع
غ
ف
ق
ك
ل
م
ن
ه
و
ى
ي
َ
ُ
ِ
ّ
ْ
٠
٪
ٹ
ټ
پ
چ
ړ
ښ
ک
گ
ہ
ی
ې
۔
ऀ
ँ
ं
ः
ऄ
अ
आ
इ
ई
उ
ऊ
ऋ
ऌ
ऍ
ऎ
ए
ऐ
ऑ
ऒ
ओ
औ
क
ख
ग
घ
ङ
च
छ
ज
झ
ञ
ट
ठ
ड
ढ
ण
त
थ
द
ध
न
ऩ
प
फ
ब
भ
म
य
र
ऱ
ल
ळ
ऴ
व
श
ष
स
ह
ऺ
ऻ
़
ऽ
ा
ि
ी
ु
ू
ृ
ॄ
ॅ
ॆ
े
ै
ॉ
ॊ
ो
ौ
्
ॎ
ॏ
ॐ
॑
॒
॓
॔
ॕ
ॖ
ॗ
क़
ख़
ग़
ज़
ड़
ढ़
फ़
य़
ॠ
ॡ
ॢ
ॣ
।
॥
०
१
२
३
४
५
६
७
८
९
॰
ॱ
ॲ
ॳ
ॴ
ॵ
ॶ
ॷ
ॸ
ॹ
ॺ
ॻ
ॼ
ॽ
ॾ
ঁ
ং
অ
আ
ই
উ
এ
ও
ক
খ
গ
চ
ছ
জ
ঞ
ট
ড
ণ
ত
থ
দ
ধ
ন
প
ব
ভ
ম
য
র
ল
শ
ষ
স
হ
়
া
ি
ী
ু
ূ
ে
ো
্
০
১
২
৩
৪
৫
৬
৭
৳
৷
ਂ
ਆ
ਕ
ਜ
ਤ
ਦ
ਨ
ਬ
ਮ
ਰ
ਲ
ਸ
ਹ
਼
ਾ
ਿ
ੀ
ੁ
ੂ
ੇ
ੈ
ੋ
ੰ
ੱ
ં
ક
જ
ત
દ
ન
પ
બ
મ
ય
ર
લ
ળ
વ
શ
સ
ા
િ
ી
ુ
ૂ
ે
ો
્
૪
க
த
ம
ர
ல
வ
ா
ி
ு
்
ಂ
ಕ
ಗ
ಟ
ಡ
ತ
ದ
ನ
ಪ
ಬ
ಮ
ಯ
ರ
ಲ
ಸ
ಹ
ಾ
ಿ
ು
ೆ
್
ต
ม
า
้
་
ཀ
ག
ང
ཆ
ཏ
ད
ན
པ
བ
འ
ར
ལ
ས
ི
ུ
ེ
ོ
ྟ
ྱ
ᅳ
ᆰ
ṃ
​
‌
‍
‎
‐
‒
–
—
―
‘
’
‚
‛
“
”
†
‡
•
 
‪
‬
‰
′
‹
›
※
⁃
⁄
⁎
⁕
⁠
€
₹
⃣
←
↑
→
↔
⇒
⇔
∅
−
∕
∙
√
∞
∩
∪
∫
∶
≈
≠
≤
≥
≫
⋆
⋲
⎯
⏩
▁
█
■
▪
△
▶
▸
►
◆
◈
◊
○
●
◦
⟲
⟳
⠀
⦁
⬆
⬇
⭐
⸻
、
。
〇
《
》
「
」
【
】
あ
い
う
お
か
が
き
く
け
こ
ご
さ
し
じ
す
せ
ぞ
た
だ
ち
っ
て
で
と
ど
な
に
の
は
ま
も
ゃ
り
る
を
ん
イ
ェ
カ
ク
コ
ジ
ス
ッ
ト
ド
ナ
ニ
フ
マ
ラ
リ
ル
ロ
ン
ヴ
・
ー
一
七
三
中
主
京
人
代
件
住
你
保
八
公
典
分
动
北
区
司
吗
哪
啶
啷
喜
嗎
国
國
在
大
天
好
子
官
小
工
師
平
年
很
得
快
您
我
所
技
日
明
春
普
書
有
木
本
术
東
死
水
永
法
活
流
海
火
点
焼
爐
田
百
的
社
神
立
節
老
般
藏
虎
行
証
話
語
謝
话
语
谢
赛
起
送
通
都
金
限
電
馬
马
오
전
후




































︎
️
﻿
﾿
￷
￼
�
🆀
🤓
🤣
🤦
🤱
🥇
🦷
को
▁स
मा
र्
का
▁प
्र
न्
▁ग
ले
▁र
ने
्य
▁ब
▁।
ला
▁भ
▁अ
▁क
▁व
ार
▁ह
▁छ
▁न
▁म
▁प्र
▁त
▁द
▁ज
स्
▁आ
ाल
ति
ता
क्
ना
▁उ
एको
ान
यो
▁गर
▁का
हर
▁वि
नि
▁गर्
ेको
त्र
म्
लाई
नु
वा
िक
ित
या
▁।\n
था
▁हु
▁नि
▁च
▁मा
▁ला
्या
▁ल
रा
▁ख
री
▁ए
▁रा
▁य
▁श
न्द
क्ष
▁थ
त्
ल्
▁स्
▁ने
▁सा
▁सं
पाल
ेश
▁पनि
ेर
बा
▁दि
नी
हरू
हि
ष्
▁सम
▁लाग
ाउ
▁थि
ुर
ेका
एका
पा
।\n
हा
▁हो
▁फ
दै
रि
▁१
दा
र्य
▁छन्
▁२
▁भएको
हरु
बाट
िका
स्त
द्
▁नेपाल
न्छ
न्त्र
क्र
भा
▁पा
▁भने
▁लागि
▁त्य
▁रह
▁निर्
▁को
वि
ष्ट
कार
▁के
रण
ेख
▁गरि
▁गरेको
▁पु
सा
▁गर्न
▁घ
छि
लो
रो
▁एक
ेल
▁सम्
ीय
ही
ाम
▁ट
▁यो
र्ष
▁कार्य
▁ध
▁गर्ने
्न
▁प्रति
ारी
▁उन
▁कु
स्था
देश
न्त
▁सु
▁यस
्च
▁बा
गा
ध्य
▁बता
▁व्य
▁थियो
िय
▁ड
ली
ँग
▁तथा
ेखि
▁क्
▁आफ
▁अनु
टा
म्म
धि
पछि
पर्
▁सर
कि
धान
बार
▁बढ
योग
रह
भि
ुप
टी
गर
्रो
ौं
▁उप
▁हुने
▁'
ण्
▁सह
ालय
की
सँग
र्थ
▁जना
िन
जार
ेट
▁दु
▁वर्ष
स्थ
ाइ
▁क्ष
▁सि
▁राज
ंग
ेस
▁वा
▁बि
ूर्
क्रम
वस्था
▁थिए
▁मु
प्र
्व
नमा
िल्
न्न
ण्ड
सार
याँ
प्
ेत
ष्ट्र
▁इ
कारी
सी
▁बै
▁रहेको
न्द्र
क्त
▁सरकार
एर
िम
ङ्
न्त्री
▁नै
न्य
द्ध
▁तर
नुपर्
▁बना
▁परि
▁त्यस
▁छ।
ँदै
▁३
बै
▁विश
▁स्थ
नको
▁से
▁लि
▁उनले
▁ठ
ठमा
मु
न्दा
द्य
ानी
▁२०
▁गरेका
▁रुप
ेत्र
सि
डा
▁काम
जा
▁।\n\n
लि
ीले
म्प
न्ध
ंक
ठमाड
▁क्षेत्र
जना
उन
▁(
धार
▁कि
▁सबै
ाउँ
सम्म
ती
▁हजार
स्ता
▁समा
▁गरिएको
▁पार्
▁प्रा
डि
▁भए
हिले
▁काठमाड
▁देखि
त्य
हु
▁उनी
▁५
▁भन्
दी
ुरु
▁भएका
▁सो
हाँ
▁रो
उने
▁हाम
क्षा
मन्त्री
▁मि
ैन
ेद
▁अर्
वार
्ने
▁मात्र
▁मह
▁राष्ट्र
र्म
▁पर्
क्ति
चार
▁जन
▁गर्दै
▁गरे
ग्र
ञ्च
▁उत्
ध्यक्ष
▁सक्
जी
ेला
▁ना
▁स्थान
▁४
सक
टर
▁अध
▁जा
तिक
▁बु
▁राख
बन्ध
▁आफ्न
माण
रहेको
पालिका
गत
▁बताए
▁समय
▁जो
िति
▁छैन
शा
भाव
▁जान
छन्
▁दिन
▁गरी
ूप
मान
▁पुग
▁कम
कु
▁प्रहर
▁हुन्छ
▁गत
्रा
▁ती
र्व
मुख
▁काठमाडौं
दि
नै
▁महि
▁पर
लेख
▁छ।\n
बी
▁भन्ने
▁नेपाली
▁६
▁ओ
▁लाख
कृ
▁हुन
टक
त्व
िल्ला
निक
▁कारण
▁स्व
र्फ
▁प्रदेश
▁पार्टी
ेक
स्तो
र्ता
ेन्
नुपर्ने
्रम
रमा
▁लग
▁अव
ोल
▁दा
ेरै
▁आफ्नो
▁था
डी
ाउने
रु
▁हुन्
▁पहि
▁दुई
ूल
▁कुरा
नुभ
सो
▁जिल्ला
▁स्वा
िया
▁रूप
▁व्यवस्था
ुट
जन
▁अहिले
ारत
▁चा
घि
▁सय
▁साथ
चि
ँदा
▁धेरै
ाउन
▁केही
▁केन्द्र
▁खो
कास
▁पूर्
्ञ
▁झ
▁आव
▁कार्यक्रम
▁अध्यक्ष
देखि
▁अनुसार
यर
▁देश
▁अन्त
▁महा
▁हि
स्य
वाच
▁निर्माण
▁भा
▁खा
▁बो
ुन
भन्दा
ँच
मि
▁७
कै
म्ब
पूर्
▁सञ्च
दान
ाली
\n\n
स्तै
▁अवस्था
फल
▁यु
ोर
▁भारत
▁निय
▁लगा
▁सद
ब्
▁बैंक
▁कुनै
हित
श्य
▁जानकारी
▁विकास
भाग
▁शि
पुर
पी
ौँ
▁या
हरूको
▁कम्प
▁निर्वाच
स्ट
▁शा
▁कार्यालय
र्च
हरूले
्यो
शत
ष्ठ
▁गु
न,
▁अधिका
▁हा
सम
▁विष
ैयाँ
▁रूपमा
▁पो
▁नगर
▁प्रधान
▁खेल
यत
▁आयो
▁समेत
च्च
▁तपा
▁?
मै
▁प्रहरी
ारा
▁प्रतिशत
▁८
▁भइ
▁घर
टो
खा
ग्
कमा
जि
▁प्रमुख
▁कम्पनी
मी
▁राम
वन
▁सकि
माले
यन
इएको
▁नेता
▁स्थानीय
रोड
मेर
हो
सको
▁रुपैयाँ
▁श्र
▁विषय
उँ
▁विश्व
▁करोड
▁बज
टि
▁चि
▁सरकारले
धा
▁गरेर
थि
▁नयाँ
▁सेवा
▁९
श्यक
ैले
ीमा
न्दै
▁तय
▁ल्या
हरुले
सले
णा
सन
▁मो
\\n
▁-
ताको
वी
▁मन्त्र
▁आज
▁आएको
स्प
छ।
प्त
्रेस
▁समिति
▁प्रयोग
ट्
लमा
▁रहेका
▁गाउँ
ज्ञ
▁सदस्य
स्थ्य
▁तपाई
▁सञ्चाल
स्या
▁ढ
ेन
▁बढी
▁सामा
रको
क्षण
▁मत
▁खु
्यान
▁सुरु
राज
▁दल
भिन्न
ोक
▁१०
करण
र्या
मो
सद
▁भि
पति
▁व्यव
▁सुर
पाद
हरुको
▁उनको
▁प्रधानमन्त्री
वेश
▁पहिलो
▁आइ
▁बैठ
यु
▁पछि
र्थिक
▁समस्या
वादी
▁आवश्यक
साय
जिक
▁गर्नु
▁गा
णय
▁नभ
सं
▁देख
पि
सर
▁घट
▁छन्।
र्श
लु
दुर
▁निर्णय
▁रुपमा
▁आर्थिक
ोग
समा
▁व्यक्ति
▁विभिन्न
▁दो
▁राष्ट्रिय
▁भन्दै
नामा
▁स्वास्थ्य
▁औ
ताल
सु
इन
▁गर्दा
▁पार
▁अन्य
▁राजनी
त्त
▁हामी
▁संघ
न्ड
र्त
▁ति
▁मूल
▁संस्था
▁विद्य
धन
पूर्ण
▁महिला
▁आफू
▁सभा
▁जी
▁दिए
रहेका
▁सम्बन्ध
▁त्यो
वाद
ेड
▁भू
र्ग
▁व्या
टन
▁डा
▁रि
श्च
▁जनाएको
ित्
▁डि
र्ड
▁तीन
▁एउ
तन्त्र
रोना
ंग्रेस
ेष
त्म
चना
▁कस
▁भयो
सहित
▁अप
सकेको
वारी
▁मन्त्रालय
हादुर
▁आधार
न्ति
▁उल्
ङ्ग
▁ठू
▁हुँदै
▁जि
▁शु
ख्या
▁गते
▁सू
पन
▁कृ
▁उत्पाद
▁कांग्रेस
▁नाम
ञ्
क्ता
▁प्रश
्वा
▁दिने
▁माग
▁कोरोना
तृ
▁सहयोग
▁चु
▁उक्त
स्पताल
र्क
▁रु
▁सार्व
▁छो
▁छ,
▁मन
▁क्षेत्रमा
क्रमण
▁थप
न्या
▁अस्पताल
▁दिएको
िएको
▁मुख
नुभयो
्छ
▁आयोजना
जनिक
स्थित
▁मानि
हार
▁अब
जु
▁क्रम
गरिक
▁अमेर
▁मृ
हरूलाई
▁बजार
चिव
से
▁एमाले
कम
तामा
्रि
▁हे
▁तपाईं
िर
सँगै
▁हाल
सभा
▁बस्
अघि
▁सार्वजनिक
▁नगरपालिका
▁छा
बीच
▁सड
▁लेख
▁नागरिक
चा
▁पत्र
▁‘
▁लगानी
भित्र
कको
▁बने
▁सम्प
ड्
▁उद्य
▁भन्दा
▁सक
▁प्रभाव
कले
▁"
▁समाज
▁ओली
राष्ट्र
▁पुन
ूह
▁छन्।\n
बहादुर
▁गो
धिक
शी
▁निर्वाचन
पत्र
▁दे
▁बाँ
▁निर्देश
ोष
काल
ुल
क्रिया
फा
▁एउटा
▁नेतृ
▁ता
▁बेला
हरुलाई
▁स्था
लेको
द्या
स्तु
▁उहाँ
नुपर्छ
▁मे
▁व्यवसाय
▁अभि
हान
▁निका
▁भनेर
▁अर्थ
▁बाल
▁टो
▁नेतृत्व
भर
कपा
▁उल्लेख
्री
वै
एपछि
▁पक्ष
▁बस
▁तह
▁बे
निधि
▁प्राप्त
र्ट
▁योजना
▁विशेष
▁अघि
▁संग
▁मुख्य
▁किन
्यु
▁थियो।
र्न
काश
बु
▁इन्
▁वै
ध्ये
▁पू
तमा
ेन्द्र
न्व
▁तर,
द्धि
▁पूर्व
▁गठ
इन्
▁बुझ
बारे
गरी
प्रति
▁जारी
▁अन्तर्
▁अर्ब
पना
▁ठूलो
▁नी
▁२०७
त्यु
सक्
▁कर्म
▁भने,
नुहु
नाइ
धी
▁वटा
▁अधिकारी
▁मूल्य
▁गाउँपालिका
अनु
▁पोख
ेष्ठ
▁मात्रै
▁साम
रुद्ध
▁पटक
▁पर्य
▁अभ
मति
▁सर्व
▁समूह
नका
▁जित
▁ले
चारी
न्तर
▁सन्
▁मृत्यु
▁हो।
▁राजनीतिक
▁वडा
▁चौ
ारे
▁पर्ने
▁नेकपा
सन्
लफल
दाय
▁उद्योग
▁पाँच
पु
कर्ता
▁अनि
स्रो
कल
▁परी
▁राम्रो
▁आग
▁भेट
▁बताएका
मार
▁छलफल
दर्श
▁सम्म
▁सङ्
▁उम्म
बि
ीको
▁सम्झ
तको
वरण
▁१५
वेद
र्फत
▁सुरक्षा
▁सां
ठा
▁उपचार
विधान
▁आएका
▁यस्तो
ञ्ज
नले
तर्फ
▁क्रममा
▁कर्मचारी
टमा
त्मक
▁मन्त्री
▁अवस्थामा
म्भ
▁मान
▁विद्या
▁सहभाग
▁भनि
▁सक्ने
▁अगा
▁न्य
▁उत्पादन
के
▁बजेट
▁महिना
▁बताउ
होस्
▁अद
▁विषयमा
▁निक
लको
दछ
विधि
समेत
त्ति
▁नीति
▁उम्मेद
▁चार
▁१२
डेल
णाली
मित
▁कर्
▁दश
▁भइरहेको
▁जुन
राम
▁सामाजिक
▁अर्को
हरूमा
क्स
ृद्धि
▁अझ
▁बनाउन
▁रकम
अनुसार
तर
ीर
▁हुँदा
▁सडक
▁टोली
▁सञ्चालन
▁प्रतिनिधि
▁विदेश
▁११
न्स
▁श्रेष्ठ
त्ता
▁संविधान
त्या
▁संर
▁प्रव
यक
▁खर्च
र्ने
हाल
▁यसको
युक्त
▁पद
▁मुलु
▁साथै
घा
▁आयोग
रोध
▁उपा
ल्लो
ुवा
▁विक
नाव
▁नग
▁पै
▁गर्नुपर्ने
▁नेपालमा
ोट
गम
ेपछि
▁क्या
▁लक्ष
्दै
▁पौ
▁करि
सन्धान
▁अदाल
▁कति
पर
▁नेपालको
वाह
▁दोस्रो
▁१९
▁उच्च
▁राज्य
ेरो
▁क्र
व्य
▁सी
बर
▁यी
ेन्ट
▁बी
।\n\n
▁व्याप
राष्ट्रिय
▁फि
▁बन्द
▁थापा
ग्रह
ामी
▁ची
▁फिल्
गायत
▁अनुसन्धान
▁मौ
क्षक
ष्टि
▁लोक
▁हाम्रो
▁भु
बल
▁प्रहरीले
जग
ीत
ैं
नुभएको
▁तत्
▁नहु
साद
▁घोष
▁पुगेको
▁फो
▁घटना
पो
▁परेको
▁शर्
▁पानी
यात
▁तयारी
ओवादी
▁खे
▁महान
▁बाहि
▁परिवार
▁।\\n
▁लगायत
▁विद्यालय
▁ठाउँ
दो
▁जे
▁अफ
▁उपल
▁ऐ
▁कृष
स्ताव
वर्त
न्छन्
▁बनाउने
वल
▁विज्ञ
माथि
ल्या
छा
▁विद्यार्थ
म्बर
▁लागेको
▁जनता
▁आरो
▁देखिएको
▁समयमा
▁दिएका
धारण
▁५०
▁सफल
झा
दे
▁सबैभन्दा
▁विभाग
▁\n\n
▁अगाडि
▁सचिव
पनि
▁ब्या
▁शिक्षा
स्व
▁जोड
त्रा
▁भएपछि
न्दोल
▁प्रक्रिया
क्राउ
▁सक्छ
▁सम्पन्न
▁भएर
कृति
▁उपलब्
न्छ।
यी
▁पाइ
▁पढ
▁फिल्म
ट्ट
▁अस
▁गएको
ोधन
ृत
ष्ण
▁स्प
▁संख्या
▁आउने
▁घोषणा
▁नियन्त्र
तम
▁चाह
▁गोल
▁भनाइ
यम
धिका
▁त्यहाँ
▁कानु
▁प्रस्ताव
▁केन्द्रीय
▁हामीले
दर
▁तयार
▁गरिने
▁कार
मिक
▁युवा
▁पक्राउ
▁सांसद
▁अध्य
ल्ला
▁संसद
एन
काली
▁अधिक
द्दा
तले
▁न्या
▁संक्रमण
▁भएकाले
▁खोज
▁यहाँ
▁जाने
▁किस
▁पी
▁प्रकाश
लब
ंश
टल
▁रे
▁अमेरिका
▁काठमाडौँ
▁समु
▁ट्र
▁आन्दोल
▁पुर
▁गर्छ
▁थिए।
भव
▁हुनेछ
▁पि
ालिका
▁राष्ट्रपति
▁कसरी
▁छि
▁पौडेल
▁एव
▁नियन्त्रण
षा
ानो
▁प्रत्य
▁कार्यक्रममा
कृत
▁भाग
▁गरा
ेरि
मध्ये
▁२५
एस
▁अन
न्ने
थ्यो
▁उठ
▁मुद्दा
तिमा
▁उद्
▁परिवर्त
्वास
▁प्रदान
लग
▁साल
▁बैठक
▁जीवन
▁योग
▁उम्मेदवार
▁अभिय
दैन
▁होइन
ंह
▁निर
▁कार्या
▁आउ
▁करिब
स्तार
कर्ष
ल्ने
▁डे
लगायत
▁३०
▁कारो
▁बारे
▁माओवादी
▁मानिस
लाइ
▁वर्षको
▁हर
▁फा
▁चल
सम्
▁ग्र
▁प्रशा
▁बस्ने
▁छुट
▁चाल
शु
टै
-१
▁पूर्ण
▁सरकारको
▁सम्झौ
कार्य
▁१४
र्स
पटक
▁व्यवस्थापन
▁स्ट
लव
▁पैसा
नेपाल
▁१३
▁मेरो
▁लु
▁आरोप
▁फर
▁कृषि
▁बिक
▁डा.
ारि
▁आधारमा
हरुमा
▁लामो
▁स्थानमा
▁पछिल्लो
परि
▁खेला
▁प्रदर्श
▁दुवै
र्ज
▁कार्यान्व
ृह
▁फर्
▁सरकारी
म्मे
▁अध्ययन
▁विज
▁बढेको
▁मैले
▁विद्यार्थी
▁प्रश्न
▁तो
▁सम्भाव
ग्री
ल्प
पक्ष
प्रसाद
ेयर
धिवेश
▁सामान्य
िकी
▁फाइ
मिका
▁:
▁उपलब्ध
राई
▁भाइ
्नु
न्ट
िता
चाल
र्घ
▁कारोबार
कुमार
▁भो
▁यसले
सका
ैनिक
डियो
▁छन
▁खेलमा
▁कार्
▁लिएर
▁बनेको
क्रमित
▁भारतीय
▁म्या
▁सूचना
▁शर्मा
उँछन्
▁ऋ
ंगल
लामा
▁नभएको
च्छ
▁उनलाई
तो
जो
तरण
▁गुरु
▁आगामी
▁१६
▁सहभागी
▁आग्रह
▁श्री
सिक
▁संस्
▁देउ
त्री
तिर
▁प्रणाली
▁निकै
▁प्रच
▁दर्ता
▁भनेको
▁रोजग
▁त्यसैले
▁बिहान
रले
▁अन्तर्राष्ट्रिय
नुहुन्छ
न्तिम
,'
ेकी
्ना
कालीन
▁सोम
▁लिन
▁यही
▁निकाय
▁परेका
▁दाबी
▁१८
▁त्यस्तै
▁फै
▁विद्यु
ेज
वेदन
▁स्वी
▁अझै
▁प्रया
यस
रत
▁सहमति
▁चुनाव
विधा
दार
▁अन्तिम
त्वपूर्ण
▁शक्ति
▁अभियान
नाले
▁सकिन्छ
▁सन्द
▁पूरा
▁यस्तै
▁प्रतियोग
▁ज्ञ
विरुद्ध
▁पठ
▁गरिरहेको
▁जिम्मे
तबार
▁हुनु
किएको
▁सर्
ग्गा
श्चिम
▁सुधार
▁त्यसपछि
▁बाँकी
▁२४
▁हो।\n
▁परीक्षण
▁पाउने
ल्क
मारी
▁पदा
▁स्रो
▁गौ
▁सम्झौता
डान
रिद
स्क
ची
्ले
बद्ध
▁अवधि
▁जु
ते
▁बाहिर
▁कर
लले
▁निर्देशन
▁तथ
तार
सकेका
▁कायम
उँदै
ध्यम
संघ
▁व्यापार
▁देखिन्छ
▁सहज
तिहा
▁विस्तार
▁रहने
चित्र
णी
▁थाले
▁वित्त
▁नेपालले
कर्म
▁गति
▁वितरण
दू
विद्य
▁महानगर
▁नम्बर
▁जब
▁पत्रकार
▁खरिद
▁जनाको
▁मध
थे
▁अधिकार
ियन
▁भूमिका
▁चरण
राब
▁?\n
▁जस्तो
▁स्थापना
▁शुक्र
स्थिति
ढी
▁परिवर्तन
ेम
▁प्रस्तु
लेर
▁भ्रम
▁चला
श्व
र्चा
▁बारेमा
▁भण्ड
▁याद
▁विश्वास
▁खेलाडी
▁भट्ट
निर्
भू
▁एवं
▁रोग
▁हरेक
▁त्यसको
▁वृद्धि
योज
२०
ेक्
न्।
▁त्यही
साइ
▁टा
▁आफ्ना
▁बुध
ल्न
▁ध्यान
▁बैंकले
▁बलि
▁भित्र
्दा
सक्ने
▁हो,
▁बाटो
▁गर्दछ
▁सवारी
▁1
▁गठबन्ध
▁सात
▁गण
▁बजारमा
▁जग्गा
▁सुविधा
▁मलाई
▁१७
▁ई
क्षित
▁क्षम
▁प्रवेश
वास
पक
▁बिक्री
▁दी
▁जन्
ेता
र्जन
शील
▁मानव
दिन
▁यसलाई
▁अमेरिकी
▁जोख
▁देउवा
▁सकिने
▁पोखरा
चित
▁थियो।\n
▁आइतबार
ेप
▁कम्पनीले
▁अंक
▁कला
▁टि
▁२०१
र्ण
▁दाहाल
▁सेयर
▁दक्ष
▁थिएन
▁कै
एम
▁धा
विक
वर
द्धा
▁न्यू
▁सभापति
▁पर्यटक
▁स्पष्ट
▁विवाद
वान
आर
ज्य
▁यसअघि
तावरण
▁छु
नाको
▁संक्रमित
▁पुनः
▁मै
▁व्यवसायी
हेक
▁कुल
आई
▁निजी
ङ्क
▁लक्ष्य
▁२१
▁दू
▁जल
▁उहाँले
▁प्रविधि
▁टु
▁वित्तीय
▁जोखिम
▁गि
▁सोही
ुरुष
▁तुल
श्चित
▁किसान
▁होला
▁सोमबार
▁विमान
▁देखा
▁अति
ाल्
▁आँ
▁दृ
ँड
ालि
▁सोच
▁वातावरण
सम्बन्ध
ाउनु
▁आफ्नै
▁सम्भावना
▁निरन्तर
▁रहे
▁\n
▁वर्षीय
▁स्वतन्त्र
▁तत्काल
ालले
▁ग्रा
यार
▁जस
▁संक
▁प्रयास
ैँ
▁सुन
ँदैन
▁जसले
▁फुट
उनु
णि
च्चा
▁यसै
▁समुदाय
▁सीमा
सचिव
▁उनका
▁लिएको
ताका
▁भाइर
▁चलचित्र
▁बैठकमा
▁मंगल
▁पराज
▁नहुने
▁मिने
▁दर
ङको
▁सिंह
▁समाधान
▁शै
▁आई
▁नारा
▁तिनी
ेस्रो
▁गरेपछि
▁पुर्या
▁बनाएको
▁ओलीले
शि
▁यदि
▁फेरि
हन
▁हुँदैन
▁एस
▁पुरुष
ुरो
▁गरिरहेका
टको
▁बच
▁यादव
रामी
▁,
▁खाने
▁पहिले
ढा
धु
पानी
▁मुलुक
स्पर्
▁बीच
▁घण्
म्मा
ँजी
रू
जित
▁प्रचण्ड
▁थाहा
▁संघीय
▁गृह
मार्फत
▁शनि
षद्
▁मान्छ
बेला
र्जा
ङले
▁व्यक्त
▁बुधबार
भो
रीको
▁ऋण
▁०
▁बताउँछन्
धे
▁हेर्
▁शुक्रबार
▁एन
▁तेस्रो
▁झा
नाथ
▁फरक
▁नजिक
▁कार्यान्वयन
सम्बन्धी
▁जिम्मेवारी
उँछ
▁सर्वो
▁४०
लिक
▁यात्रा
लर
▁दैनिक
देश्य
▁प्रतिस्पर्
▁रू
▁तर्फ
पको
▁त्रि
▁अग्र
▁गीत
ंगा
▁बहु
म्भीर
▁भ्रमण
▁संगठ
▁सम्ब
रेल
▁क्षति
शाख
▁नियु
▁क्लब
बाही
गो
▁संयुक्त
▁सम्बन्धित
कलन
योजन
▁चाहि
▁गम्भीर
▁प्रमाण
▁मन्त्रालयले
यण
▁न्याय
▁अरु
हीबार
षण
▁विचार
भिड
▁प्राथ
▁ऊ
▁सामग्री
ैर
▁भई
ौती
ेलि
▁छ।\n\n
▁निष्
र्घट
▁ताल
योजना
▁प्रो
कृतिक
▁यस्ता
▁पर्यटन
▁बजे
▁२२
▁प्रस्तुत
▁छौं
▁ठाउँमा
▁सुझा
क्रिय
▁प्राथमिक
▁सहित
डित
ेले
्युनि
▁कार्की
▁यति
▁जस्ता
▁चित
▁गर्छन्
▁गठन
िल्लो
ीकरण
▁अधिकृत
ल्य
द्वार
यो।
लाको
▁असार
▁शेयर
▁भण्डारी
▁कम्पनीको
धिकरण
▁समाचार
▁नं
▁राई
▁सहकारी
प्ता
▁ढु
▁आमा
▁हस्ता
▁केपी
▁श्रम
▁बाट
▁पूर्वा
▁प्रदर्शन
वासी
▁कर्जा
रुप
एकी
स्त्र
▁लिने
ता,
▁घण्टा
▁संरक्षण
▁गुण
\n-
▁कमि
▁मनो
▁टिम
▁शाखा
▁जस्तै
चान
▁छैनन्
▁दक्षि
▁छोरा
ल,
कारा
दु
ेसम्म
▁दुर्घट
▁छैन।
सद्
सिया
▁२३
▁जीव
▁चै
▁हात
▁रन
लित
▁मंगलबार
▁महाधिवेश
▁अभाव
लै
▁साँ
पित
क्क
िकेट
क्टर
ाउँदै
▁औष
ीका
▁वरि
▁उपाध्यक्ष
ारमा
▁आत्म
▁संश
हल
▁सर्वोच्च
मत
अन्त
▁बिरामी
▁द्व
▁अवसर
▁नाममा
▁नियम
▁विवरण
▁ग्राह
▁दिइ
जर
▁सिर्
▁सिफ
▁विदेशी
ित्व
▁रोजगारी
दानी
ङ,
काले
▁नेपालका
▁चिक
▁डो
▁दशम
▁सम्मेल
▁छन्,
▁उद्देश्य
▁क्षेत्रको
भु
▁आदेश
▁विगत
▁बताए।
▁भर्
इन,
▁खान
▁मध्य
▁कम्युनि
▁लो
▁भद
▁विरोध
पय
▁सकेको
रिया
▁प्या
▁अर्था
▁सिर्जना
धीश
▁सुनि
न्तरिक
नो
स्थान
प्प
▁बैठकले
मे
स्थल
▁बताउनुभयो
▁प्राधिकरण
▁प्रशासन
▁चिनि
▁मना
▁हट
▁बसेको
▁सुझाव
▁आवश्यकता
▁बीमा
कृष्ट
कम्प
फो
▁शी
▁जिल्लामा
▁च्या
▁घरमा
▁निम्
▁पार्टीको
ी,
▁खुला
▁त्यसै
▁बालब
▁कारबाही
▁ब्य
▁सञ्ज
▁थिए।\n
न्तरण
▁२८
▁स्रोत
▁प्रवक्ता
▁कानुन
▁बर्ष
▁शनिबार
▁फिर्ता
▁निर्वाचनमा
▁किलो
▁सिफारि
्रै
▁२७
▁घाइ
▁अन्तर्गत
ष्टा
▁औं
▁बिहीबार
▁सम्मान
योजक
▁माथि
▁प्रकार
▁प्रतिनिधिसभा
ेश्व
▁थालेको
▁तथ्या
▁विधे
▁लगायतका
▁गाडी
संग
याधीश
▁आन्दोलन
▁कोष
▁नदि
▁गुमा
▁होइन,
▁आन्तरिक
▁निर्देशक
▁आम
▁अन्त्य
▁हिमा
▁हेर
▁शान्ति
▁संरचना
▁विप
▁शुरु
▁बोर्ड
डिया
कारात्मक
▁केसी
वे
▁गराउने
इरा
▁खेत
▁अहिलेसम्म
▁राख्ने
▁लाग्ने
▁पूर्वाधार
▁दशमलव
जेन्
खु
▁समर्थ
▁कमा
▁पुष्टि
▁स्त
फाइ
ङमा
▁समावेश
▁चिकित्
▁पर्छ
▁भौ
▁२६
इँ
▁सक्रिय
▁असर
▁दर्श
▁भट्टराई
▁समितिले
▁वस्तु
▁यसमा
▁उमेर
▁जेठ
▁देशको
▁घा
▁वर्षमा
▁पुग्ने
▁तिम
▁एक्
रीले
▁अस्पतालमा
ंका
▁कतिपय
▁खड्
िनी
यता
▁चुन
▁एम
स्ती
ेटि
अन्तर्
▁रोक्
टेड
सरमा
▁।'
▁टे
▁बालबालिका
▁विकेट
▁महत्वपूर्ण
पान
▁भिडियो
▁घु
मेन्ट
▁प्रशि
▁कहिले
तियार
न्,
▁बैंकको
▁प्रेम
▁पराजित
▁पुरा
▁धार
सँगको
▁आश
▁साउन
▁आउन
▁भ्र
▁पुगेका
▁घाइते
▁धन
▁भाषा
▁भइसकेको
▁क्षमता
▁थिइन्
वाफ
▁नदी
▁दक्षिण
▁अन्तर
▁भुक्ता
लग्न
▁सम्बोधन
▁६०
▁त्यति
र्भ
▁बन्न
▁गुना
▁फाग
▁वन
रान
▁मिल्
किङ
▁निर्वाचित
▁बताए।\n
▁राख्न
▁आठ
▁लागू
▁लाइ
िमि
मा,
▁मन्द
चार्य
▁कले
▁प्रतिस्पर्धा
▁प्रभावित
उनले
पोर्ट
सू
▁शरी
▁!
▁हुन्छ।
गी
▁बराब
पूर्व
▁फर्कि
▁दिनमा
▁चौध
▁जनताको
▁लिग
▁कृष्ण
दाता
▁थाल
▁पाएको
▁मतदान
▁पार्टीका
▁वर्षा
ष्य
्यास
▁परिण
▁2
ध्या
▁संसद्
▁शीर्ष
▁प्रत्येक
▁समन्व
▁सम्पूर्ण
जोर
▁हत्या
▁अनुमति
▁समाजवादी
▁खोप
▁सन्त
शन
कर्मी
▁राजनीति
▁बाध्य
▁बनाएर
▁कोभिड
▁उत्कृष्ट
▁ज्यान
▁यसरी
▁आफूलाई
तः
▁आक्रमण
देशिक
द्वारा
▁वैशाख
▁पेश
▁माध्यम
ल्दै
▁पाल
ब्द
▁पहिचान
काम
▁मान्छे
▁बढा
▁शाह
हत
डो
▁धर्म
▁जवाफ
▁संलग्न
▁उत्तर
▁अघ
ाइएको
▁सच
▁गराउन
रूप
न्ज
..
▁क्रिकेट
▁आफूले
▁अपरा
▁आकर्ष
▁चर्चा
▁चीन
विद्यालय
▁राखिएको
द्द
▁अर्थतन्त्र
▁पोखरेल
रीमा
▁हरा
▁हुनुपर्ने
▁बच्चा
लाइन
▁विश्वक
▁राखेर
▁२०८
रिक
ानि
▁समन्वय
▁राजधान
स,
▁कथा
▁भी
▁महासंघ
▁आम्
▁सानो
▁ट्रा
▁संयोजक
बाइ
▁समितिको
अन्तर्गत
▁पक्षमा
▁मुख्यमन्त्री
हरूका
▁लाई
ित्त
▁अनुभव
▁नव
▁देव
▁सञ्जाल
▁भुक्तानी
▁प्रभावकारी
▁अख
▁बद
छन्।
ण्डकी
▁वास्त
▁२९
▁गुनासो
स्कार
▁लै
▁श्रेष्ठले
न्दु
नुहोस्
▁कोइरा
▁आप
▁वीर
त्यका
वसाय
हरण
▁नसकेको
▁माघ
▁बन्ने
▁पौडेलले
ेलु
▁वर्ग
▁गर्नुपर्छ
▁कार्यकारी
▁सश
▁याता
▁आम्दानी
▁पृ
फ्
▁इतिहा
कुल
नू
▁वे
हे
▁भवन
क्षेप
▁आयात
▁आयोगले
गमन
▁तामा
जको
▁विरा
▁गैर
▁कमजोर
▁सुरक्षित
लेका
▁कप
▁सजि
लाले
▁तपाईंको
▁संशोधन
▁पाठ
▁हरि
▁क्षेत्रका
▁कस्तो
',
▁बताइएको
▁सहकार्य
▁जन्म
▁भदौ
▁खबर
पद
▁सत्ता
▁अवधिमा
▁राति
रीय
दल
सै
▁भाव
▁देशमा
सव
▁गर्ने,
▁दिइएको
▁पे
णिज्य
कड
▁महत्
▁अदालत
▁योगदान
▁३५
▁उपत्यका
▁राखेको
▁मिला
चालन
▁२०२
▁पुष्
सिर
ज्ञा
▁उदा
▁सञ्चालनमा
▁एकै
▁गरेकी
▁पाण्ड
दम
▁महामारी
▁महानगरपालिका
▁कार्यकर्ता
▁आदि
▁सकेन
▁संस्कृति
▁चुनौती
▁तिन
वाल
न्त्रिक
िपरि
थो
▁अल
▁नियमित
▁साह
▁हालसम्म
ंसा
▁बनाइ
▁प्रतिष्ठ
▁जति
▁ठा
मार्ग
▁गुणस्त
▁कमिटी
▁संसदीय
▁उनीहरूको
▁परीक्षा
र्ब
▁साथी
ेसन
▁चिन्
जमा
द्र
००
टाइ
▁पर्व
?\n
सिल
▁प्रत्यक्ष
धानिक
▁फे
▁पीडित
नेछ
विधिक
▁बर्
▁गर्द
बाटै
▁साइ
▁पुस्त
िएका
प्रधान
▁विद्युत
सलाई
्रे
’\n\n
साथ
▁थापाले
▁तर्फबाट
▁केहि
▁अधिकांश
▁बलियो
▁स्थिति
क्षर
▁फागुन
▁व्यवहार
पश्चिम
▁मं
▁ठूला
▁त्यसलाई
▁ल्याएको
▁गर्नुहोस्
▁जोडि
चारिक
पूर्ति
सित
लाल
▁सुना
डे
पर्ने
▁कांग्रेसका
▁३१
▁वरिष्ठ
▁शब्द
▁वार्ष
▁प्रतिवेदन
▁इन्टर
वटा
▁सम्पत्ति
▁इज
▁अत्य
▁भवि
▁विकल्प
▁प्रतियोगि
▁शुभ
▁तत्कालीन
▁एका
▁अवसरमा
▁दिव
▁अनुमान
▁ऐन
▁कठ
▁सहा
क्य
▁भनिएको
▁थियो,
त्रु
मन
कलाई
▁मन्त्रिपरि
▁युद्ध
ल्लाह
▁गौतम
▁उनीहरु
ष्टाचार
टे
▁ब्रा
कर
▁उडान
▁ल्याउन
▁प्रकाशित
▁विश्वविद्यालय
चक
▁धारणा
▁पठा
▁भारतको
तान्त्रिक
▁चो
टनगर
▁हुन्।
▁यसका
▁चैत
्ला
सिय
▁गतिविधि
▁महसु
मको
▁सँग
▁सञ्चार
▁संकलन
भी
बाहेक
▁मैदान
घु
▁कसै
▁अपे
▁अरू
कुद
▁नपा
पमा
▁प्राविधिक
▁नौ
▁उपभो
▁कर्णाली
ताले
▁गरिएका
▁बोला
▁भन्छन्
▁रंग
▁कक्षा
▁अस्
▁सिफारिस
▁हुन्छन्
▁विवाह
▁प्रतिबद्ध
▁बनेका
▁औषधि
▁उनीहरूले
▁उद्ध
▁कम्
▁जानु
▁अर्का
रीक्षक
▁भविष्य
▁विरुद्ध
साधारण
▁कलाकार
मती
▁तरि
▁लागी
▁होटल
मात्र
▁यातायात
▁चिनियाँ
▁साता
▁सरकारलाई
▁परियोजना
▁सङ्घ
ेदेखि
बन्द
▁दबा
▁उपम
▁फु
▁कानू
▁जम्मा
▁फर्क
▁रोक
▁खेलकुद
▁सहर
ल्ड
▁असो
▁बह
▁ढि
▁बल
गि
ल्ट
▁भौतिक
▁गरिन्छ
▁प्रजा
▁बढ्ने
▁राजा
▁पदाधिका
लिएको
म्परा
जिम
▁मिटर
▁आवा
▁शेर
न्तु
▁सम्भव
लीमा
▁टोलीले
एक
▁पुँजी
▁विधेयक
हित्य
ृत्ति
▁छान
एफ
▁आचार्य
ममा
सल
▁पेट
▁सामु
नीय
▁की
▁कट
▁रण
▁शिक्षक
▁पश्चिम
ारो
▁बढ्दै
▁पदार्थ
▁भक्त
गु
▁विनि
▁मौसम
▁नेतृत्वको
▁पारित
▁त्यस्तो
▁प्रतिशतले
तीमा
▁चरणमा
तिकै
▁गठबन्धन
▁कार्यालयले
▁खण्ड
▁देशका
)\n
▁अघिल्लो
▁समितिका
किस्ता
▁शुल्क
▁मार्फत
▁पाउ
▁नो
▁पारि
▁कवि
बिन
क्का
▁पाएका
),
▁सम्पर्
▁गर्नुभएको
▁बढाउन
▁समान
ीकृत
▁शहर
▁उसले
ज्ञान
▁सरो
कोट
▁वाणिज्य
▁कुन
▁डु
▁पुष्प
ारम्भ
▁हामीलाई
ण्डा
▁पर्या
खो
▁पहा
▁ब्याज
▁सेना
▁नसक्ने
दय
डमा
▁नियन्त्रणमा
▁ब्र
िकल
▁परम्परा
साब
लत
▁जहाँ
यो,
▁भएन
▁मान्य
▁।\nअ
▁काग
▁साधारण
▁आयोजित
मोजिम
ःख
▁चिकित्सक
ज्
▁गरे।
▁केवल
▁भन्न
लोक
िमिर
▁सचेत
▁राजी
ारु
▁परिणाम
▁साँझ
▁लगाउने
ए।
▁डलर
▁ल्याउने
तै
▁प्रदेशका
▁बताउँदै
दन
न्दर
▁लाभ
▁मोटर
े,
▁छाड
ला,
▁बताएको
▁सध
▁माइ
▁दाय
▁उनीहरू
मिटर
▁सकारात्मक
यल
ृद्ध
▁प्रदेशमा
लाका
▁नप
▁दिँदै
▁सम्बन्धी
▁त्यसमा
▁वार्षिक
▁चितवन
▁कारणले
म्बिनी
▁लाग्छ
बो
▁मात्रा
▁एकता
▁भ्रष्टाचार
री,
▁भै
न्थ्यो
▁न्यून
▁सालमा
पदण्ड
▁अर्थात्
▁आँखा
▁७०
▁सचिवालय
▁विराटनगर
▁खन
▁विद्युत्
नगर
▁विज्ञप्
ाउँदा
▁भूमि
सम्मको
▁प्रतियोगिता
▁छौँ
द्यपि
पुरमा
आफ
ेदार
हरा
हरू,
▁युव
▁यू
▁नियुक्त
एल
▁हुन्।\n
लीको
▁अनुदान
▁मध्ये
▁गएका
▁दिउँ
▁ऊर्जा
▁कार्यालयमा
ुट्
▁साहित्य
▁मापदण्ड
▁लगानीकर्ता
▁फेला
▁संसार
▁दलका
▁ललित
▁नेतृत्वमा
▁भूकम्प
शुल्क
▁साना
▁कालो
▁गर्नेछ
▁अपेक्षा
▁वार्ता
ेश्वर
नेर
▁स्थापित
▁सक्दैन
▁उपभोक्ता
मूल
▁ज्ञान
यमा
▁जम
▁पुनर्
▁आशा
व्र
द्रा
जस्ता
▁पुरस्कार
▁छुट्
▁३२
▁दुःख
ालको
▁उदाहरण
▁खाना
▁स्थायी
्यू
नाई
पचारिक
सीसी
▁बन्
▁८०
▁भे
▁मेड
ुक
▁निश्चित
यौं
▁कसैले
म्बा
पत
▁सहभागिता
▁आजको
▁मन्त्रालयका
ाउँछ
तह
-२
आइ
▁अधिकारीले
▁सिद्धा
▁पहु
▁राजस्व
िमिटेड
▁नर
जाइ
▁असोज
▁एमालेका
श्
▁उपयोग
▁अर्थमन्त्री
▁सल्लाह
दूर
ेन्स
▁गलत
वाई
▁जसमा
▁भनेका
▁राहत
श्र
▁मिनेटमा
▁उपस्थिति
▁अध्या
तालाई
जे
▁तहमा
▁आर
▁मधेस
▁दृष्टि
नेको
▁कोही
▁जनालाई
घाटन
▁चन्द्र
▁प्रचार
▁बनाउ
▁गण्डकी
▁२००
्वी
▁एउटै
▁दिउँसो
▁तालिम
▁पारेको
▁पहल
▁विधि
▁विजयी
▁लिमिटेड
▁नम
▁घिमिर
▁उपकरण
▁प्रदेशसभा
▁युरो
▁फुटबल
▁लुम्बिनी
▁लिएका
ालो
प्रधानमन्त्री
ढे
▁काममा
▁सञ्चालक
होर
▁बढि
▁सामान
▁अक्
हाम
न्टर
▁नाका
▁तुलनामा
शक्ति
▁मोबाइ
▁महाधिवेशन
न्थ
लन
▁नारायण
▁सम्बन्धमा
▁'अ
वधान
▁पहुँच
▁२०६
▁आवेद
बे
▁दुर्घटना
▁महसुस
▁टिक
नीति
▁पुस
▁ग्राहक
;\n-
र्सि
▁उनीहरुले
वैधानिक
▁सर्वसाधारण
▁नभए
▁कानुनी
▁एयर
▁अनलाइन
▁शिव
धुनिक
▁अहिलेको
▁क्रिया
▁आए
हरूसँग
▁उम्मेदवारी
▁छिन्
कूल
▁प्रहार
▁पुल
▁बैं
▁नगद
▁धु
▁भाइरस
▁पहिरो
▁थपि
▁तेल
▁वैदेशिक
▁एकीकृत
▁लकड
▁दबाब
▁४५
पुग
टु
धव
▁वर्त
▁पाकिस्ता
▁महो
▁व्यक्तिगत
▁व्यावसाय
▁खर्ब
सला
▁गराएको
▁सन्दर्भ
▁जापान
▁दिएर
ँडा
▁तथ्यांक
▁मज
▁यात्रु
▁बढाउने
▁हुनुपर्छ
▁युनि
▁कलेज
▁प्रवाह
▁स्या
▁चयन
▁विज्ञान
हीन
नीतिक
▁अदालतले
कुर
▁बोक
▁ट्या
▁मार्ग
▁सही
ित्ता
▁लगाएको
▁नाफा
तक
ग्रा
क्रो
र्मिक
▁निर्धारण
ानु
▁किसिम
▁छनोट
▁खोजी
क्षिक
▁जनक
र,
▁बताइन्
फिक
मिछा
ल्यान्ड
▁बढ्न
▁कुमार
▁कोठा
ल्यै
देव
▁कडा
पुरको
▁मिडिया
बीचको
▁समर्थन
▁साझ
▁सभामुख
सामा
▁मंसिर
समिति
▁झापा
जुरी
▁आलो
▁जिल्लाको
▁मन्त्रिपरिषद्
▁बढ्
▁आफु
▁बेच
▁लड
▁आफैं
▁छोड
क,
ेली
▁राजीनामा
▁सपना
▁तहको
▁पुरानो
▁नस
▁गर्नका
▁ढकाल
खेत
न्छु
▁लागेका
▁भनी
▁मेयर
▁सुन्दर
▁दलको
▁सिका
▁एजेन्
▁महिनामा
▁हुन्छ,
▁हाइ
▁सन्देश
▁प्रतिष्ठान
औं
काठमाड
▁केन्द्रित
▁छोरी
▁इन्टरने
▁मिति
हानगर
फी
▁यद्यपि
ँग्रेस
▁नति
▁लामिछा
▁दिनुभयो
प्रिय
▁देशभर
▁हेर्न
व्या
▁अपराध
▁गी
ङ्गा
▁महत्त्वपूर्ण
▁भरत
▁राजधानी
▁किलोमिटर
पथ
▁संगठन
▁साधन
▁जग
क्ट
▁प्रारम्भ
खर
▁शव
▁हिसाब
▁प्राय
▁प्रतिक्रिया
▁गर्नुभयो
▁तीव्र
भिजन
▁विभागले
▁न्यायाधीश
ङका
▁खेती
नुपर्छ।
▁जाँदा
▁सजा
▁रहेछ
▁कांग्रेसले
▁लगाउन
कला
ियम
चन्द्र
न्छ,
▁स्वदेश
शो
▁साउ
▁सै
▁फोन
▁स्थित
मेल
▁लघु
▁भन्सार
▁आधारित
▁वर्तमान
भने
▁काठमाडौं,
▁छैन,
▁नभई
▁नगर्ने
रे
पे
▁शैक्षिक
वाला
▁कहाँ
▁खुसी
▁प्रदेशको
दारी
▁३३
▁फाइदा
▁अनुगमन
▁हासिल
▁पाउन
पक्षी
▁काँग्रेस
▁पार्टीले
▁विश्ले
▁जरु
▁भएपनि
▁फल
दायिक
▁हेर्दा
लगायतका
प्रमुख
गञ्ज
▁घटेको
▁परिस्थिति
▁पर्याप्त
▁है
▁जरुरी
▁समग्र
▁दोहो
▁सत्य
▁अवि
▁हुनुहुन्छ
¥या
लका
▁मतदाता
▁शेरबहादुर
▁उद्घाटन
तिको
▁रिपोर्ट
▁चासो
▁बसेर
▁पछा
स्कृतिक
▁प्रतिबद्धता
हण
▁शाही
▁अंग
जस्तो
▁सरोकार
▁बाबु
▁प्ले
▁निः
▁चुना
▁थालेका
परेको
▁स्म
▁बराबरको
त्सव
▁सीमित
रामा
▁धार्मिक
▁क्याम्प
▁प्रेस
▁शर्माले
हरुका
▁अधिवेश
विद्यु
्मी
कमल
ितो
व्यक्ति
चर
▁उपयुक्त
▁मल्
▁सौ
▁कदम
▁नहुँदा
▁धान
▁माधव
▁हस्ताक्षर
▁सुदूर
फि
-१९
▁जुट
▁उनीहरुको
▁भारतमा
▁खानेपानी
सकेपछि
▁तरकारी
डर
▁हिमाल
▁राख्
▁व्यवस्थाप
▁पास
भे
सहितको
ोका
▁चित्र
▁मन्दिर
स्टर
00
▁जिल्लाका
▁पदाधिकारी
▁जनाएका
▁महासचिव
प्रतिनिधि
माव
▁पूजा
▁अख्
▁७५
दीको
सिंह
▁निर्माणको
▁भर्ना
त्ती
▁दिनको
लादेश
वाइ
▁भाडा
▁प्रहरीको
मले
▁विभा
▁लोकतान्त्रिक
▁निगम
▁सबैलाई
ियर
▁सडकमा
▁राखेका
▁बुट
▁नब
▁सिट
ीया
▁अपना
भारत
चन
घाट
त्तै
्रु
▁९०
र्का
▁देखिएका
▁बाहेक
▁गएर
▁सशस्त्र
टिङ
▁गरिसकेको
▁ट्रम्प
▁विमानस्थल
▁।’\n\n
हुँ
▁फोटो
वार्य
▁माया
▁बंग
वाट
▁तोकिएको
क्रा
▁नाय
भरि
ट्टा
देवी
▁जहा
म्बु
नय
निर्माण
वनी
▁पार्ने
किलो
स्वा
गढी
त्तिक
िने
▁नतिजा
▁डाक्टर
▁व्यावसायिक
हिल्यै
संख्या
ल्याण्ड
▁पुग्न
▁अनिवार्य
▁लोकतन्त्र
▁जोग
▁प्रग
▁गर्यो
▁छानबिन
▁जाँच
▁कार्यरत
▁अनुरोध
▁डी
▁दिनु
ुपयोग
▁प्राकृतिक
▁मद्द
▁निर्यात
▁तपाइँ
▁आवेदन
▁पुष्पकमल
ट्या
▁गरिदि
▁सूच
▁वास्तविक
▁गए
▁यथा
त्न
सीको
▁ढा
ीलाई
सङ्
वार्ड
▁डिजि
लम्ब
▁मेडिकल
भाइ
▁मोर
▁उठा
▁उद्धार
▁मर्म
सक्दा
▁हस्तान्तरण
▁काठमा
▁उपाधि
▁सोध
हारी
▁अभिने
▁सार
▁9
कट
▁ज्ञा
▁हिँड
▁उपस्थित
▁इच्छ
कानी
ंगो
▁बार
▁संकेत
▁भर
▁अभ्यास
▁सामुदायिक
मेश
▁आवाज
▁चुनावी
▁हाम्रा
त्सा
▁सम्पर्क
स्ट्र
त्कार
▁पृथ
▁तस्
▁उसको
▁उजुरी
▁लामिछाने
▁खड्का
▁प्रसार
▁थुप
▁भोलि
▁काठमाडौंमा
त,
▁३६
▁भयो।
मिला
▁हित
▁महत्व
▁संघर्ष
▁मोड
▁पुर्
▁सक्छ।
▁कार्यान्वय
▁बनाएका
▁रक्षा
▁नगरी
▁सक्छन्
पण
▁त्यसका
▁आपूर्ति
▁संवैधानिक
▁भत्
▁सुनिश्चित
▁पालिका
▁आयोज
वाही
प्रपा
▁क्रा
▁व्यक्तिको
▁जनताले
▁(ए
▁कात्तिक
▁वर्षदेखि
क्षम
▁जनसंख्या
▁गोर
▁मान्यता
▁रमा
शाखा
चौ
ेमा
खेल
छु
▁मोबाइल
▁बस्न
▁एन्
▁।\nउ
▁दुर्
स्की
▁उपमहानगर
▁साझा
▁पुगेर
▁सुरुवा
▁कल
▁छिटो
प्रा
▁सुख
▁एमालेले
▁सुदूरपश्चिम
भूत
नन्
▁कम्युनिष्ट
▁सबैको
न्दे
▁रोजगार
▁चेता
सरकार
▁तर्क
▁कार्यालयका
▁किनभने
▁औपचारिक
▁हिजो
▁।\nत्य
ज्ञानिक
▁भनाई
▁कम्युनिस्ट
▁उहाँको
ष्णु
रोह
▁खटि
द्व
▁अत्या
▁नआ
प्पणी
▁दुख
▁केन्द्रका
▁परिषद्
▁भारतले
▁जनाले
▁खारे
▁स्वीकार
▁शो
▁गल्
▁उचित
▁सूर्य
▁थिएँ
▁दोष
छो
▁चालु
▁बिना
▁चे
▁५५
▁जनामा
▁लगातार
▁चेतावनी
▁अदालतमा
▁बेलायत
▁फेस
▁बुझा
▁यौ
▁वर्षीया
तिहासिक
▁नियुक्ति
▁साढे
नल
▁छन्।\n\n
सीले
▁कैला
रीका
▁हिंसा
▁अख्तियार
▁अग
नलाई
▁अम
▁।\nयस
▁हुनेछ।
▁बैंकका
▁सरकारका
▁सजिलो
▁प्राथमिकता
तरा
शाली
विध
▁निम्ति
न्तव्य
क्रममा
▁जलविद्यु
▁नम्ब
▁नभएका
▁उत्प
▁त्यसले
▁घरेलु
▁समेट
▁सिद्धान्त
▁प्रतिवेद
▁भावना
▁तथ्य
किने
▁चिन्ता
▁मेस
▁झन्
▁खेल्ने
▁छिम
▁आएर
कारि
▁आह
▁कुरामा
▁निर्माणका
in
▁डिजाइ
▁जाग
नियर
ईं
▁रोक्न
▁पाए
▁पाइएको
ेलिया
▁पदमा
▁टेलि
▁प्रकृति
▁नागरिकता
▁अधि
▁आधुनिक
▁नं.
▁फ्रा
मार्ट
▁काउ
द्योग
श्वर
जनक
▁कमी
▁विजय
▁गराएका
▁मिनेट
पूर्वक
▁जनाइएको
▁पार्न
▁प्ला
▁बीचमा
▁मानसिक
▁होस्
▁कुराकानी
▁पछाडि
▁मुलुकको
स्वपा
▁गतेसम्म
▁सूची
▁त्यसो
▁निस्
डिङ
▁रू.
▁पुस्ता
▁“
▁स्थग
▁दलित
▁मोटरसाइ
भग
▁शरीर
▁बमोजिम
लक
नीले
▁विघ
चु
▁भग
तका
तया
▁३४
▁गुरुङ
▁त्यसैगरी
्यो।
▁केन्द्रमा
▁अत्यन्त
▁बसेका
▁निकट
▁संगीत
▁दौ
▁लाग्
▁डिजिटल
▁कहिल्यै
▁कामदार
▁आधा
▁नेपाललाई
ौला
शासन
टिल
▁हार
सेवा
▁अने
▁प्रतियोगितामा
▁लकडाउन
▁हेर्ने
▁उपचारका
्लो
▁मेगा
▁स्वय
▁बन्दै
▁आलोचना
▁खि
▁ज्या
▁भन्नुभयो
▁कोरिया
▁बहादुर
▁।\n\n‘
▁पु¥या
▁कप्ता
▁सबैले
▁दुर
▁विकासका
▁क्रान्ति
र्ति
गण
▁मल
▁जमिन
▁देउवाले
उँदा
▁चलि
▁हुन्थ्यो
▁टी
▁च्याम्प
ाल,
▁लगाएर
मला
▁टिप्पणी
▁ऐतिहासिक
▁चर्च
ुरू
▁निःशुल्क
बन्दी
▁स्वागत
▁धारा
▁सन्दर्भमा
▁तपाईंले
▁अर्य
▁प्रतिबन्ध
▁हक
▁तराई
▁प्रगति
▁प्रतिनि
परी
फर
▁सङ्ख्या
▁एक्स
▁सुनु
▁हुँ
▁बालुवा
▁कित्ता
ारायण
स्को
लाम
▁।\nम
▁मसा
टीमा
▁चौथो
राख
▁उत्सा
▁ओभ
▁भेला
▁राजमार्ग
▁मूल्या
शुप
▁दिनुपर्ने
सपा
ंकन
▁माथ
▁मद्दत
▁मैदानमा
▁मुलुकमा
▁शासन
न्धु
र्को
▁विजेता
▁पाइन्छ
राको
क्कै
▁दिला
▁आएपछि
▁यता
्रोल
रुपमा
ोरै
▁पेस
ौं,
▁योग्य
ेलिक
▁बिदा
नीको
्वान
वार्ता
▁उनीहरूलाई
▁६५
▁प्रवृत्ति
हिरो
-०
▁बनाइएको
▁तोक
▁दशक
चो
▁रवि
यन्त्र
ौं।
▁पुस्तक
ाउनुपर्ने
▁भव
व्यापी
▁प्रायः
टाले
▁द्वारा
▁विश्वकप
▁मधेश
▁माध्यमबाट
▁सफलता
▁सिक्
▁शे
▁चढ
▁सुर्
▁गर्नुहु
▁प्रशिक्षण
▁बहस
गमती
श्चा
▁परिचालन
▁महाशाखा
▁गतेदेखि
▁'म
▁३७
कारण
▁सांस्कृतिक
हामी
▁निरन्तरता
▁कार्ड
▁लोकप्रिय
▁त्यस्ता
लिया
ेक्का
▁मन्त्रालयको
▁३८
▁राउ
▁गरियो
आज
▁सम्मेलन
इरहेको
▁बाढी
▁ब्
▁मगर
▁भण्डारीले
▁यादवले
षद
▁महिलाको
जन्य
▁आधिका
▁आह्वान
प्से
टीको
▁जसको
▁प्रावधान
▁ढंग
▁कांग्रेसको
▁लगाएका
▁तल
▁२०७४
▁।\nय
▁राप्रपा
▁प्रबन्ध
▁सेत
▁लेखा
▁नरहेको
▁फैसला
▁सदर
लीले
▁संवाद
मय
माको
▁संस्थाले
वडा
▁देखाएको
▁अग्रता
▁काठमाडौं-
▁व्यवस्थित
ीक
▁छिमेकी
द्र्
वट
▁सर्वा
▁विधान
▁बाहिरि
▁ठेक्का
्याम
ह्रो
थम
▁जनप्रतिनिधि
▁बचत
▁मिलेर
▁लघुव
▁बला
▁थोरै
▁धितो
▁इट
▁अन्
निया
▁दीर्घ
▁बैंकिङ
▁बुझ्न
▁४२
▁ट्राफिक
▁सफा
▁गर्दछ।
▁लक्षित
▁श्रीमती
▁राजदू
ूट
नलमा
रेको
षे
▁विद्यालयमा
▁गरिरह
▁गाँ
नित
▁ठु
▁जनशक्ति
▁आफन्त
▁विनियोजन
न्सर
▁पशुप
तु
▁सजाय
बारी
▁कम्तीमा
▁समी
▁न्यु
जस्तै
यान
▁मुद्रा
▁युरोप
▁विश्लेषण
कृष्ण
▁विविध
▁बग
े।
▁कार्यक्रमको
▁नजिकै
▁खेलको
▁।\nनेपाल
्रिक
ल्का
▁बुद्ध
▁एवम्
▁निष्कर्ष
▁फूल
▁माछा
वर्ष
▁भएकोले
ना,
▁नवी
▁राज्यको
▁गराइ
er
▁विश्वा
▁सेन्टर
▁दुबै
▁चालक
▁जेल
▁अभिव्यक्ति
िल
सेको
▁बढेर
▁आउँछ
रुवा
▁घो
▁संस्थाको
▁न्यौ
▁आकार
▁सहायक
▁सरकारमा
▁बाह
▁लगभग
▁मेला
▁सैनिक
र्नु
दृ
▁द्वन्द
▁तिनीहरू
रिक्त
▁ठो
▁चुनावमा
▁मेल
▁जहाज
▁कतै
लिन
▁आय
▁समाजमा
▁असन्तु
▁सामना
▁समयदेखि
▁गरे।\n
▁अभिभाव
▁मिश्र
▁भ्या
▁उत्पन्न
▁खाद्य
▁क्वार
▁दिल्
▁अवार्ड
▁शू
▁रेल
र्द
▁नगरेको
स्थलमा
जान
▁देखिने
भित्रै
▁हप्ता
▁सापको
▁यसैगरी
▁।\n\nअ
▁अभिनय
क्षेत्र
▁समृद्धि
▁बाले
▁कपडा
▁निरा
▁समूहले
▁बलमा
▁इजला
▁संस्थागत
▁पत्ता
▁टाढा
▁जिम्मा
न्यायाधीश
धनको
▁न्यौपा
▁गृहमन्त्री
▁आफै
▁सम्पाद
▁गाउँमा
▁हवाई
▁दाहालले
र्चु
राइ
पुरका
न्देही
▁टिकट
आफ्न
निर्वाच
जाने
▁महिनाको
▁चिया
▁लिए
▁राणा
▁अतिरिक्त
▁पहिला
▁झु
▁लाइन
श्रम
ेशन
▁उपाय
▁प्रचण्डले
▁तहका
'को
▁टाइ
▁निषे
▁कन्
▁उपमहानगरपालिका
▁काट
ियाँ
▁सक्नुहु
बास
▁चीनको
▁त्यस्तै,
ेदारी
▁आधिकारिक
▁राख्नु
सुकै
▁सब
▁बिजु
गोल
▁थुप्रै
▁बढ्दो
▁थिए,
▁बंगलादेश
▁मसान्त
▁स्थगित
▁खारेज
▁संघका
▁ओलीको
▁बोल्दै
ेलले
▁गुरुङले
ञ्चन
▁गणेश
▁विकासको
▁बढाएको
याम
▁दिए।\n
टव
▁तनाव
▁गाह्रो
नाका
ंकर
▁अवरोध
▁कोइराला
ली,
▁अनुहार
▁छै
▁लाभा
▁प्रशास
▁भट्टराईले
वत
▁सकिएको
▁पहाडी
▁फेसबु
▁कार्कीले
भुवन
लाग
पात
▁परराष्ट्र
▁इतिहास
▁हिसाबले
▁रेक
एसपी
्याल
कुमारी
ठी
▁प्रकरण
नन्द
▁प्रसारण
▁लागि,
▁प्रारम्भिक
▁उभि
ण्डै
्म
▁उत्र
▁व्यक्तिलाई
वहार
▁निर्माणमा
बजार
▁गणतन्त्र
▁किनकि
▁पञ्च
▁गोली
वक्ता
▁पीडा
▁जटिल
▁थालेपछि
▁सेट
पत्रमा
▁लागत
▁आयोजनाको
▁प्रकारको
▁रिय
▁दर्जन
▁व्यापक
▁मोटरसाइकल
नुपा
प्ले
▁तु
▁४१
▁वर्षअघि
शाला
▁५१
▁दायित्व
▁महोत्सव
▁सम्मेलनमा
▁समारोह
▁संकट
▁समयमै
▁नगरपालिकाले
▁दिए।
▁४८
▁मुस्
छ,
▁तिमी
कोण
▁म्यान
▁अप्र
▁पशु
▁होट
र्ती
▁क्षेत्रलाई
▁राजनीतिमा
▁श्रमिक
▁जर्म
▁समूहको
▁तपाईंलाई
ठो
विश
▁संविधानको
▁हेट
▁द्वन्द्व
नुपातिक
▁निस्क
▁इरान
स्वास्थ्य
▁प्रतिनिध
▁भोट
▁रातो
▁तलब
▁३९
▁प्रकारका
▁बौ
▁उद्देश्यले
▁जनकपुर
दीप
▁उनीहरुलाई
▁क्षेत्रीय
▁रुपियाँ
▁निधन
▁सत्त
▁सुनको
जसो
▁वर्षका
▁गुणस्तर
डको
▁औँ
ने,
भाविक
▁सँगै
▁हस्त
चय
▁ते
▁समीक्षा
▁व्यक्तिले
▁गोरखा
▁रनको
▁बागमती
माओवादी
▁प्रोत्सा
▁पठाएको
सिन्दा
▁रणनीति
▁भएकी
कामना
घर
ेखा
▁भएमा
▁कानून
रामर्श
▁पर्न
▁२०५
▁भने।\n
▁विष्णु
▁चाँड
▁व्यापारी
काे
▁क्रि
▁?\\n
▁चौधरी
▁सिन्धु
्वि
▁असफल
▁पोखरेलले
▁यौन
▁प्रसाद
▁पसल
▁जितेको
▁तरिका
▁जनतालाई
▁निवेदन
▁नगरपालिका-
▁४४
▁प्रतिनिधित्व
▁राजेन्द्र
तिका
ियत
▁फोहोर
▁४३
टामा
▁पक्षले
वृद्धि
▁औद्योग
▁झण्डै
▁रक्त
▁रौ
▁पानीको
▁भीम
▁कठिन
▁बहि
▁निक्षेप
▁छ,'
▁एसिया
▁विद्युतीय
▁सङ्क्रमण
▁एल
काठमाडौं
स्तरीय
लोकन
▁संक्रमितको
▁आगो
▁सक्षम
मुकाम
कर्षण
▁हालै
▁निर्मा
▁एकल
▁ध्या
▁खाता
▁शून्य
▁वायु
▁निको
▁एमालेको
▁स्वीकृति
▁प्रशिक्षक
▁देख्न
नाम
▁आधारभूत
▁भन्छन्,
▁बाग
▁मुद्दामा
▁विक्र
▁प्रिम
किन
हरुसँग
▁दुर्घटनामा
संस्था
▁3
यौँ
छ।\n
▁।\n'
▁भित्
▁श्रेष्ठ,
▁विभागका
▁क्य
▁सुर्खेत
▁त्रिभुवन
चाइ
▁भइरहेका
▁समितिमा
▁स्वार्थ
▁सुरू
▁रिज
▁अलि
▁वृ
▁'\n
▁मले
▁पूँजी
▁लागु
▁परामर्श
▁राख्दै
ल्पना
जात
▁थु
▁पालना
▁खोजि
▁छैन।\n
▁नगरपालिकाका
▁पर्ख
▁समानुपातिक
▁अधिवेशन
▁सहयोगमा
ट,
▁०७
▁आयोगको
▁२०७५
▁साझेदारी
▁जडान
▁सुनस
▁डिजाइन
▁विकासमा
▁अवै
▁कप्तान
▁नागरिकको
▁संस्करण
▁निर्वाचनको
ाउको
▁रहेकाले
▁बुटवल
▁१००
▁बाँड
गढ
▁सक्नुहुन्छ
वमा
गन
▁बनाए
गन्ज
टार
▁नेप्से
▁सङ्ग
जनको
▁स्मार्ट
▁कोभिड-१९
▁दिशा
▁चितव
▁चाहिँ
इने
▁दूध
▁हावा
▁जात
▁वैज्ञानिक
▁महानि
▁दुरुपयोग
▁मासु
धिकार
▁बहुमत
▁गन्तव्य
गरमा
▁दस
▁एजेन्सी
▁बुढा
▁ह्या
▁'स
▁लाग्यो
▁महेन्द्र
▁अपा
▁इच्छा
▁पात्र
▁विघटन
▁रगत
▁पठाउने
ल्स
▁नभएर
लिङ
▁प्रथम
▁लक्ष्मी
▁वाम
▁आफैँ
द्रो
▁दृश्य
▁प्रयोगकर्ता
▁वडाध्यक्ष
▁जोडिएको
▁दावी
जुन
▁सदरमुकाम
▁मौका
▁अग्
▁नागरिकलाई
▁अर
क्षी
▁तरिकाले
चे
ईको
▁म्याद
न्।\n
क्सी
▁कामको
▁।'\n
▁स्थल
▁भाइरसको
▁रेकर्ड
▁ध्याना
र्पा
▁जीवनमा
▁मुक्त
▁खोजेको
▁खति
गाउँ
सोले
▁परम
▁चाँ
ब्जा
▁बसो
दुई
नस
▁दायर
वीर
मल
▁दै
▁फर्का
वानी
भार
▁बौद्ध
ियाली
मुक्त
▁मेट
▁५२
▁ढंगले
▁मानिसको
▁भेटि
▁औद्योगिक
/७
▁स्कु
▁रमेश
▁छोटो
▁अप्
कवान
▁क्रमश
भेद
▁खतरा
राग
▁विना
▁घट्
▁अल्
▁पेट्रोल
▁हुनुहु
▁पर्यटकीय
▁खतिवडा
▁भरि
▁लागिएको
▁स्थिर
▁आयोजनामा
र्दै
▁हाँ
▁२०७७
▁कार्यान्वयनमा
▁चेक
▁नसक्दा
▁मी
▁प्राधिकरणले
▁लाग्न
मका
▁थान
on
▁दिवस
▁न्यूनतम
▁अन्न
▁लाल
▁जय
▁हतियार
क्ने
▁लगाइएको
▁र,
▁सकेका
म्स
केको
ड्रो
▁प्रि
▁।\nस
▁बस्ती
रोधी
▁हटाउन
▁परिचय
▁फोर
▁स्वीकृत
▁बिमा
ंख
▁सर्वाधिक
▁ओभरमा
▁ध्यानाकर्षण
▁४६
▁बासिन्दा
र्थी
▁पाइने
▁विषयलाई
▁उपरीक्षक
▁दृष्टिकोण
िनो
▁४७
▁केसीले
ग्राम
▁आउट
कल्प
▁जसरी
ेटिभ
▁प्रजातन्त्र
गमा
▁वर्षसम्म
▁भन्छ
▁.
▁नियमाव
▁काठमाडौंको
▁खुट्
▁दफा
▁अनेक
▁चर्चित
▁पुराना
▁मूल्यमा
▁खास
▁निर्वाह
▁प्रक्रियामा
▁कमल
▁मात्रामा
▁यसबाट
,\n
खित
▁बाइ
▁खाली
▁लगाए
▁चेत
▁एण्ड
▁स्ना
र्द्ध
▁डर
औँ
जुर
▁यसपटक
▁नगरपालिकाको
▁रुपैयाँको
▁रूपैयाँ
▁दिन्छ
▁घटनामा
▁फ्र
▁संचाल
▁नदिने
▁अदालतको
घन
▁स्तर
▁आउँ
सत
▁गर्न,
an
▁एन्ड
▁५६
▁बनि
▁बलात्कार
▁जरि
▁५३
▁ठहर
▁मामिला
▁२०७८
al
▁छे
▁अस्वी
▁संस्थान
इरहेका
▁रोकि
▁बेलामा
▁कार्यकाल
▁आइपुग
▁दीपक
▁सधैं
नारायण
▁(अ
▁सिने
▁भरतपुर
ताब
हरी
शल
रिङ
▁यस्तै,
▁संख्यामा
▁मञ्च
▁प्रवद्र्
्याउने
▁खराब
▁विष्ट
▁अध्यादेश
▁जान्छ
▁एकजना
▁इन
दिने
चार्ज
ेमी
'\n
योग्य
▁४९
▁कम्पनीका
▁च्याम्पियन
▁संचालन
▁अर्थात
▁कारवाही
▁इन्जि
▁विगतमा
▁चिसो
▁कास्की
▁लाग्दै
▁क्यान
▁बरु
ग्राही
तीको
ेकै
▁कञ्चन
▁विज्ञप्तिमा
▁माटो
▁स्कुल
▁मिल
▁साथै,
▁अवरुद्ध
▁धन्य
▁नाटक
प्टर
ुप्
▁पछ
▁रहेर
▁प्रधानमन्त्रीको
▁तोड
सीमा
ध्यापक
नाल्
▁राईले
▁जै
क्सा
▁पार्टीमा
विन
▁छलफलमा
▁ल्याएर
पोख
▁तामाङ
▁कसैलाई
▁चन्द
परा
▁रास्वपा
▁शाक्य
▁साथमा
▁होम
▁अलग
न्थे
▁बर
▁सन्तोष
▁ग्या
▁युक्र
नीमा
▁राज्यले
▁५४
▁खेल्न
▁अमेरिकाको
▁खण्डमा
▁पर्दछ
▁ढोका
▁इन्ड
▁प्रधानन्यायाधीश
▁नवल
▁सन्ता
▁अन्तरि
▁रात
▁राखि
िमा
▁श्रील
▁स्वयं
▁जेन
▁सभामा
ौट
▁मोर्चा
▁चरणको
▁२०७६
▁।\n\nयस
▁कविता
▁लघुवित्त
भल
▁मित्र
▁यहाँका
▁विदेशमा
▁सरुवा
▁म्याग्
रूपमा
▁समूहका
हरु,
▁रिट
▁मिल्ने
es
▁भोग
▁टाउको
मुखी
▁२०७९
नेकपा
▁स्वर्ण
▁सुरुवात
▁असु
स्योर
स्सा
▁मण्ड
▁आनन्द
पान्तरण
▁अमेरिकामा
धारित
कका
▁चीनले
▁प्रकाशन
▁जिम्मेवार
भोग
▁सञ्जालमा
▁७६
उनुपर्ने
▁नम्बरको
▁हटा
▁रहन
▁विशेषज्ञ
▁ललितपुर
▁क्यान्सर
-२०
▁घरको
▁चालू
भूति
▁विज्ञा
धारणा
▁सालको
र्दा
▁बनाउनु
सिए
▁तयारीमा
▁घण्टामा
‍या
आफ्नो
▁खुलेको
मन्त्र
▁परे
छन्।\n
▁शेर्पा
▁हल
▁गाउँपालिका-
▁दम
हरूबाट
▁शुरू
▁अथ
▁कार्यसमिति
▁प्रेर
▁।\n\nय
▁बिता
▁कमजो
▁कतार
▁५७
▁पढ्न
जिल्ला
▁राजदूत
▁पत्
ँ।
▁ताप
बिर
▁काठमाण्ड
▁प्राथमिकतामा
▁बजेसम्म
▁संसदमा
▁गाउँपालिकाका
▁बाँच
▁एमसीसी
▁सेनाले
रका
▁मोह
▁उदय
▁20
▁आरोपमा
▁बोकेर
▁सिरि
▁माल
लिस
▁लामा
टीले
▁उपलब्धि
▁गरिसकेका
▁सन्तुल
बाबु
▁हिम
▁५८
▁मौलिक
▁जसपा
▁नेताहरु
▁उन्
▁फिल्ममा
त्वमा
▁भारी
ट्स
▁विभाजन
सरकारले
▁हातमा
ँस
▁रोप
छन्,
▁'क
डीले
▁मकवान
▁क्रमशः
▁डिभिजन
हीँ
▁बारा
▁७७
▁छुट्टै
▁रुपैयाँमा
ठन
टाको
▁अच
▁आउँदा
▁जोशी
▁आवास
ालका
▁हुनसक्
▁ब्रि
भूमि
उप
▁कार्यमा
थी
▁धर
▁गाउँपालिकामा
ar
स्तै,
्याउन
at
▁प्रतियोगिताको
▁डेढ
▁विपक्षी
▁पन्त
▁कार्यालयको
▁असह
जले
कालमा
▁आयोगका
ानै
▁भागमा
▁केन्द्रले
▁अवधारणा
▁गाउँपालिकाको
▁धरान
▁८५
▁हैन
▁सदस्यीय
▁परिवारका
म,
▁बरा
प्रकाश
▁सरस
मण्ड
▁आन्दोलनमा
▁परम्परागत
▁प्रष्ट
▁हाउ
▁ल्याइएको
▁६४
▁गायक
▁शंका
▁शिक्ष
युद्ध
विन्द
▁साँच
यरमा
▁संघले
▁रेग्
राय
▁अफग
▁सञ्चालित
▁कुट
▁रुपन्देही
▁न्यौपाने
▁उड
▁स्मरण
▁सल्लाहकार
▁सेवन
▁अत्यधिक
▁सरोकारवाला
▁सकिन्छ।
ईमा
▁२०४
▁ठीक
▁कर्मचारीको
▁२०८३
▁त्यतिबेला
▁अनुसार,
▁लागेर
▁तपाईलाई
▁मेसिन
▁कार्यविधि
▁लक्षण
पार्
▁परिवारको
▁७२
▁प्रधानमन्त्रीले
वद्ध
▁शुभकामना
▁अवैध
▁हाइड्रो
ल्पा
▁गौर
ारण
▁तिर
▁।\nवि
मानित
▁ठुलो
-अ
▁समाप्त
वाना
सनमा
▁दीर्घकालीन
राष्ट्रपति
▁नीतिगत
▁सेतो
▁रोकिएको
▁उसलाई
▁खासै
यद
▁चलाउन
▁दूता
यको
▁अगाडी
▁मजदुर
▁पुगि
र्मा
▁क्रियाकला
▁सप्त
▁पृथ्वी
शै
▁इन्स्योर
छिन्
त्यस
▁एश
▁बोल
गल
▁डुब
महा
▁नगर्न
▁परा
ौल
▁धनु
▁पर्दा
मूलक
सके
तपा
▁मर्मत
▁सैन्य
वादीले
▁।"
▁बस्दै
धारा
▁5
▁बिजुली
▁आकर्षण
▁विधा
▁बुद्धि
▁मन्त्रालयमा
▁सृ
ब्र
ंग्
▁क्षेत्रबाट
▁सवारीसा
▁प्रती
▁पोस्ट
▁विश्वव्यापी
न्डै
▁चाड
▁कन्ट
▁बेप
▁कूट
▁पुर्याउने
ृति
्याग
खण्ड
दरबार
▁चरि
▁सत
▁वेब
▁दलले
▁व्यस्त
विरुद्धको
▁भक्तपुर
▁आकर्षक
उड
▁खड्काले
▁सल
फोन
▁पुनर्निर्माण
रस
▁देखिए
▁आर्म
▁आयोजक
▁माओ
▁परिवारलाई
▁विशाल
▁आकाश
▁पूर्वी
हामीले
▁६१
▁गरिनेछ
▁महामन्त्री
▁सुनुवाइ
▁थालिएको
३०
▁घुम्
यमित
▁चलिरहेको
▁लाभांश
▁खुशी
▁बालिका
▁मन्दि
खन
▁बिस्तार
▁धन्यवाद
▁दिगो
यले
▁समृद्ध
वती
▁ब्याजदर
)का
▁विस्त
शोर
▁मानिन्छ
▁संघको
▁संविधानसभा
▁जोड्ने
▁संस्थापक
▁वर्षपछि
▁कर्मचारीलाई
ारीरिक
ुञ्ज
▁हुनसक्ने
▁किसिमको
▁हिउँ
लुङ
▁चलन
▁भुस
▁बेल
▁पढाइ
▁समूहमा
▁ठाकुर
यो।\n
▁भएसँगै
▁अस्पतालको
▁भइसकेका
▁प्रमाणपत्र
▁दिनसम्म
▁लगाइ
▁सिक
▁विव
▁सरकारसँग
▁सजिलै
▁चल्ने
▁केन्द्रको
स्थायी
▁समयको
▁विद्रो
▁गरिन्
▁बैङ्
▁पाण्डे
▁वर्षे
▁तोकेको
वेदनशील
▁नकारात्मक
▁टोल
▁घटनाको
▁आउनु
▁नपाउने
▁धितोपत्र
▁आत
▁ग्यास
▁ड्र
▁सहयोगी
▁हल्का
धै
▁छाया
▁भित्र्या
▁सुत्
धाम
▁आकर्षित
▁पारदर्श
वायु
टका
▁खोला
▁मलेसिया
रहने
▁गर्छु
▁हुनाले
▁ग्रहण
▁पूर
मित्व
▁बेलु
▁विशि
▁६२
र्फत्
▁चौधरीले
▁विश्वासको
▁मृत
▁जलविद्युत्
▁माथिल्लो
▁दीप
▁गर्दैन
▁निवास
▁प्रतिवेदनमा
▁भयो,
▁५९
▁भारतबाट
▁उत्त
बुझ
▁मूर्
ारुढ
▁आइसोले
▁६३
▁पका
▁पछिल्ला
▁'प्र
▁संयन्त्र
▁नगरपालिकामा
▁फैलिएको
▁बयान
▁चाम
▁पृष्ठ
होला
रहे
▁काठ
▁खरी
धीन
षि
▁झन्डै
क्कली
▁लैजाने
नेन्द्र
▁रामचन्द्र
सङ्घ
▁समयसम्म
जत
रल
▁सके
▁अक्सि
ञ्जन
▁सामान्यतया
जीवन
▁समुदायको
▁उपप्रमुख
लिज
▁'ए
▁पहिलोपटक
झदारी
थान
▁बराम
▁बेपत्ता
लेट
▁जीवनको
भर्न
▁चलाउने
▁बिग्र
▁पुगे
▁मुक्ति
▁देखिन्छ।
▁हिन्द
▁यसो
जल
▁शारीरिक
उनका
▁शुद्ध
▁भत्ता
▁उल्ल
▁सूचीमा
▁जन्मि
▁स्टा
▁नामक
▁निर्माता
▁ढुंगा
▁९५
ँ,
▁६८
▁विकसित
▁कोरि
▁जसलाई
ामीण
▁धनगढी
▁शाहले
▁नेताले
▁सत्
▁पुग्
विहीन
▁मासिक
▁नेपालीको
▁रेडियो
▁बाटोमा
जाम
▁गाई
▁बल्
)ले
िकार
▁केश
ूहिक
▁स्टार
▁निकालेको
जय
▁शैली
लाग्
▁अष्ट्र
▁प्रोत्साहन
▁एफ
▁भोज
▁सहि
▁स्वामित्व
▁तन
▁व्याख्या
▁टीका
न्यास
▁काभ
▁ग्राम
सूचक
▁लेखक
▁हस्तक्षेप
▁६६
प्रतिको
▁फिल्मको
तर,
▁वाग्
▁अर्जुन
▁विश्वका
▁ढुवानी
▁गाय
▁देवी
▁तालिका
▁अस्वीकार
▁कोरोनाको
▁संस्कार
▁सिंहले
जीको
▁क्वारेन्
▁बाध्यता
▁सुदृ
▁बुबा
भक्त
▁पाण्डेले
▁भनिन्छ
रीलाई
▁कहिलेका
▁।\nआ
गरमाथा
▁विपरी
कुरा
▁६७
▁निकुञ्ज
स्ने
▁दरले
▁सेवामा
▁गावि
कल्पिक
▁गहिरो
▁खाद्या
▁ठेक
स्टि
▁भारतका
▁१९९
▁चाहना
▁सेनाको
▁उपभोग
▁सीप
▁बरामद
दिएको
▁शिवि
▁फ्
हाइ
▁९९
हत्या
▁प्रवर्द्ध
▁हकमा
▁सुपर
▁प्रणालीमा
▁विशिष्ट
ङक
▁विस्तृत
▁कोशी
▁महँग
▁भिड
▁सामूहिक
▁प्रदीप
मैत्री
▁बजेटमा
बैंक
▁छनौट
▁अधिकतम
▁गल्ती
▁ग्लो
वाको
नुपर्दछ
पुग्
▁इन्ध
▁शिक्षण
▁यसबारे
नी,
▁बम
▁आचार्यले
▁प्रविधिको
▁अस्ट्र
पू
▁सत्तारुढ
▁चुक्ता
▁भन्नु
▁बहा
▁।\nप्र
▁मारि
▁महिलालाई
नीकरण
▁चलेको
▁जुम्
नेपाली
ईएको
▁नक्कली
डाइ
स्पद
▁आइरहेको
रहँदा
▁महतो
ेरु
ीप
ँचा
▁स्थानीयले
▁संस्थाका
▁विज्ञप्ति
▁गाउँपालिकाले
टले
▁तब
▁ग्रामीण
▁करी
▁त्र
▁बित
उनी
▁पाठ्य
▁कसैको
ानिस्ता
्वाइ
सम्ममा
▁मस्
▁काराग
▁दरबार
▁सञ्चारमा
क्सन
▁मा,
’,
▁हृ
गणना
▁सेवाको
▁अमेरिकाले
▁नोट
थ्य
लम्बन
▁खालको
▁सस्तो
▁रह्यो
क्सि
▁विज्ञापन
▁बिष
▁हिस्सा
▁नेताहरू
मुना
फूल
न्ती
यू
▁शेख
▁हैसिय
र्की
▁बसि
अल
▁चोट
एच
▁भुट
▁यथार्थ
▁उत्साह
▁टुंगो
▁खडा
▁प्रमाणित
वश्यक
▁जरिवाना
▁लेखेका
▁भार
▁अल्प
▁शक्तिशाली
▁अफि
▁पेशा
पर्छ
राले
▁संवेदनशील
▁अभियानमा
▁स्रोतले
▁तार
▁सिमा
▁रावल
लभ
हरुबाट
▁विधेय
▁चर
▁पारेर
▁टन
▁हुन्छ।\n
▁सभाको
पहि
▁गुणस्तरीय
▁गराए
उमा
▁पशुपति
शालामा
▁सुरुमा
काइ
▁तिनीहरूले
▁पत्रिका
)को
▁फैलि
▁मुटु
▁रौतह
ेन्ड
विद्
सम्मका
▁७४
▁फ्रान्स
▁गौतमले
▁बढिरहेको
▁अस्पतालका
कां
▁अस्थायी
▁तथ्याङ्क
ौंडा
गरानी
▁हेरेर
▁गुल्
▁कुर
▁चक्र
▁बोल्
न्डर
▁भेटिएको
▁अनौ
▁सुशासन
नुभन्दा
रा,
▁नैतिक
▁अफ्र
▁रचना
अहिले
▁गणना
निङ
▁सहायता
▁रोकथा
▁दर्शक
▁खेल्
ँदे
▁इलाका
▁अथवा
▁खरीद
रात
साई
▁बनाउँदै
दायी
▁दिल्ली
द्रिक
▁मार्क
▁घि
▁भीड
▁तरल
▁सेमि
▁निर्धारित
ेनले
▁भाउ
▁पर्दैन
केट
▁निगरानी
▁टेक
▁७१
हाम्रो
▁गोविन्द
▁कैद
▁गभर्न
अप
▁अगुवा
▁काल
▁किताब
▁महिलाले
▁प्रशासक
ः\n-
▁यतिबेला
टी,
र्सिलो
▁प्
▁तस्क
ंशिक
▁खाद्यान्न
▁सुवे
▁सङ्घीय
▁हाफ
▁इन्द्र
▁लाइफ
एकाले
▁बाबुराम
▁तारा
▁विश्वभर
▁कीर्ति
▁रेखा
▁एनआर
▁(एमाले
▁गर्मी
साथै
▁ढकालले
▁स्वस्थ
औष
▁पाल्
▁मध्यम
▁म्यु
देख
▁मेरा
▁विभेद
▁जंग
▁पठाइएको
▁अडान
▁आबद्ध
▁4
▁टेलिक
▁आन्दोलनको
▁२०२०
▁कोइरालाले
▁बुझाइ
▁कपि
▁अप्ठ
सनको
▁सगरमाथा
▁बताउनु
ढु
▁सञ्चारमाध्यम
▁नष्ट
▁गोप
ङ्गो
▁नसकिने
लिम
▁गरिब
▁अश
▁मेगावाट
विका
▁हिमाली
▁खोज्ने
त्तर
▁मानवीय
▁नेटव
▁मनमा
ङ्गल
'मा
▁ज्ञानेन्द्र
पीओ
▁रु.
▁कार्यक्रमका
▁इन्टरनेट
▁प्रतिकिलो
▁पर्सा
ेलको
▁सम्पदा
▁पत्रकारि
▁लिखित
▁घाटा
किल
लाइन्
▁ठेकेदार
▁कसले
▁प्रभु
▁प्याके
▁डाइ
▁असन्तुष्टि
▁७३
▁चाँडै
▁हो।\n\n
▁२०७२
▁उपचारको
▁अस्पतालले
▁ल्याएका
▁समाजको
▁टेक्
▁७८
स्थापना
▁उपसभा
्यानल
▁समुह
ः\n
▁सडकको
▁तै
▁कुर्
▁वटै
▁अटो
▁जलवायु
एई
▁तत्व
जीकरण
नुभएका
क्न
▁उपत्यकामा
ँचाइ
▁तनहुँ
ैया
▁चौकी
▁कल्पना
▁बसोबास
▁कक्ष
ुरुन्त
▁विपद्
▁पस
▁दाजु
▁धनुषा
▁जोखिममा
▁चरित्र
▁आशंका
▁सङ्कलन
▁रहँदा
लाही
▁सेवाग्राही
टीका
▁समायोजन
▁फरार
▁मनोर
ंस
तन
▁पुग्यो
▁बिच
▁सरल
नेका
▁भिसा
▁चिकित्सा
▁बार्सिलो
चण्ड
▁भूभाग
▁खनाल
स्थापित
जिङ
▁कटौती
▁वृद्ध
▁थापा,
▁शरीरमा
▁अनुकूल
▁परिसूचक
▁जाँदै
▁भर्खर
कुम
▁तुरुन्त
▁अस्ति
▁पठाउन
देशक
▁अफगानिस्ता
¥यो
प्ने
▁प्रकट
▁मानिसहरू
▁जागिर
▁बाली
▁भिन्न
▁कर्मचारीले
▁१,
om
▁हल्ला
▁तिनीहरूलाई
ब्बा
▁समस्याको
▁दिएपछि
कार्यक्रममा
याली
▁प्रशासनले
▁देशलाई
▁दुईवटा
▁समझदारी
▁बर्दि
▁खुद
न्छन्।
▁८४
▁अभियोग
▁पढेर
▁खनालले
ग्रस्त
▁भनिन्,
१०
▁सिमेन्ट
▁जनाए
▁प्राप्
▁आया
टरमा
▁कुराको
▁सतह
▁नु
▁ग्रुप
हिर
▁विद्यार्थीलाई
▁भविष्यमा
इलो
▁तल्लो
▁कुरालाई
▁उत्पादनमा
▁अवलोकन
▁अभिभावक
▁प्रिमियर
▁आसपा
▁पठाइ
▁ब्रान्ड
▁काउन्
▁अध्यक्षतामा
▁छोराछो
▁नपर्ने
▁विशेषता
▁लुका
▁सम्भावित
▁श्रेष्ठको
▁जित्ने
ङ्ग्र
▁सेमिफाइ
▁८८
नयाँ
▁हिरा
▁आक्रो
▁सिजन
▁काँ
▁नेताहरुले
▁लुट
ड्ड
िनको
▁ऐन,
▁आपत्ति
▁पुर्‍या
▁बैङ्क
▁ट्रम्पले
न्ता
निस
▁६९
▁कूल
पक्षीय
ह्न
▁?\n\n
▁बोर्डले
मूल्य
▁सिर
▁निर्भर
▁तपाईले
▁लिइ
सिस
▁नदीमा
जाति
▁रेड
▁फाइना
▁वैकल्पिक
▁सङ्क्रमित
▁सामाग्री
▁बाह्य
▁९८
▁सिँचाइ
भित्रको
धनी
▁राखे
लागी
माल
वादको
▁यहाँको
▁बजेदेखि
▁किसानले
▁बाढ
▁गएपछि
▁पुनरा
सुन
▁हिँ
फर्म
▁उत्तम
▁प्रहरीका
▁प्रशंसा
▁(क
▁चोरी
▁उपहार
▁सक्छ,
सीय
▁सधैँ
▁मदन
▁प्रतिस्पर्धी
▁नेपाल,
▁शिक्षा,
▁गे
पल्ट
▁नराम
en
▁अंकले
▁सिंहदरबार
▁शता
▁अतिथि
▁पार्टीलाई
ित्तिकै
▁प्रालि
▁व्यवसायीले
शेर
▁घन्
▁राइ
लेक्ट
्स
-३
क्की
▁शरण
▁कर्त
भ्य
▁एप
▁स्वच्छ
▁जोगाउन
▁हुनेछन्
▁धनी
▁छुट्या
्रैमा
▁चाप
▁खुवा
▁वीरगञ्ज
▁बैंकमा
▁गुणा
▁खेलेको
▁गौरव
▁S
नात्मक
▁संग्रह
निर्भर
▁निर्वाचनका
▁बजारको
स्यौ
▁हेटौंडा
▁८२
क्कर
▁बराबर
▁तस्बिर
▁बनाउँछ
▁परिसर
▁बिन्दु
▁महर्जन
▁बाँध
▁गयो
▁जित्न
ृंख
or
▁कमजोरी
▁पारेका
▁प्रतिपक्षी
▁पाउँ
▁अध्यक्षमा
स्टिक
▁उनि
ब्या
धाज्ञा
स्फ
सिद्ध
▁नाइ
▁प्रवद्र्धन
दीले
▁कार्यक्रमलाई
घरमा
▁सन
▁जसका
▁अभिनेता
र्खा
परिवार
",
▁आंशिक
वरी
निय
▁जुनसुकै
▁किरण
▁छवि
यती
▁वडामा
▁आयु
▁:\n
▁अनियमित
औषध
▁निर्णा
▁मार्च
▁भेट्न
▁८१
▁हारा
भमा
▁विवेक
▁गर्थे
▁गुप्
▁बिल
▁दिनेश
▁सशक्त
▁त्रैमा
ामक
हिँ
चाह
किएका
मैले
दायक
▁!\n
▁ओलीलाई
▁आर्जन
▁नाच
▁दुर्गा
▁सुनाए
▁उमेरमा
▁मौद्रिक
▁औसत
▁मोडेल
▁उत्पादक
सन्त
▁तुलसी
▁तट
भरी
▁विभागको
▁न्यूनीकरण
▁अबको
▁ध्व
दछ।
▁गीतमा
▁नदिन
▁तातो
▁युनियन
▁हुँदैछ
▁सदस्यको
▁फाइनल
▁जितेका
धनमा
▁उद्यम
▁भ्रमणमा
यात्रा
▁जला
्योति
▁अन्तरिम
ेटिङ
▁निरीक्षक
म्बार
▁साब
म्की
▁महासंघका
▁कब्जा
▁पदक
▁घिमिरेले
वास्ता
▁करीब
भौ
▁रिलिज
प्लव
ज,
▁क्रियाशील
▁स्क
▁फलफूल
▁८३
▁हाराहारी
▁मोहन
▁अनुमो
एमा
▁मनाइ
▁त्रा
दको
▁८७
्यारा
▁लेखिएको
लेले
▁छात्र
आउ
▁तिर्न
▁८६
▁उता
▁विपरीत
▁सहजीकरण
▁काली
▁गतिमा
▁सिम
▁सन्दीप
म्बुले
डाको
▁७९
▁कार्यालय,
▁दर्शन
...
▁चल्
▁ब्रो
▁नपुग
▁ल्याइ
▁मार्
▁९१
▁विक्री
▁क्वा
▁भेटघाट
▁छाडेर
▁उद्योगी
▁सर्लाही
▁अभिनेत्री
ोषण
.५
▁देखेर
ट्टै
मात्रै
हिता
▁दुर्ग
▁उचाइ
▁माध्य
▁करण
▁सिस्ट
▁बनाई
▁गर्नेछन्
▁शासक
▁परिवारले
शनल
▁फाउ
▁९२
घाखा
डामा
▁कागजात
▁आत्महत्या
स्यौदा
▁क्रियाकलाप
▁वास्तवमा
पाटी
ियो
▁कपाल
ख्य
▁एसो
▁व्यापारिक
कस्
▁नरेन्द्र
▁लिइएको
फे
▁सट्टा
▁बेस
▁एकपटक
▁बिरुवा
▁योजनामा
सस
▁ग्लोबल
श्रमिक
▁अह
▁निरी
▁२०८२
▁रहन्छ
▁पोखरामा
▁बिरामीको
▁सतर्क
▁पराजु
▁भैरह
▁मास्क
▁प्लेट
▁गुट
▁हृदय
▁जना,
▁बिज
वारिक
▁मालिक
▁पारे
▁दिनभित्र
▁प्रशासनिक
▁खुल्ला
▁९६
▁रेमि
▁लाइस
पुर,
▁श्रीलंका
▁गर्छन्।
जनमा
▁राय
▁घटेर
▁गोपाल
▁डल
▁मर्ज
▁अक्सिजन
डीको
▁।\n\nउनले
▁होइन।
दमै
▁पूरै
न।
▁हङक
वासमा
▁अनाव
▁आ-
▁दोषी
▁शताब्
कीय
▁हुनेछ।\n
वस्तु
नालाई
वन्ध
▁नायब
▁निषेधाज्ञा
▁थिएन।
▁निकायले
▁लहर
▁अलपत्र
▁शंकर
▁रहि
▁अत्यावश्यक
▁रोज
▁।\n\nत्य
ट्र
▁क्षमताको
नोद
सनल
▁प्रहरीलाई
त्मा
ेरा
▁कुँ
▁मस्यौदा
▁अष्ट्रेलिया
िरहेका
▁तपाईँ
▁घिमिरे
▁मनाउने
एनए
▁फर्किएका
▁दिइने
▁बैशाख
▁मधु
▁नक्सा
हिने
ंदै
▁उठाउन
घाखाँच
▁व्यक्तित्व
▁पीसी
▁विद्यालयको
▁दिनदेखि
▁आक्रोश
▁टुक्रा
▁N
वृत्ति
▁प्रतिपक्ष
▁।\nक
श्चात
नुको
▁पुर्याउन
▁काठमाण्डौ
▁अरब
▁किशोर
▁उत्तिकै
्ने,
▁९३
▁भने।
एमई
▁बस्नेतले
▁धादि
ालु
▁धेरैले
वित
▁टेलिभिजन
▁रनमा
▁बोनस
▁पोष्ट
▁साउदी
▁नेपालगञ्ज
▁सहुल
▁नागरिकले
▁संक्रमणको
▁हेरि
▁पावर
▁देखिन
▁आवको
ब्य
▁नलाग
पुल
▁चर्को
▁खुट्टा
ाधीन
▁बनेर
▁बुँदे
▁भत्का
▁गर्नुहोस्।
▁सन्धि
▁सहसचिव
ुरे
▁लैजान
▁किन्न
▁छैनन्।
▁बराबरी
▁ब्राजि
्यारो
▁आराम
होस
▁सिटी
▁विमानस्थलमा
▁सवारीसाधन
▁हटाउने
▁बजेटको
▁स्वदेशी
–१
▁नवलपरा
▁९४
ड्दै
▁९७
▁?\n-
ञ्चार
▁खपत
▁ज्व
▁प्रतिवद्ध
▁वेबसाइ
▁पुग्छ
▁अनावश्यक
▁रमाइलो
▁निष्कास
▁कोठामा
▁चाहने
चोक
▁लडा
▁फैला
▁जनमत
▁सुवेदी
▁भाषामा
▁अध्यय
▁थियौं
▁देखाउन
नाइटेड
▁क्षण
▁पर्छ।
ेषण
समक्ष
ौली
्यो,
्रेजी
▁सदस्यमा
शास्त्र
▁नियमन
कन
ed
▁एकदमै
अध्यक्ष
▁कैलाली
▁अभिवृद्धि
०७
बमोजिम
▁मानिसले
▁फिट
▁पर्यट
▁पुग्दा
▁रुख
▁होला।
▁किशो
▁गराइएको
▁नेकपाका
▁आएकी
जका
▁युवराज
▁गरिबी
▁कम्पनीलाई
▁पुँजीगत
▁निर्णायक
▁निम
▁ट्रे
षाध्यक्ष
▁माध्यमिक
न्थी
▁सहितको
▁थापाको
▁/
▁आदर्श
▁बताएकी
▁तिहार
▁माइक्रो
▁सुरक्षाको
▁अनुप
▁दिदी
▁सायद
▁अधिवक्ता
▁रियल
▁नेताहरूले
▁चाहेको
▁बढाइ
▁वर्ण
▁देखियो
▁सघ
▁उठाउने
▁कर्तव्य
▁जातीय
▁८९
पाल्च
▁फाइनलमा
▁गर्छ।
▁अस्ट्रेलिया
वाली
▁फार
खोला
▁विद्यार्थीको
▁सरकारबाट
▁घरमै
▁ठोस
▁ढिलो
▁उत्पादनको
पिट
▁मुना
▁श्रे
्मण
▁दाइ
िको
भाष
ोस्
पोर
ङ्कन
▁नृ
▁त्याग
▁मिस
▁थालि
टिभ
▁पारिवारिक
ानमा
वान्
▁कम्प्यु
▁नमा
▁गर्दछ।\n
पावर
टारमा
ौँ,
▁स्थानीयवासी
▁हराएको
▁उका
▁गठबन्धनको
▁मावि
▁एसियाली
▁संस्थामा
▁घटा
मलाई
▁त्यसरी
▁विनोद
▁जिक
▁हुनेको
सरकारी
्रिड
▁झनै
▁कच्चा
▁शौ
▁भू-
डीमा
▁।’
▁हप्
▁वाइ
▁हद
▁अस्थ
▁बताइ
▁गगन
▁खातामा
▁चाहन्छु
▁गरिन्छ।
▁शपथ
सी,
▁उड्ड
▁नवीकरण
ुक्त
▁रत्न
▁स्तरमा
▁पह
चीन
▁मूल्यांकन
▁अपरि
▁बस्त
▁हुँदैन।
ानको
▁इलेक्ट
▁उद्यमी
▁नोक्स
वत्
▁पद्ध
▁(१
▁हुनेमा
▁पत्रमा
▁अर्यालले
▁फरा
▁उपेन्द्र
▁छिट्टै
▁कुकुर
▁समाजका
▁बताउनुभएको
▁जोश
▁परिषद
▁ओभर
▁रहनेछ
▁भेटवार्ता
▁स्टक
▁कल्या
▁२०१९
▁स्थानिय
▁हिन्दु
▁कुमारी
▁बसे
▁एक्लै
हको
▁गरिए
मेरो
▁हजुर
ूले
▁साझेदार
न्नति
▁गुरुङ,
▁रोमा
▁प्रकरणमा
▁खोज्न
नयन
▁पारिश्रमिक
▁वर
▁।\nउनले
स्थापन
▁स्वि
नियम
▁नपाएको
▁परिमा
▁प्रादेशिक
केही
▁उहाँलाई
▁तिर्
▁भगवान
▁आउँदै
▁खोल्ने
गृह
▁ठगी
▁देशले
▁'आ
▁स्क्र
▁त्यसकारण
▁उस्तै
▁राखी
▁प्रतिशत,
▁मदि
▁।\nयो
▁पक्षको
▁छोडेर
▁सदस्यता
गामी
▁लम
▁विपन्न
लान्
▁हुन्छन्।
▁बाँडफा
कता
▁निर्देशिका
▁मानिसलाई
▁परिणत
हाले
▁कूटनीतिक
▁पाल्पा
▁नमुना
सहितका
▁आमाको
▁भाषण
▁ढिलाइ
▁कामका
▁नेपालबाट
▁खिच
▁सवाल
▁पला
▁वीरेन्द्र
▁गिरा
▁आचार
▁पेट्रोलियम
श्री
▁।\n\nनेपाल
समध्ये
▁नलि
▁जनाउँदै
▁दोहोरो
पीडित
टिक
ए,
▁कानूनी
▁"\n
▁लागे
नैतिक
▁१.
▁रानी
▁नमिल्
ंगी
▁पक्कै
श्रो
▁सिनेमा
▁फुटब
▁काय
▁बालेन
▁झो
सोम
डिएको
▁संसद्मा
▁मौन
▁सभ्य
▁सेन्ट
▁रोगको
▁महासंघले
▁राह
ाउनको
▁एकीकरण
▁ब्याटिङ
▁ज्य
पाइ
▁क्षेत्रफल
▁अन्ततः
▁बन्यो
घट
▁ट्रान्स
फ्ट
▁भनिन्
▁सक्छ।\n
र्ना
▁गुमाएका
▁विन्दु
▁छाप
▁स्वतन्त्रता
▁यिन
▁स्वाद
▁गेट
▁सम्मानित
▁महँगो
▁सक्नेछन्
▁थारु
▁नियमावली
▁जोडेर
▁घाँ
▁साँच्च
▁अत्यन्तै
▁अपर
▁दिनअघि
▁त्यहाँको
▁भिडियोमा
▁सापकोटा
▁मिले
▁मनोनयन
▁मतगणना
▁थियो।\n\n
▁प्रिय
▁युनाइटेड
सेल
▁अंश
▁काठमाडौ
▁पाकिस्तान
जिन
सिप
▁भन्नेमा
▁विश्वमा
िरहेको
▁एयरलाइन्
तर्फको
▁बुझाएको
▁गभर्नर
▁किसानलाई
▁कसुर
▁प्रणालीको
▁अंग्रेजी
खे
▁बेड
▁पोलि
▁देखिँदैन
▁सद्
▁पहाड
▁वरिपरि
▁बानी
ेकाले
▁यद्यपि,
▁स्कूल
▁आन्दोलनका
काई
▁श्रीमा
न्नु
फिल्
रालो
▁हजारभन्दा
▁जमा
▁उम
ष्कार
▁मुम्ब
प्रसार
▁एच
▁इंग्
▁स्वास्थ्यकर्मी
▁एड
िकरण
▁कौ
▁परिवर्तनको
स्थानीय
▁हुनसक्छ
▁लेखेको
▁आलु
▁बिस्तारै
▁गोल्ड
▁देवको
▁आयोगमा
▁गतेको
िङ
▁मृतक
▁भैरहवा
▁।\n\nस
▁लगानीको
▁साधारणसभा
▁आजै
बाद
गण्डकी
▁२०७३
▁भाग्य
▁अनुभूति
ण्ट
▁बोल्न
▁रुपैयाँ,
▁कर्ण
▁पेन
▁'प
/८
▁माधवकुमार
ारको
▁खरेल
▁सुदृढ
▁सर्त
▁उड्डयन
▁चित्त
▁बाघ
▁उपचारमा
दलीय
▁खोल्न
▁बाँके
जरको
▁सहभागि
ख्
▁अर्घाखाँच
▁टिका
▁अर्ध
▁सुरेन्द्र
▁क्षतिपूर्ति
▁सिन्धुपाल्च
पाठ
▁सम्पादन
▁गराउँदै
लवस्तु
माया
▁जित्
जब
▁रिस
▁भए।
▁संविधानले
▁आरोहण
प्टे
▁निजाम
▁बृह
▁नुवा
प्ती
सूची
▁।”
▁स्पे
▁ओम
ट्टी
▁अस्थिर
▁बेवास्ता
▁राष्ट्रियसभा
▁स्वास्थ्यमा
▁राम्रोसँग
▁कल्याण
▁ग्य
▁हजार,
▁सम्हाल
▁उपाध्या
▁फर्म
सिना
▁माओवादीले
सक्नु
▁पौडेल,
▁अफ्रिका
▁जाति
स्टा
▁पवि
▁महानिर्
▁ईश्वर
▁डिग्री
▁२०१८
▁समस्यामा
न्याय
▁बिभिन्न
▁व्यवस्थापनमा
ालगायत
ालमा
▁गुल्मी
जेल
▁युट
र्कि
मीले
▁गर्भ
▁यात्रामा
▁दिँदा
▁लगानीमा
सिङ
टप
▁थिएनन्
▁खसेको
▁जिकिर
▁चर्चामा
सैगरी
▁बारम्बार
▁लामिछानेले
▁मोदी
▁सकेनन्
स)
▁परियार
▁गीतको
▁पाउनु
▁गरेकाले
▁–
▁स्वाभाविक
स्तर
▁गठबन्धनका
▁विद्यालयका
▁लुगा
▁रेग्मी
▁सिल
जन्तु
▁पाएपछि
▁त्यसबेला
▁पत्नी
▁कृषक
न्सको
▁समाधानका
▁म्याग्दी
नुहोस्।
▁विहान
▁मही
बाहिर
▁निगमले
▁हरियो
▁अन्नपूर्ण
▁नदेखि
▁कर्पोर
▁बस्नेत
रानी
▁स्तरो
विपरी
िल्ली
▁इन्जिनियर
िन्
▁खै
्ररी
▁संयोजकत्वमा
▁क्रान्तिकारी
द्वय
वरले
▁लिटर
▁गरेमा
लाग्दो
▁दशैं
▁प्रदू
ँट
लगत्तै
▁दिइन्
खत
▁माझ
▁सर्वे
▁कालोपत्र
▁महाधिवेशनमा
▁ज्येष्ठ
▁मुस्ता
▁शिक्षाको
▁एम्बुले
▁थो
▁बताउँछन्।
▁)
▁स्वर्ग
▁कुखु
▁दिनुभएको
▁कालि
▁काठमाडौं।
▁छौं।
▁कोषमा
डोर
▁अवस्थित
▁किसिमका
र्जी
पछिल्लो
▁सदस्यले
▁जोडी
▁लिनु
▁तीनै
▁किम
▁ढिला
▁मुलुकका
▁ठिक
▁चाहिने
सम्पाद
▁विश्वको
गरि
▁प्रतिभा
▁उल्लेख्य
▁केजी
▁हात्ती
▁खालका
▁निम्न
▁तथापि
▁सामग्र
शेष
▁क्ला
▁अनुमोदन
ञ्चल
▁पर्यो
गरीय
▁अर्थतन्त्रमा
ोलखा
▁बिहे
▁खेल्दै
▁पञ्चा
▁समारोहमा
▁अलिक
▁५००
▁परिक
▁'ब
▁काला
धर
ह्र
वहारिक
▁सरसफाइ
▁भूमिकामा
▁पदार्थको
▁हेक्टर
षक
▁मातृ
▁क्याम्पस
▁आत्मनिर्भर
मणि
ेसी
पार्क
▁दान
काउ
▁सत्र
▁भलि
▁आगलागी
▁रहँदै
▁6
▁सहुलियत
▁महोत्त
▁फराकिलो
▁थाल्यो
▁शाहीले
▁महेश
्युब
▁रोपनी
र्पण
▁।\n\nउ
▁संशो
▁विद्यार्थीले
▁लाइसेन्स
▁फ्या
▁ओटा
▁पक्षका
▁विसं
'ले
सतमा
▁रूपान्तरण
▁अधिकारीको
▁मोरङ
▁नेपालीले
ज्व
▁परिचित
▁एसपी
▁कोषाध्यक्ष
▁डिसे
एमाले
▁गर्दछन्
कोरोना
मन्त्रालय
▁गर्दछ,
▁खेलाडीले
सनले
गको
▁ज्ञापन
जेन
▁राजेश
▁मर्या
▁नियन्त्रणका
▁बढीको
▁प्रको
ञ्चित
▁विशेषगरी
▁गइरहेको
▁परेपछि
▁चोक
जाको
थर
▁दिनुपर्छ
▁मन्त्रिपरिषद्को
▁सन्तान
ज्यालो
▁बगा
▁दाङ
▁पुगेपछि
डिट
व्
▁निष्पक्ष
ेरोजग
पार
▁सागर
▁इस्
क्व
▁बोल्ने
▁एशिया
▁नवीन
▁तारि
▁बढुवा
▁जोडिएका
▁महामारीको
आउट
▁व्यवसायिक
▁लिमिटेडले
▁क्लि
▁तालमेल
लम्प
▁चाहन्छ
▁चौका
▁आतंक
▁कम्प्युटर
टाम
▁थिइन्।
▁दिवसको
▁विपक्ष
▁प्रशासकीय
▁महरा
▁आदिवासी
▁कुशल
▁हेड
▁केटा
▁डिस्
ामन्त्री
▁चरम
जनी
▁मनि
तपाईं
बहि
▁निकायको
▁बेलुका
▁स्रोतको
अधिकार
प्रद
▁बीउ
ब्लिक
▁सृजना
नियाँ
ण्डर
ब्बर
▁अड्
▁नेताको
▁पक्षलाई
▁दाँ
ेक्ट
दित
खेर
स्थलको
▁प्रतिनिधिसभाको
▁अपि
▁पाउँदा
▁परेर
भेट
▁विरोधी
▁स्मृति
▁रुचि
▁सहमत
▁मल्ल
निकी
▁नर्स
माथिको
▁दूरी
▁।\nब
▁छौ
स्तरमा
बासी
०,
▁हुने,
▁।\n\nआ
नुपर्यो
▁लगत्तै
▁प्रतितो
▁उदाहरणका
-४
▁कान्ति
▁वस्तुको
▁प्रा.
▁मानिसहरु
▁काठमाडौँ,
मुक्ति
▁टोलीको
is
▁A
गोलिक
▁सहकार्यमा
▁वर्षाको
▁तिनै
▁पक्का
▁जनताका
केन्द्र
दिए
पहिलो
मानमा
वाहक
ँचो
▁ली
▁ष
▁भएकै
▁समुदायका
▁नृत्य
▁तहले
▁हौ
▁प्रत्या
▁अधिकारी,
▁नभएपछि
▁(रा
▁।\n\nवि
▁बनाउनुपर्ने
▁त्यहाँका
▁उठेको
▁विप्लव
▁गरे,
▁थपिएको
▁अस्तित्व
▁वसन्त
▁लाख,
▁बालबालिकालाई
▁छाला
▁सवै
▁पढ्ने
▁छु।
it
▁नमू
कानु
▁बोकेको
▁पुर्याएको
▁बढे
▁अन्यो
क्या
▁अर्जेन्
वृ
▁201
▁मधेसी
ब्ब
▁ज्योति
▁वर्षभित्र
▁उद्योगमा
▁देखाउने
▁२०२२
▁दौड
हक
ैमा
श्चात्
▁निषेध
▁बदली
▁धो
▁२,
▁पोल
▁चीनमा
▁शौच
▁बताए।\n\n
क्षि
▁साहले
▁अधिकारको
▁वु
▁नगरि
▁नराम्रो
▁राशि
▁एकदम
▁भोग्
▁प्रदर्शनमा
▁पाइप
थु
▁पारिएको
भाषा
▁चलचित्रमा
▁फेर
▁फार्म
कियो
▁विद्यमान
बाजी
विपरीत
सम्मत
▁शान्त
▁गरौं
▁जन्मा
ारू
▁प्रसिद्ध
▁राजु
▁दिएकी
▁२.
चल
▁सवार
▁बेइ
▁बन्दा
▁बिका
▁शल्य
▁बढ्छ
म्मद
▁कम्पनीमा
▁चाहिन्छ
▁प्रतितोला
▁विस्थापित
▁आइपुग्
▁उपयोगी
▁कम्तिमा
क्ष्मी
न्धि
▁नराख
▁होटलमा
ैगरी
▁मन्त्रिपरिषद
▁त्रिवि
▁एकको
वर्तमान
▁लिई
▁लिनुपर्ने
जीले
्नुपर्ने
▁गर्नको
▁युक्रे
डाँडा
वारण
▁खेलेका
▁राई,
ण्डित
▁दोलखा
▁अर्जेन्टि
▁खटिएको
▁कार्ययोजना
▁ठक्कर
▁नदिएको
मुनि
▁हालको
टिन
▁युवती
▁प्रयोजन
▁विद्यादेवी
▁दिई
▁कारागार
▁यसैले
▁इतिहासमा
पिटल
▁गर्नुपर्छ।
▁दियो
ौता
▁महाशाखाले
▁पुरानै
▁रद्द
▁पर्नेमा
▁बचाउन
▁रोनाल्
▁टिमले
▁सुरक्षाकर्मी
▁त्यसबाट
▁छापा
▁म्युजिक
कस्मिक
सुवा
▁भरमा
▁प्रयोगमा
▁बालबालिकाको
▁मनोज
२०७
िए
▁सुकु
▁सर्वेक्षण
▁पछ्या
▁उल्लं
▁'य
भावना
▁मुनाफा
▁गिरावट
▁निमित्त
▁सम्पर्कमा
▁कृष्णप्रसाद
▁जनतामा
▁भर्खरै
,’
▁अभावमा
▁संकल
डा,
▁पति
▁धम्की
▁पश्चिमी
ानले
▁एन्फा
▁मङ्
ङ्का
▁संसदको
▁हुन्न
▁बैंक,
एनन्
-पटक
ालीले
▁राजकुमार
▁कागज
▁बू
ण्डको
▁ओलम्प
▁बर्दिया
▁भएकोमा
▁जात्रा
▁उज्यालो
▁सचिवालयले
र्यो
▁डाटा
ई,
▁पुनले
▁राष्ट्रको
क्रामक
सर्थ
▁बताउँछन्।\n
▁निरीक्षण
▁म्याने
▁लगायतको
▁लाग्दा
▁सेप्टे
▁कामलाई
▁श्याम
▁शिशु
लस
▁गर्नै
▁घरबाट
▁सिन्धुपाल्चोक
▁प्रय
▁मोडल
ेलिकप्टर
विना
▁जनकपुरधाम
▁गराउ
▁केशव
il
▁प्रतिवद्धता
▁सावधान
▁सुधारका
▁महारा
▁पट
▁राम्रा
▁भण्डारण
ड्य
स्न
▁स्रोतका
▁गर्नुहुन्छ
▁पार्दै
▁मिलाउन
ड,
▁निम्त्या
▁बेरोजग
पन्थी
▁स्वरुप
▁उनकी
▁पार्टीभित्र
▁।\nप
▁बलिउड
न्यजन्तु
▁अभिलेख
▁जनस्वास्थ्य
▁रोजगारीमा
शैली
▁प्रतिशतभन्दा
▁असल
▁सकिँदैन
▁खतिवडाले
▁मन्दिरमा
पर्व
▁जसमध्ये
▁फौ
▁जितेर
▁सुन्त
▁बढाइएको
▁रणनीतिक
▁नभएकाले
▁महानगरीय
▁इलाम
▁थाइ
कोभिड
▁तामाङले
शरण
▁खस
ठू
▁चीज
▁पीसीआर
▁प्रस्ट
▁देखिएपछि
▁उद्योग,
▁टुंग
▁सुरक्षाका
▁विवादमा
▁धेरैजसो
▁औषधी
▁शरणा
▁फेसबुक
▁अमर
▁उत्पादित
ुरि
होस्।
▁P
▁भित्री
▁घन
▁महिनादेखि
▁बुवा
▁एकेड
अर्का
विश्वास
▁सम्मको
वेदीले
▁देशभरका
▁प्रतिफल
▁सिं
▁सापकोटाले
▁विषा
परित
▁अनिल
▁२०१७
पेक्ष
▁निवासी
▁प्राधिकरणको
▁आप्र
ड्दा
चाँ
▁ढाँचा
▁रही
▁भौगोलिक
▁भवनमा
▁गर्भव
लागि
जारी
▁बाक्
▁अन्तरक्रिया
▁दोश्रो
▁आचारसं
▁खेलाडीको
▁पर्यटकको
▁उत्तरी
वरको
ुरेन्ट
▁।\n\nम
रहित
▁लोड
▁प्रस्तावित
▁गाउ
▁निवारण
▁पं
▁पार्क
▁परिमार्जन
खाना
▁सिरहा
▁मानिएको
णु
▁पैदा
▁तापक्रम
▁मान्ने
▁मेलम्
▁नगरपालिका-१
▁श्रद्धा
▁पारी
▁०.
▁निष्कासन
▁।\n-
▁आकस्मिक
▁सक्नुहुन्छ।
▁मकै
▁जनजाति
▁२०८०
चाप
▁मङ्गल
▁सिलि
▁पैदल
▁गिरि
▁धरौ
पछिको
▁सेल्
▁राष्ट्रसंघ
▁समावेशी
▁किरा
▁प्राधिकरणका
▁रोचक
▁ठप्प
▁स्थितिमा
▁तीमध्ये
सामान्य
ेन्ज
▁प्रतिशतसम्म
▁निजामती
मेट
ईले
लट
▁बैत
▁आफैंले
▁कठि
▁मनाउन
ou
▁हेलिकप्टर
▁गर्यो।
▁हुन्,
तवार
▁बिहानै
▁महानिर्देशक
▁इजलासले
फ्ले
▁शौचालय
ेग
▁थपिएका
ुप्र
ौँ।
▁इन्धन
बैठ
▁अशोक
▁तीनवटा
▁फाइनान्स
▁इजराय
▁कपिलवस्तु
▁सहरी
▁रहनु
▁ज्ञवाली
▁जानकार
▁विरोधमा
▁पात
▁हजारौं
▁व्यवसायमा
▁नारी
▁माग्
▁नमिल्ने
▁प्राध्यापक
▁उर्जा
चरण
▁लियो
ण्ठ
▁पटक-पटक
▁डेभल
ेन्टि
▁संयोजन
▁पारदर्शी
▁नामाव
सी)
▁लामाले
सीका
▁वि.
▁जलविद्युत
▁सार्वभौ
▁क्यापिटल
▁विस्तारै
लेपछि
▁लिगमा
केका
▁स्को
▁आख
▁नदीको
▁जाडो
▁एआई
▁कार्यद
▁रिहा
▁हतार
▁बीचको
ारोपण
▁भद्र
▁प्रस्तुति
▁'यो
▁२०२१
ाचार
▁शिखर
▁मात
▁सुवेदीले
पछ
न्दर्य
▁एकताको
ट्री
चाहिँ
▁लगानीकर्ताले
▁विक्रम
▁हिमालयन
▁प्रश्नको
चको
▁हामीसँग
किए
▁सुशा
▁दैलेख
▁उत्सव
▁करोडको
▁शल्यक्रिया
▁C
▁भोक
▁ढुङ्गा
▁सन्तु
प्लेजु
▁इन्स्योरेन्स
▁फ्रि
▁बनाउँदा
▁नबि
▁कडाइ
▁एसोसिए
चेत
▁राजश्व
स्कृत
▁हेम
▁गाली
▁इम
▁महानगरपालिकाले
▁कुव
▁पूर्वप्रधानमन्त्री
▁स्याउ
▁डरा
लेखा
▁गराएर
▁बुधवार
▁निकाल्न
▁कृति
▁s
वटै
भियोग
सेन
▁समृद्धिको
म्वा
बिया
▁सकिनेछ
▁वी
▁क्षेत्रले
▁मूर्ति
▁क्यामे
वधि
▁टोलीमा
▁विकास,
च्या
लोजी
लोमा
▁जोशीले
तीन
▁दुइ
▁बैठकको
▁अक्टो
▁बुझाउन
सुर
!\n
▁काठमाडौंका
वक
ेल,
▁मैत्री
▁निकास
छौं
▁आफैले
▁प्रशस्त
▁घुस
▁मापन
▁(माओवादी
▁रोनाल्डो
▁8
▁M
ic
▁हुँदैन,
▁रेस्ट
▁मिलियन
▁हुदै
पालन
▁मार
▁'वि
▁अचम्म
नेस
▁नायिका
ले,
▁बच्न
▁खोलामा
च्छेद
▁रङ्ग
▁राज्यका
िनमा
▁प्रान्त
▁टोलीका
▁टेस्ट
ेन्सन
▁उत्साहित
वालीले
▁उठाएको
▁अतिक्रमण
▁असन्तुष्ट
▁उपाध्यक्षमा
▁स्ट्र
▁हुनुभएको
▁सिद्धार्थ
▁सम्झना
▁खटिएका
त्रि
▁श्रीमान
▁एजे
▁रजि
ण्डमा
▁ओपन
▁किस्ता
▁जवान
▁पुरुषको
▁ट्रेड
ईन
कहाँ
ब्रु
▁सदुपयोग
▁विरुद्धको
▁घुमा
▁सहजै
रहेकी
▁संविधानमा
मशेर
▁खेलबाट
▁7
रोग
चानक
निर्वाचन
▁संचार
▁प्रतिशतको
▁बाबा
▁पवित्र
▁नाघ
▁गराउनु
▁कँ
▁निवेद
ेलमा
▁पाठ्यक्रम
▁विधेयकमा
▁राजपा
▁विभाजित
-म
▁दूतावा
▁गाउँका
▁वर्
▁क्रे
▁किसानको
▁साविक
▁रिक्त
▁गायिका
▁नेपालीलाई
▁प्रकोप
▁जग्गामा
▁प्रवर्द्धन
▁ग्राहकले
▁डाय
▁शुक्
-५
▁जेनजी
१५
▁गोदा
▁कान्छ
अगा
ईओ
स्पो
▁बाढीले
सङ्ख्या
▁गर्नुपर्नेमा
▁अविश
▁(एमाले)
▁गर्छौं
▁प्रतिलि
हीं
▁चलचित्रको
▁अना
▁लगेर
▁कार्यालयबाट
▁शैलीमा
▁गुज
▁हाराहारीमा
बिना
कुनै
▁झरेको
▁गोर्खा
▁सौन्दर्य
▁(नेकपा
ड्नु
▁राष्ट्रपतिको
राजनीतिक
▁दलहरू
अब
त्तिकै
▁अभ्या
▁नमूना
विज
▁दाउ
▁नबुझ
▁चरा
▁जग्गाको
▁भयो।\n
▁३.
▁वीरगन्ज
▁एसि
▁प्रेरणा
▁अरुण
▁रामबहादुर
▁प्रदूषण
बापत
▁मुस्लिम
▁उम्मेदवारको
▁एकातिर
▁सञ्चालनका
▁करिव
▁घाम
▁जुलाई
▁मेट्रिक
▁क्वारेन्टाइ
▁खानु
हिक
भाग्य
▁सामेल
▁पटकपटक
▁ठग
▁काठमाडा
▁तसर्थ
मानको
▁विश्वस
▁अन्ध
▁बास
▁महामारीका
▁उद
▁रोक्ने
तिष्
▁आर्
▁क्रो
▁सारा
▁हुम्
▁घोषित
▁अन्तराष्ट्रिय
▁त्यहाँबाट
▁गरेपनि
▁भाडामा
▁सम्झौतामा
▁ग्री
▁समाजले
▁बत्ती
▁राती
▁दोब्बर
▁झड
▁द्वि
▁उच्चस्तरीय
▁लेख्न
▁रोल्पा
▁तत्कालै
▁रङ
▁महासङ्घ
लाय
▁शीत
▁बुझ्ने
▁भनेपछि
▁आपसी
▁उद्योगको
लास
▁ज्ञवालीले
▁चिन्ह
▁जानुपर्ने
स्पि
न्सले
लू
▁खासगरी
भित्रका
▁नियाम
▁स्वर
▁धनकु
▁दलीय
▁पेनाल्
द्वन्द
▁वन्यजन्तु
▁नेपालगन्ज
▁संस्थालाई
▁व्यवस्थापनका
▁हराउँदै
चनामा
▁खुकु
▁आदान
फेर
शिल
वण
▁अपाङ्ग
▁काभ्र
▁ज्वरो
▁समर्थक
▁सुन्न
▁रोजगारीको
▁पदका
▁साइकल
▁दिनपछि
▁सङ्क
ङ्ख
▁गोप्य
▁कार्यदल
▁नायक
ियल
्र्या
▁राम्रै
▁मानिने
▁समुद्र
▁सामग्रीबारे
▁महत्त्व
▁बालुवाटारमा
लम
▁राम्ररी
▁खोटा
स्रोत
▁जगत
▁रै
▁अर्थतन्त्रको
▁राजधानीमा
कृया
मानी
▁रोजगारीका
▁पौडेलको
▁मदिरा
▁बन
▁२०३
▁मध्यन
▁विश्वकपमा
ब्रि
▁राखिएका
▁व्यावहारिक
▁नोभे
▁स्याङ्
▁बोहरा
तर्फी
▁गंगा
टिस
▁यसपाल
-७
▁अचानक
▁प्रशोधन
सह
▁शनिवार
▁गर्नुको
▁शर्मा,
▁तौल
▁भन्नुभयो,
▁विद्रोह
▁केटी
▁गर्भवती
▁खेलाडीलाई
▁तिनको
▁निकायमा
▁यसैबीच
▁तपाईको
▁अग्नि
▁कर्जाको
▁c
▁तुरुन्तै
▁दिमा
डिओ
▁बाहिरी
▁एल्
▁आकां
स्वरूप
▁प्रचारप्रसार
▁समुदायमा
▁आश्वा
▁आवद्ध
झो
र्भिक
हरि
निज
▁खानेकुरा
ha
दर्शन
▁गर्नुका
▁बेल्
▁परिवारमा
▁अनुगम
▁बुँदा
▁बताउँ
▁ध्यानमा
▁देखाएर
-आ
▁महाकाली
▁ड्राइ
▁पाटन
सां
▁कामना
▁।\n\nयो
▁नम्बरमा
▁मरि
▁मध्यनजर
प्ट
▁सहिद
▁दृढ
▁व्यहो
कांग्रेस
ड्ने
▁प्याकेज
डक
▁सकेसम्म
स्फोट
▁हिन्दू
▁लगाउनु
▁लडाइ
▁रोहित
▁।\n\nप्र
तापूर्वक
▁जीवित
ख्रा
राज्य
▁बढाउ
▁आवत
▁जबकि
▁उक्
▁कोट
▁खोल्
▁परिमाण
▁शिला
▁भलिबल
▁झर
▁रेमिट्या
ंदा
▁अनुपात
▁नेटवर्क
ुटि
▁चामल
गाह
▁परिस्थितिमा
थोकी
▁ओलम्पिक
▁चम
▁मुल्य
▁रहेन
▁शक्तिको
▁रहेकी
▁सुनिल
▁आत्मा
▁महाधिवेशनको
▁बढेपछि
▁परमेश्व
▁चलाएको
▁(म
▁आवमा
▁कँडेल
▁लिभर
▁शरीरको
▁रोकथाम
▁कन्स
▁संसद्को
▁निराशा
▁शर्त
▁तिवारी
▁दिनका
▁आयुक्त
▁कार्की,
र्इ
▁रेस
▁बढ्नु
▁अपनाउन
▁तर्
▁छैन्
▁गरेकोमा
▁स्वभाव
▁अवकाश
मिता
वले
▁पत्रकारिता
▁लगाउँदै
▁मिल्दैन
तालिका
▁प्रदर्शनी
▁एम्बुलेन्स
▁बृद्धि
ञ्जी
▁श्रो
▁स्वतः
▁चिनी
▁उप्र
▁कैदी
▁मोहम्मद
▁उखु
▁खरिददर
▁अण्डा
र्तामो
▁चितवनको
▁श्रीमान्
ृंखला
▁शुक्रवार
सन्न
▁सिस्टम
▁अब्
▁डाँडा
▁आउँदो
▁कार्यसम्पाद
▁तिब्ब
▁एपी
श्चिमा
▁ब्रेक
▁करा
▁बढाएर
▁अवस्थाको
ङ्गले
▁नेत्र
▁क्लबले
▁जाहे
▁भट्टले
▁रुसी
▁मङ्सिर
▁अखिल
▁शताब्दी
▁बिरामीलाई
▁कहिलेकाहीँ
▁लाखको
▁रहस्य
▁प्रतिस्पर्धामा
मेरिका
▁न्यौपानेले
▁अफर
▁हुनुहुन्थ्यो
▁केन्द्रिय
ञ्जि
▁संस्कृति,
▁पेसा
▁अक्ष
▁नेपाल-
▁रेश
▁उम्मे
▁सिधै
▁आईपीओ
▁पोर्ट
▁जनयुद्ध
▁ट्वी
▁मेहन
▁रुपैयाँले
▁फाइल
▁नसकेपछि
▁पठन
▁गराई
▁प्रेरित
▁१९८
▁तापनि
▁बैंकि
▁उल्लंघन
ें
▁रूपमा,
▁लक्ष्मण
▁कमाएको
▁जैविक
▁झण्डा
लोड
▁बौद्धिक
▁युरोपेली
▁धमा
▁टोलीलाई
▁कायमै
▁अपहरण
▁देखिन्छन्
▁वक्त
▁जिता
▁कारोबारमा
▁बाधा
▁अर्याल
▁अपिल
हुँदै
▁प्रयत्न
▁राप्ती
▁लमजु
▁देउवालाई
▁पुलिस
▁हो?
▁एन्टि
▁देखाउँछ
श्चर्य
▁मातहत
▁निष्काश
▁आफुले
▁फ्लो
▁मैन
▁विदेशबाट
▁छुट्टा
भ्या
▁उन्न
▁फेरी
▁सुवास
संर
▁पछि,
मोर्चा
▁अप्ठ्यारो
▁p
▁लिगको
देन
▁एभर
दैन,
▁बालुवाटार
वर्ती
▁दलहरु
▁रसुवा
साना
▁ब्यक्ति
▁आश्वासन
म्पा
व्यवस्था
।\\n
▁सांसदले
▁पन्छ
▁उल्लेखनीय
▁शान्तिपूर्ण
▁घन्टा
▁कार्तिक
▁एजेन्डा
▁हेल्
▁सञ्चारकर्मी
▁न्यायिक
सायनिक
▁खत्री
▁छक्का
यणी
▁माउ
▁मसान्तसम्म
न्ह
हिबार
▁नेतृत्वले
▁२०१६
▁महानिरीक्षक
▁उहाँका
▁मनोरञ्जन
घात
▁ताप्लेजु
▁प्राइ
बन
▁चेतना
▁चितवनमा
▁गिरी
▁संघीयता
▁सुशील
▁२०८१
▁खोज्दा
प्रेषण
▁व्यवहारमा
▁मकवानपुर
ँु
▁गिरीले
▁परिसरमा
▁हो,'
▁भू-भाग
▁ख्याल
▁हकप्रद
▁सारेको
et
▁मर्
▁संक्रमणबाट
▁सेलि
▁रिसो
▁वृत्त
चारु
▁त्यहीँ
योजित
ेरिया
▁यहि
फु
▁उपसभापति
-क
वालले
च्छा
▁बस्नु
▁दरबन्दी
▁बेहो
बुल
▁स्थानीयको
रूद्ध
▁लेन
▁थप्
▁स्टोर
र्सले
▁रुकुम
▁आयल
ब्रुअ
खबर
न्तिक
▁ट्रक
▁पण्डित
▁मिलन
▁०६
▁डेभलप
▁सक्दछ
काजी
पोर्
नेछ।
▁आश्चर्य
▁सत्तामा
धाई
प्स
बीचमा
▁जोन
▁बसाइ
क्ताको
▁उठाएका
▁सदा
▁जापानी
▁जनावर
▁गर्दछु
▁स्थानको
▁एकअर्का
▁अवधिको
जग्गा
▁परिक्षण
▁कुराले
▁उनकै
▁सुत्के
▁शिविर
▁उप्रेत
▁बिक्रीदर
▁विगतका
▁फोरम
▁खोज्दै
▁नेकपाको
▁भव्य
▁ब्यवस्था
अर
नाल्ड
▁पाहु
ञ्जु
▁माथिको
▁स्पष्टीकरण
नेट
▁जोड्न
काको
▁जिन्द
▁प्रयोजनका
कप
▁क्वारेन्टाइनमा
▁तालि
▁भेटमा
▁व्र
▁साँच्चै
▁बुढाथोकी
▁खानी
▁नवराज
▁बर्खा
▁नसकेका
▁राष्ट्रपतिले
जेन्ट
▁कार्यलाई
▁योजनाको
▁यादव,
नेता
▁सँ
▁कोषको
▁'उ
▁४.
▁पाई
▁कुटपिट
▁ध्रु
▁उपराष्ट्रपति
▁बीबी
▁अनुरुप
▁मूल्याङ्कन
▁काफ्ले
▁आयोजकले
लेन्द्र
धाना
▁हुनुपर्छ।
पठ
▁काटि
धना
▁अदालतका
▁लागतमा
▁भैरहेको
▁पोज
▁यिनी
▁पथ
चालित
▁लाखौं
वधिक
सिएको
▁असं
▁ताजा
▁छैट
दले
ूर
▁चाहे
लामी
सूच
▁समितिलाई
▁साम्रा
▁ह्वा
▁विकृति
डु
सरी
▁पदबाट
▁मुद्दाको
तारी
▁साताको
शुक्र
▁देउवाको
▁दायरा
र्दन
▁परिवेश
▁अनौपचारिक
तीले
▁एक-
विक्रम
▁सूचक
▁असा
सबै
▁सिंगा
▁राजन
▁इमा
सय
▁बोलाएर
▁आस्था
बाटो
▁एजेण्डा
ितीय
▁सुरेश
बुध
कारको
स्,
▁अधिकृ
▁मेस्
▁लगिएको
▁ज्वा
ेन्टी
नासाथ
ing
धम
▁संसारमा
▁बन्ध
▁भेटिएका
▁घटनास्थल
‍यो
▁जनसङ्ख्या
विशेष
नाक
▁पुलि
▁पूर्वानु
▁गठित
▁सिकाइ
▁खाएर
▁नज
▁सुब्बा
नेपालमा
▁सहयोगको
▁रकमको
चित्य
▁पोषण
▁महिनासम्म
▁पत्राचार
▁मिलेको
▁प्रचलन
▁विल
▁अन्तर्वार्ता
जस्ती
▁दसैं
▁रहेकोमा
▁बुढ
▁भईरहेको
▁गई
मिर
खल
▁घटाउन
▁मू
▁संगठित
▁केसीको
आवास
▁गरेन
▁दायरामा
▁डलरको
▁दुब
डब्
▁रुपैया
▁भन्नेबारे
नबाट
▁अन्तरराष्ट्रिय
▁व्यवसायीलाई
▁महासंघको
▁।\nत्यस्तै
▁सतर्कता
▁तेज
▁तिम्रो
▁।\nकार्यक्रममा
▁विभागमा
▁रायमा
▁सीता
▁मुलुकलाई
▁10
उने,
्छन्
▁राना
▁विच
▁घरपरिवार
▁अनुसारको
धुरा
▁पुर्व
▁सरस्व
नर
धेरै
▁थिए।\n\n
▁२०१५
▁लापर
▁नेम्वा
▁योसँगै
▁आर्मी
▁क्ल
▁फर्किने
▁विनिमय
केश
▁पृष्ठभूमि
▁मान्न
▁गाइ
▁अवतरण
न्डा
▁'हामी
▁गतेबाट
▁तरलता
▁सद्भाव
▁अग्रसर
▁लाखभन्दा
▁तारिख
▁अन्यत्र
रेड
▁व्यवस्थापनको
मोहन
▁स्थाय
आमा
-प
ज्जा
▁स्टो
▁आयोजनाले
▁फेसबुकमा
▁औचित्य
▁सेक
▁पेरि
▁विनाश
▁व्यवसायीको
▁बागलुङ
त्यो
▁पर्खाल
लाइभमा
पार्टी
पठाउनु
▁त्यसअघि
ढुंगा
▁बेनी
▁बोलाएको
▁छात्रा
▁हस्पि
▁गुनासो,\n
▁गुनासो,\nपठाउनु
▁दिशामा
▁पर्वत
▁बेलायती
▁गाँउ
▁लगाउ
▁कता
▁सम्बन्धलाई
▁हाफमा
▁भानु
▁अभियोगमा
▁विरामी
▁संगी
▁एकेडेमी
▁पार्टीबाट
▁तत्कालिन
िला
▁पद्धति
▁फला
▁साग
पले
▁फर्कने
▁प्रतिशतमा
▁निर्देशनमा
▁अपमान
यौ
▁चल्न
ra
▁लिँदै
▁प्रचलित
▁सहरमा
▁युग
▁ट्रया
▁टस
▁किनकी
ेछा
▁गै
▁प्लास्टिक
▁झग
▁'प्रचण्ड
▁तोडफो
▁नसक
▁थ्री
▁मनाङ
▁मेघ
-प्र
▁बनायो
च्
▁सकिन्छ।\n
▁नामको
▁चिन्त
▁बच्चाको
▁स्नातक
राही
▁मार्ने
▁निर्माणाधीन
▁भान्
▁लोकतन्त्रको
▁गरेसँगै
क्रान्ति
▁सूचीकृत
▁सोलु
▁भवनको
▁मुल
▁अवस्थालाई
▁महिलाहरु
▁डोनाल्ड
ाउँमा
▁हुन्छन्,
▁३,
झै
▁साहित्यकार
▁महिनाभित्र
▁शेखर
२५
▁वक्तव्य
▁रायमाझ
▁बनाउँ
▁रहेछन्
▁आइरहेका
▁दीपेन्द्र
द्री
ेन्टमा
▁सर्भि
▁कुवेत
ियन्स
▁अनुशासन
▁बधाई
▁मता
याे
▁त्रास
▁मस्तिष्
▁बिषयमा
▁संघसंस्था
▁खर्
▁बाजु
▁उपप्रधानमन्त्री
▁पल्
▁गर्नुपर्
▁छानविन
टरको
▁जिज्ञा
-६
▁समेटिएको
▁सुचारु
▁पूर्वानुमान
आत
▁निर्माण,
पास
▁कोरोनाभाइ
▁म्याच
▁शिक्षामा
विज्ञान
मध्य
▁पाउनेछन्
ौलाले
▁Ne
▁पानीमा
▁नेपालमै
ेटर
सक्यो
▁सकिएपछि
कुलपति
▁जू
▁समि
▁दवा
जम
न्च
▁अनुसन्धानमा
▁अस्व
▁महिला,
▁अनियमितता
▁टेवा
▁निकाल्ने
▁इन्स्योरेन्
जेट
्छु
▁बनेपछि
द्धान्तिक
क्वा
▁सरकार,
▁आउँछन्
▁गाविस
▁जनआ
▁हान
▁लगायतले
सामाजिक
▁ऋषि
होस्,
क्षकको
▁राहदानी
▁चैत्र
▁उतार
▁स्वाब
▁गर्नुहोस्।\n
▁सन्तुलन
▁निराश
▁थापालाई
कर्मीको
▁राजनैतिक
▁महानगरले
▁कमिटीको
▁शास्त्र
टाइन
ँगा
▁चुनावको
▁देखेको
▁सालदेखि
▁लम्
▁फागु
▁हलमा
त्रीले
▁शहरी
▁नभएसम्म
▁हिरासतमा
▁नहुनु
▁खाँ
न्द्रा
▁समुदायले
▁माइती
▁वर्षभन्दा
▁भ्रमणका
▁संस्थापन
▁अध्ययनरत
आवासीय
नुहोस्,
▁अनुसन्धानका
▁सामग्रीको
▁पिता
▁प्रतिद्वन्द
धारी
▁फेब्रुअ
▁पोर्चु
▁चिन्ति
▁फिफा
जिट
▁समाजवाद
▁पोजेटिभ
▁किट
र्दिक
▁तुलना
▁दैनिकमा
▁मर
वर्ग
म्भव
म्बरमा
▁घटाउने
प,
गं
सत्ता
▁मजबु
▁नगरे
-ब
▁निवर्तमान
▁स्वरूप
डी,
▁थाल्
▁हमा
▁प्रवि
▁दिप
हिन
▁दलहरूले
▁शरणार्थी
▁ताला
▁सिद्ध
▁जाम
▁t
”,
वात
१२
१.
▁महतले
▁तिनीहरूको
▁सुनचाँ
▁आफूहरु
▁संगठनको
प्रेर
▁रुपान्तरण
▁सेमिफाइनलमा
▁उकालो
▁सरा
संगै
▁कार्यान्वयनका
▁धमाधम
▁स्थायित्व
▁आइतवार
▁दार्चु
▁छायांकन
▁नामावली
▁ट्वि
▁परिचयपत्र
▁अख्तियारले
▁बाख्रा
स्त्री
▁कारबाहीको
न्डो
शनि
▁बोर्डको
▁चिन्तित
▁उजा
▁विवा
▁खग
▁रासायनिक
▁बङ्ग
▁अन्त्यमा
▁देखाइ
▁गइ
▁मागेको
हना
▁लम्ब
▁कुराहरु
▁प्रधानमन्त्रीलाई
▁राख्नुपर्ने
▁मिर्ग
▁सोमवार
▁महिनापछि
▁राज्यमन्त्री
▁काँग्रेसका
िकन
▁पश्चात
लियो
▁अन्यथा
▁सचेतक
▁विपरित
▁बराबरीमा
▁बन्दी
▁वार
▁संकटमा
▁अवलम्बन
▁बालक
न्छन्,
▁रिसोर्ट
▁स्वास्थ्य,
दायित्व
▁प्रमाणीकरण
▁परीक्षणका
▁चाइ
▁कष्ट
राति
ह,
देशमा
▁आयोजनाका
▁घुम्न
▁कार्यपालिका
▁छेउमा
▁गाडीमा
▁परीक्षणमा
फरक
मर
▁गर्दैछ
दत्त
▁(एन
▁व्यवस्थाको
▁हार्दिक
▁आवतजा
-स
▁तिनका
▁सुमन
▁कमला
▁देख्दा
▁शर्माको
▁१९७
▁आफुलाई
▁प्रक्षेप
▁विस्फोट
▁मल्लले
नेश्वर
ंगे
▁पढा
▁चार्
▁बालकृष्ण
डा.
▁जाजरको
▁लिम्ब
▁साधनको
▁जनवरी
▁बागलु
▁जबर
▁लिभरपुल
न्छ।\n
▁सैद्धान्तिक
▁अलिकति
▁डिसेम्बर
बेर
▁खेर
▁नारायणी
▁लागेपछि
▁सक्छन्।
▁निर्णयमा
▁आमाले
▁मिलाएर
▁डाउन
▁तस्वीर
रोप
▁चार्ज
▁गौरी
सन,
ेन्सी
व्यवसाय
▁हाउस
यदि
▁निकायका
▁रुपैयाँसम्म
ाउँछन्
▁विदा
जुद
फ्र
▁छात्रवृत्ति
▁चिन
▁नेपाललाइभमा
▁रूख
▁ग्राहकलाई
▁समक्ष
▁सकिए
▁बुझाउने
▁लडाइँ
ञ्जा
▁युक्रेन
▁पृथ्व
▁मिच
▁विमानस्थलको
▁सकिन
▁प्रचण्डको
▁पहलमा
▁आश्र
▁युवालाई
▁जुत्ता
चिएको
▁सम्बन्धि
▁लड्न
▁ताइ
▁तीर्थ
▁डोज
ङ्गी
▁बिक्र
▁सचेतना
▁खोजिएको
▁प्रधाना
▁हौं
▁गठबन्धनले
छाम
फाई
▁नुवाकोट
संविधान
त्तम
▁श्रेष्ठलाई
बेच
▁उद्योगले
५०
▁योग्यता
▁गुमाउने
ठूला
▁टर्की
▁प्रबन्धक
▁अभियुक्त
▁कलेजमा
▁नच
▁इमान
▁प्रहरीमा
ँदैनन्
सोमबार
▁प्लेटफर्म
विजेता
▁भूगोल
▁प्रकृतिको
)मा
ंड
▁रामेछा
▁वर्णन
▁२०१४
ए।\n
▁कोरोनाका
▁नोक्सानी
दिव
▁थिइन
▁हेर्नु
▁कृषि,
▁झि
▁सम्बद्ध
▁निर्देशनालय
्यौं
▁किनारमा
▁विद्यालयले
▁शीर्षकमा
▁यसबाहेक
▁युएई
▁रेष्ट
▁एभरे
नीका
▁अभियानको
▁जंगल
ूको
पेट
▁विश्वकै
▁दस्ताव
▁सङ्गठ
▁बोलाइएको
▁माओवादीका
▁200
▁हर्क
भिडियो
▁सफाइ
▁नेताहरुको
▁ऐनको
▁तपाइँको
▁गर्नेलाई
▁पुस्तकाल
गंगा
▁नसक्नु
कर्मीले
डेट
▁युट्युब
▁हुनुको
कानुनी
▁आ-आफ्नो
ग्रहण
▁प्रयोगशाला
▁वेस्ट
▁रहर
▁इन्जिनिय
▁फाल
▁प्रस्थान
▁भरिएको
छुट्
▁रूपले
▁औंल्या
तेको
▁हुन्थे
▁असुर
▁इन्ट
▁सयौं
आइतबार
▁इन्चार्ज
उनुपर्छ
▁सफ्
१९
▁रोपा
▁स्तरको
वियु
▁भरपर्
▁जोडेको
वलोकन
▁साइट
▁लाग्दैन
▁हेरफेर
▁सिलसि
▁रोड
▁कानुनको
▁खोजीमा
▁हुनै
▁च्यानल
▁इटाली
ँदो
▁गर्नेछ।
ड्रिड
▁घट्दै
▁बढेका
धमा
▁भारतसँग
▁मेची
▁सकियो
▁बल्ल
ललाई
▁लन्ड
▁क्रेडिट
सान
▁कथ
▁जनमोर्चा
▁एपीएफ
▁प्रक्षेपण
▁पालन
म्या
न्दी
▁भय
▁हेलि
▁केन्द्रबाट
लीका
▁पु¥याउने
▁मानवअधिकार
▁विष्टले
टा,
▁बीपी
▁चाँडो
पेर
▁मुगु
▁गोल्
▁भाइरल
याको
सभामा
गाईं
▁सम्वन्ध
▁उत्तरदायित्व
न्दि
▁विषयवस्तु
▁रोय
▁सडकखण्ड
▁ठे
▁पोखरी
▁तामाङ,
▁प्रोज
खुवा
त्तिको
▁कठोर
▁पटकको
▁शहरमा
ेन्टिले
खी
▁दुर्गम
्रोन
▁तथापि,
▁कमाइ
▁सावधानी
▁रावलले
▁प्रकृया
थ्यो।
▁हुला
▁वातावरणीय
फिया
▁असहज
हानी
