{
  "version": "1.0",
  "truncation": null,
  "padding": null,
  "added_tokens": [
    {
      "id": 0,
      "content": "<pad>",
      "single_word": false,
      "lstrip": false,
      "rstrip": false,
      "normalized": false,
      "special": true
    },
    {
      "id": 1,
      "content": "<unk>",
      "single_word": false,
      "lstrip": false,
      "rstrip": false,
      "normalized": false,
      "special": true
    },
    {
      "id": 2,
      "content": "<s>",
      "single_word": false,
      "lstrip": false,
      "rstrip": false,
      "normalized": false,
      "special": true
    },
    {
      "id": 3,
      "content": "</s>",
      "single_word": false,
      "lstrip": false,
      "rstrip": false,
      "normalized": false,
      "special": true
    }
  ],
  "normalizer": {
    "type": "Sequence",
    "normalizers": [
      {
        "type": "NFC"
      },
      {
        "type": "Strip",
        "strip_left": true,
        "strip_right": true
      }
    ]
  },
  "pre_tokenizer": {
    "type": "Metaspace",
    "replacement": "▁",
    "prepend_scheme": "always",
    "split": true
  },
  "post_processor": null,
  "decoder": {
    "type": "Metaspace",
    "replacement": "▁",
    "prepend_scheme": "always",
    "split": true
  },
  "model": {
    "type": "BPE",
    "dropout": null,
    "unk_token": "<unk>",
    "continuing_subword_prefix": null,
    "end_of_word_suffix": null,
    "fuse_unk": false,
    "byte_fallback": false,
    "ignore_merges": false,
    "vocab": {
      "<pad>": 0,
      "<unk>": 1,
      "<s>": 2,
      "</s>": 3,
      "\n": 4,
      "!": 5,
      "\"": 6,
      "#": 7,
      "$": 8,
      "%": 9,
      "&": 10,
      "'": 11,
      "(": 12,
      ")": 13,
      "*": 14,
      "+": 15,
      ",": 16,
      "-": 17,
      ".": 18,
      "/": 19,
      "0": 20,
      "1": 21,
      "2": 22,
      "3": 23,
      "4": 24,
      "5": 25,
      "6": 26,
      "7": 27,
      "8": 28,
      "9": 29,
      ":": 30,
      ";": 31,
      "<": 32,
      "=": 33,
      ">": 34,
      "?": 35,
      "@": 36,
      "A": 37,
      "B": 38,
      "C": 39,
      "D": 40,
      "E": 41,
      "F": 42,
      "G": 43,
      "H": 44,
      "I": 45,
      "J": 46,
      "K": 47,
      "L": 48,
      "M": 49,
      "N": 50,
      "O": 51,
      "P": 52,
      "Q": 53,
      "R": 54,
      "S": 55,
      "T": 56,
      "U": 57,
      "V": 58,
      "W": 59,
      "X": 60,
      "Y": 61,
      "Z": 62,
      "[": 63,
      "\\": 64,
      "]": 65,
      "^": 66,
      "_": 67,
      "`": 68,
      "a": 69,
      "b": 70,
      "c": 71,
      "d": 72,
      "e": 73,
      "f": 74,
      "g": 75,
      "h": 76,
      "i": 77,
      "j": 78,
      "k": 79,
      "l": 80,
      "m": 81,
      "n": 82,
      "o": 83,
      "p": 84,
      "q": 85,
      "r": 86,
      "s": 87,
      "t": 88,
      "u": 89,
      "v": 90,
      "w": 91,
      "x": 92,
      "y": 93,
      "z": 94,
      "{": 95,
      "|": 96,
      "}": 97,
      "~": 98,
      "": 99,
      "": 100,
      "": 101,
      "¡": 102,
      "¢": 103,
      "£": 104,
      "¤": 105,
      "¥": 106,
      "§": 107,
      "©": 108,
      "«": 109,
      "¬": 110,
      "®": 111,
      "°": 112,
      "±": 113,
      "¶": 114,
      "·": 115,
      "»": 116,
      "¿": 117,
      "Á": 118,
      "Â": 119,
      "Ã": 120,
      "Ä": 121,
      "Ç": 122,
      "È": 123,
      "É": 124,
      "Ï": 125,
      "Ð": 126,
      "Ñ": 127,
      "Ó": 128,
      "Ö": 129,
      "×": 130,
      "Ø": 131,
      "Ú": 132,
      "Û": 133,
      "Ü": 134,
      "Þ": 135,
      "ß": 136,
      "à": 137,
      "á": 138,
      "â": 139,
      "ã": 140,
      "ä": 141,
      "å": 142,
      "æ": 143,
      "ç": 144,
      "è": 145,
      "é": 146,
      "ê": 147,
      "ë": 148,
      "ì": 149,
      "í": 150,
      "î": 151,
      "ï": 152,
      "ð": 153,
      "ñ": 154,
      "ò": 155,
      "ó": 156,
      "ô": 157,
      "ö": 158,
      "÷": 159,
      "ø": 160,
      "ù": 161,
      "ú": 162,
      "û": 163,
      "ü": 164,
      "ý": 165,
      "Ā": 166,
      "ā": 167,
      "ć": 168,
      "Č": 169,
      "č": 170,
      "đ": 171,
      "ğ": 172,
      "ī": 173,
      "Į": 174,
      "İ": 175,
      "ı": 176,
      "ł": 177,
      "ō": 178,
      "Ş": 179,
      "ş": 180,
      "š": 181,
      "ū": 182,
      "Ÿ": 183,
      "ž": 184,
      "ƒ": 185,
      "ǀ": 186,
      "ə": 187,
      "ɛ": 188,
      "ɪ": 189,
      "ʹ": 190,
      "ʺ": 191,
      "ʻ": 192,
      "ˈ": 193,
      "ː": 194,
      "˸": 195,
      "́": 196,
      "̃": 197,
      "̈": 198,
      "̊": 199,
      "̧": 200,
      "Δ": 201,
      "Ε": 202,
      "Π": 203,
      "Σ": 204,
      "Φ": 205,
      "Ω": 206,
      "ά": 207,
      "έ": 208,
      "ή": 209,
      "ί": 210,
      "α": 211,
      "β": 212,
      "γ": 213,
      "δ": 214,
      "ε": 215,
      "η": 216,
      "θ": 217,
      "ι": 218,
      "κ": 219,
      "λ": 220,
      "μ": 221,
      "ν": 222,
      "ξ": 223,
      "ο": 224,
      "π": 225,
      "ρ": 226,
      "ς": 227,
      "σ": 228,
      "τ": 229,
      "υ": 230,
      "φ": 231,
      "χ": 232,
      "ω": 233,
      "ό": 234,
      "А": 235,
      "Б": 236,
      "В": 237,
      "Г": 238,
      "Д": 239,
      "Е": 240,
      "З": 241,
      "И": 242,
      "К": 243,
      "Л": 244,
      "М": 245,
      "Н": 246,
      "О": 247,
      "П": 248,
      "Р": 249,
      "С": 250,
      "Т": 251,
      "У": 252,
      "Ф": 253,
      "Х": 254,
      "Ч": 255,
      "Ш": 256,
      "Э": 257,
      "Я": 258,
      "а": 259,
      "б": 260,
      "в": 261,
      "г": 262,
      "д": 263,
      "е": 264,
      "ж": 265,
      "з": 266,
      "и": 267,
      "й": 268,
      "к": 269,
      "л": 270,
      "м": 271,
      "н": 272,
      "о": 273,
      "п": 274,
      "р": 275,
      "с": 276,
      "т": 277,
      "у": 278,
      "ф": 279,
      "х": 280,
      "ц": 281,
      "ч": 282,
      "ш": 283,
      "щ": 284,
      "ъ": 285,
      "ы": 286,
      "ь": 287,
      "э": 288,
      "ю": 289,
      "я": 290,
      "ё": 291,
      "ѕ": 292,
      "і": 293,
      "ְ": 294,
      "ִ": 295,
      "ָ": 296,
      "׀": 297,
      "א": 298,
      "ב": 299,
      "ד": 300,
      "ה": 301,
      "ו": 302,
      "י": 303,
      "ל": 304,
      "ם": 305,
      "מ": 306,
      "נ": 307,
      "ע": 308,
      "ר": 309,
      "ש": 310,
      "ת": 311,
      "،": 312,
      "ؓ": 313,
      "؟": 314,
      "ء": 315,
      "آ": 316,
      "أ": 317,
      "ؤ": 318,
      "إ": 319,
      "ئ": 320,
      "ا": 321,
      "ب": 322,
      "ة": 323,
      "ت": 324,
      "ث": 325,
      "ج": 326,
      "ح": 327,
      "خ": 328,
      "د": 329,
      "ذ": 330,
      "ر": 331,
      "ز": 332,
      "س": 333,
      "ش": 334,
      "ص": 335,
      "ض": 336,
      "ط": 337,
      "ظ": 338,
      "ع": 339,
      "غ": 340,
      "ـ": 341,
      "ف": 342,
      "ق": 343,
      "ك": 344,
      "ل": 345,
      "م": 346,
      "ن": 347,
      "ه": 348,
      "و": 349,
      "ى": 350,
      "ي": 351,
      "ً": 352,
      "ٌ": 353,
      "ٍ": 354,
      "َ": 355,
      "ُ": 356,
      "ِ": 357,
      "ّ": 358,
      "ْ": 359,
      "١": 360,
      "٢": 361,
      "٣": 362,
      "٤": 363,
      "٥": 364,
      "٦": 365,
      "٨": 366,
      "ٰ": 367,
      "ٱ": 368,
      "ٹ": 369,
      "پ": 370,
      "چ": 371,
      "ڈ": 372,
      "ڑ": 373,
      "ک": 374,
      "گ": 375,
      "ں": 376,
      "ھ": 377,
      "ہ": 378,
      "ۃ": 379,
      "ی": 380,
      "ے": 381,
      "۔": 382,
      "ۡ": 383,
      "۰": 384,
      "۱": 385,
      "۲": 386,
      "۳": 387,
      "۴": 388,
      "۷": 389,
      "۸": 390,
      "۹": 391,
      "ऀ": 392,
      "ँ": 393,
      "ं": 394,
      "ः": 395,
      "ऄ": 396,
      "अ": 397,
      "आ": 398,
      "इ": 399,
      "ई": 400,
      "उ": 401,
      "ऊ": 402,
      "ऋ": 403,
      "ऌ": 404,
      "ऍ": 405,
      "ऎ": 406,
      "ए": 407,
      "ऐ": 408,
      "ऑ": 409,
      "ऒ": 410,
      "ओ": 411,
      "औ": 412,
      "क": 413,
      "ख": 414,
      "ग": 415,
      "घ": 416,
      "ङ": 417,
      "च": 418,
      "छ": 419,
      "ज": 420,
      "झ": 421,
      "ञ": 422,
      "ट": 423,
      "ठ": 424,
      "ड": 425,
      "ढ": 426,
      "ण": 427,
      "त": 428,
      "थ": 429,
      "द": 430,
      "ध": 431,
      "न": 432,
      "ऩ": 433,
      "प": 434,
      "फ": 435,
      "ब": 436,
      "भ": 437,
      "म": 438,
      "य": 439,
      "र": 440,
      "ऱ": 441,
      "ल": 442,
      "ळ": 443,
      "ऴ": 444,
      "व": 445,
      "श": 446,
      "ष": 447,
      "स": 448,
      "ह": 449,
      "ऺ": 450,
      "ऻ": 451,
      "़": 452,
      "ऽ": 453,
      "ा": 454,
      "ि": 455,
      "ी": 456,
      "ु": 457,
      "ू": 458,
      "ृ": 459,
      "ॄ": 460,
      "ॅ": 461,
      "ॆ": 462,
      "े": 463,
      "ै": 464,
      "ॉ": 465,
      "ॊ": 466,
      "ो": 467,
      "ौ": 468,
      "्": 469,
      "ॎ": 470,
      "ॏ": 471,
      "ॐ": 472,
      "॑": 473,
      "॒": 474,
      "॓": 475,
      "॔": 476,
      "ॕ": 477,
      "ॖ": 478,
      "ॗ": 479,
      "क़": 480,
      "ख़": 481,
      "ग़": 482,
      "ज़": 483,
      "ड़": 484,
      "ढ़": 485,
      "फ़": 486,
      "य़": 487,
      "ॠ": 488,
      "ॡ": 489,
      "ॢ": 490,
      "ॣ": 491,
      "।": 492,
      "॥": 493,
      "०": 494,
      "१": 495,
      "२": 496,
      "३": 497,
      "४": 498,
      "५": 499,
      "६": 500,
      "७": 501,
      "८": 502,
      "९": 503,
      "॰": 504,
      "ॱ": 505,
      "ॲ": 506,
      "ॳ": 507,
      "ॴ": 508,
      "ॵ": 509,
      "ॶ": 510,
      "ॷ": 511,
      "ॸ": 512,
      "ॹ": 513,
      "ॺ": 514,
      "ॻ": 515,
      "ॼ": 516,
      "ॽ": 517,
      "ॾ": 518,
      "ॿ": 519,
      "ঁ": 520,
      "ং": 521,
      "অ": 522,
      "আ": 523,
      "ই": 524,
      "উ": 525,
      "এ": 526,
      "ও": 527,
      "ক": 528,
      "খ": 529,
      "গ": 530,
      "ঘ": 531,
      "ঙ": 532,
      "চ": 533,
      "ছ": 534,
      "জ": 535,
      "ঝ": 536,
      "ঞ": 537,
      "ট": 538,
      "ঠ": 539,
      "ড": 540,
      "ণ": 541,
      "ত": 542,
      "থ": 543,
      "দ": 544,
      "ধ": 545,
      "ন": 546,
      "প": 547,
      "ফ": 548,
      "ব": 549,
      "ভ": 550,
      "ম": 551,
      "য": 552,
      "র": 553,
      "ল": 554,
      "শ": 555,
      "ষ": 556,
      "স": 557,
      "হ": 558,
      "়": 559,
      "া": 560,
      "ি": 561,
      "ী": 562,
      "ু": 563,
      "ূ": 564,
      "ৃ": 565,
      "ে": 566,
      "ো": 567,
      "ৌ": 568,
      "্": 569,
      "ৎ": 570,
      "০": 571,
      "১": 572,
      "২": 573,
      "ৰ": 574,
      "৷": 575,
      "ਂ": 576,
      "ਅ": 577,
      "ਆ": 578,
      "ਇ": 579,
      "ਈ": 580,
      "ਉ": 581,
      "ਏ": 582,
      "ਐ": 583,
      "ਓ": 584,
      "ਕ": 585,
      "ਖ": 586,
      "ਗ": 587,
      "ਘ": 588,
      "ਚ": 589,
      "ਛ": 590,
      "ਜ": 591,
      "ਟ": 592,
      "ਡ": 593,
      "ਣ": 594,
      "ਤ": 595,
      "ਥ": 596,
      "ਦ": 597,
      "ਧ": 598,
      "ਨ": 599,
      "ਪ": 600,
      "ਫ": 601,
      "ਬ": 602,
      "ਭ": 603,
      "ਮ": 604,
      "ਯ": 605,
      "ਰ": 606,
      "ਲ": 607,
      "ਵ": 608,
      "ਸ": 609,
      "ਹ": 610,
      "਼": 611,
      "ਾ": 612,
      "ਿ": 613,
      "ੀ": 614,
      "ੁ": 615,
      "ੂ": 616,
      "ੇ": 617,
      "ੈ": 618,
      "ੋ": 619,
      "ੌ": 620,
      "੍": 621,
      "ੜ": 622,
      "ੰ": 623,
      "ੱ": 624,
      "ં": 625,
      "અ": 626,
      "આ": 627,
      "ઇ": 628,
      "ઈ": 629,
      "ઉ": 630,
      "એ": 631,
      "ઓ": 632,
      "ક": 633,
      "ખ": 634,
      "ગ": 635,
      "ઘ": 636,
      "ચ": 637,
      "છ": 638,
      "જ": 639,
      "ઞ": 640,
      "ટ": 641,
      "ઠ": 642,
      "ડ": 643,
      "ણ": 644,
      "ત": 645,
      "થ": 646,
      "દ": 647,
      "ધ": 648,
      "ન": 649,
      "પ": 650,
      "ફ": 651,
      "બ": 652,
      "ભ": 653,
      "મ": 654,
      "ય": 655,
      "ર": 656,
      "લ": 657,
      "ળ": 658,
      "વ": 659,
      "શ": 660,
      "ષ": 661,
      "સ": 662,
      "હ": 663,
      "ા": 664,
      "િ": 665,
      "ી": 666,
      "ુ": 667,
      "ૂ": 668,
      "ૃ": 669,
      "ે": 670,
      "ૈ": 671,
      "ો": 672,
      "ૌ": 673,
      "્": 674,
      "ૐ": 675,
      "૦": 676,
      "૧": 677,
      "૨": 678,
      "૪": 679,
      "૬": 680,
      "ଁ": 681,
      "ଂ": 682,
      "ଅ": 683,
      "ଆ": 684,
      "ଇ": 685,
      "ଉ": 686,
      "ଏ": 687,
      "ଓ": 688,
      "କ": 689,
      "ଖ": 690,
      "ଗ": 691,
      "ଘ": 692,
      "ଙ": 693,
      "ଚ": 694,
      "ଛ": 695,
      "ଜ": 696,
      "ଞ": 697,
      "ଟ": 698,
      "ଠ": 699,
      "ଡ": 700,
      "ଣ": 701,
      "ତ": 702,
      "ଥ": 703,
      "ଦ": 704,
      "ଧ": 705,
      "ନ": 706,
      "ପ": 707,
      "ଫ": 708,
      "ବ": 709,
      "ଭ": 710,
      "ମ": 711,
      "ଯ": 712,
      "ର": 713,
      "ଲ": 714,
      "ଳ": 715,
      "ଵ": 716,
      "ଶ": 717,
      "ଷ": 718,
      "ସ": 719,
      "ହ": 720,
      "଼": 721,
      "ା": 722,
      "ି": 723,
      "ୀ": 724,
      "ୁ": 725,
      "ୂ": 726,
      "ୃ": 727,
      "େ": 728,
      "ୋ": 729,
      "୍": 730,
      "ୟ": 731,
      "୦": 732,
      "୧": 733,
      "୨": 734,
      "୩": 735,
      "୪": 736,
      "୫": 737,
      "୬": 738,
      "୭": 739,
      "୮": 740,
      "୯": 741,
      "ୱ": 742,
      "அ": 743,
      "க": 744,
      "ங": 745,
      "ச": 746,
      "ஜ": 747,
      "ட": 748,
      "ண": 749,
      "த": 750,
      "ந": 751,
      "ன": 752,
      "ப": 753,
      "ம": 754,
      "ய": 755,
      "ர": 756,
      "ல": 757,
      "ள": 758,
      "ழ": 759,
      "வ": 760,
      "ஸ": 761,
      "ா": 762,
      "ி": 763,
      "ீ": 764,
      "ு": 765,
      "ூ": 766,
      "ெ": 767,
      "ே": 768,
      "ை": 769,
      "ோ": 770,
      "்": 771,
      "ం": 772,
      "అ": 773,
      "ఆ": 774,
      "క": 775,
      "గ": 776,
      "చ": 777,
      "జ": 778,
      "ట": 779,
      "డ": 780,
      "త": 781,
      "ద": 782,
      "ధ": 783,
      "న": 784,
      "ప": 785,
      "ఫ": 786,
      "బ": 787,
      "భ": 788,
      "మ": 789,
      "య": 790,
      "ర": 791,
      "ల": 792,
      "వ": 793,
      "శ": 794,
      "ష": 795,
      "స": 796,
      "హ": 797,
      "ా": 798,
      "ి": 799,
      "ీ": 800,
      "ు": 801,
      "ూ": 802,
      "ె": 803,
      "ే": 804,
      "ై": 805,
      "ొ": 806,
      "ో": 807,
      "్": 808,
      "ಂ": 809,
      "ಕ": 810,
      "ಗ": 811,
      "ಟ": 812,
      "ಡ": 813,
      "ತ": 814,
      "ದ": 815,
      "ನ": 816,
      "ಪ": 817,
      "ಬ": 818,
      "ಮ": 819,
      "ಯ": 820,
      "ರ": 821,
      "ಲ": 822,
      "ಳ": 823,
      "ವ": 824,
      "ಶ": 825,
      "ಸ": 826,
      "ಹ": 827,
      "ಾ": 828,
      "ಿ": 829,
      "ು": 830,
      "ೂ": 831,
      "ೆ": 832,
      "ೋ": 833,
      "್": 834,
      "ം": 835,
      "അ": 836,
      "ക": 837,
      "ഗ": 838,
      "ങ": 839,
      "ച": 840,
      "ജ": 841,
      "ട": 842,
      "ണ": 843,
      "ത": 844,
      "ദ": 845,
      "ന": 846,
      "പ": 847,
      "ബ": 848,
      "മ": 849,
      "യ": 850,
      "ര": 851,
      "റ": 852,
      "ല": 853,
      "ള": 854,
      "വ": 855,
      "ശ": 856,
      "ഷ": 857,
      "സ": 858,
      "ാ": 859,
      "ി": 860,
      "ീ": 861,
      "ു": 862,
      "ൂ": 863,
      "െ": 864,
      "േ": 865,
      "ോ": 866,
      "്": 867,
      "ර": 868,
      "්": 869,
      "ร": 870,
      "า": 871,
      "་": 872,
      "ག": 873,
      "ད": 874,
      "བ": 875,
      "ར": 876,
      "ལ": 877,
      "ས": 878,
      "ི": 879,
      "ོ": 880,
      "န": 881,
      "မ": 882,
      "ာ": 883,
      "်": 884,
      "ြ": 885,
      "၊": 886,
      "ᅳ": 887,
      "ᆬ": 888,
      "ṇ": 889,
      "​": 890,
      "‌": 891,
      "‍": 892,
      "‎": 893,
      "‐": 894,
      "‒": 895,
      "–": 896,
      "—": 897,
      "―": 898,
      "‘": 899,
      "’": 900,
      "‚": 901,
      "‛": 902,
      "“": 903,
      "”": 904,
      "„": 905,
      "†": 906,
      "‡": 907,
      "•": 908,
      "‪": 909,
      "‫": 910,
      "‬": 911,
      "′": 912,
      "‹": 913,
      "›": 914,
      "⁄": 915,
      "€": 916,
      "₹": 917,
      "⃣": 918,
      "℞": 919,
      "←": 920,
      "↑": 921,
      "→": 922,
      "↓": 923,
      "↔": 924,
      "⇒": 925,
      "⇓": 926,
      "⇨": 927,
      "−": 928,
      "∙": 929,
      "√": 930,
      "≡": 931,
      "≤": 932,
      "≥": 933,
      "⏩": 934,
      "─": 935,
      "┄": 936,
      "┅": 937,
      "═": 938,
      "▁": 939,
      "■": 940,
      "▪": 941,
      "▬": 942,
      "▲": 943,
      "▶": 944,
      "▸": 945,
      "►": 946,
      "▼": 947,
      "◆": 948,
      "◉": 949,
      "◊": 950,
      "○": 951,
      "●": 952,
      "◦": 953,
      "◼": 954,
      "◾": 955,
      "⦁": 956,
      "⬇": 957,
      "⭐": 958,
      "、": 959,
      "。": 960,
      "》": 961,
      "【": 962,
      "】": 963,
      "〰": 964,
      "ン": 965,
      "ー": 966,
      "中": 967,
      "人": 968,
      "卐": 969,
      "国": 970,
      "大": 971,
      "文": 972,
      "新": 973,
      "日": 974,
      "民": 975,
      "理": 976,
      "管": 977,
      "語": 978,
      "다": 979,
      "아": 980,
      "은": 981,
      "을": 982,
      "이": 983,
      "": 984,
      "": 985,
      "﴾": 986,
      "﴿": 987,
      "︎": 988,
      "️": 989,
      "﻿": 990,
      "�": 991,
      "🤍": 992,
      "🤔": 993,
      "🤗": 994,
      "🤣": 995,
      "🤩": 996,
      "🤭": 997,
      "🥀": 998,
      "🥰": 999,
      "🥳": 1000,
      "🥺": 1001,
      "🦚": 1002,
      "🫶": 1003,
      "▁क": 1004,
      "▁स": 1005,
      "▁ह": 1006,
      "▁म": 1007,
      "▁प": 1008,
      "ें": 1009,
      "▁है": 1010,
      "▁के": 1011,
      "ार": 1012,
      "्र": 1013,
      "ने": 1014,
      "▁ब": 1015,
      "▁ज": 1016,
      "या": 1017,
      "▁द": 1018,
      "▁अ": 1019,
      "▁व": 1020,
      "▁ल": 1021,
      "▁में": 1022,
      "▁र": 1023,
      "ों": 1024,
      "▁न": 1025,
      "▁की": 1026,
      "ता": 1027,
      "▁को": 1028,
      "▁आ": 1029,
      "र्": 1030,
      "▁कर": 1031,
      "▁से": 1032,
      "▁उ": 1033,
      "▁त": 1034,
      "ान": 1035,
      "▁कि": 1036,
      "▁ग": 1037,
      "▁भ": 1038,
      "▁का": 1039,
      "▁इ": 1040,
      "्य": 1041,
      "▁औ": 1042,
      "▁और": 1043,
      "ना": 1044,
      "िक": 1045,
      "▁पर": 1046,
      "▁प्र": 1047,
      "स्": 1048,
      "ाल": 1049,
      "▁ए": 1050,
      "▁च": 1051,
      "▁श": 1052,
      "▁हो": 1053,
      "ही": 1054,
      "▁है।": 1055,
      "▁हैं": 1056,
      "क्": 1057,
      "▁ने": 1058,
      "िल": 1059,
      "▁य": 1060,
      "▁इस": 1061,
      "ते": 1062,
      "ड़": 1063,
      "ित": 1064,
      "▁थ": 1065,
      "हा": 1066,
      "िए": 1067,
      "▁जा": 1068,
      "▁भी": 1069,
      "के": 1070,
      "न्": 1071,
      "िय": 1072,
      "▁सा": 1073,
      "वा": 1074,
      "िया": 1075,
      "▁ख": 1076,
      "ती": 1077,
      "▁एक": 1078,
      "▁फ": 1079,
      "▁स्": 1080,
      "हीं": 1081,
      "से": 1082,
      "▁वि": 1083,
      "ंग": 1084,
      "ला": 1085,
      "▁लिए": 1086,
      "▁बा": 1087,
      "री": 1088,
      "ति": 1089,
      "▁दे": 1090,
      "रा": 1091,
      "त्र": 1092,
      "ले": 1093,
      "▁अप": 1094,
      "▁नहीं": 1095,
      "नी": 1096,
      "त्": 1097,
      "▁सम": 1098,
      "।\n": 1099,
      "ाम": 1100,
      "सी": 1101,
      "िन": 1102,
      "कर": 1103,
      "्या": 1104,
      "▁सं": 1105,
      "ोग": 1106,
      "का": 1107,
      "▁रा": 1108,
      "▁ही": 1109,
      "गा": 1110,
      "▁ले": 1111,
      "ेश": 1112,
      "▁हु": 1113,
      "▁ट": 1114,
      "िस": 1115,
      "कार": 1116,
      "▁मु": 1117,
      "▁तो": 1118,
      "▁आप": 1119,
      "▁किया": 1120,
      "ुर": 1121,
      "▁रह": 1122,
      "क्ष": 1123,
      "▁था": 1124,
      "▁ड": 1125,
      "▁यह": 1126,
      "्ट": 1127,
      "की": 1128,
      "ली": 1129,
      "▁करने": 1130,
      "्व": 1131,
      "▁नि": 1132,
      "ाय": 1133,
      "मा": 1134,
      "ंद": 1135,
      "▁पह": 1136,
      "▁गया": 1137,
      "▁साथ": 1138,
      "ारी": 1139,
      "▁उस": 1140,
      "ां": 1141,
      "ियों": 1142,
      "▁कार": 1143,
      "▁कु": 1144,
      "▁सक": 1145,
      "▁उन": 1146,
      "▁1": 1147,
      "सा": 1148,
      "▁है,": 1149,
      "▁हैं।": 1150,
      "न्ह": 1151,
      "रे": 1152,
      "▁घ": 1153,
      "्म": 1154,
      "▁है.": 1155,
      "▁जो": 1156,
      "▁2": 1157,
      "▁हम": 1158,
      "ास": 1159,
      "▁या": 1160,
      "ाह": 1161,
      "ैं": 1162,
      "ल्": 1163,
      "▁अन": 1164,
      "▁कहा": 1165,
      "कि": 1166,
      "िर": 1167,
      "▁अध": 1168,
      "▁सु": 1169,
      "भी": 1170,
      "▁अपने": 1171,
      "▁पू": 1172,
      "भा": 1173,
      "िव": 1174,
      "▁ध": 1175,
      "▁वाल": 1176,
      "▁उन्ह": 1177,
      "िला": 1178,
      "दी": 1179,
      "ढ़": 1180,
      "▁बाद": 1181,
      "▁छ": 1182,
      "्री": 1183,
      "गी": 1184,
      "च्": 1185,
      "▁लोग": 1186,
      "▁(": 1187,
      "ुल": 1188,
      "ारा": 1189,
      "▁थी": 1190,
      "▁रहे": 1191,
      "▁है।\n": 1192,
      "▁तक": 1193,
      "ंड": 1194,
      "दा": 1195,
      "▁राज": 1196,
      "स्ट": 1197,
      "▁दो": 1198,
      "▁सि": 1199,
      "गे": 1200,
      "ओं": 1201,
      "द्": 1202,
      "▁दिया": 1203,
      "▁मे": 1204,
      "जी": 1205,
      "को": 1206,
      "्रे": 1207,
      "तर": 1208,
      "▁।": 1209,
      "टी": 1210,
      "ूप": 1211,
      "वि": 1212,
      "ंच": 1213,
      "ंत्र": 1214,
      "देश": 1215,
      "रो": 1216,
      "▁ऐ": 1217,
      "▁रहा": 1218,
      "▁वह": 1219,
      "ाइ": 1220,
      "▁मह": 1221,
      "▁हुए": 1222,
      "▁उप": 1223,
      "में": 1224,
      "था": 1225,
      "ाना": 1226,
      "▁सी": 1227,
      "ोज": 1228,
      "्ष": 1229,
      "किन": 1230,
      "ष्ट": 1231,
      "प्": 1232,
      "गर": 1233,
      "▁जिस": 1234,
      "▁थे": 1235,
      "▁पा": 1236,
      "▁मा": 1237,
      "ानी": 1238,
      "▁मिल": 1239,
      "▁बार": 1240,
      "▁कुछ": 1241,
      "वी": 1242,
      "▁जी": 1243,
      "▁सर": 1244,
      "स्त": 1245,
      "▁गई": 1246,
      "▁बी": 1247,
      "िश": 1248,
      "जा": 1249,
      "▁बना": 1250,
      "▁अधिक": 1251,
      "▁चु": 1252,
      "▁भार": 1253,
      "खा": 1254,
      "▁रही": 1255,
      "▁भा": 1256,
      "▁तर": 1257,
      "▁चाह": 1258,
      "ार्": 1259,
      "▁लेकिन": 1260,
      "▁कम": 1261,
      "ोंने": 1262,
      "टर": 1263,
      "नों": 1264,
      "▁सब": 1265,
      "पी": 1266,
      "▁जब": 1267,
      "ेल": 1268,
      "▁बह": 1269,
      "▁बात": 1270,
      "ौर": 1271,
      "ूर": 1272,
      "▁करते": 1273,
      "▁बता": 1274,
      "पा": 1275,
      "▁वे": 1276,
      "र्म": 1277,
      "ड़ा": 1278,
      "▁दी": 1279,
      "▁ला": 1280,
      "ड़ी": 1281,
      "▁20": 1282,
      ".\n": 1283,
      "▁बे": 1284,
      "▁लगा": 1285,
      "▁रूप": 1286,
      "▁अनु": 1287,
      "▁पहले": 1288,
      "▁हैं,": 1289,
      "▁कोई": 1290,
      "द्र": 1291,
      "ये": 1292,
      "िंग": 1293,
      "बा": 1294,
      "▁सरकार": 1295,
      "ंध": 1296,
      "ुत": 1297,
      "▁होने": 1298,
      "▁जाए": 1299,
      "शन": 1300,
      "हां": 1301,
      "्यों": 1302,
      "▁अपनी": 1303,
      "▁स्थ": 1304,
      "▁उन्होंने": 1305,
      "▁किसी": 1306,
      "▁कह": 1307,
      "मान": 1308,
      "▁वर्": 1309,
      "▁इन": 1310,
      "द्ध": 1311,
      "▁दिन": 1312,
      "▁लोगों": 1313,
      "ीन": 1314,
      "▁अब": 1315,
      "▁मैं": 1316,
      "टे": 1317,
      "क्र": 1318,
      "ैसे": 1319,
      "▁समय": 1320,
      "बर": 1321,
      "▁विश": 1322,
      "ज़": 1323,
      "▁देख": 1324,
      "▁द्व": 1325,
      "ूस": 1326,
      "ड़े": 1327,
      "▁व्य": 1328,
      "▁तरह": 1329,
      "▁सो": 1330,
      "हर": 1331,
      "▁जाता": 1332,
      "क्त": 1333,
      "▁वाले": 1334,
      "▁जान": 1335,
      "▁गए": 1336,
      "च्च": 1337,
      "▁करें": 1338,
      "र्व": 1339,
      "म्": 1340,
      "▁इसके": 1341,
      "▁मो": 1342,
      "▁बि": 1343,
      "▁काम": 1344,
      "ूल": 1345,
      "▁मौ": 1346,
      "▁निर्": 1347,
      "स्थ": 1348,
      "▁पी": 1349,
      "▁प्रति": 1350,
      "कों": 1351,
      "▁ये": 1352,
      "▁हि": 1353,
      "ंत्री": 1354,
      "चार": 1355,
      "▁सकता": 1356,
      "र्ट": 1357,
      "दि": 1358,
      "▁देश": 1359,
      "▁उत्": 1360,
      "▁करना": 1361,
      "ेट": 1362,
      "▁रख": 1363,
      "▁बढ़": 1364,
      "▁'": 1365,
      "▁बहुत": 1366,
      "ोल": 1367,
      "▁पुल": 1368,
      "▁द्वारा": 1369,
      "▁कार्य": 1370,
      "▁दु": 1371,
      "▁लग": 1372,
      "योग": 1373,
      "▁कई": 1374,
      "▁था।": 1375,
      "▁क्ष": 1376,
      "▁सकते": 1377,
      "▁हुआ": 1378,
      "च्छ": 1379,
      "वार": 1380,
      "मी": 1381,
      "▁उनके": 1382,
      "▁टी": 1383,
      "▁ओ": 1384,
      "▁होता": 1385,
      "▁सभी": 1386,
      "्ल": 1387,
      "▁भारत": 1388,
      "ंह": 1389,
      "▁पुलिस": 1390,
      "चा": 1391,
      "्यू": 1392,
      "्स": 1393,
      "▁साल": 1394,
      "▁अं": 1395,
      "ोक": 1396,
      "्त": 1397,
      "क्षा": 1398,
      "वे": 1399,
      "वर": 1400,
      "▁शुर": 1401,
      "▁विक": 1402,
      "▁उन्हें": 1403,
      "▁ऑ": 1404,
      "▁क्या": 1405,
      "▁फिर": 1406,
      "िका": 1407,
      "जन": 1408,
      "▁-": 1409,
      "ारे": 1410,
      "..": 1411,
      "▁हुई": 1412,
      "ष्": 1413,
      "▁गु": 1414,
      "धान": 1415,
      "▁प्रा": 1416,
      "▁माम": 1417,
      "ंप": 1418,
      "वन": 1419,
      "▁वा": 1420,
      "बी": 1421,
      "▁नाम": 1422,
      "श्": 1423,
      "00": 1424,
      "वं": 1425,
      "▁हा": 1426,
      "▁3": 1427,
      "▁फिल": 1428,
      "▁हैं.": 1429,
      "▁आज": 1430,
      "▁हर": 1431,
      "टा": 1432,
      "▁ना": 1433,
      "▁लेकर": 1434,
      "िप": 1435,
      "क्ति": 1436,
      "▁रु": 1437,
      "मे": 1438,
      "क्स": 1439,
      "▁पार": 1440,
      "बंध": 1441,
      "▁पहु": 1442,
      "▁जि": 1443,
      "▁\"": 1444,
      "▁मान": 1445,
      "▁बै": 1446,
      "जे": 1447,
      "▁हैं।\n": 1448,
      "▁होगा": 1449,
      "िल्": 1450,
      "▁साम": 1451,
      "▁खु": 1452,
      "्ञ": 1453,
      "▁दि": 1454,
      "मार": 1455,
      "धार": 1456,
      "▁बन": 1457,
      "स्ता": 1458,
      "▁घर": 1459,
      "िट": 1460,
      "पर": 1461,
      "ूर्": 1462,
      "▁बताया": 1463,
      "▁चल": 1464,
      "▁क्यों": 1465,
      "▁चाहिए": 1466,
      "▁कारण": 1467,
      "▁मुख": 1468,
      "प्र": 1469,
      "म्म": 1470,
      "▁पु": 1471,
      "▁सिंह": 1472,
      "ोर": 1473,
      "▁आपको": 1474,
      "भाव": 1475,
      "ेत्र": 1476,
      "डी": 1477,
      "▁मै": 1478,
      "▁लि": 1479,
      "र्थ": 1480,
      "▁पि": 1481,
      "▁दौर": 1482,
      "ब्": 1483,
      "▁सह": 1484,
      "ंस": 1485,
      "▁करता": 1486,
      "▁जन": 1487,
      "वाल": 1488,
      "एं": 1489,
      "▁सबसे": 1490,
      "▁ग्र": 1491,
      "▁दूस": 1492,
      "▁अव": 1493,
      "▁फिल्म": 1494,
      "▁वो": 1495,
      "▁जाने": 1496,
      "▁क्षेत्र": 1497,
      "▁पास": 1498,
      "िवार": 1499,
      "्यम": 1500,
      "ून": 1501,
      "ोड़": 1502,
      "▁उसे": 1503,
      "प्त": 1504,
      "▁बु": 1505,
      "▁ता": 1506,
      "पुर": 1507,
      "▁उसके": 1508,
      "▁पहुंच": 1509,
      "्टी": 1510,
      "▁हाल": 1511,
      "▁शिक": 1512,
      "▁दर्": 1513,
      "▁बच्च": 1514,
      "▁लिया": 1515,
      "दार": 1516,
      "न्न": 1517,
      "ीड": 1518,
      "ृत": 1519,
      "▁पै": 1520,
      "▁अच्छ": 1521,
      "▁जु": 1522,
      "▁स्व": 1523,
      "तीय": 1524,
      "▁जर": 1525,
      "सर": 1526,
      "▁अभ": 1527,
      "फी": 1528,
      "▁होती": 1529,
      "दे": 1530,
      "▁ठ": 1531,
      "▁शुरू": 1532,
      "यर": 1533,
      "झे": 1534,
      "▁शाम": 1535,
      "▁सू": 1536,
      "▁मन": 1537,
      "▁निक": 1538,
      "▁दौरान": 1539,
      "्रेस": 1540,
      "एस": 1541,
      "▁5": 1542,
      "▁समा": 1543,
      "▁बीच": 1544,
      "सार": 1545,
      "▁एवं": 1546,
      "ूम": 1547,
      "▁इं": 1548,
      "▁यु": 1549,
      "्यादा": 1550,
      "त्व": 1551,
      "▁स्ट": 1552,
      "▁दोनों": 1553,
      "▁खिला": 1554,
      "▁नी": 1555,
      "शी": 1556,
      "▁उनकी": 1557,
      "दान": 1558,
      "क्ट": 1559,
      "▁झ": 1560,
      "सान": 1561,
      "कारी": 1562,
      "▁अन्य": 1563,
      "▁तथा": 1564,
      "ेंद्र": 1565,
      "र्स": 1566,
      "मु": 1567,
      "▁ऐसे": 1568,
      "▁वर्ष": 1569,
      "जार": 1570,
      "▁क्र": 1571,
      "ोट": 1572,
      "▁आई": 1573,
      "नाव": 1574,
      "एम": 1575,
      "▁राज्य": 1576,
      "▁हू": 1577,
      "▁परि": 1578,
      "▁कै": 1579,
      "िल्ली": 1580,
      "जर": 1581,
      "रण": 1582,
      "तु": 1583,
      "त्म": 1584,
      "ाने": 1585,
      "नि": 1586,
      "▁बारे": 1587,
      "वल": 1588,
      "▁बद": 1589,
      "ाई": 1590,
      "ैन": 1591,
      "▁रुप": 1592,
      "▁स्थित": 1593,
      "▁महिला": 1594,
      "▁अपना": 1595,
      "▁वाली": 1596,
      "▁4": 1597,
      "धी": 1598,
      "िये": 1599,
      "ंट": 1600,
      "▁ज्यादा": 1601,
      "▁आय": 1602,
      "▁तु": 1603,
      "क्रम": 1604,
      "श्य": 1605,
      "▁स्वा": 1606,
      "इस": 1607,
      "▁गां": 1608,
      "▁थी।": 1609,
      "ज्ञ": 1610,
      "▁अगर": 1611,
      "ेष": 1612,
      "हार": 1613,
      "▁टीम": 1614,
      "▁201": 1615,
      "▁अल": 1616,
      "▁रो": 1617,
      "▁‘": 1618,
      "ंक": 1619,
      "▁तै": 1620,
      "स्था": 1621,
      "▁ऐसा": 1622,
      "▁दिल्ली": 1623,
      "ेंगे": 1624,
      "▁प्रदेश": 1625,
      "▁थे।": 1626,
      "लों": 1627,
      "ियां": 1628,
      "्रीय": 1629,
      "▁फै": 1630,
      "लिए": 1631,
      "चित": 1632,
      "▁यहां": 1633,
      "जू": 1634,
      "ोन": 1635,
      "्ड": 1636,
      "▁ई": 1637,
      "▁देने": 1638,
      "ोजना": 1639,
      "▁है.\n": 1640,
      "▁मुझे": 1641,
      "▁मामले": 1642,
      "ताओं": 1643,
      "टना": 1644,
      "वाद": 1645,
      "▁समझ": 1646,
      "हत": 1647,
      "▁जैसे": 1648,
      "दर्": 1649,
      "▁इसे": 1650,
      "गत": 1651,
      "▁बैठ": 1652,
      "▁शामिल": 1653,
      "िम": 1654,
      "आई": 1655,
      "स्प": 1656,
      "्रा": 1657,
      "गा।": 1658,
      "गी।": 1659,
      "ाली": 1660,
      "▁बो": 1661,
      "▁निय": 1662,
      "ुक": 1663,
      "▁क्योंकि": 1664,
      "वास": 1665,
      "चना": 1666,
      "▁राष्ट": 1667,
      "▁भारतीय": 1668,
      "▁आरो": 1669,
      "▁अग": 1670,
      "▁कॉ": 1671,
      "▁श्री": 1672,
      "▁जाती": 1673,
      "▁सकती": 1674,
      "ियो": 1675,
      "न्द": 1676,
      "▁ओर": 1677,
      "णा": 1678,
      "▁किए": 1679,
      "▁।\n": 1680,
      "▁काफी": 1681,
      "▁उठ": 1682,
      "निया": 1683,
      "धा": 1684,
      "ेज": 1685,
      "▁कंप": 1686,
      "ोर्ट": 1687,
      "ंब": 1688,
      "▁सुर": 1689,
      "▁डॉ": 1690,
      "भाग": 1691,
      "लय": 1692,
      "▁गो": 1693,
      "▁डि": 1694,
      "▁शु": 1695,
      "▁जीवन": 1696,
      "▁आपके": 1697,
      "द्य": 1698,
      "फ़": 1699,
      "▁व्या": 1700,
      "लो": 1701,
      "र्ड": 1702,
      "▁शा": 1703,
      "▁होते": 1704,
      "ंग्रेस": 1705,
      "▁ऊ": 1706,
      "्यक्ष": 1707,
      "▁जानकारी": 1708,
      "▁चुनाव": 1709,
      "▁वै": 1710,
      "ोष": 1711,
      "▁इसी": 1712,
      "▁इसलिए": 1713,
      "त्रा": 1714,
      "▁उपयोग": 1715,
      "▁गया।": 1716,
      "▁छा": 1717,
      "▁ट्र": 1718,
      "▁पार्टी": 1719,
      "▁विशेष": 1720,
      "▁था,": 1721,
      "वान": 1722,
      "▁तैय": 1723,
      "▁तीन": 1724,
      "▁पूरी": 1725,
      "▁संबंध": 1726,
      "तिक": 1727,
      "ुरु": 1728,
      "करण": 1729,
      "▁सामने": 1730,
      "▁पूर्व": 1731,
      "▁व्यक्ति": 1732,
      "▁पड़": 1733,
      "स्क": 1734,
      "ंत": 1735,
      "▁महा": 1736,
      "क्टर": 1737,
      "▁इससे": 1738,
      "िता": 1739,
      "वाई": 1740,
      "▁स्क": 1741,
      "▁कांग्रेस": 1742,
      "▁ली": 1743,
      "▁शिक्ष": 1744,
      "▁अनुसार": 1745,
      "ेशन": 1746,
      "तों": 1747,
      "▁तब": 1748,
      "▁आव": 1749,
      "दन": 1750,
      "ूर्ण": 1751,
      "▁खा": 1752,
      "▁खिलाफ": 1753,
      "▁चौ": 1754,
      "▁जारी": 1755,
      "र्ष": 1756,
      "▁कुमार": 1757,
      "धिक": 1758,
      "▁मार्": 1759,
      "माण": 1760,
      "चे": 1761,
      "▁प्रकार": 1762,
      "ेंट": 1763,
      "▁सुन": 1764,
      "▁अभी": 1765,
      "त्य": 1766,
      "▁व्यव": 1767,
      "▁6": 1768,
      "▁यदि": 1769,
      "▁कभी": 1770,
      "▁योजना": 1771,
      "▁हों": 1772,
      "ची": 1773,
      "▁19": 1774,
      "▁याद": 1775,
      "▁वहीं": 1776,
      "▁जग": 1777,
      "▁आने": 1778,
      "▁संग": 1779,
      "श्यक": 1780,
      "त्या": 1781,
      "▁मद": 1782,
      "हाँ": 1783,
      "▁ब्र": 1784,
      "▁चे": 1785,
      "▁केवल": 1786,
      "▁रे": 1787,
      "ार्थ": 1788,
      "▁परिवार": 1789,
      "पूर्ण": 1790,
      "\\n": 1791,
      "?\n": 1792,
      "▁लड़": 1793,
      "▁प्रे": 1794,
      "▁हमारे": 1795,
      "▁सफ": 1796,
      "इन": 1797,
      "▁ज़": 1798,
      "ूट": 1799,
      "ष्ठ": 1800,
      "▁जिन": 1801,
      "र्क": 1802,
      "▁पिछ": 1803,
      "▁अला": 1804,
      "ोध": 1805,
      "▁उसकी": 1806,
      "▁आगे": 1807,
      "▁प्राप्त": 1808,
      "▁पद": 1809,
      "शा": 1810,
      "▁भर": 1811,
      "▁छो": 1812,
      "▁कप": 1813,
      "▁पढ़": 1814,
      "्यान": 1815,
      "▁बल्": 1816,
      "▁दें": 1817,
      "तना": 1818,
      "▁स्प": 1819,
      "▁आवश्यक": 1820,
      "▁हे": 1821,
      "ायर": 1822,
      "यी": 1823,
      "▁दिखा": 1824,
      "▁जिसमें": 1825,
      "▁लाख": 1826,
      "▁हाथ": 1827,
      "▁मेरे": 1828,
      "▁पत्र": 1829,
      "▁प्रश": 1830,
      "▁विकास": 1831,
      "ाला": 1832,
      "▁आए": 1833,
      "ूत": 1834,
      "▁ची": 1835,
      "▁था.": 1836,
      "▁10": 1837,
      "तार": 1838,
      "▁अलग": 1839,
      "ल्प": 1840,
      "▁जै": 1841,
      "▁जाते": 1842,
      "▁करे": 1843,
      "▁उनका": 1844,
      "▁टे": 1845,
      "▁एस": 1846,
      "▁मांग": 1847,
      "▁बड़ी": 1848,
      "भव": 1849,
      "▁अलावा": 1850,
      "▁राम": 1851,
      "▁योग": 1852,
      "▁चार": 1853,
      "▁करती": 1854,
      "▁हूं": 1855,
      "▁अस": 1856,
      "रिक": 1857,
      "▁पानी": 1858,
      "▁202": 1859,
      "▁बनाने": 1860,
      "▁मंत्री": 1861,
      "▁में,": 1862,
      "▁दर": 1863,
      "▁आम": 1864,
      "▁विश्व": 1865,
      "ंबर": 1866,
      "▁दा": 1867,
      "▁बाहर": 1868,
      "स्तान": 1869,
      "तन": 1870,
      "्यालय": 1871,
      "▁मदद": 1872,
      "▁बेह": 1873,
      "▁जांच": 1874,
      "▁पता": 1875,
      "ख्या": 1876,
      "▁इसका": 1877,
      "▁अधिकार": 1878,
      "▁गिर": 1879,
      "र्फ": 1880,
      "▁यू": 1881,
      "जब": 1882,
      "▁मोदी": 1883,
      "िले": 1884,
      "▁आदि": 1885,
      "▁इस्": 1886,
      "ांकि": 1887,
      "्यमंत्री": 1888,
      "▁7": 1889,
      "धि": 1890,
      "जूद": 1891,
      "▁मत": 1892,
      "▁आधार": 1893,
      "क्षण": 1894,
      "▁किया।": 1895,
      "ुक्त": 1896,
      "▁जहां": 1897,
      "रोना": 1898,
      "▁चला": 1899,
      "▁आरोप": 1900,
      "लि": 1901,
      "▁घटना": 1902,
      "▁करोड़": 1903,
      "सभा": 1904,
      "▁लोक": 1905,
      "▁:": 1906,
      "स्या": 1907,
      "हम": 1908,
      "पाल": 1909,
      "▁विभाग": 1910,
      "▁खेल": 1911,
      "▁इसमें": 1912,
      "▁तैयार": 1913,
      "▁अम": 1914,
      "ेंद": 1915,
      "ंगे": 1916,
      "हित": 1917,
      "णी": 1918,
      "▁इला": 1919,
      "▁आया": 1920,
      "▁सद": 1921,
      "▁दूसरे": 1922,
      "ग्र": 1923,
      "▁ध्यान": 1924,
      "▁किसान": 1925,
      "▁प्रधान": 1926,
      "▁गा": 1927,
      "▁मीड": 1928,
      "ंदर": 1929,
      "▁रुपये": 1930,
      "▁बड़े": 1931,
      "ताब": 1932,
      "▁पां": 1933,
      "▁कोरोना": 1934,
      "▁करके": 1935,
      "मुख": 1936,
      "▁करी": 1937,
      "ीस": 1938,
      "राज": 1939,
      "जह": 1940,
      "▁इंड": 1941,
      "▁मीडिया": 1942,
      "▁बैं": 1943,
      "▁स्थान": 1944,
      "ासन": 1945,
      "▁मिला": 1946,
      "▁जरूर": 1947,
      "ूरी": 1948,
      "हन": 1949,
      "▁प्रभाव": 1950,
      "▁जगह": 1951,
      "▁,": 1952,
      "ाइन": 1953,
      "▁कहा,": 1954,
      "▁कैसे": 1955,
      "▁ढ": 1956,
      "▁अध्यक्ष": 1957,
      "जपा": 1958,
      "▁स्थिति": 1959,
      "▁कान": 1960,
      "वेश": 1961,
      "▁खुद": 1962,
      "▁दुनिया": 1963,
      "सल": 1964,
      "▁दिनों": 1965,
      "▁गांव": 1966,
      "ेद": 1967,
      "▁मिले": 1968,
      "▁उसने": 1969,
      "पन": 1970,
      "मेंट": 1971,
      "▁पूरा": 1972,
      "▁देते": 1973,
      "▁पे": 1974,
      "ियर": 1975,
      "▁पिछले": 1976,
      "▁जाना": 1977,
      "▁समाज": 1978,
      "▁8": 1979,
      "▁शे": 1980,
      "▁वाला": 1981,
      "▁समस्या": 1982,
      "्ला": 1983,
      "▁वजह": 1984,
      "▁हालांकि": 1985,
      "िन्न": 1986,
      "जों": 1987,
      "प्ता": 1988,
      "आर": 1989,
      "▁मुख्य": 1990,
      "▁सेवा": 1991,
      "▁आर": 1992,
      "म्मी": 1993,
      "▁विचार": 1994,
      "▁बंद": 1995,
      "यन": 1996,
      "▁रिप": 1997,
      "▁मैंने": 1998,
      "▁व्याप": 1999,
      "▁बॉ": 2000,
      "▁कृ": 2001,
      "▁दिए": 2002,
      "▁नई": 2003,
      "िज": 2004,
      "▁भाग": 2005,
      "▁दूर": 2006,
      "काश": 2007,
      "षा": 2008,
      "शल": 2009,
      "ोजन": 2010,
      "▁जिला": 2011,
      "▁केंद्र": 2012,
      "मंत्री": 2013,
      "▁मुख्यमंत्री": 2014,
      "▁कर्म": 2015,
      "िश्": 2016,
      "न्द्र": 2017,
      "ैंड": 2018,
      "ियन": 2019,
      "▁फ़": 2020,
      "इट": 2021,
      "▁प्रो": 2022,
      "राम": 2023,
      "▁बस": 2024,
      "▁रहने": 2025,
      "तम": 2026,
      "▁पर्": 2027,
      "डे": 2028,
      "ंज": 2029,
      "ताल": 2030,
      "▁उत्तर": 2031,
      "▁जबकि": 2032,
      "▁बच्चों": 2033,
      "▁जिसके": 2034,
      "▁डी": 2035,
      "भग": 2036,
      "▁दर्ज": 2037,
      "▁महत्व": 2038,
      "▁हमें": 2039,
      "माल": 2040,
      "▁बड़ा": 2041,
      "▁मही": 2042,
      "▁पूछ": 2043,
      "▁पत्": 2044,
      "▁सर्व": 2045,
      "▁भाजपा": 2046,
      "काल": 2047,
      "▁होना": 2048,
      "▁कंपनी": 2049,
      "▁शहर": 2050,
      "▁डे": 2051,
      "ुआ": 2052,
      "ाया": 2053,
      "▁अमे": 2054,
      "▁पो": 2055,
      "ध्यम": 2056,
      "▁लाभ": 2057,
      "सि": 2058,
      "ायक": 2059,
      "ीर": 2060,
      "▁बिना": 2061,
      "▁छोड़": 2062,
      "फ्त": 2063,
      "▁नजर": 2064,
      "श्व": 2065,
      "▁अच्छा": 2066,
      "in": 2067,
      "बे": 2068,
      "▁ऐसी": 2069,
      "कु": 2070,
      "▁मूल": 2071,
      "▁परी": 2072,
      "▁9": 2073,
      "▁श्र": 2074,
      "ीक": 2075,
      "▁मैच": 2076,
      "▁नौ": 2077,
      "▁लिये": 2078,
      "शि": 2079,
      "▁लगे": 2080,
      "▁सौ": 2081,
      "ायत": 2082,
      "▁हिस्": 2083,
      "यास": 2084,
      "दों": 2085,
      "स्थ्य": 2086,
      "कर्": 2087,
      "▁आस": 2088,
      "▁कार्यक्रम": 2089,
      "रीर": 2090,
      "▁करेंगे": 2091,
      "▁वहां": 2092,
      "▁हजार": 2093,
      "▁लेने": 2094,
      "ंदी": 2095,
      "▁बाल": 2096,
      "ित्र": 2097,
      "▁उसका": 2098,
      "ष्य": 2099,
      "▁रिपोर्ट": 2100,
      "ेंस": 2101,
      "▁कल": 2102,
      "▁नए": 2103,
      "डा": 2104,
      "बाद": 2105,
      "▁वीड": 2106,
      "▁कोश": 2107,
      "-प": 2108,
      "▁जिससे": 2109,
      "ीय": 2110,
      "▁जाएगा": 2111,
      "▁चि": 2112,
      "जय": 2113,
      "ाइल": 2114,
      "▁आद": 2115,
      "ंगा": 2116,
      "▁ग्राम": 2117,
      "रों": 2118,
      "▁तहत": 2119,
      "▁होगी": 2120,
      "▁विध": 2121,
      "▁स्कूल": 2122,
      "बह": 2123,
      "▁दिया।": 2124,
      "▁लिख": 2125,
      "▁करीब": 2126,
      "ंगल": 2127,
      "▁संख्या": 2128,
      "▁कौ": 2129,
      "▁नेता": 2130,
      "मो": 2131,
      "▁ट्रे": 2132,
      "▁खे": 2133,
      "मत": 2134,
      "▁ऑफ": 2135,
      "▁सच": 2136,
      "▁रात": 2137,
      "▁इसकी": 2138,
      "▁वीडियो": 2139,
      "वरी": 2140,
      "▁सुरक्षा": 2141,
      "हरा": 2142,
      "▁उम्मी": 2143,
      "▁धर्म": 2144,
      "▁सिर्फ": 2145,
      "्ले": 2146,
      "▁पं": 2147,
      "▁डाल": 2148,
      "▁सम्म": 2149,
      "स्थित": 2150,
      "दर्शन": 2151,
      "▁अधिकारी": 2152,
      "▁शर्": 2153,
      "▁देखा": 2154,
      "▁स्वास्थ्य": 2155,
      "▁राष्ट्र": 2156,
      "▁लगभग": 2157,
      "▁जल्": 2158,
      "▁12": 2159,
      "▁मेरी": 2160,
      "▁मां": 2161,
      "▁मार": 2162,
      "▁कहना": 2163,
      "▁तुम": 2164,
      "▁तरी": 2165,
      "▁ते": 2166,
      "त्री": 2167,
      "▁राजनी": 2168,
      "...": 2169,
      "▁खरी": 2170,
      "ियम": 2171,
      "▁15": 2172,
      "▁शिक्षा": 2173,
      "▁उत्पा": 2174,
      "▁विभ": 2175,
      "▁मध": 2176,
      "an": 2177,
      "स्थान": 2178,
      "▁पहली": 2179,
      "▁उम्मीद": 2180,
      "▁जीत": 2181,
      "▁अस्प": 2182,
      "▁फैस": 2183,
      "कान": 2184,
      "▁माध्यम": 2185,
      "\n-": 2186,
      "▁भाव": 2187,
      "▁तरफ": 2188,
      "र्ण": 2189,
      "सम": 2190,
      "▁माल": 2191,
      "▁शादी": 2192,
      "त्ता": 2193,
      "ुन": 2194,
      "▁शरीर": 2195,
      "▁सदस": 2196,
      "▁मौत": 2197,
      "▁न्या": 2198,
      "▁थी.": 2199,
      "ल्ड": 2200,
      "वाह": 2201,
      "▁निर्माण": 2202,
      "▁पाकि": 2203,
      "▁स्तर": 2204,
      "व्य": 2205,
      "▁यही": 2206,
      "▁चाहते": 2207,
      "बल": 2208,
      "▁भूम": 2209,
      "चान": 2210,
      "▁निर्देश": 2211,
      "राब": 2212,
      "▁सम्": 2213,
      "▁कोशिश": 2214,
      "▁पूरे": 2215,
      "▁शिव": 2216,
      "▁खान": 2217,
      "र्च": 2218,
      "▁होगा।": 2219,
      "▁दिल": 2220,
      "▁प्रधानमंत्री": 2221,
      "ज्ञान": 2222,
      "▁मंद": 2223,
      "▁सके": 2224,
      "▁जल": 2225,
      "श्च": 2226,
      "▁छात्र": 2227,
      "▁कोर्ट": 2228,
      "ुट": 2229,
      "बार": 2230,
      "▁जिले": 2231,
      "ग्": 2232,
      "▁उपल": 2233,
      "ृति": 2234,
      "▁न्यू": 2235,
      "▁अर्": 2236,
      "▁मुताब": 2237,
      "त्मक": 2238,
      "▁मुताबिक": 2239,
      "▁मि": 2240,
      "▁बल्कि": 2241,
      "▁वाप": 2242,
      "मारी": 2243,
      "▁था।\n": 2244,
      "▁पांच": 2245,
      "ण्ड": 2246,
      "पति": 2247,
      "▁विरो": 2248,
      "▁अच्छी": 2249,
      "▁गई।": 2250,
      "▁सही": 2251,
      "▁विभिन्न": 2252,
      "▁बच्चे": 2253,
      "▁कहते": 2254,
      "▁सामान": 2255,
      "▁उपलब्": 2256,
      "र्चा": 2257,
      "ैल": 2258,
      "▁रोक": 2259,
      "▁बदल": 2260,
      "शत": 2261,
      "▁सवाल": 2262,
      "▁लगता": 2263,
      "▁मिली": 2264,
      "▁खबर": 2265,
      "▁धन": 2266,
      "▁घोष": 2267,
      "▁थीं": 2268,
      "▁रखा": 2269,
      "न्होंने": 2270,
      "▁ठीक": 2271,
      "तेमाल": 2272,
      "▁जनता": 2273,
      "▁इस्तेमाल": 2274,
      "ॉक": 2275,
      "ृष्ट": 2276,
      "▁चाहिए।": 2277,
      "▁प्रदान": 2278,
      "▁थी,": 2279,
      "▁बैंक": 2280,
      "▁सफल": 2281,
      "रि": 2282,
      "▁गयी": 2283,
      "मन": 2284,
      "▁मंदिर": 2285,
      "स्तव": 2286,
      "▁एन": 2287,
      "▁चा": 2288,
      "भार": 2289,
      "▁कुल": 2290,
      "▁पेश": 2291,
      "▁तौर": 2292,
      "-अ": 2293,
      "एक": 2294,
      "▁जिसे": 2295,
      "▁राष्ट्रीय": 2296,
      "▁पुर": 2297,
      "▁देखने": 2298,
      "▁वित": 2299,
      "▁नियम": 2300,
      "▁ख़": 2301,
      "▁प्रमुख": 2302,
      "▁आपकी": 2303,
      "▁अर": 2304,
      "▁महत्वपूर्ण": 2305,
      "म्ह": 2306,
      "▁मी": 2307,
      "▁महीने": 2308,
      "▁की।": 2309,
      "▁उद": 2310,
      "▁रखने": 2311,
      "▁१": 2312,
      "▁अंत": 2313,
      "▁बचा": 2314,
      "ar": 2315,
      "20": 2316,
      "▁हैं.\n": 2317,
      "द्धि": 2318,
      "▁पस": 2319,
      "▁दूसरी": 2320,
      "▁विष": 2321,
      "▁अंतर": 2322,
      "▁पीछ": 2323,
      "तनी": 2324,
      "स्वी": 2325,
      "ंख": 2326,
      "ालय": 2327,
      "एल": 2328,
      "न्म": 2329,
      "यह": 2330,
      "▁आग": 2331,
      "▁गै": 2332,
      "षण": 2333,
      "▁डा": 2334,
      "▁लेख": 2335,
      "▁अति": 2336,
      "▁भग": 2337,
      "यान": 2338,
      "ांत": 2339,
      "मिक": 2340,
      "▁देता": 2341,
      "▁लगातार": 2342,
      "हाय": 2343,
      "ेक": 2344,
      "▁संघ": 2345,
      "▁थे,": 2346,
      "त्ति": 2347,
      "पित": 2348,
      "▁दल": 2349,
      "टक": 2350,
      "वासी": 2351,
      "▁थो": 2352,
      "▁दिख": 2353,
      "युक्त": 2354,
      "▁पाल": 2355,
      "▁उपलब्ध": 2356,
      "▁मौजूद": 2357,
      "▁वृ": 2358,
      "उन": 2359,
      "▁यादव": 2360,
      "ूब": 2361,
      "▁उच्च": 2362,
      "ॉल": 2363,
      "▁सोच": 2364,
      "वाब": 2365,
      "▁वायर": 2366,
      "▁बाजार": 2367,
      "▁होंगे": 2368,
      "▁पिता": 2369,
      "▁बजे": 2370,
      "नाथ": 2371,
      "▁चुके": 2372,
      "▁प्रयास": 2373,
      "▁नगर": 2374,
      "▁अस्पताल": 2375,
      "▁मजब": 2376,
      "▁संप": 2377,
      "▁पाकिस्तान": 2378,
      "▁उम": 2379,
      "▁विधान": 2380,
      "ेशा": 2381,
      "▁जम": 2382,
      "▁स्था": 2383,
      "एन": 2384,
      "▁रंग": 2385,
      "▁बढ़ा": 2386,
      "हास": 2387,
      "ड़क": 2388,
      "▁विदेश": 2389,
      "दम": 2390,
      "▁हूँ": 2391,
      "▁अभि": 2392,
      "▁गल": 2393,
      "▁मंत्र": 2394,
      "ें।": 2395,
      "▁सुबह": 2396,
      "लब": 2397,
      "▁प्रदर्शन": 2398,
      "▁बैठक": 2399,
      "▁ज्ञ": 2400,
      "▁गांधी": 2401,
      "▁S": 2402,
      "▁शुरुआ": 2403,
      "▁जे": 2404,
      "▁समर्थ": 2405,
      "लाई": 2406,
      "▁लाल": 2407,
      "▁व्यवस्था": 2408,
      "▁दिव": 2409,
      "द्यालय": 2410,
      "भर": 2411,
      "▁किस": 2412,
      "▁राशि": 2413,
      "ंदा": 2414,
      "er": 2415,
      "▁बनाया": 2416,
      "श्म": 2417,
      "ंटे": 2418,
      "▁लगी": 2419,
      "▁नही": 2420,
      "क्रिया": 2421,
      "▁नर": 2422,
      "क्षित": 2423,
      "▁अफ": 2424,
      "▁गये": 2425,
      "शु": 2426,
      "▁निकल": 2427,
      "▁शर्मा": 2428,
      "क्शन": 2429,
      "▁आवश्यकता": 2430,
      "▁लिखा": 2431,
      "▁रोज": 2432,
      "विधा": 2433,
      "▁बच": 2434,
      "ात": 2435,
      "▁लो": 2436,
      "जि": 2437,
      "on": 2438,
      "▁C": 2439,
      "▁ऊपर": 2440,
      "▁गं": 2441,
      "-1": 2442,
      "र्न": 2443,
      "ेंड": 2444,
      "▁ब्ल": 2445,
      "!\n": 2446,
      "▁प्रकाश": 2447,
      "यं": 2448,
      "▁लाइ": 2449,
      "लाइन": 2450,
      "▁गुरु": 2451,
      "धन": 2452,
      "ग्री": 2453,
      "▁राह": 2454,
      "▁तुम्ह": 2455,
      "▁हमेशा": 2456,
      "▁माना": 2457,
      "▁शी": 2458,
      "गढ़": 2459,
      "ठन": 2460,
      "्वी": 2461,
      "▁पीछे": 2462,
      "▁रन": 2463,
      "▁पक": 2464,
      "▁प्रतिशत": 2465,
      "▁गिरफ्त": 2466,
      "▁सूचना": 2467,
      "▁11": 2468,
      "▁उसी": 2469,
      "▁यात्रा": 2470,
      "▁व्यापार": 2471,
      "▁बज": 2472,
      "ड़ों": 2473,
      "कट": 2474,
      "at": 2475,
      "▁परेश": 2476,
      "हाल": 2477,
      "▁थे.": 2478,
      "▁विषय": 2479,
      "▁सहाय": 2480,
      "द्योग": 2481,
      "ैक": 2482,
      "तरा": 2483,
      "▁रहते": 2484,
      "लाह": 2485,
      "▁)": 2486,
      "जिक": 2487,
      "▁सहित": 2488,
      "▁शब्": 2489,
      "▁बेहतर": 2490,
      "▁फे": 2491,
      "▁अधिकारियों": 2492,
      "▁रि": 2493,
      "▁“": 2494,
      "क्सी": 2495,
      "▁कहीं": 2496,
      "▁जरूरत": 2497,
      "▁चुकी": 2498,
      "तिहास": 2499,
      "खंड": 2500,
      "▁अर्थ": 2501,
      "▁चर्चा": 2502,
      "कल": 2503,
      "▁सीट": 2504,
      "ल्स": 2505,
      "▁युव": 2506,
      "▁कार्र": 2507,
      "▁महिलाओं": 2508,
      "▁लक्ष": 2509,
      "▁खास": 2510,
      "गल": 2511,
      "जेपी": 2512,
      "▁एम": 2513,
      "▁पक्ष": 2514,
      "ंका": 2515,
      "▁आदेश": 2516,
      "▁जाएगा।": 2517,
      "▁मिश": 2518,
      "▁खरीद": 2519,
      "▁A": 2520,
      "▁वास्तव": 2521,
      "तान": 2522,
      "न्हें": 2523,
      "चाल": 2524,
      "▁रुपए": 2525,
      "भीर": 2526,
      "▁बनाए": 2527,
      "▁परीक्षा": 2528,
      "टन": 2529,
      "▁भाई": 2530,
      "▁गति": 2531,
      "▁पोस्ट": 2532,
      "▁देना": 2533,
      "▁युवा": 2534,
      "▁प्य": 2535,
      "▁जन्म": 2536,
      "▁हमारी": 2537,
      "िटी": 2538,
      "मैं": 2539,
      "▁प्रक्रिया": 2540,
      "▁बोल": 2541,
      "▁कार्रवाई": 2542,
      "▁सोशल": 2543,
      "▁मिलने": 2544,
      "▁उठा": 2545,
      "▁एक्स": 2546,
      "तने": 2547,
      "000": 2548,
      "मता": 2549,
      "▁इंटर": 2550,
      "▁होकर": 2551,
      "▁शेयर": 2552,
      "्यो": 2553,
      "यू": 2554,
      "▁200": 2555,
      "ष्ण": 2556,
      "▁देव": 2557,
      "▁दू": 2558,
      "▁इतना": 2559,
      "र्य": 2560,
      "र्ग": 2561,
      "▁लिए,": 2562,
      "▁ड्र": 2563,
      "वादी": 2564,
      "▁कमी": 2565,
      "▁सुविधा": 2566,
      "▁लगाया": 2567,
      "▁देखते": 2568,
      "▁मेरा": 2569,
      "▁अंग": 2570,
      "▁सेना": 2571,
      "चर": 2572,
      "सं": 2573,
      "▁जवाब": 2574,
      "-क": 2575,
      "तंत्र": 2576,
      "▁स्वी": 2577,
      "▁अवसर": 2578,
      "ूह": 2579,
      "िली": 2580,
      "▁ताकि": 2581,
      "किल": 2582,
      "तियों": 2583,
      "▁मामला": 2584,
      "▁भु": 2585,
      "▁बने": 2586,
      "▁करें।": 2587,
      "पे": 2588,
      "▁नीचे": 2589,
      "▁पसंद": 2590,
      "▁मध्य": 2591,
      "▁पंच": 2592,
      "▁आत": 2593,
      "दाय": 2594,
      "▁सीमा": 2595,
      "▁चुन": 2596,
      "▁क्ल": 2597,
      "▁किसानों": 2598,
      "▁तेज": 2599,
      "फा": 2600,
      "िकेट": 2601,
      "रिका": 2602,
      "धे": 2603,
      "▁विरोध": 2604,
      "▁आख": 2605,
      "गू": 2606,
      "▁लौ": 2607,
      "▁पत्नी": 2608,
      "▁चलते": 2609,
      "ंबई": 2610,
      "ॉप": 2611,
      "▁वापस": 2612,
      "▁मना": 2613,
      "▁परिव": 2614,
      "▁विधानसभा": 2615,
      "▁चुका": 2616,
      "▁18": 2617,
      "कृत": 2618,
      "▁मौके": 2619,
      "▁शो": 2620,
      "▁उद्": 2621,
      "लर": 2622,
      "▁–": 2623,
      "▁फर": 2624,
      "णाम": 2625,
      "अप": 2626,
      "▁भगवान": 2627,
      "▁भाषा": 2628,
      "▁बिज": 2629,
      "▁प्रशासन": 2630,
      "हि": 2631,
      "▁चिक": 2632,
      "▁बिहार": 2633,
      "▁विप": 2634,
      "वेदन": 2635,
      ")\n": 2636,
      "▁इंडिया": 2637,
      "▁संभाव": 2638,
      "ार्ड": 2639,
      "िक्ष": 2640,
      "ुड": 2641,
      "▁रेल": 2642,
      "मति": 2643,
      "गार": 2644,
      "ोजित": 2645,
      "▁P": 2646,
      "▁निकाल": 2647,
      "ार्म": 2648,
      "साय": 2649,
      "▁सरकारी": 2650,
      "▁हत्या": 2651,
      "नो": 2652,
      "झा": 2653,
      "▁मृत": 2654,
      "▁बीजेपी": 2655,
      "▁गंभीर": 2656,
      "▁रहता": 2657,
      "▁वाह": 2658,
      "आप": 2659,
      "▁समु": 2660,
      "▁माह": 2661,
      "▁गेंद": 2662,
      "▁सांस": 2663,
      "नीय": 2664,
      "▁पति": 2665,
      "▁है?": 2666,
      "▁पड़ा": 2667,
      "क़": 2668,
      "▁अद": 2669,
      "न्तु": 2670,
      "ेंगे।": 2671,
      "िशा": 2672,
      "▁अंदर": 2673,
      "ंद्र": 2674,
      "▁फोन": 2675,
      "ायल": 2676,
      "पु": 2677,
      "▁सदस्य": 2678,
      "बू": 2679,
      "▁संक्रम": 2680,
      "▁शुरुआत": 2681,
      "ूं": 2682,
      "एफ": 2683,
      "▁टेस्ट": 2684,
      "्वर": 2685,
      "▁देर": 2686,
      "▁सिद्ध": 2687,
      "▁I": 2688,
      "▁निवेश": 2689,
      "▁बर": 2690,
      "▁खो": 2691,
      "▁गए।": 2692,
      "▁वन": 2693,
      "▁रव": 2694,
      "▁देशों": 2695,
      "▁सम्मान": 2696,
      "▁गि": 2697,
      "हरी": 2698,
      "▁ती": 2699,
      "लू": 2700,
      "’’": 2701,
      "क्षि": 2702,
      "▁?": 2703,
      "▁30": 2704,
      "▁चीन": 2705,
      "पू": 2706,
      "\"\n": 2707,
      "्रम": 2708,
      "▁दौ": 2709,
      "▁भू": 2710,
      "▁मुद्": 2711,
      "▁प्रेम": 2712,
      "सु": 2713,
      "▁करा": 2714,
      "▁फैसला": 2715,
      "र्थिक": 2716,
      "▁यहाँ": 2717,
      "▁सर्": 2718,
      "ोस": 2719,
      "लिया": 2720,
      "रीज": 2721,
      "▁हो,": 2722,
      "न,": 2723,
      "तः": 2724,
      "▁‘‘": 2725,
      "▁अमेरिका": 2726,
      "▁जमा": 2727,
      "▁तस्वी": 2728,
      "▁14": 2729,
      "▁बयान": 2730,
      "es": 2731,
      "▁हिस्सा": 2732,
      "▁साफ": 2733,
      "रु": 2734,
      "▁हास": 2735,
      "▁शाह": 2736,
      "िकल": 2737,
      "▁थाना": 2738,
      "▁राय": 2739,
      "▁वालों": 2740,
      "▁वही": 2741,
      "▁जल्द": 2742,
      "▁मिन": 2743,
      "▁कला": 2744,
      "▁पाए": 2745,
      "जें": 2746,
      "▁25": 2747,
      "▁रोग": 2748,
      "▁पूर्ण": 2749,
      "▁उससे": 2750,
      "▁प्रत्य": 2751,
      "▁छोटे": 2752,
      "▁हाई": 2753,
      "▁सहयोग": 2754,
      "▁अप्र": 2755,
      "र्ती": 2756,
      "तक": 2757,
      "▁रिक": 2758,
      "वरण": 2759,
      "▁गुण": 2760,
      "फे": 2761,
      "▁शिकायत": 2762,
      "▁स्पष्ट": 2763,
      "स्त्र": 2764,
      "▁परिणाम": 2765,
      "करी": 2766,
      "▁दिखाई": 2767,
      "्रीम": 2768,
      "▁सामान्य": 2769,
      "▁.": 2770,
      "बंधन": 2771,
      "कत": 2772,
      "▁रू": 2773,
      "▁फीस": 2774,
      "षि": 2775,
      "िकों": 2776,
      "▁फ्र": 2777,
      "▁कानून": 2778,
      "▁पहचान": 2779,
      "▁अख": 2780,
      "▁वक्त": 2781,
      "▁प्यार": 2782,
      "्यु": 2783,
      "▁जरूरी": 2784,
      "धर": 2785,
      "▁कौन": 2786,
      "▁समान": 2787,
      "▁शक्ति": 2788,
      "मि": 2789,
      "टेड": 2790,
      "ंभ": 2791,
      "▁आर्थिक": 2792,
      "नेट": 2793,
      "▁संबंधित": 2794,
      "▁प्रयोग": 2795,
      "ांस": 2796,
      "▁नंबर": 2797,
      "मर": 2798,
      "ट्ट": 2799,
      "ोरी": 2800,
      "▁कमा": 2801,
      "रात": 2802,
      "तृ": 2803,
      "▁मुंबई": 2804,
      "▁ऋ": 2805,
      "▁भे": 2806,
      "▁जाय": 2807,
      "▁विकल्प": 2808,
      "▁करवा": 2809,
      "▁उम्र": 2810,
      "or": 2811,
      "्रो": 2812,
      "▁तेल": 2813,
      "किंग": 2814,
      "▁व्यक्त": 2815,
      "चल": 2816,
      "▁नया": 2817,
      "▁लॉ": 2818,
      "▁तरीके": 2819,
      "▁ऑन": 2820,
      "▁पड़े": 2821,
      "▁जाये": 2822,
      "ंसा": 2823,
      "▁आपका": 2824,
      "सू": 2825,
      "▁गिरफ्तार": 2826,
      "▁राहुल": 2827,
      "न्त": 2828,
      "ुओं": 2829,
      "ित्व": 2830,
      "कुल": 2831,
      "ठी": 2832,
      "▁नोट": 2833,
      "साथ": 2834,
      "ंगी": 2835,
      "▁घंटे": 2836,
      "▁कर्": 2837,
      "▁नहीं,": 2838,
      "▁एक्ट": 2839,
      "ियान": 2840,
      "▁तुल": 2841,
      "▁0": 2842,
      "▁बदला": 2843,
      "▁तीस": 2844,
      "▁खूब": 2845,
      "▁वेब": 2846,
      "▁भेज": 2847,
      "ांति": 2848,
      "▁पेट": 2849,
      "▁पर्या": 2850,
      "▁दोस्त": 2851,
      "रिया": 2852,
      "लग": 2853,
      "▁हासिल": 2854,
      "लेज": 2855,
      "▁महारा": 2856,
      "▁मंगल": 2857,
      "▁विधायक": 2858,
      "▁लगाने": 2859,
      "▁क्रिकेट": 2860,
      "▁निर्ण": 2861,
      "खी": 2862,
      "▁आन": 2863,
      "▁प्ले": 2864,
      "▁आता": 2865,
      "),": 2866,
      "▁रहती": 2867,
      "ियाँ": 2868,
      "▁उल्": 2869,
      "▁जय": 2870,
      "वुड": 2871,
      "▁!": 2872,
      "उस": 2873,
      "ायद": 2874,
      "▁स्वयं": 2875,
      "ोह": 2876,
      "▁वी": 2877,
      "ज्": 2878,
      "▁अनुभव": 2879,
      "▁साह": 2880,
      "▁धो": 2881,
      "ीण": 2882,
      "क,": 2883,
      "▁बिल": 2884,
      "▁घोषणा": 2885,
      "▁लागू": 2886,
      "▁तय": 2887,
      "▁सड़क": 2888,
      "▁मॉ": 2889,
      "यों": 2890,
      "▁दृष्ट": 2891,
      "तिम": 2892,
      "-ब": 2893,
      "तमान": 2894,
      "▁कहानी": 2895,
      "▁भूमिका": 2896,
      "▁सोम": 2897,
      "ंडी": 2898,
      "ड़ने": 2899,
      "इड": 2900,
      "स्कार": 2901,
      "al": 2902,
      "▁आयोजित": 2903,
      "▁नागर": 2904,
      "▁M": 2905,
      "▁रण": 2906,
      "▁अहम": 2907,
      "▁कदम": 2908,
      "▁शि": 2909,
      "▁आत्म": 2910,
      "▁पाया": 2911,
      "्वास": 2912,
      "हरे": 2913,
      "▁जैसी": 2914,
      "▁तला": 2915,
      "▁चिकित": 2916,
      "▁माता": 2917,
      "en": 2918,
      "ियल": 2919,
      "▁होगी।": 2920,
      "▁नुक": 2921,
      "त्मा": 2922,
      "र्जी": 2923,
      "▁फाय": 2924,
      "▁वर्ग": 2925,
      "▁बेहद": 2926,
      "▁हमने": 2927,
      "िति": 2928,
      "▁अच्छे": 2929,
      "नर": 2930,
      "▁आते": 2931,
      "▁डॉक्टर": 2932,
      "▁गर्": 2933,
      "▁सैन": 2934,
      "▁भारी": 2935,
      "▁समर्थन": 2936,
      "▁पहुंचे": 2937,
      "▁जित": 2938,
      "▁प्रभावित": 2939,
      "टल": 2940,
      "कारा": 2941,
      "चन": 2942,
      "▁पुरु": 2943,
      "▁सामा": 2944,
      "▁अपरा": 2945,
      "▁13": 2946,
      "दर": 2947,
      "विष्य": 2948,
      "▁मार्ग": 2949,
      "▁पत्रकार": 2950,
      "▁50": 2951,
      "धिकार": 2952,
      "▁ज्ञान": 2953,
      "ंटी": 2954,
      "म्प": 2955,
      "▁कार्ड": 2956,
      "ष्ट्रीय": 2957,
      "▁राजनीतिक": 2958,
      "▁मार्च": 2959,
      "▁जानते": 2960,
      "लीवुड": 2961,
      "▁तम": 2962,
      "▁प्रत्येक": 2963,
      "▁सामाजिक": 2964,
      "पना": 2965,
      "ानीय": 2966,
      "कर्ता": 2967,
      "▁नुकसान": 2968,
      "▁लेते": 2969,
      "▁पाठ": 2970,
      "▁आरोपी": 2971,
      "▁पृ": 2972,
      "▁16": 2973,
      "▁बनी": 2974,
      "▁जिम्म": 2975,
      "▁सित": 2976,
      "▁जून": 2977,
      "▁पैदा": 2978,
      "▁गया.": 2979,
      "▁पुरुष": 2980,
      "▁विस्त": 2981,
      "▁भविष्य": 2982,
      "▁सिर": 2983,
      "▁टै": 2984,
      "ीत": 2985,
      "केट": 2986,
      "▁डिज": 2987,
      "▁गण": 2988,
      "▁कीमत": 2989,
      "न्ध": 2990,
      "▁दक्षि": 2991,
      "डल": 2992,
      "▁संभावना": 2993,
      "▁मिनट": 2994,
      "▁यून": 2995,
      "▁ग्रामीण": 2996,
      "▁आवा": 2997,
      "▁जाएगी": 2998,
      "▁यानी": 2999,
      "▁शान": 3000,
      "जाब": 3001,
      "दारी": 3002,
      "▁किये": 3003,
      "▁विश्वास": 3004,
      "▁सार": 3005,
      "सूस": 3006,
      "सत": 3007,
      "▁तस्वीर": 3008,
      "▁बाव": 3009,
      "▁सुधार": 3010,
      "दर्श": 3011,
      "▁दी।": 3012,
      "▁फॉ": 3013,
      "काब": 3014,
      "▁शायद": 3015,
      "त्त": 3016,
      "▁दुर्": 3017,
      "गु": 3018,
      "विड": 3019,
      "खन": 3020,
      "▁गर्म": 3021,
      "स्टर": 3022,
      "▁जेल": 3023,
      "द्रा": 3024,
      "it": 3025,
      "is": 3026,
      "र्तन": 3027,
      "कर्ष": 3028,
      "▁हिंद": 3029,
      "▁जुड़े": 3030,
      "▁उपस्थित": 3031,
      "▁धी": 3032,
      "राव": 3033,
      "▁चले": 3034,
      "▁इतिहास": 3035,
      "गम": 3036,
      "▁जैसा": 3037,
      "बाइल": 3038,
      "▁मश": 3039,
      "▁थी।\n": 3040,
      "▁B": 3041,
      "▁मजबूत": 3042,
      "स्ती": 3043,
      "▁मनु": 3044,
      "ता,": 3045,
      "बाजी": 3046,
      "ेंद्रीय": 3047,
      "▁प्रभ": 3048,
      "विद्यालय": 3049,
      "ोलन": 3050,
      "▁तत्": 3051,
      "▁अभियान": 3052,
      "▁अगले": 3053,
      "▁निर्णय": 3054,
      "▁T": 3055,
      "रिक्त": 3056,
      "▁पैसे": 3057,
      "▁स्थानीय": 3058,
      "▁मुश्": 3059,
      "▁क्षेत्रों": 3060,
      "टने": 3061,
      "▁बल": 3062,
      "ँच": 3063,
      "▁युद्ध": 3064,
      "▁हटा": 3065,
      "सब": 3066,
      "▁इलाज": 3067,
      "▁हार": 3068,
      "वें": 3069,
      "▁लें": 3070,
      "▁साब": 3071,
      "▁शुक्र": 3072,
      "ृह": 3073,
      "सिक": 3074,
      "▁संचाल": 3075,
      "▁पहला": 3076,
      "▁N": 3077,
      "ूपी": 3078,
      "क्सर": 3079,
      "िश्चित": 3080,
      "▁खत्म": 3081,
      "▁पड़ता": 3082,
      "▁सचिव": 3083,
      "▁त्र": 3084,
      "▁पूजा": 3085,
      "सों": 3086,
      "फ्": 3087,
      "▁महसूस": 3088,
      "▁चरण": 3089,
      "▁दुकान": 3090,
      "▁खुश": 3091,
      "वीं": 3092,
      "▁खाने": 3093,
      "ेत": 3094,
      "शील": 3095,
      "▁जाएंगे": 3096,
      "▁आदमी": 3097,
      "▁बोर्ड": 3098,
      "▁गलत": 3099,
      "▁कराया": 3100,
      "▁जिसका": 3101,
      "▁वर्तमान": 3102,
      "▁कठ": 3103,
      "ील": 3104,
      "श्मीर": 3105,
      "▁24": 3106,
      "▁अतिरिक्त": 3107,
      "▁एड": 3108,
      "▁बावजूद": 3109,
      "▁॥": 3110,
      "रीब": 3111,
      "▁मुश्किल": 3112,
      "ूर्ति": 3113,
      "▁दिशा": 3114,
      "▁सलाह": 3115,
      "फर": 3116,
      "ंता": 3117,
      "▁पुन": 3118,
      "▁सै": 3119,
      "फ्ट": 3120,
      "▁टाइ": 3121,
      "▁सारे": 3122,
      "▁आतंक": 3123,
      "स्ताव": 3124,
      "▁राज्यों": 3125,
      "▁थे।\n": 3126,
      "राने": 3127,
      "▁उनसे": 3128,
      "▁बेटी": 3129,
      "▁तेजी": 3130,
      "▁नेताओं": 3131,
      "▁ऑनलाइन": 3132,
      "▁संगठन": 3133,
      "धानी": 3134,
      "▁मर": 3135,
      "▁मोह": 3136,
      "▁न्याया": 3137,
      "▁गया।\n": 3138,
      "▁पश्च": 3139,
      "▁चाल": 3140,
      "▁आती": 3141,
      "ेश्वर": 3142,
      "द्व": 3143,
      "▁कवि": 3144,
      "▁देती": 3145,
      "▁राजा": 3146,
      "▁राष्ट्रपति": 3147,
      "▁एल": 3148,
      "▁मामलों": 3149,
      "साद": 3150,
      "देव": 3151,
      "▁फोट": 3152,
      "▁सोमवार": 3153,
      "▁कराने": 3154,
      "▁बनने": 3155,
      "हे": 3156,
      "▁अंतिम": 3157,
      "▁दबा": 3158,
      "सित": 3159,
      "▁सात": 3160,
      "▁पट": 3161,
      "▁चाहता": 3162,
      "▁विवाद": 3163,
      "गा।\n": 3164,
      "एँ": 3165,
      "स्व": 3166,
      "\nअ": 3167,
      "▁सुना": 3168,
      "ंदगी": 3169,
      "▁D": 3170,
      "▁बल्ले": 3171,
      "▁किया,": 3172,
      "ॉट": 3173,
      "▁अथ": 3174,
      "▁कंपन": 3175,
      "▁परम": 3176,
      "असल": 3177,
      "▁प्रस्ताव": 3178,
      "ंबे": 3179,
      "▁स्थापित": 3180,
      "▁आयोजन": 3181,
      "▁बुध": 3182,
      "्यता": 3183,
      "▁भावना": 3184,
      "▁मंत्रालय": 3185,
      "▁जमीन": 3186,
      "ूक": 3187,
      "▁मोबाइल": 3188,
      "▁शब्द": 3189,
      "▁17": 3190,
      "▁प्रव": 3191,
      "क्ता": 3192,
      "▁अनुमति": 3193,
      "▁मुकाब": 3194,
      "▁नियंत्र": 3195,
      "▁गे": 3196,
      "▁कट": 3197,
      "▁दर्द": 3198,
      "उन्होंने": 3199,
      "▁महान": 3200,
      "बि": 3201,
      "▁समूह": 3202,
      "ब्ल": 3203,
      "▁कैं": 3204,
      "▁आश": 3205,
      "▁परेशान": 3206,
      "▁निवासी": 3207,
      "▁श्रे": 3208,
      "न्स": 3209,
      "विध": 3210,
      "लेख": 3211,
      "▁सें": 3212,
      "▁गया,": 3213,
      "▁समिति": 3214,
      "जु": 3215,
      "▁संयुक्त": 3216,
      "▁प्रवेश": 3217,
      "ंडल": 3218,
      "▁विकेट": 3219,
      "▁बिजली": 3220,
      "▁मई": 3221,
      "▁सामना": 3222,
      "▁दवा": 3223,
      "ॉन": 3224,
      "▁मात्रा": 3225,
      "तृत्व": 3226,
      "▁रक्षा": 3227,
      "▁न्याय": 3228,
      "प्प": 3229,
      "ष्ट्र": 3230,
      "पक": 3231,
      "रल": 3232,
      "ाहरण": 3233,
      "▁तकनी": 3234,
      "चीत": 3235,
      "▁काल": 3236,
      "दु": 3237,
      "▁गुज": 3238,
      "ड़ियों": 3239,
      "प्ताह": 3240,
      "ॉर्ड": 3241,
      "ूरत": 3242,
      "▁छात्रों": 3243,
      "▁अगस्त": 3244,
      "▁केंद्रीय": 3245,
      "च्छा": 3246,
      "▁लड़की": 3247,
      "▁२": 3248,
      "▁जनवरी": 3249,
      "▁सफलता": 3250,
      "▁संभव": 3251,
      "▁नरेंद्र": 3252,
      "नु": 3253,
      "▁राजनीति": 3254,
      "▁समी": 3255,
      "स्ट्रे": 3256,
      "▁आयोग": 3257,
      "▁आंद": 3258,
      "▁अभिने": 3259,
      "ौल": 3260,
      "और": 3261,
      "दू": 3262,
      "-स": 3263,
      "▁पीड़": 3264,
      "▁मगर": 3265,
      "▁वायरस": 3266,
      "▁डॉ.": 3267,
      "शनल": 3268,
      "वत": 3269,
      "▁बातचीत": 3270,
      "हित्य": 3271,
      "▁विदेशी": 3272,
      "▁पॉ": 3273,
      "▁रखते": 3274,
      "▁संस्था": 3275,
      "▁बदलाव": 3276,
      "ज़ा": 3277,
      "▁नव": 3278,
      "▁उसमें": 3279,
      "तरी": 3280,
      "▁मिलता": 3281,
      "▁सहायता": 3282,
      "▁उद्देश": 3283,
      "▁एंड": 3284,
      "▁दिस": 3285,
      "्रोल": 3286,
      "▁विद्य": 3287,
      "ज़र": 3288,
      "▁पंजाब": 3289,
      "▁एयर": 3290,
      "▁बारिश": 3291,
      "▁टिक": 3292,
      "साइट": 3293,
      "▁रिश्": 3294,
      "▁क्षमता": 3295,
      "दय": 3296,
      "श्न": 3297,
      "▁तुलना": 3298,
      "▁आवेदन": 3299,
      "▁निजी": 3300,
      "▁स्वीकार": 3301,
      "▁अनुसार,": 3302,
      "ालत": 3303,
      "ंतर": 3304,
      "▁शै": 3305,
      "▁अक्सर": 3306,
      "फल": 3307,
      "▁सुख": 3308,
      "▁खर्च": 3309,
      "▁पौ": 3310,
      "▁आसान": 3311,
      "▁नेतृत्व": 3312,
      "▁से,": 3313,
      "▁वृद्धि": 3314,
      "▁मानव": 3315,
      "▁मतलब": 3316,
      "▁संर": 3317,
      "▁ति": 3318,
      "▁दावा": 3319,
      "उट": 3320,
      "गो": 3321,
      "▁देकर": 3322,
      "▁दक्षिण": 3323,
      "ें,": 3324,
      "▁संत": 3325,
      "▁अप्रैल": 3326,
      "▁माँ": 3327,
      "▁हमला": 3328,
      "िक्": 3329,
      "▁वर्षों": 3330,
      "▁बंग": 3331,
      "ic": 3332,
      "▁पालन": 3333,
      "खे": 3334,
      "िटल": 3335,
      "▁भीतर": 3336,
      "▁अने": 3337,
      "▁भर्ती": 3338,
      "▁पीएम": 3339,
      "कर्म": 3340,
      "गतान": 3341,
      "स्ल": 3342,
      "जल": 3343,
      "▁जाकर": 3344,
      "बाज": 3345,
      "िक्स": 3346,
      "▁भोजन": 3347,
      "▁खोल": 3348,
      "▁सुरक्षित": 3349,
      "कर्ताओं": 3350,
      "ूड": 3351,
      "▁प्रण": 3352,
      "▁राजस्थान": 3353,
      "▁लेना": 3354,
      "▁सीएम": 3355,
      "▁बातें": 3356,
      "▁इतनी": 3357,
      "▁नौकरी": 3358,
      "मक": 3359,
      "▁कृषि": 3360,
      "▁सुनिश्चित": 3361,
      "भाल": 3362,
      "▁निर्धार": 3363,
      "▁समेत": 3364,
      "स्ते": 3365,
      "र्जा": 3366,
      "▁R": 3367,
      "▁मंगलवार": 3368,
      "▁संस्क": 3369,
      "▁कार्यालय": 3370,
      "-अलग": 3371,
      "▁खराब": 3372,
      "▁साबित": 3373,
      "▁शुक्रवार": 3374,
      "ौती": 3375,
      "▁फीसदी": 3376,
      "▁उम्मीदवार": 3377,
      "स्तु": 3378,
      "▁हालांकि,": 3379,
      "▁दूसरा": 3380,
      "▁अध्य": 3381,
      "▁अपराध": 3382,
      "▁मूल्य": 3383,
      "पि": 3384,
      "▁100": 3385,
      "▁उद्योग": 3386,
      "▁भुगतान": 3387,
      "▁पुत्र": 3388,
      "▁सुप": 3389,
      "ed": 3390,
      "▁मुला": 3391,
      "▁वोट": 3392,
      "▁ट्रेन": 3393,
      "▁बुधवार": 3394,
      "▁जुलाई": 3395,
      "ठा": 3396,
      "▁तुर": 3397,
      "ामा": 3398,
      "▁अलग-अलग": 3399,
      "▁तभी": 3400,
      "▁हमारा": 3401,
      "▁निश": 3402,
      "▁ग्राह": 3403,
      "▁प्रत": 3404,
      "कृति": 3405,
      "▁जीव": 3406,
      "▁साध": 3407,
      "उंड": 3408,
      "पास": 3409,
      "-साथ": 3410,
      "▁स्वतंत्र": 3411,
      "▁लक्ष्य": 3412,
      "▁साहित्य": 3413,
      "▁मौसम": 3414,
      "▁वार": 3415,
      "धिकारी": 3416,
      "वाही": 3417,
      "दीप": 3418,
      "▁मुद्रा": 3419,
      "मित": 3420,
      "मार्ट": 3421,
      "ॉय": 3422,
      "▁देवी": 3423,
      "▁डाय": 3424,
      "हान": 3425,
      "डर": 3426,
      "▁यूपी": 3427,
      "▁वैसे": 3428,
      "▁प्ल": 3429,
      "लेट": 3430,
      "▁देखकर": 3431,
      "▁उदाहरण": 3432,
      "▁21": 3433,
      "▁खोज": 3434,
      "▁फल": 3435,
      "▁किलो": 3436,
      "▁शन": 3437,
      "खनऊ": 3438,
      "बोध": 3439,
      "▁संक्रमण": 3440,
      "▁वरि": 3441,
      "ूबर": 3442,
      "▁छह": 3443,
      "▁साइ": 3444,
      "एच": 3445,
      "▁टि": 3446,
      "▁निभा": 3447,
      "क्षक": 3448,
      "▁विश्वविद्यालय": 3449,
      "ोप": 3450,
      "▁2019": 3451,
      "▁साथ-साथ": 3452,
      "▁बेटे": 3453,
      "▁बॉलीवुड": 3454,
      "▁रखना": 3455,
      "▁लिया।": 3456,
      "▁उपाय": 3457,
      "▁रविवार": 3458,
      "▁बढ़ाने": 3459,
      "▁युवक": 3460,
      "▁पूछा": 3461,
      "वरूप": 3462,
      "▁जोर": 3463,
      "ग्रह": 3464,
      "▁निर": 3465,
      "▁किया।\n": 3466,
      "▁सजा": 3467,
      "▁वरिष्ठ": 3468,
      ",000": 3469,
      "▁लं": 3470,
      "▁बिल्": 3471,
      "▁घा": 3472,
      "▁अमेरिक": 3473,
      "▁लड़ा": 3474,
      "▁मं": 3475,
      "▁आंख": 3476,
      "क्या": 3477,
      "▁हिन्द": 3478,
      "▁इन्": 3479,
      "▁कॉलेज": 3480,
      "ंव": 3481,
      "▁डेट": 3482,
      "▁डर": 3483,
      "जाम": 3484,
      ",\n": 3485,
      "▁सप्ताह": 3486,
      "▁रेलवे": 3487,
      "▁केस": 3488,
      "ंतु": 3489,
      "▁संके": 3490,
      "▁2020": 3491,
      "चारियों": 3492,
      "भारत": 3493,
      "▁हिंदी": 3494,
      "▁लंबे": 3495,
      "▁आंदोलन": 3496,
      "▁करनी": 3497,
      "▁धारा": 3498,
      "▁अदालत": 3499,
      "▁बहु": 3500,
      "▁शनिवार": 3501,
      "▁कोविड": 3502,
      "चिका": 3503,
      "▁हो।": 3504,
      "-द": 3505,
      "कम": 3506,
      "जो": 3507,
      "▁बेच": 3508,
      "त्रों": 3509,
      "▁संस्थान": 3510,
      "ब्र": 3511,
      "▁रै": 3512,
      "▁गाय": 3513,
      "▁हुआ।": 3514,
      "सद": 3515,
      "▁मेड": 3516,
      "ियार": 3517,
      "▁असर": 3518,
      "▁छोटी": 3519,
      "▁वेबसाइट": 3520,
      "▁घु": 3521,
      "om": 3522,
      "म्स": 3523,
      "▁प्रतिनि": 3524,
      "ैया": 3525,
      "▁आध": 3526,
      "▁आयु": 3527,
      "घा": 3528,
      "▁पल": 3529,
      "th": 3530,
      "▁ज़र": 3531,
      "▁ग्रह": 3532,
      "▁/": 3533,
      "▁सूची": 3534,
      "▁उद्देश्य": 3535,
      "श्चित": 3536,
      "गा,": 3537,
      "▁चाहे": 3538,
      "▁सामग्री": 3539,
      "▁उत्पादन": 3540,
      "▁सत्ता": 3541,
      "▁प्रार": 3542,
      "▁इनमें": 3543,
      "▁दिवस": 3544,
      "▁शराब": 3545,
      "▁रिली": 3546,
      "▁अथवा": 3547,
      "▁खिलाड़ी": 3548,
      "सो": 3549,
      "सन": 3550,
      "डिंग": 3551,
      "▁वहाँ": 3552,
      "जरी": 3553,
      "ं।": 3554,
      "▁इंत": 3555,
      "▁जल्दी": 3556,
      "▁पंचायत": 3557,
      "▁अंक": 3558,
      "▁आपने": 3559,
      "▁खाना": 3560,
      "▁सांसद": 3561,
      "▁जिसकी": 3562,
      "▁नीति": 3563,
      "▁उत्पाद": 3564,
      "▁हल्": 3565,
      "▁तैयारी": 3566,
      "▁विकसित": 3567,
      "▁समाप्त": 3568,
      "▁शासन": 3569,
      "श्वर": 3570,
      "▁दश": 3571,
      "▁गौर": 3572,
      "▁कप्ता": 3573,
      "ज्ञा": 3574,
      "▁तारी": 3575,
      "राह": 3576,
      "स्तुत": 3577,
      "▁मनुष्य": 3578,
      "▁उनको": 3579,
      "थम": 3580,
      "स्टम": 3581,
      "म्ब": 3582,
      "ैर": 3583,
      "ायी": 3584,
      "▁इनके": 3585,
      "▁कपूर": 3586,
      "त्ती": 3587,
      "स्ट्र": 3588,
      "▁ठा": 3589,
      "जद": 3590,
      "ड्ड": 3591,
      "ों,": 3592,
      "जित": 3593,
      "▁है\n": 3594,
      "चारी": 3595,
      "ियोजना": 3596,
      "▁धीरे": 3597,
      "▁दोष": 3598,
      "▁थोड़ा": 3599,
      "▁जरिए": 3600,
      "तौर": 3601,
      "पन्न": 3602,
      "▁पैसा": 3603,
      "▁शानदार": 3604,
      "▁मौका": 3605,
      "▁दिला": 3606,
      "▁नदी": 3607,
      "▁कर्मचारियों": 3608,
      "▁आठ": 3609,
      "▁बताते": 3610,
      "▁अनेक": 3611,
      "▁जाएगी।": 3612,
      "वर्": 3613,
      "▁अग्र": 3614,
      "▁गौ": 3615,
      "ैट": 3616,
      "तो": 3617,
      "▁रचना": 3618,
      "▁प्रशिक्ष": 3619,
      "न्ना": 3620,
      "थि": 3621,
      "▁निश्चित": 3622,
      "▁संपर्क": 3623,
      "▁आंक": 3624,
      "▁स्टे": 3625,
      "न्या": 3626,
      "▁इलाके": 3627,
      "▁प्रती": 3628,
      "▁चिंता": 3629,
      "▁री": 3630,
      "▁शुभ": 3631,
      "▁शव": 3632,
      "▁अध्ययन": 3633,
      "▁रोड": 3634,
      "▁कही": 3635,
      "▁सारी": 3636,
      "▁करेंगे।": 3637,
      "▁विजय": 3638,
      "▁परियोजना": 3639,
      "ल्क": 3640,
      "ंडा": 3641,
      "चि": 3642,
      "ानों": 3643,
      "▁फोटो": 3644,
      "▁भूमि": 3645,
      "▁लोकसभा": 3646,
      "▁तुरंत": 3647,
      "।\n-": 3648,
      "ार्क": 3649,
      "नेस": 3650,
      "▁फी": 3651,
      "▁उनमें": 3652,
      "▁जिन्हें": 3653,
      "▁याचिका": 3654,
      "▁है?\n": 3655,
      "▁इंग": 3656,
      "▁हथ": 3657,
      "▁दिसंबर": 3658,
      "st": 3659,
      "थमिक": 3660,
      "▁खुला": 3661,
      "ित्य": 3662,
      "शे": 3663,
      "्रीन": 3664,
      "स्लिम": 3665,
      "▁क़": 3666,
      "▁अंग्रे": 3667,
      "▁पाने": 3668,
      "'\n": 3669,
      "र्गत": 3670,
      "▁चयन": 3671,
      "▁आनंद": 3672,
      "ुप": 3673,
      "▁ओवर": 3674,
      "▁विस्तार": 3675,
      "le": 3676,
      "▁प्रसाद": 3677,
      "▁22": 3678,
      "स्ट्रेलिया": 3679,
      "ध्यक्ष": 3680,
      "▁मल": 3681,
      "▁हेतु": 3682,
      "▁दूध": 3683,
      "▁त्व": 3684,
      "ूँ": 3685,
      "▁टीवी": 3686,
      "▁प्रतिक": 3687,
      "▁फरवरी": 3688,
      "▁आखिर": 3689,
      "▁ट्वी": 3690,
      "▁H": 3691,
      "▁चाहती": 3692,
      "▁रहे।": 3693,
      "▁आकर्ष": 3694,
      "▁दस": 3695,
      "▁धार": 3696,
      "▁जाति": 3697,
      "▁सभा": 3698,
      "पोर्ट": 3699,
      "▁सिंह,": 3700,
      "▁निर्धारित": 3701,
      "▁सुपर": 3702,
      "▁व्यवहार": 3703,
      "्वि": 3704,
      "▁फ्ल": 3705,
      "▁आसानी": 3706,
      "▁प्राथमिक": 3707,
      "▁बिक": 3708,
      "ra": 3709,
      "▁घायल": 3710,
      "राष्ट्रीय": 3711,
      "क्टूबर": 3712,
      "न्दी": 3713,
      "▁बुला": 3714,
      "▁बर्": 3715,
      "टिंग": 3716,
      "▁दिया.": 3717,
      "स्म": 3718,
      "कारात्मक": 3719,
      "शिया": 3720,
      "म्बर": 3721,
      "▁नार": 3722,
      "▁हल": 3723,
      "▁उपकरण": 3724,
      "▁40": 3725,
      "▁अमेरिकी": 3726,
      "▁जता": 3727,
      "▁चेहरे": 3728,
      "▁सेवन": 3729,
      "प्रिय": 3730,
      "▁पार्ट": 3731,
      "▁चढ़": 3732,
      "बन्ध": 3733,
      "▁अश": 3734,
      "जनों": 3735,
      "▁2021": 3736,
      "गी।\n": 3737,
      "▁सुप्रीम": 3738,
      "्राम": 3739,
      "▁बीमारी": 3740,
      "▁सत": 3741,
      "यु": 3742,
      "▁की,": 3743,
      "इसके": 3744,
      "▁आइ": 3745,
      "▁सूर्": 3746,
      "ंघ": 3747,
      "टो": 3748,
      "▁लखनऊ": 3749,
      "िरी": 3750,
      "केश": 3751,
      "▁अवधि": 3752,
      "▁फिल्मों": 3753,
      "▁गुजरात": 3754,
      "▁कंपनियों": 3755,
      "▁फा": 3756,
      "वाले": 3757,
      "▁शांति": 3758,
      "पूर्व": 3759,
      "वै": 3760,
      "▁राहत": 3761,
      "ानि": 3762,
      "▁गृह": 3763,
      "▁निगम": 3764,
      "▁चैन": 3765,
      "गा.": 3766,
      "▁पहुंचा": 3767,
      "▁त्वचा": 3768,
      "▁गठ": 3769,
      "▁पकड़": 3770,
      "▁सार्व": 3771,
      "▁हॉ": 3772,
      "▁दरअसल": 3773,
      "मीटर": 3774,
      "▁राजधानी": 3775,
      "▁हरिया": 3776,
      "वंबर": 3777,
      "▁खड़े": 3778,
      "▁परिवर्तन": 3779,
      "▁ट्वीट": 3780,
      "ुनिक": 3781,
      "▁जहाँ": 3782,
      "नल": 3783,
      "▁मैदान": 3784,
      "▁आसपास": 3785,
      "▁कथ": 3786,
      "▁प्रचार": 3787,
      "क्षम": 3788,
      "▁स्टेशन": 3789,
      "▁बनाई": 3790,
      "▁पर्य": 3791,
      "▁मिलती": 3792,
      "▁होगा।\n": 3793,
      "▁चर": 3794,
      "▁स्टार": 3795,
      "▁अक्टूबर": 3796,
      "▁विपक्ष": 3797,
      "ियत": 3798,
      "▁दृष्टि": 3799,
      "▁श्रद्ध": 3800,
      "▁कितना": 3801,
      "▁चली": 3802,
      "▁पुस्त": 3803,
      "▁वायरल": 3804,
      "ार्ज": 3805,
      "▁लगाए": 3806,
      "ग्राम": 3807,
      "▁हूं।": 3808,
      "▁कब": 3809,
      "िल्म": 3810,
      "ाब": 3811,
      "सिद्ध": 3812,
      "▁सीरीज": 3813,
      "▁खाते": 3814,
      "▁इच्छा": 3815,
      "ियोग": 3816,
      "▁किया.": 3817,
      "▁सत्य": 3818,
      "▁चाहिए।\n": 3819,
      "र्श": 3820,
      "▁मरी": 3821,
      "▁हुई।": 3822,
      "्सा": 3823,
      "▁अली": 3824,
      "▁जोड़": 3825,
      "लेक्ट": 3826,
      "-2": 3827,
      "▁रिकॉर्ड": 3828,
      "ंकर": 3829,
      "काम": 3830,
      "आज": 3831,
      "▁जिन्होंने": 3832,
      "▁दर्श": 3833,
      "▁प्रमाण": 3834,
      "चानक": 3835,
      "वस्था": 3836,
      "▁पहन": 3837,
      "▁शीर्ष": 3838,
      "▁चित्र": 3839,
      "▁भूल": 3840,
      "▁योगी": 3841,
      "▁मुस्लिम": 3842,
      "▁नो": 3843,
      "▁कश्मीर": 3844,
      "▁बैठे": 3845,
      "▁उचित": 3846,
      "▁नागरिक": 3847,
      "▁कारो": 3848,
      "▁सितंबर": 3849,
      "▁हमले": 3850,
      "▁वाय": 3851,
      "▁मुझ": 3852,
      "रान": 3853,
      "फ्र": 3854,
      "दिन": 3855,
      "▁नवंबर": 3856,
      "▁प्रिय": 3857,
      "▁तलाश": 3858,
      "▁ऊर्जा": 3859,
      "▁विवाह": 3860,
      "▁मू": 3861,
      "▁व्यवसाय": 3862,
      "▁उत्तरा": 3863,
      "▁विशेषज्ञ": 3864,
      "▁भेजा": 3865,
      "▁संघर्ष": 3866,
      "▁पदार्थ": 3867,
      "खर": 3868,
      "▁सल": 3869,
      "जीत": 3870,
      "▁करो": 3871,
      "▁बीमार": 3872,
      "▁हवा": 3873,
      "▁किन": 3874,
      "यम": 3875,
      "▁रूस": 3876,
      "▁सदस्यों": 3877,
      "उंट": 3878,
      "▁बजट": 3879,
      "बद्ध": 3880,
      "di": 3881,
      "▁गई.": 3882,
      "्यास": 3883,
      "▁बाकी": 3884,
      "▁न्यायालय": 3885,
      "▁समुदाय": 3886,
      "▁करें।\n": 3887,
      "▁परिष": 3888,
      "▁23": 3889,
      "▁सिस्टम": 3890,
      "▁मिलकर": 3891,
      "▁सिल": 3892,
      "▁प्रस्तुत": 3893,
      "-म": 3894,
      "▁रहना": 3895,
      "▁वाहन": 3896,
      "▁था.\n": 3897,
      "ितों": 3898,
      "▁E": 3899,
      "▁तत्काल": 3900,
      "▁बनाकर": 3901,
      "िड": 3902,
      "▁लाइन": 3903,
      "ेदारी": 3904,
      "▁रिश्ते": 3905,
      "▁कार्यों": 3906,
      "▁बंगाल": 3907,
      "▁नेट": 3908,
      "▁चंद्र": 3909,
      "▁बाइ": 3910,
      "बीआई": 3911,
      "▁आईपी": 3912,
      "▁धर": 3913,
      "▁उल्लेख": 3914,
      "ट्र": 3915,
      "▁जागर": 3916,
      "ौन": 3917,
      "▁अचानक": 3918,
      "पो": 3919,
      "▁प्रश्न": 3920,
      "▁2018": 3921,
      "▁दिया।\n": 3922,
      "▁गुरुवार": 3923,
      "50": 3924,
      "▁चुना": 3925,
      "▁अका": 3926,
      "▁सीख": 3927,
      "▁फैसले": 3928,
      "ाये": 3929,
      "जनिक": 3930,
      "▁गरीब": 3931,
      "पने": 3932,
      "▁गाँ": 3933,
      "▁नै": 3934,
      "▁इंस्ट": 3935,
      "▁मजद": 3936,
      "▁पहुंची": 3937,
      "▁प्लेट": 3938,
      "▁कब्": 3939,
      "▁अत्य": 3940,
      "वाला": 3941,
      "सव": 3942,
      "▁इतने": 3943,
      "▁लै": 3944,
      "िको": 3945,
      "सेना": 3946,
      "▁आये": 3947,
      "▁विरा": 3948,
      "▁महाराष्ट्र": 3949,
      "▁जिंदगी": 3950,
      "नियर": 3951,
      "▁हाथों": 3952,
      "▁छुट": 3953,
      "▁जिनमें": 3954,
      "▁कमरे": 3955,
      "्रिय": 3956,
      "वधान": 3957,
      "चार्य": 3958,
      "स्ट्री": 3959,
      "▁नहीं।": 3960,
      "▁F": 3961,
      "ल,": 3962,
      "▁रखी": 3963,
      "▁विज्ञान": 3964,
      "▁तोड़": 3965,
      "▁लाने": 3966,
      "▁G": 3967,
      "जेंसी": 3968,
      "▁गैर": 3969,
      "▁मृत्यु": 3970,
      "ष्टि": 3971,
      "▁रिलीज": 3972,
      "▁मुह": 3973,
      "▁पर्याप्त": 3974,
      "▁हिस्से": 3975,
      "▁प्रणाली": 3976,
      "▁निष्": 3977,
      "कात": 3978,
      "▁फूल": 3979,
      "▁प्रबंधन": 3980,
      "ामी": 3981,
      "ंकी": 3982,
      "▁सक्रिय": 3983,
      "हली": 3984,
      "▁मेडिकल": 3985,
      "ूनी": 3986,
      "▁भ्र": 3987,
      "लाम": 3988,
      "▁इंग्ल": 3989,
      "▁अके": 3990,
      "▁पर,": 3991,
      "▁खड़ा": 3992,
      "ur": 3993,
      "ह्": 3994,
      "ांश": 3995,
      "▁तू": 3996,
      "▁फिलहाल": 3997,
      "▁निदेश": 3998,
      "▁दर्शन": 3999,
      "▁एफ": 4000,
      "▁तनाव": 4001,
      "▁विमान": 4002,
      "▁सीधे": 4003,
      "वीर": 4004,
      "▁बाद,": 4005,
      "्रेड": 4006,
      "▁पश्चिम": 4007,
      "▁मानसिक": 4008,
      "▁आँ": 4009,
      "▁जवान": 4010,
      "दो": 4011,
      "▁उल": 4012,
      "ारोह": 4013,
      "▁2022": 4014,
      "▁26": 4015,
      "▁बू": 4016,
      "▁परन्तु": 4017,
      "द्योगिक": 4018,
      "▁प्ला": 4019,
      "▁रोकने": 4020,
      "19": 4021,
      "▁अलावा,": 4022,
      "▁सूर्य": 4023,
      "शाली": 4024,
      "प्स": 4025,
      "▁पूर्": 4026,
      "निक": 4027,
      "▁रणनी": 4028,
      "▁अक्ष": 4029,
      "ट्स": 4030,
      "लैंड": 4031,
      "▁चिकित्सा": 4032,
      "अब": 4033,
      "▁संकेत": 4034,
      "तीश": 4035,
      "ेदार": 4036,
      "▁होगा,": 4037,
      "▁सार्वजनिक": 4038,
      "▁प्री": 4039,
      "▁उपचार": 4040,
      "्याण": 4041,
      "▁यूरो": 4042,
      "▁तह": 4043,
      "▁वास्तविक": 4044,
      "▁सक्षम": 4045,
      "ew": 4046,
      "▁आधारित": 4047,
      "▁तमाम": 4048,
      "▁खुल": 4049,
      "ार्मिक": 4050,
      "▁पुराने": 4051,
      "्तीय": 4052,
      "▁प्रकाशित": 4053,
      "▁सुंदर": 4054,
      "▁कमज": 4055,
      "चीन": 4056,
      "▁सुनवाई": 4057,
      "\nस": 4058,
      "▁डॉलर": 4059,
      "▁समारोह": 4060,
      "▁धार्मिक": 4061,
      "▁घोषित": 4062,
      "▁मंच": 4063,
      "▁कर्मचारी": 4064,
      "▁लड़क": 4065,
      "▁दृ": 4066,
      "▁नियंत्रण": 4067,
      "ेंज": 4068,
      "▁वित्त": 4069,
      "▁हरियाणा": 4070,
      "▁भीड़": 4071,
      "▁रखें": 4072,
      "-19": 4073,
      "बो": 4074,
      "▁हाद": 4075,
      "रित": 4076,
      "थी": 4077,
      "▁कप्तान": 4078,
      "▁तत्व": 4079,
      "▁संजय": 4080,
      "▁कि,": 4081,
      "ion": 4082,
      "श्री": 4083,
      "िलों": 4084,
      "▁प्रथम": 4085,
      "िसर": 4086,
      "▁इन्हें": 4087,
      "▁समीक्षा": 4088,
      "▁पूछता": 4089,
      "कू": 4090,
      "▁रेड": 4091,
      "चु": 4092,
      "ायण": 4093,
      "त्रियों": 4094,
      "▁बोली": 4095,
      "त्तर": 4096,
      "▁क्व": 4097,
      "▁समाधान": 4098,
      "डाउन": 4099,
      "▁पुरस्कार": 4100,
      "कीय": 4101,
      "ोषण": 4102,
      "प्ति": 4103,
      "▁लॉक": 4104,
      "ष्टा": 4105,
      "थे": 4106,
      "▁मुताबिक,": 4107,
      "▁समस्याओं": 4108,
      "कोर्ट": 4109,
      "▁पृथ": 4110,
      "▁पड़ी": 4111,
      "▁परमेश्वर": 4112,
      "▁मिस": 4113,
      "▁स्थापना": 4114,
      "▁दबाव": 4115,
      "-प्र": 4116,
      "▁पहल": 4117,
      "▁टिकट": 4118,
      "▁अपील": 4119,
      "्रिया": 4120,
      "ल्ल": 4121,
      "▁जाएगा।\n": 4122,
      "▁199": 4123,
      "▁टा": 4124,
      "▁उपा": 4125,
      "▁प्रभा": 4126,
      "▁अनुर": 4127,
      "▁किर": 4128,
      "क्कर": 4129,
      "नगर": 4130,
      "▁मित्र": 4131,
      "▁संकट": 4132,
      "▁समाचार": 4133,
      "म्मू": 4134,
      "▁संबोध": 4135,
      "▁स्म": 4136,
      "▁महामारी": 4137,
      "▁परीक्षण": 4138,
      "▁आराम": 4139,
      "▁28": 4140,
      "कद": 4141,
      "▁अरब": 4142,
      "▁चीनी": 4143,
      "”\n": 4144,
      "म्मद": 4145,
      "कारों": 4146,
      "▁बिग": 4147,
      "▁सच्च": 4148,
      "▁चाहिए,": 4149,
      "▁जाए।": 4150,
      "रेट": 4151,
      "न्दर": 4152,
      "▁इंस": 4153,
      "▁हालत": 4154,
      "गी.": 4155,
      "▁थाने": 4156,
      "▁गोल": 4157,
      "सीसी": 4158,
      "▁कहने": 4159,
      "▁उत्पन्न": 4160,
      "▁चलता": 4161,
      "▁लोकप्रिय": 4162,
      "▁|": 4163,
      "▁भो": 4164,
      "▁ऑस्ट्रेलिया": 4165,
      "▁शौ": 4166,
      "▁सत्र": 4167,
      "▁मस": 4168,
      "▁शोध": 4169,
      "▁लौट": 4170,
      "▁लु": 4171,
      "▁विद्यालय": 4172,
      "▁थीं।": 4173,
      "▁खुशी": 4174,
      "▁लड़ाई": 4175,
      "वाली": 4176,
      "▁पारी": 4177,
      "त्तीस": 4178,
      "▁मैने": 4179,
      "▁जैन": 4180,
      "विधान": 4181,
      "ना,": 4182,
      "▁केन्द्र": 4183,
      "ः\n": 4184,
      "धरी": 4185,
      "▁व्": 4186,
      "ॉर्म": 4187,
      "▁वैज्ञान": 4188,
      "▁वर्ण": 4189,
      "▁खी": 4190,
      "जनक": 4191,
      "श्वास": 4192,
      "▁हैं?": 4193,
      "ंजन": 4194,
      "कुछ": 4195,
      "▁छि": 4196,
      "शोध": 4197,
      "▁रखे": 4198,
      "▁प्रभारी": 4199,
      "▁सालों": 4200,
      "बाल": 4201,
      "▁मुक्त": 4202,
      "▁वित्तीय": 4203,
      "am": 4204,
      "▁आकर": 4205,
      "▁परिषद": 4206,
      "▁तथ": 4207,
      "गंज": 4208,
      "▁रक्त": 4209,
      "▁जुड़ी": 4210,
      "निर्": 4211,
      "▁गोली": 4212,
      "ढ़ी": 4213,
      "▁दम": 4214,
      "▁चलने": 4215,
      "▁लॉन्": 4216,
      "्मी": 4217,
      "▁27": 4218,
      "▁डिग्री": 4219,
      "▁2017": 4220,
      "▁होंगे।": 4221,
      "ैंस": 4222,
      "▁हिन्दी": 4223,
      "▁आवाज": 4224,
      "▁पढ़ाई": 4225,
      "▁मुकाबले": 4226,
      "जान": 4227,
      "▁किताब": 4228,
      "▁मनो": 4229,
      "ाइड": 4230,
      "माने": 4231,
      "▁मुलाकात": 4232,
      "▁संस्कृति": 4233,
      "द्द": 4234,
      "▁वहीं,": 4235,
      "▁तीनों": 4236,
      "ज़ार": 4237,
      "पण": 4238,
      "▁व्यक्तिगत": 4239,
      "▁थोड़ी": 4240,
      "▁नियमित": 4241,
      "त्कार": 4242,
      "▁सुनी": 4243,
      "▁भरो": 4244,
      "▁बजाय": 4245,
      "....": 4246,
      "30": 4247,
      "वां": 4248,
      "▁निप": 4249,
      "▁वैक्सी": 4250,
      "▁जिम्मेदारी": 4251,
      "▁नारा": 4252,
      "▁उड़": 4253,
      "्टर": 4254,
      "▁बातों": 4255,
      "▁बिल्कुल": 4256,
      "▁स्मार्ट": 4257,
      "▁कड़ी": 4258,
      "▁मुद्दे": 4259,
      "लेकिन": 4260,
      "▁साझा": 4261,
      "▁मरीजों": 4262,
      "▁बालों": 4263,
      "▁लागत": 4264,
      "▁विल": 4265,
      "▁बढ़ने": 4266,
      "▁फाइन": 4267,
      "▁किन्तु": 4268,
      "▁अमित": 4269,
      "हो": 4270,
      "▁हिंसा": 4271,
      "▁दोप": 4272,
      "पान": 4273,
      "▁हथियार": 4274,
      "▁भले": 4275,
      "▁घरे": 4276,
      "पाद": 4277,
      "▁क्लिक": 4278,
      "▁परेशानी": 4279,
      "▁आजा": 4280,
      "▁वजन": 4281,
      "▁फायदा": 4282,
      "▁हिंदू": 4283,
      "▁प्रशिक्षण": 4284,
      "▁आउट": 4285,
      "▁प्राइ": 4286,
      "▁झू": 4287,
      "भू": 4288,
      "▁पाई": 4289,
      "▁बोला": 4290,
      "▁करें,": 4291,
      "▁कल्याण": 4292,
      "▁परिस्थित": 4293,
      "नाक": 4294,
      "▁नम": 4295,
      "▁सब्": 4296,
      "थर": 4297,
      "ंजी": 4298,
      "सिंह": 4299,
      "▁है।\n-": 4300,
      "यदि": 4301,
      "▁रास्ते": 4302,
      "▁कृष्ण": 4303,
      "▁कपड़े": 4304,
      "▁लक्षण": 4305,
      "लाल": 4306,
      "▁जिसने": 4307,
      "्योति": 4308,
      "▁घूम": 4309,
      "▁तैना": 4310,
      "▁क्ला": 4311,
      "▁ताप": 4312,
      "▁बाबा": 4313,
      "▁प्रतिक्रिया": 4314,
      "▁वर्षीय": 4315,
      "▁अवै": 4316,
      "्याज": 4317,
      "छा": 4318,
      "त्तीसगढ़": 4319,
      "as": 4320,
      "▁पैर": 4321,
      "▁कितनी": 4322,
      "▁प्रसिद्ध": 4323,
      "ेय": 4324,
      "▁सलमान": 4325,
      "▁उसको": 4326,
      "▁एक्सप": 4327,
      "ol": 4328,
      "▁गुप्ता": 4329,
      "▁जू": 4330,
      "कल्प": 4331,
      "▁दिया,": 4332,
      "कुर": 4333,
      "म्भ": 4334,
      "-ज": 4335,
      "▁मास": 4336,
      "रीन": 4337,
      "▁चुनौती": 4338,
      "▁31": 4339,
      "▁होनी": 4340,
      "ay": 4341,
      "▁रोजगार": 4342,
      "▁गाड़ी": 4343,
      "▁रहें": 4344,
      "▁दूरी": 4345,
      "▁पूछताछ": 4346,
      "▁जिलों": 4347,
      "▁अंतर्गत": 4348,
      "▁संगीत": 4349,
      "▁मस्": 4350,
      "▁योगदान": 4351,
      "खों": 4352,
      "▁पीड़ित": 4353,
      "टेन": 4354,
      "▁कितने": 4355,
      "▁सहायक": 4356,
      "▁चोट": 4357,
      "▁उतर": 4358,
      "▁समझौ": 4359,
      "▁बनाना": 4360,
      "▁प्रतिबंध": 4361,
      "▁K": 4362,
      "▁क्रम": 4363,
      "▁शिकार": 4364,
      "▁1.": 4365,
      "▁भवन": 4366,
      "धारण": 4367,
      "गी,": 4368,
      "व्यवस्था": 4369,
      "▁संवाद": 4370,
      "▁होगा.": 4371,
      "▁चौधरी": 4372,
      "▁आधुनिक": 4373,
      "शिप": 4374,
      "द्दी": 4375,
      "▁डेटा": 4376,
      "साइ": 4377,
      "▁स्वामी": 4378,
      "▁हृ": 4379,
      "▁दस्ता": 4380,
      "▁योग्य": 4381,
      "दियों": 4382,
      "▁कोल": 4383,
      "▁पर्व": 4384,
      "ंदन": 4385,
      "▁अनुमान": 4386,
      "▁बीते": 4387,
      "ज़ी": 4388,
      "▁घरेलू": 4389,
      "▁बहा": 4390,
      "र्या": 4391,
      "ाले": 4392,
      "▁रस": 4393,
      "▁खूबस": 4394,
      "रद": 4395,
      "जूदा": 4396,
      "▁मॉडल": 4397,
      "▁सख": 4398,
      "▁देखना": 4399,
      "सलमान": 4400,
      "▁करियर": 4401,
      "▁युवाओं": 4402,
      "▁गतिविध": 4403,
      "▁नज़र": 4404,
      "▁अवैध": 4405,
      "▁इंग्लैंड": 4406,
      "▁छूट": 4407,
      "▁मिट": 4408,
      "▁खिलाड़ियों": 4409,
      "▁वीर": 4410,
      "▁जिनके": 4411,
      "पद": 4412,
      "▁कहां": 4413,
      "▁तीसरे": 4414,
      "▁मिश्र": 4415,
      "▁मात्र": 4416,
      "▁जम्मू": 4417,
      "▁स्वागत": 4418,
      "▁अखिल": 4419,
      "▁ट्वि": 4420,
      "▁सारा": 4421,
      "▁संसद": 4422,
      "सबुक": 4423,
      "▁किलोमीटर": 4424,
      "▁इलेक्ट": 4425,
      "▁हिस": 4426,
      "ांक": 4427,
      "▁ड्राइ": 4428,
      "▁मानना": 4429,
      "▁बहन": 4430,
      "चक": 4431,
      "▁आत्मा": 4432,
      "▁संदेश": 4433,
      "▁मेहन": 4434,
      "▁किश": 4435,
      "ंधे": 4436,
      "क्रे": 4437,
      "▁छोटा": 4438,
      "कृतिक": 4439,
      "▁निर्म": 4440,
      "▁गंगा": 4441,
      "▁कैम": 4442,
      "दारों": 4443,
      "गन": 4444,
      "▁पढ़ें": 4445,
      "▁लगती": 4446,
      "दाता": 4447,
      "▁ऊंच": 4448,
      "▁रिज": 4449,
      "▁शूट": 4450,
      "बु": 4451,
      "▁की।\n": 4452,
      "▁मतदान": 4453,
      "वत्ता": 4454,
      "▁फायदे": 4455,
      "िष्ट": 4456,
      "▁इंद": 4457,
      "▁...": 4458,
      "▁तरीका": 4459,
      "▁अंतरराष्ट्रीय": 4460,
      "▁पहा": 4461,
      "यो": 4462,
      "▁आकार": 4463,
      "दर्भ": 4464,
      "▁लेखक": 4465,
      "▁काट": 4466,
      "▁ट्रै": 4467,
      "▁सन्": 4468,
      "ेक्षा": 4469,
      "ंश": 4470,
      "▁पशु": 4471,
      "▁होटल": 4472,
      "▁सेंटर": 4473,
      "▁पटना": 4474,
      "्मण": 4475,
      "स्य": 4476,
      "▁इंटरनेट": 4477,
      "▁मजदूर": 4478,
      "▁बचाने": 4479,
      "▁सोने": 4480,
      "▁दोपहर": 4481,
      "▁बुरा": 4482,
      "वर्क": 4483,
      "▁लगने": 4484,
      "▁मशीन": 4485,
      "मह": 4486,
      "▁शिक्षक": 4487,
      "▁रहा।": 4488,
      "बीर": 4489,
      "घर": 4490,
      "▁माइ": 4491,
      "▁संपत्ति": 4492,
      "▁W": 4493,
      "ेंडर": 4494,
      "▁की.": 4495,
      "बता": 4496,
      "▁नियमों": 4497,
      "ृत्ति": 4498,
      "▁सां": 4499,
      "या।": 4500,
      "▁इंतजार": 4501,
      "▁ऐप": 4502,
      "▁सम्बन्ध": 4503,
      "लोड": 4504,
      "▁विद्यार्थ": 4505,
      "▁नवी": 4506,
      "▁डिजिटल": 4507,
      "▁व्यापक": 4508,
      "देन": 4509,
      "वासियों": 4510,
      "िवर्स": 4511,
      "▁चोरी": 4512,
      "जिए": 4513,
      "▁स्वस्थ": 4514,
      "▁मौजूदा": 4515,
      "▁प्लान": 4516,
      "फोन": 4517,
      "ैंप": 4518,
      "लम": 4519,
      "▁रवि": 4520,
      "▁कोहली": 4521,
      "प्रदेश": 4522,
      "न्व": 4523,
      "▁बढ़ती": 4524,
      "ंडे": 4525,
      "▁प्रस": 4526,
      "▁मिलते": 4527,
      "▁चीज": 4528,
      "▁उन्": 4529,
      "वेद": 4530,
      "▁गैस": 4531,
      "▁कमजोर": 4532,
      "ं,": 4533,
      "नतम": 4534,
      "▁मुंह": 4535,
      "▁परिजनों": 4536,
      "▁टिप्प": 4537,
      "▁कारोबार": 4538,
      "▁इनकी": 4539,
      "▁खाली": 4540,
      "▁चाहिए.": 4541,
      "ad": 4542,
      "▁शब्दों": 4543,
      "▁निरा": 4544,
      "▁सके।": 4545,
      "▁दरवा": 4546,
      "▁रिट": 4547,
      "▁मालिक": 4548,
      "▁प्रतियोग": 4549,
      "▁वायु": 4550,
      "ानु": 4551,
      ")।": 4552,
      "ing": 4553,
      "▁ज़्यादा": 4554,
      "▁पटेल": 4555,
      "▁उतार": 4556,
      "▁कॉन्": 4557,
      "िनी": 4558,
      "नाम": 4559,
      "▁गी": 4560,
      "▁कविता": 4561,
      "▁घरों": 4562,
      "विंद": 4563,
      "▁आखिरी": 4564,
      "ज्ज": 4565,
      "▁गुणवत्ता": 4566,
      "▁निरी": 4567,
      "▁कक्षा": 4568,
      "▁हुए,": 4569,
      "अल": 4570,
      "▁टीका": 4571,
      "बादी": 4572,
      "▁ब्रे": 4573,
      "▁आवास": 4574,
      "▁दिये": 4575,
      "एसपी": 4576,
      "्वा": 4577,
      "▁दस्तावे": 4578,
      "▁ज्योति": 4579,
      "▁L": 4580,
      "▁मीटर": 4581,
      "▁हृदय": 4582,
      "म्न": 4583,
      "यात": 4584,
      "▁दोस्तों": 4585,
      "ोने": 4586,
      "जीव": 4587,
      "▁अधिकांश": 4588,
      "राय": 4589,
      "▁बौ": 4590,
      "▁अध्या": 4591,
      "कृ": 4592,
      "▁मार्केट": 4593,
      "फिक": 4594,
      "-20": 4595,
      "ठे": 4596,
      "▁निर्मा": 4597,
      "▁निर्भर": 4598,
      "▁60": 4599,
      "ent": 4600,
      "शाला": 4601,
      "▁सीटों": 4602,
      "▁उत्सा": 4603,
      "टका": 4604,
      "▁अर्था": 4605,
      "ाइट": 4606,
      "▁सफाई": 4607,
      "▁बराम": 4608,
      "▁गुर": 4609,
      "▁डिजाइन": 4610,
      "▁एंटी": 4611,
      "क्का": 4612,
      "▁तुम्हें": 4613,
      "वो": 4614,
      "वती": 4615,
      "र्डर": 4616,
      "▁अंदा": 4617,
      "▁विभा": 4618,
      "▁छत्तीसगढ़": 4619,
      "ंडर": 4620,
      "▁फ़िल्म": 4621,
      "▁मानते": 4622,
      "▁पेट्रोल": 4623,
      "▁ठाकुर": 4624,
      "▁खतरा": 4625,
      "▁प्रतिनिध": 4626,
      "ेंशन": 4627,
      "▁देखें": 4628,
      "▁बोले": 4629,
      "▁कथा": 4630,
      "जिट": 4631,
      "▁धम": 4632,
      "नम": 4633,
      "माग": 4634,
      "ch": 4635,
      "▁एक्ट्रेस": 4636,
      "▁एजेंसी": 4637,
      "▁आरोपियों": 4638,
      "▁मरीज": 4639,
      "खिम": 4640,
      "▁चारों": 4641,
      "▁टूट": 4642,
      "▁ज्यादातर": 4643,
      "▁बाइक": 4644,
      "▁गई।\n": 4645,
      "ेलन": 4646,
      "▁कंट": 4647,
      "▁सॉ": 4648,
      "▁प्रकृति": 4649,
      "▁हां": 4650,
      "▁अन्": 4651,
      "▁टू": 4652,
      "▁छोड़कर": 4653,
      "▁पुष्टि": 4654,
      "र्द": 4655,
      "▁लॉन्च": 4656,
      ":\n": 4657,
      "▁है।\nइस": 4658,
      "तलब": 4659,
      "िनियम": 4660,
      "▁29": 4661,
      "▁घट": 4662,
      "▁मेहनत": 4663,
      "▁साहब": 4664,
      "▁समझा": 4665,
      "▁विश्ले": 4666,
      "िक्र": 4667,
      "▁सेट": 4668,
      "लाब": 4669,
      "▁संगठ": 4670,
      "▁स्थल": 4671,
      "▁हाईकोर्ट": 4672,
      "▁ग्ल": 4673,
      "▁जितना": 4674,
      "▁दान": 4675,
      "ताप": 4676,
      "▁प्रबंध": 4677,
      "▁आदित्य": 4678,
      "कोर": 4679,
      "ेक्ट": 4680,
      "▁नती": 4681,
      "गति": 4682,
      "▁अय": 4683,
      "िस्ट": 4684,
      "▁पहुँच": 4685,
      "भो": 4686,
      "▁बढ़ावा": 4687,
      "लोक": 4688,
      "▁चिकित्स": 4689,
      "घटना": 4690,
      "▁कठिन": 4691,
      "▁.\n": 4692,
      "बत": 4693,
      "il": 4694,
      "ैनिक": 4695,
      "ेर": 4696,
      "▁पव": 4697,
      "दिक": 4698,
      "▁संबंधी": 4699,
      "कुमार": 4700,
      "ध्या": 4701,
      "▁स्थानों": 4702,
      "▁प्राकृतिक": 4703,
      "ारीरिक": 4704,
      "▁संग्र": 4705,
      "▁पुरानी": 4706,
      "▁प्रसार": 4707,
      "▁इलेक्ट्र": 4708,
      "▁मकान": 4709,
      "▁जला": 4710,
      "▁पहुंचने": 4711,
      "▁ट्विटर": 4712,
      "ध्य": 4713,
      "▁विशाल": 4714,
      "▁चाहिये": 4715,
      "ेंगे।\n": 4716,
      "▁चीजों": 4717,
      "▁जोखिम": 4718,
      "▁गीत": 4719,
      "दास": 4720,
      "▁फैला": 4721,
      "▁सन": 4722,
      "▁विवे": 4723,
      "▁मेह": 4724,
      "ंटर": 4725,
      "▁डिप": 4726,
      "▁प्रत्या": 4727,
      "▁कार्यकर्ताओं": 4728,
      "▁संविधान": 4729,
      "▁कल्प": 4730,
      "वह": 4731,
      "▁एच": 4732,
      "▁चाय": 4733,
      "▁कहती": 4734,
      "▁फैल": 4735,
      "▁उत्तराखंड": 4736,
      "▁बंध": 4737,
      "▁कैंसर": 4738,
      "▁ऑफिस": 4739,
      "एं।": 4740,
      "ख़": 4741,
      "▁2016": 4742,
      "लिंग": 4743,
      "▁साथी": 4744,
      "▁साइट": 4745,
      "▁आशा": 4746,
      "ल्ला": 4747,
      "▁प्रतिष्ठ": 4748,
      "▁वस्तु": 4749,
      "स्कृत": 4750,
      "▁योजनाओं": 4751,
      "▁मुसलमान": 4752,
      "▁ग्रुप": 4753,
      "▁पढ़ने": 4754,
      "▁माहौल": 4755,
      "तरे": 4756,
      "▁संबोधित": 4757,
      "मैन": 4758,
      "▁स्वतंत्रता": 4759,
      "▁चैनल": 4760,
      "▁लगाई": 4761,
      "▁नाग": 4762,
      "▁लॉकडाउन": 4763,
      "▁पंजी": 4764,
      "▁कार्यवाही": 4765,
      "▁साथ,": 4766,
      "▁?\n": 4767,
      "▁वकी": 4768,
      "पुर,": 4769,
      "▁डाउन": 4770,
      "▁हाउस": 4771,
      "▁सुझा": 4772,
      "▁महिलाएं": 4773,
      "▁छात्रा": 4774,
      "ताव": 4775,
      "▁बिक्री": 4776,
      "▁बरामद": 4777,
      "▁वर": 4778,
      "▁हिसाब": 4779,
      "▁कोच": 4780,
      "▁परिसर": 4781,
      "▁मिश्रा": 4782,
      "▁वैक्सीन": 4783,
      "द्या": 4784,
      "▁रास्ता": 4785,
      "▁संचालन": 4786,
      "▁जिम्मेदार": 4787,
      "▁शारीरिक": 4788,
      "▁विराट": 4789,
      "▁एज": 4790,
      "▁जानने": 4791,
      "▁लंड": 4792,
      "धीरे": 4793,
      "▁संसा": 4794,
      "▁न्यूज": 4795,
      "▁मनी": 4796,
      "श्विक": 4797,
      "...\n": 4798,
      "▁गाँव": 4799,
      "भूम": 4800,
      "▁अशोक": 4801,
      "▁तुम्हारे": 4802,
      "गण": 4803,
      "▁ग्राहकों": 4804,
      "▁गुजर": 4805,
      "▁नामक": 4806,
      "▁निदेशक": 4807,
      "ैंक": 4808,
      "\nक": 4809,
      "ूसरे": 4810,
      "\nप": 4811,
      "▁होम": 4812,
      "▁बेहत": 4813,
      "▁स्कूलों": 4814,
      "▁भरा": 4815,
      "▁O": 4816,
      "ूंगा": 4817,
      "▁दाम": 4818,
      "▁फें": 4819,
      "▁एशिया": 4820,
      "▁ब्रां": 4821,
      "▁असम": 4822,
      "▁मुकद": 4823,
      "ान्त": 4824,
      "त,": 4825,
      "▁जमकर": 4826,
      "र्ज": 4827,
      "▁आलो": 4828,
      "▁अल्": 4829,
      "▁हूं,": 4830,
      "▁U": 4831,
      "डेट": 4832,
      "ष्टाचार": 4833,
      "10": 4834,
      "▁तापमान": 4835,
      "▁झार": 4836,
      "▁कराई": 4837,
      "मल": 4838,
      "▁झा": 4839,
      "अगर": 4840,
      "ुण": 4841,
      "▁अजय": 4842,
      "▁फेसबुक": 4843,
      "▁३": 4844,
      "▁पृथ्वी": 4845,
      "बारा": 4846,
      "▁संय": 4847,
      "▁अधिनियम": 4848,
      "▁सरल": 4849,
      "▁किरदार": 4850,
      "▁उठाया": 4851,
      "▁ट्रांस": 4852,
      "▁लगाकर": 4853,
      "▁स्वरूप": 4854,
      "▁अना": 4855,
      "▁शास": 4856,
      "▁हफ्": 4857,
      "▁खेती": 4858,
      "▁रजि": 4859,
      "▁संशोध": 4860,
      "्यूटर": 4861,
      "एंगे": 4862,
      "▁पदा": 4863,
      "▁वर्मा": 4864,
      "▁अकाउंट": 4865,
      "श्चा": 4866,
      "▁शहरों": 4867,
      "▁सिने": 4868,
      "▁गए.": 4869,
      "▁ढंग": 4870,
      "▁आंखों": 4871,
      "▁निम्न": 4872,
      "el": 4873,
      "▁अर्थव्यवस्था": 4874,
      "▁खाद्य": 4875,
      "▁पंड": 4876,
      "▁विरोधी": 4877,
      "्यवाद": 4878,
      "फिर": 4879,
      "-पिता": 4880,
      "▁चक्र": 4881,
      "▁इंसान": 4882,
      "▁श्रेणी": 4883,
      "▁तिव": 4884,
      "ुरा": 4885,
      "▁कले": 4886,
      "▁बरा": 4887,
      "▁हित": 4888,
      "▁स्त्री": 4889,
      "▁सवार": 4890,
      "▁हिमा": 4891,
      "▁अह": 4892,
      "स्वा": 4893,
      "▁सर्वे": 4894,
      "▁सूत्रों": 4895,
      "▁विशिष्ट": 4896,
      "▁कथित": 4897,
      "धिकारिक": 4898,
      "▁गई,": 4899,
      "▁2014": 4900,
      "▁सीजन": 4901,
      "▁खींच": 4902,
      "▁लिमि": 4903,
      "▁कम्": 4904,
      "रोज": 4905,
      "▁खुलासा": 4906,
      "▁रोहित": 4907,
      "▁क्रिया": 4908,
      "▁लगते": 4909,
      "दल": 4910,
      "▁कहता": 4911,
      "▁फैंस": 4912,
      "1.": 4913,
      "टरी": 4914,
      "▁ग्रे": 4915,
      "▁अभिन": 4916,
      "▁लिमिटेड": 4917,
      "स्तानी": 4918,
      "▁वर्ल्ड": 4919,
      "▁पुस्तक": 4920,
      "▁दिखाया": 4921,
      "▁फिट": 4922,
      "▁लंबी": 4923,
      "▁लेता": 4924,
      "▁त्या": 4925,
      "तिहासिक": 4926,
      "▁भरोसा": 4927,
      "▁तिवारी": 4928,
      "▁इलाकों": 4929,
      "▁तैनात": 4930,
      "▁हरा": 4931,
      "खिल": 4932,
      "अपने": 4933,
      "▁अभिनेता": 4934,
      "▁सम्मेलन": 4935,
      "▁वॉ": 4936,
      "-ए": 4937,
      "▁एका": 4938,
      "मती": 4939,
      "▁विधि": 4940,
      "▁दूसरों": 4941,
      "▁प्रारंभ": 4942,
      "▁प्रभावी": 4943,
      "▁आना": 4944,
      "▁जागरूक": 4945,
      "▁हिन्दू": 4946,
      "▁सकारात्मक": 4947,
      "▁प्लेटफ": 4948,
      "▁हालात": 4949,
      "ं.": 4950,
      "▁मोहम्मद": 4951,
      "ो,": 4952,
      "▁मिलाकर": 4953,
      "ोग्राम": 4954,
      "▁नीतीश": 4955,
      "▁दुख": 4956,
      "▁सुझाव": 4957,
      "▁35": 4958,
      "▁नेशनल": 4959,
      "▁खंड": 4960,
      "▁प्रेस": 4961,
      "▁सड़": 4962,
      "▁दाय": 4963,
      "ंखला": 4964,
      "वाने": 4965,
      "▁बचाव": 4966,
      "▁हवाई": 4967,
      "▁आईपीएल": 4968,
      "▁वेतन": 4969,
      "▁उत्पादों": 4970,
      "▁टैक्स": 4971,
      "कूल": 4972,
      "▁राजी": 4973,
      "ंदे": 4974,
      "मंद": 4975,
      "▁ग्रहण": 4976,
      "ड्": 4977,
      "▁ज़ि": 4978,
      "▁लोगो": 4979,
      "▁हफ्ते": 4980,
      "▁गेम": 4981,
      "स्टिक": 4982,
      "▁श्रृ": 4983,
      "▁स्वच्छ": 4984,
      "▁वापसी": 4985,
      "▁गहरा": 4986,
      "▁अफ्री": 4987,
      "▁वैश्विक": 4988,
      "▁तथ्य": 4989,
      "▁दिमाग": 4990,
      "▁मंडल": 4991,
      "▁करेगा": 4992,
      "▁कने": 4993,
      "नै": 4994,
      "पत्र": 4995,
      "▁जंग": 4996,
      "et": 4997,
      "▁सेक्स": 4998,
      "▁संदर्भ": 4999,
      "▁ताकत": 5000,
      "▁यूनिवर्स": 5001,
      "▁फंड": 5002,
      "ारों": 5003,
      "▁गुस्": 5004,
      "पूर्वक": 5005,
      "जरीवाल": 5006,
      "लान": 5007,
      "▁इका": 5008,
      "▁सीमित": 5009,
      "▁V": 5010,
      "▁रेट": 5011,
      "▁मान्यता": 5012,
      "▁रणनीति": 5013,
      "▁है;": 5014,
      "▁रिस": 5015,
      "▁कार्यकर्ता": 5016,
      "लाइ": 5017,
      "राग": 5018,
      "▁इंजी": 5019,
      "▁रूसी": 5020,
      "▁बेहतरीन": 5021,
      "▁पाते": 5022,
      "▁रम": 5023,
      "▁डाला": 5024,
      "▁खेलने": 5025,
      "▁प्राचीन": 5026,
      "▁माता-पिता": 5027,
      "▁कमे": 5028,
      "▁फसल": 5029,
      "▁डो": 5030,
      "स्तर": 5031,
      "ंथ": 5032,
      "क्षे": 5033,
      "▁कॉल": 5034,
      "▁प्रोड": 5035,
      "▁प्रोज": 5036,
      "▁विज्ञा": 5037,
      "▁कौशल": 5038,
      "▁दीप": 5039,
      "▁अंग्रेजी": 5040,
      "पेट": 5041,
      "▁थी.\n": 5042,
      "ोत्": 5043,
      "वेट": 5044,
      "्रत": 5045,
      "▁शुल्क": 5046,
      "▁अपेक्षा": 5047,
      "पुरी": 5048,
      "2.": 5049,
      "▁दशक": 5050,
      "घु": 5051,
      "▁आबादी": 5052,
      "▁आदर्श": 5053,
      "▁o": 5054,
      "▁दिलच": 5055,
      "▁अनिवार": 5056,
      "▁f": 5057,
      "▁मंजू": 5058,
      "▁तकनीकी": 5059,
      "▁पांडे": 5060,
      "▁आपूर्ति": 5061,
      "▁मैचों": 5062,
      "▁नेटवर्क": 5063,
      "िया,": 5064,
      "▁कमाई": 5065,
      "▁दलों": 5066,
      "▁धा": 5067,
      "मुझे": 5068,
      "▁टुक": 5069,
      "ंपरा": 5070,
      "▁सका": 5071,
      "▁गतिविधियों": 5072,
      "▁स्ट्र": 5073,
      "▁आधिकारिक": 5074,
      "▁पर्यावरण": 5075,
      "▁पीने": 5076,
      "▁चै": 5077,
      "▁इनका": 5078,
      "▁ऋण": 5079,
      "बारी": 5080,
      "ews": 5081,
      "▁खड़ी": 5082,
      "▁बच्चा": 5083,
      "डु": 5084,
      "▁लाइफ": 5085,
      "▁अन्त": 5086,
      "▁जहा": 5087,
      "▁रखता": 5088,
      "▁संक्रमित": 5089,
      "▁निर्वा": 5090,
      "ir": 5091,
      "▁नोटिस": 5092,
      "▁गठन": 5093,
      "▁गठबंधन": 5094,
      "▁भक्त": 5095,
      "▁पेड़": 5096,
      "▁दर्शकों": 5097,
      "▁तकनीक": 5098,
      "▁है।\\n": 5099,
      "▁युग": 5100,
      "▁सपा": 5101,
      "भाषा": 5102,
      "स्करण": 5103,
      "-बार": 5104,
      "▁बढ़ते": 5105,
      "▁लड़कियों": 5106,
      "▁स्क्रीन": 5107,
      "▁मारे": 5108,
      "पात": 5109,
      "▁खरीदने": 5110,
      "नान": 5111,
      "त्सा": 5112,
      "▁सैन्य": 5113,
      "▁समझने": 5114,
      "िमी": 5115,
      "▁लिस्ट": 5116,
      "▁भौ": 5117,
      "▁चौहान": 5118,
      "दरा": 5119,
      "▁सेवाओं": 5120,
      "▁ईश्वर": 5121,
      "▁राव": 5122,
      "▁विट": 5123,
      "हिर": 5124,
      "▁कमेटी": 5125,
      "▁बदलने": 5126,
      "भूमि": 5127,
      "us": 5128,
      "▁मिट्टी": 5129,
      "▁198": 5130,
      "▁नींद": 5131,
      "▁रोमा": 5132,
      "ेंगे.": 5133,
      "िग": 5134,
      "▁अनुकूल": 5135,
      "-श": 5136,
      "▁अमर": 5137,
      "▁गर्मी": 5138,
      "▁लाखों": 5139,
      "oo": 5140,
      "राज्य": 5141,
      "ला,": 5142,
      "▁करें.": 5143,
      "▁कू": 5144,
      "▁जुड़ा": 5145,
      "▁पीठ": 5146,
      "▁गू": 5147,
      "▁सिनेमा": 5148,
      "▁होगी।\n": 5149,
      "नाटक": 5150,
      "▁2.": 5151,
      "चय": 5152,
      "▁आमतौर": 5153,
      "▁खुले": 5154,
      "▁तारीख": 5155,
      "▁वाहनों": 5156,
      "▁मुद्दों": 5157,
      "ॉग": 5158,
      "▁लुक": 5159,
      "▁प्रदू": 5160,
      "ग्न": 5161,
      "▁रोल": 5162,
      "▁p": 5163,
      "▁J": 5164,
      "▁कार्": 5165,
      "▁व्यक्तियों": 5166,
      "▁पोर्ट": 5167,
      "▁पदों": 5168,
      "▁सम्मानित": 5169,
      "▁केजरीवाल": 5170,
      "▁भ्रष्टाचार": 5171,
      "्यूट": 5172,
      "▁ब्रि": 5173,
      "▁नाराज": 5174,
      "▁वार्ड": 5175,
      "▁संभाल": 5176,
      "▁ध्व": 5177,
      "▁संग्रह": 5178,
      "▁अट": 5179,
      "▁चीजें": 5180,
      "त्न": 5181,
      "टिल": 5182,
      "▁अवश्य": 5183,
      "ली,": 5184,
      "\nम": 5185,
      "पथ": 5186,
      "▁चूत": 5187,
      "▁ऐतिहासिक": 5188,
      "▁अभ्यास": 5189,
      "णे": 5190,
      "दाबाद": 5191,
      "विक": 5192,
      "▁प्रगति": 5193,
      "▁शुद्ध": 5194,
      "▁प्रदर्श": 5195,
      "गाह": 5196,
      "ंग्ला": 5197,
      "▁प्रावधान": 5198,
      "क्षी": 5199,
      "▁किनारे": 5200,
      "▁अग्रवाल": 5201,
      "▁बल्लेबाज": 5202,
      "▁आशी": 5203,
      "▁फ्री": 5204,
      "ांसी": 5205,
      "हीन": 5206,
      "▁चलाने": 5207,
      "▁आतंकवाद": 5208,
      "▁खूबसूरत": 5209,
      "ज,": 5210,
      "▁वैज्ञानिक": 5211,
      "▁कानूनी": 5212,
      "वरों": 5213,
      "ag": 5214,
      "तल": 5215,
      "▁मनाया": 5216,
      "भाष": 5217,
      "रत": 5218,
      "ेड़": 5219,
      "▁80": 5220,
      "००": 5221,
      "▁परंपरा": 5222,
      "पूर": 5223,
      "▁हुआ,": 5224,
      "▁कल्पना": 5225,
      "गरी": 5226,
      "▁झारखंड": 5227,
      "▁बें": 5228,
      "▁शांत": 5229,
      "▁मजबूर": 5230,
      "▁इंजीनियर": 5231,
      "िशन": 5232,
      "्ली": 5233,
      "त्रि": 5234,
      "▁अनिल": 5235,
      "▁विपरी": 5236,
      "▁सोचा": 5237,
      "-धीरे": 5238,
      "▁जर्म": 5239,
      "ह्म": 5240,
      "▁रहेगा।": 5241,
      "ेंगे,": 5242,
      "▁जाएंगे।": 5243,
      "▁लोन": 5244,
      "▁प्रौ": 5245,
      "▁नागरिकों": 5246,
      "un": 5247,
      "▁द्र": 5248,
      "▁गर": 5249,
      "िकोण": 5250,
      "▁परंतु": 5251,
      "म्मत": 5252,
      "▁प्रि": 5253,
      "▁रेखा": 5254,
      "▁हजारों": 5255,
      "▁70": 5256,
      "माश": 5257,
      "ितीय": 5258,
      "ST": 5259,
      "मैंने": 5260,
      "▁हस्त": 5261,
      "de": 5262,
      "▁भेद": 5263,
      "र्त": 5264,
      "प्शन": 5265,
      "▁अनिवार्य": 5266,
      "▁करेगा।": 5267,
      "-आ": 5268,
      "▁शूटिंग": 5269,
      "▁माने": 5270,
      "भि": 5271,
      "धारा": 5272,
      "▁इंडस्ट्री": 5273,
      "वेयर": 5274,
      "▁बचने": 5275,
      "▁हादसे": 5276,
      "▁ट्रेडिंग": 5277,
      "रावट": 5278,
      "▁प्रकट": 5279,
      "ामिन": 5280,
      "▁रहीं": 5281,
      "▁गाने": 5282,
      "▁ग़": 5283,
      "▁टिप्पणी": 5284,
      "▁शुक्": 5285,
      "सुर": 5286,
      "▁सिटी": 5287,
      "श्चर्य": 5288,
      "▁तस्वीरें": 5289,
      "▁काले": 5290,
      "न्त्र": 5291,
      "▁बाग": 5292,
      "▁संरक्षण": 5293,
      "▁डायरे": 5294,
      "▁हेल्": 5295,
      "▁फो": 5296,
      "▁लेन": 5297,
      "▁बनाते": 5298,
      "▁वितरण": 5299,
      "▁बुरी": 5300,
      "▁वार्": 5301,
      "▁पृष्ठ": 5302,
      "▁अखबार": 5303,
      "▁(1": 5304,
      "▁यात्रियों": 5305,
      "▁उक्त": 5306,
      "िरा": 5307,
      "▁फॉर्म": 5308,
      "▁गिरावट": 5309,
      "गज": 5310,
      "टों": 5311,
      "देह": 5312,
      "ारण": 5313,
      "▁अक": 5314,
      "▁आर्ट": 5315,
      "ॉम": 5316,
      "▁एसपी": 5317,
      "▁बांध": 5318,
      "▁मिशन": 5319,
      "▁अभिनेत्री": 5320,
      "▁घटनाओं": 5321,
      "▁चीज़": 5322,
      "▁माय": 5323,
      "▁दौरे": 5324,
      "जात": 5325,
      "▁प्रोजेक्ट": 5326,
      "न्यास": 5327,
      "▁किरा": 5328,
      "ढ़े": 5329,
      "▁शिक्षकों": 5330,
      "▁बताने": 5331,
      "▁कुमार,": 5332,
      "▁दें।": 5333,
      "▁दुर्घटना": 5334,
      "रुद्ध": 5335,
      "▁प्रेरित": 5336,
      "▁अकेले": 5337,
      "यल": 5338,
      "▁अब्": 5339,
      "▁जॉ": 5340,
      "बान": 5341,
      "▁खून": 5342,
      "▁ब्रा": 5343,
      "▁फाइनल": 5344,
      "ow": 5345,
      "▁मालूम": 5346,
      "▁धीरे-धीरे": 5347,
      "▁हुए।": 5348,
      "ढ़ा": 5349,
      "▁विन": 5350,
      "▁ग्रामीणों": 5351,
      "लामी": 5352,
      "र,": 5353,
      "▁टेली": 5354,
      "▁घुस": 5355,
      "क्रो": 5356,
      "▁देखभाल": 5357,
      "▁शास्त्र": 5358,
      "▁यूनिवर्सिटी": 5359,
      "▁शही": 5360,
      "▁c": 5361,
      "-च": 5362,
      "▁पवित्र": 5363,
      "▁बुद्धि": 5364,
      "▁महीनों": 5365,
      "▁काउ": 5366,
      "▁भाषण": 5367,
      "▁है।\nअ": 5368,
      "श्रे": 5369,
      "▁स्किन": 5370,
      "▁विचारों": 5371,
      "रणा": 5372,
      "▁सीबीआई": 5373,
      "▁महत्": 5374,
      "सच": 5375,
      "▁!\n": 5376,
      "▁भोपाल": 5377,
      "्यूब": 5378,
      "▁खतर": 5379,
      "▁पोल": 5380,
      "▁मुझसे": 5381,
      "▁फुट": 5382,
      "लिक": 5383,
      "▁स्रो": 5384,
      "▁समर्": 5385,
      "जिस": 5386,
      "▁प्रार्थ": 5387,
      "डि": 5388,
      "▁समुद्र": 5389,
      "▁तृ": 5390,
      "मात्र": 5391,
      "स्कर": 5392,
      "म,": 5393,
      "▁जीतने": 5394,
      "▁in": 5395,
      "▁बध": 5396,
      "▁प्रतिभा": 5397,
      "▁रुक": 5398,
      "बाई": 5399,
      "प्ट": 5400,
      "▁बजा": 5401,
      "▁जाएगा.": 5402,
      "▁हूं.": 5403,
      "▁प्रवक्ता": 5404,
      "▁उल्ल": 5405,
      "ें।\n": 5406,
      "▁इस्ती": 5407,
      "▁ग्राहक": 5408,
      "ष्णु": 5409,
      "-वि": 5410,
      "▁सड़कों": 5411,
      "साई": 5412,
      "▁कहा-": 5413,
      "रोध": 5414,
      "▁नज": 5415,
      "▁देखी": 5416,
      "▁उपस्थिति": 5417,
      "▁नियुक्त": 5418,
      "▁कोविड-19": 5419,
      "मेल": 5420,
      "▁स्कोर": 5421,
      "▁नष्ट": 5422,
      "▁उठाने": 5423,
      "▁अवि": 5424,
      "▁तंत्र": 5425,
      "▁इसको": 5426,
      "▁हरि": 5427,
      "▁दीवार": 5428,
      "▁धन्यवाद": 5429,
      "सेस": 5430,
      "▁ब्लॉक": 5431,
      "▁खाता": 5432,
      "▁लें।": 5433,
      "स्वरूप": 5434,
      "▁व्याव": 5435,
      "▁दीपक": 5436,
      "ान्": 5437,
      "▁आश्चर्य": 5438,
      "▁लड़के": 5439,
      "▁मजा": 5440,
      "▁हरी": 5441,
      "▁कामया": 5442,
      "▁हस्ता": 5443,
      "▁आगामी": 5444,
      "▁अखिलेश": 5445,
      "▁दास": 5446,
      "▁एक्सप्रेस": 5447,
      "वहीं": 5448,
      "▁मंजूरी": 5449,
      "▁इश": 5450,
      "हल": 5451,
      "पत": 5452,
      "▁सश": 5453,
      "▁अफसर": 5454,
      "▁s": 5455,
      "▁बेटा": 5456,
      "▁आतंकी": 5457,
      "▁लूट": 5458,
      "▁संसार": 5459,
      "सास": 5460,
      "▁ब्राह": 5461,
      "▁उपभो": 5462,
      "▁शख": 5463,
      "ग्ध": 5464,
      "▁श्रृंखला": 5465,
      "्यूटी": 5466,
      "▁निशाना": 5467,
      "▁खि": 5468,
      "▁बराबर": 5469,
      "ांतर": 5470,
      "▁विश्लेषण": 5471,
      "▁2023": 5472,
      "ोद": 5473,
      "▁बदले": 5474,
      "▁प्रोत्सा": 5475,
      "▁धमकी": 5476,
      "्राष्ट्रीय": 5477,
      "',": 5478,
      "▁अतः": 5479,
      "▁प्रभु": 5480,
      "\nब": 5481,
      "-फ": 5482,
      "▁विवरण": 5483,
      "वट": 5484,
      "▁बिंद": 5485,
      "▁नये": 5486,
      "▁शह": 5487,
      "वानी": 5488,
      "▁जनरल": 5489,
      "▁इंडियन": 5490,
      "▁रानी": 5491,
      "ंग्लादेश": 5492,
      "▁हटाने": 5493,
      "▁रद्द": 5494,
      "▁बढ़े": 5495,
      "▁सेक्टर": 5496,
      "▁पहुँ": 5497,
      "▁निकाला": 5498,
      "ायकों": 5499,
      "▁परा": 5500,
      "▁चम": 5501,
      "शाह": 5502,
      "▁सुल": 5503,
      "रक": 5504,
      "स्टिस": 5505,
      "ब्दी": 5506,
      "3.": 5507,
      "▁एक-द": 5508,
      "▁बीमा": 5509,
      "▁चुप": 5510,
      "▁2015": 5511,
      "▁समस्त": 5512,
      "▁कमल": 5513,
      "▁आह": 5514,
      "्यक्रम": 5515,
      "▁प्रियंका": 5516,
      "ैक्ट": 5517,
      "▁प्रतियोगिता": 5518,
      "--": 5519,
      "\nन": 5520,
      "▁निधन": 5521,
      "▁सौं": 5522,
      "▁आलोचना": 5523,
      "▁टो": 5524,
      "टीन": 5525,
      "स,": 5526,
      "ुक्ति": 5527,
      "▁लाया": 5528,
      "▁भय": 5529,
      "▁चुनावों": 5530,
      "▁झु": 5531,
      "re": 5532,
      "▁वकील": 5533,
      "▁विरुद्ध": 5534,
      "जिद": 5535,
      "भाग्य": 5536,
      "▁शख्स": 5537,
      "▁परिवहन": 5538,
      "▁बिता": 5539,
      "▁तर्क": 5540,
      "▁अपडेट": 5541,
      "हारी": 5542,
      "ुस्तान": 5543,
      "ct": 5544,
      "ेंट्स": 5545,
      "ी,": 5546,
      "▁दृष्टिकोण": 5547,
      "▁ठे": 5548,
      "▁स्थिर": 5549,
      "गरानी": 5550,
      "▁सपना": 5551,
      "हालांकि": 5552,
      "▁जानता": 5553,
      "धीश": 5554,
      "राइ": 5555,
      "काता": 5556,
      "व्यू": 5557,
      "पीट": 5558,
      "▁स्टेट": 5559,
      "▁उल्लंघ": 5560,
      "▁हद": 5561,
      "▁बिजनेस": 5562,
      "▁बढ": 5563,
      "▁महाराज": 5564,
      "तें": 5565,
      "▁१९": 5566,
      "▁जानी": 5567,
      "▁हनु": 5568,
      "हूर": 5569,
      "ीप": 5570,
      "टाई": 5571,
      "वारी": 5572,
      "▁बार-बार": 5573,
      "▁दैनिक": 5574,
      "सीय": 5575,
      "▁एप": 5576,
      "▁पश्चिमी": 5577,
      "▁चू": 5578,
      "म्मच": 5579,
      "▁दोबारा": 5580,
      "बंदी": 5581,
      "▁लहर": 5582,
      "▁रैली": 5583,
      "▁दौड़": 5584,
      "▁अधी": 5585,
      "▁पार्क": 5586,
      "▁परिवारों": 5587,
      "▁संगठनों": 5588,
      "▁सेहत": 5589,
      "▁शेष": 5590,
      "▁सूर": 5591,
      "▁संचालित": 5592,
      "कता": 5593,
      "-कभी": 5594,
      "▁एव": 5595,
      "▁निगरानी": 5596,
      "रू": 5597,
      "▁बैंकों": 5598,
      "▁ऐलान": 5599,
      "▁सुनकर": 5600,
      "लंका": 5601,
      "▁।।": 5602,
      "▁पत": 5603,
      "तावनी": 5604,
      "▁खेले": 5605,
      "▁विटामिन": 5606,
      "▁चेक": 5607,
      "▁चम्मच": 5608,
      "▁th": 5609,
      "▁अल्प": 5610,
      "▁माया": 5611,
      "▁पत्थर": 5612,
      "स्कृतिक": 5613,
      "▁of": 5614,
      "दायक": 5615,
      "▁निकलने": 5616,
      "▁रही।": 5617,
      "▁कर्नाटक": 5618,
      "इंट": 5619,
      "स्फ": 5620,
      "▁उतना": 5621,
      "▁बच्ची": 5622,
      "▁सिव": 5623,
      "लिख": 5624,
      "▁इंस्टा": 5625,
      "▁एक्": 5626,
      "▁व्रत": 5627,
      "-व": 5628,
      "▁जगत": 5629,
      "▁पश्चा": 5630,
      "▁मधु": 5631,
      "▁तमिल": 5632,
      "संग": 5633,
      "▁गलती": 5634,
      "▁अस्थ": 5635,
      "▁छु": 5636,
      "▁\"\n": 5637,
      "▁इमर": 5638,
      "▁स्टी": 5639,
      "कालीन": 5640,
      "▁पात्र": 5641,
      "▁अभिय": 5642,
      "▁अफ्रीका": 5643,
      "▁संस्कार": 5644,
      "▁रॉय": 5645,
      "▁साव": 5646,
      "क्षर": 5647,
      "▁भरी": 5648,
      "▁वनडे": 5649,
      "▁विज्ञापन": 5650,
      "▁यूक्रे": 5651,
      "▁बीज": 5652,
      "▁इरा": 5653,
      "श्रेष्ठ": 5654,
      "▁अंजाम": 5655,
      "and": 5656,
      "▁मास्क": 5657,
      "ंख्य": 5658,
      "▁भागी": 5659,
      "▁भ्रम": 5660,
      "▁गले": 5661,
      "िप्ट": 5662,
      "▁संकल्प": 5663,
      "ेन्द्र": 5664,
      "गांव": 5665,
      "▁हुये": 5666,
      "नी,": 5667,
      "▁थे.\n": 5668,
      "▁गए।\n": 5669,
      "▁ममता": 5670,
      "▁हिमाचल": 5671,
      "▁आशंका": 5672,
      "िएशन": 5673,
      "हत्या": 5674,
      "▁दी.": 5675,
      "िकाओं": 5676,
      "▁45": 5677,
      "▁ब्याज": 5678,
      "▁लगाते": 5679,
      "▁500": 5680,
      "▁व्यापारी": 5681,
      "▁चुनावी": 5682,
      "िके": 5683,
      "टाने": 5684,
      "▁पेशे": 5685,
      "्रेट": 5686,
      "▁काली": 5687,
      "▁उल्लंघन": 5688,
      "▁चेतावनी": 5689,
      "▁रिया": 5690,
      "▁प्रौद्योगिक": 5691,
      "▁प्रदूषण": 5692,
      "▁जंगल": 5693,
      "▁भिन्न": 5694,
      "▁सागर": 5695,
      "▁मोटर": 5696,
      "▁अधिकतम": 5697,
      "▁वाता": 5698,
      "कीन": 5699,
      "धारी": 5700,
      "▁खार": 5701,
      "डिया": 5702,
      "▁सफेद": 5703,
      "▁(अ": 5704,
      "▁दिक्": 5705,
      "फिया": 5706,
      "▁प्रार्थना": 5707,
      "ानिस्तान": 5708,
      "▁फाइ": 5709,
      "दाताओं": 5710,
      "िटिश": 5711,
      "त्ते": 5712,
      "▁चंद": 5713,
      "▁ब्रह्म": 5714,
      "▁मुफ्त": 5715,
      "दाई": 5716,
      "▁टेक्": 5717,
      "▁अहमद": 5718,
      "▁मुकाबला": 5719,
      "परेशन": 5720,
      "▁37": 5721,
      "▁सिक": 5722,
      "▁इसीलिए": 5723,
      "▁लिंक": 5724,
      "ुष": 5725,
      "▁जाहिर": 5726,
      "▁कहाँ": 5727,
      "ha": 5728,
      "काने": 5729,
      "पट": 5730,
      "▁खेला": 5731,
      "ri": 5732,
      "▁मशहूर": 5733,
      "▁मुख्यालय": 5734,
      "रासत": 5735,
      "▁इधर": 5736,
      "▁सख्त": 5737,
      "▁मूर्": 5738,
      "▁फायर": 5739,
      "षेक": 5740,
      "ोध्या": 5741,
      "▁कारणों": 5742,
      "▁अस्त": 5743,
      "▁अध्यक्षता": 5744,
      "▁निकट": 5745,
      "▁अवस्था": 5746,
      "▁टॉप": 5747,
      "▁पूंजी": 5748,
      "▁औसत": 5749,
      "▁नवा": 5750,
      "▁कव": 5751,
      "िफ": 5752,
      "▁श्रा": 5753,
      "▁स्टूड": 5754,
      "▁राजीव": 5755,
      "▁निरीक्षण": 5756,
      "▁मांस": 5757,
      "कृष्ण": 5758,
      "▁मनोर": 5759,
      "ro": 5760,
      "▁प्राय": 5761,
      "▁भरे": 5762,
      "िना": 5763,
      "▁आजादी": 5764,
      "▁दलित": 5765,
      "नेशनल": 5766,
      "▁लीग": 5767,
      "▁In": 5768,
      "▁अफग": 5769,
      "▁पुरुषों": 5770,
      "सील": 5771,
      "▁वातावरण": 5772,
      "▁चमक": 5773,
      "▁बधाई": 5774,
      "घाटन": 5775,
      "दायिक": 5776,
      "आपको": 5777,
      "एसटी": 5778,
      "▁जाओ": 5779,
      "▁पार्": 5780,
      "▁क्लब": 5781,
      "्वे": 5782,
      "▁प्रेरणा": 5783,
      "▁कंप्यूटर": 5784,
      "▁गोर": 5785,
      "प्ले": 5786,
      "▁मछ": 5787,
      "▁इजा": 5788,
      "▁मनोज": 5789,
      "\nइस": 5790,
      "▁जुड़": 5791,
      "▁न्यूज़": 5792,
      "जर्स": 5793,
      "▁सैनिकों": 5794,
      "18": 5795,
      "▁197": 5796,
      "▁न्यूनतम": 5797,
      "▁सफर": 5798,
      "इयों": 5799,
      "मुख्यमंत्री": 5800,
      "▁स्वभाव": 5801,
      "▁चालक": 5802,
      "▁विस्तृत": 5803,
      "▁ऑटो": 5804,
      "▁w": 5805,
      "▁जगहों": 5806,
      "▁पथ": 5807,
      "▁हाँ": 5808,
      "मार्": 5809,
      "▁बल्लेबाजी": 5810,
      "▁लेती": 5811,
      "▁पाप": 5812,
      "▁वर्णन": 5813,
      "क्षेप": 5814,
      "▁मचा": 5815,
      "▁अग्": 5816,
      "▁भरपूर": 5817,
      "▁बांग्लादेश": 5818,
      "▁वेस्ट": 5819,
      "▁साधारण": 5820,
      "ॉस": 5821,
      "नेश": 5822,
      "▁राजेश": 5823,
      "▁गए,": 5824,
      "▁निकालने": 5825,
      "▁जिनका": 5826,
      "▁हिरासत": 5827,
      "-न": 5828,
      "▁अक्षय": 5829,
      "▁बचपन": 5830,
      "▁रज": 5831,
      "▁मिलियन": 5832,
      "गीय": 5833,
      "▁कां": 5834,
      "▁बदमाश": 5835,
      "▁अनुरोध": 5836,
      "▁सुनील": 5837,
      "▁जताई": 5838,
      "▁विधायकों": 5839,
      "रा,": 5840,
      "▁बताई": 5841,
      "-3": 5842,
      "▁घोट": 5843,
      "ंबित": 5844,
      "▁आकाश": 5845,
      "▁होगी.": 5846,
      "▁सौंप": 5847,
      "▁लड़ने": 5848,
      "▁आहार": 5849,
      "▁नौकर": 5850,
      "▁जिनकी": 5851,
      "4.": 5852,
      "▁फरार": 5853,
      "▁इनकार": 5854,
      "क्सीजन": 5855,
      "▁90": 5856,
      "संध": 5857,
      "▁लिखी": 5858,
      "▁संस्करण": 5859,
      "▁सेक": 5860,
      "पक्ष": 5861,
      "▁स्पी": 5862,
      "▁प्रताप": 5863,
      "▁सैक": 5864,
      "▁उम्मीदवारों": 5865,
      "▁किशोर": 5866,
      "वास्तव": 5867,
      "▁सुनने": 5868,
      "जिटिव": 5869,
      "▁काला": 5870,
      "▁मोहन": 5871,
      "▁पेंशन": 5872,
      "▁प्रसन्न": 5873,
      "▁हनुमान": 5874,
      "▁(2": 5875,
      "▁बढ़कर": 5876,
      "▁इंस्टाग्राम": 5877,
      "▁दी।\n": 5878,
      "▁शैली": 5879,
      "▁राज्यपाल": 5880,
      "▁ब्राह्मण": 5881,
      "▁ख़ु": 5882,
      "कां": 5883,
      "▁बढ़ो": 5884,
      "▁बॉक्स": 5885,
      "दराबाद": 5886,
      "▁m": 5887,
      "▁पूर्वी": 5888,
      "▁स्टा": 5889,
      "▁पहले,": 5890,
      "▁रूम": 5891,
      "▁तट": 5892,
      "▁शुरुआती": 5893,
      "▁सेल": 5894,
      "▁चार्ज": 5895,
      "ंटों": 5896,
      "▁आदित्यनाथ": 5897,
      "पुल": 5898,
      "िमा": 5899,
      "▁भि": 5900,
      "ोड": 5901,
      "▁टाइम": 5902,
      "ित्त": 5903,
      "मेट": 5904,
      "▁गह": 5905,
      "▁नियुक्ति": 5906,
      "▁छू": 5907,
      "ार्ट": 5908,
      "▁वाक": 5909,
      "▁तिथि": 5910,
      "▁बनाता": 5911,
      "▁मंज": 5912,
      "▁लक्ष्मी": 5913,
      "▁असली": 5914,
      "▁प्रजा": 5915,
      "▁देखे": 5916,
      "ज्य": 5917,
      "फार": 5918,
      "▁कर्ज": 5919,
      "▁प्रत्याशी": 5920,
      "▁अमी": 5921,
      "भूत": 5922,
      "▁हूँ।": 5923,
      "द्दीन": 5924,
      "▁दायर": 5925,
      "em": 5926,
      "▁हाइ": 5927,
      "▁पावर": 5928,
      "▁बाढ़": 5929,
      "▁लम्": 5930,
      "▁लिहा": 5931,
      "▁परिस्थितियों": 5932,
      "कै": 5933,
      "▁श्रीलंका": 5934,
      "▁जयपुर": 5935,
      "▁पत्रकारों": 5936,
      "एक्स": 5937,
      "▁नेपाल": 5938,
      "▁विद्या": 5939,
      "▁मुकदमा": 5940,
      "▁कहान": 5941,
      "▁निर्माता": 5942,
      "▁उन्न": 5943,
      "▁तीसरी": 5944,
      "फ़ी": 5945,
      "▁प्रतिनिधि": 5946,
      "▁जाएगी।\n": 5947,
      "▁बैठा": 5948,
      "स्त्री": 5949,
      "hi": 5950,
      "▁थीं.": 5951,
      "ङ्": 5952,
      "▁कभी-कभी": 5953,
      "▁विविध": 5954,
      "यां": 5955,
      "▁फु": 5956,
      "▁सर्वश्रेष्ठ": 5957,
      "न्नई": 5958,
      "▁व्हा": 5959,
      "▁पड़ती": 5960,
      "रेन्द्र": 5961,
      "▁तुम्हारी": 5962,
      "▁दोषी": 5963,
      "▁दरअसल,": 5964,
      "▁छवि": 5965,
      "वक": 5966,
      "▁पर्यटन": 5967,
      "▁बेल": 5968,
      "▁2012": 5969,
      "▁बढ़ता": 5970,
      "-सा": 5971,
      "▁(I": 5972,
      "▁होगी,": 5973,
      "▁सांस्कृतिक": 5974,
      "▁हट": 5975,
      "▁मारने": 5976,
      "▁मेक": 5977,
      "▁प्राण": 5978,
      "▁गिरफ्तारी": 5979,
      "मानत": 5980,
      "▁त्याग": 5981,
      "▁अधीक्षक": 5982,
      "▁ब्रिटिश": 5983,
      "▁गुना": 5984,
      "▁डाउनलोड": 5985,
      "▁दर्शा": 5986,
      "▁अजी": 5987,
      "▁गांवों": 5988,
      "▁लव": 5989,
      "▁आरक्षण": 5990,
      "▁बुनिया": 5991,
      "▁कस": 5992,
      "▁दौरा": 5993,
      "▁ब्लैक": 5994,
      "▁केरल": 5995,
      "▁कंट्रोल": 5996,
      "▁चेहरा": 5997,
      "ीकरण": 5998,
      "▁हिस्सों": 5999,
      "▁खारिज": 6000,
      "फो": 6001,
      "▁रिश": 6002,
      "▁दुष्": 6003,
      "▁लगा।": 6004,
      "बीसी": 6005,
      "▁उधर": 6006,
      "▁खबरों": 6007,
      "▁आइए": 6008,
      "▁युवती": 6009,
      "▁दाखिल": 6010,
      "▁यौन": 6011,
      "▁गिल": 6012,
      "▁बुल": 6013,
      "▁हो.": 6014,
      "▁जबरद": 6015,
      "▁शाखा": 6016,
      "▁चौक": 6017,
      "▁कोलकाता": 6018,
      "▁फेंक": 6019,
      "▁समृ": 6020,
      "▁गेट": 6021,
      "▁मृतक": 6022,
      "वर्ती": 6023,
      "▁नारायण": 6024,
      "ष्क": 6025,
      "▁अज": 6026,
      "▁उत्साह": 6027,
      "▁को,": 6028,
      "बन": 6029,
      "▁चैंप": 6030,
      "▁जोड़ी": 6031,
      "▁अर्ज": 6032,
      "ेंसी": 6033,
      "स्टे": 6034,
      "केशन": 6035,
      ".5": 6036,
      "▁इंजन": 6037,
      "▁संपाद": 6038,
      "▁शर्म": 6039,
      "वीय": 6040,
      "वर्ष": 6041,
      "शांत": 6042,
      "ॉजी": 6043,
      "घ्र": 6044,
      "▁उद्ध": 6045,
      "ब्ल्यू": 6046,
      "▁एसोस": 6047,
      "कृष्ट": 6048,
      "क्के": 6049,
      "भारतीय": 6050,
      "▁कवर": 6051,
      "▁32": 6052,
      "सचिव": 6053,
      "्याम": 6054,
      "▁पुनर्": 6055,
      "▁सेंट": 6056,
      "▁छोड़ने": 6057,
      "▁सिया": 6058,
      "▁t": 6059,
      "▁तल": 6060,
      "▁पुष्": 6061,
      "▁लिखे": 6062,
      "▁दृश्य": 6063,
      "नन": 6064,
      "▁खतरनाक": 6065,
      "रेज": 6066,
      "har": 6067,
      "▁धोखा": 6068,
      "▁खोलने": 6069,
      "▁सहमति": 6070,
      "▁स्वाद": 6071,
      "▁भट्ट": 6072,
      "डियो": 6073,
      "▁36": 6074,
      "▁दुः": 6075,
      "indi": 6076,
      "▁निकले": 6077,
      "▁सिलस": 6078,
      "ूनों": 6079,
      "▁1,": 6080,
      "▁जनपद": 6081,
      "पीय": 6082,
      "▁मैन": 6083,
      "▁रॉ": 6084,
      "\nप्र": 6085,
      "एसएस": 6086,
      "▁हैं?\n": 6087,
      "▁सुविधाओं": 6088,
      "-सी": 6089,
      "यत": 6090,
      "▁बारी": 6091,
      "▁संरचना": 6092,
      "▁पाएंगे": 6093,
      "▁उपयुक्त": 6094,
      "संधान": 6095,
      "▁ही,": 6096,
      "पै": 6097,
      "▁प्राइवेट": 6098,
      "▁बनकर": 6099,
      "▁पाता": 6100,
      "ू,": 6101,
      "टीवी": 6102,
      "▁तहसील": 6103,
      "▁४": 6104,
      "▁पेज": 6105,
      "▁एक-दूसरे": 6106,
      "▁आकर्षित": 6107,
      "▁बहस": 6108,
      "ूली": 6109,
      "वों": 6110,
      "▁शिविर": 6111,
      "▁जस्टिस": 6112,
      "▁ठहरा": 6113,
      "▁नियंत्रित": 6114,
      "▁नु": 6115,
      "▁ब्रांड": 6116,
      "▁मुद्दा": 6117,
      "याल": 6118,
      "वाणी": 6119,
      "▁सर्वा": 6120,
      "▁हंस": 6121,
      "आत": 6122,
      "ब्लिक": 6123,
      "▁श्रम": 6124,
      "▁विपरीत": 6125,
      "▁सोन": 6126,
      "न्हा": 6127,
      "▁जाल": 6128,
      "▁बाहरी": 6129,
      "▁टूर्": 6130,
      "▁स्टोर": 6131,
      "डीएम": 6132,
      "▁आर्": 6133,
      "▁$": 6134,
      "▁दिल्ली।": 6135,
      "खार": 6136,
      "▁स्पेश": 6137,
      "▁अयोध्या": 6138,
      "▁रावत": 6139,
      "▁रिल": 6140,
      "▁पैमाने": 6141,
      "डो": 6142,
      "▁डा.": 6143,
      "▁किमी": 6144,
      "▁उदय": 6145,
      "नामेंट": 6146,
      "▁'अ": 6147,
      "▁समाजवादी": 6148,
      "▁नक": 6149,
      "इसी": 6150,
      "री,": 6151,
      "▁कहे": 6152,
      "▁आजकल": 6153,
      "▁संतोष": 6154,
      "▁संशोधन": 6155,
      "▁ग्रा": 6156,
      "▁News": 6157,
      "▁आयुक्त": 6158,
      "▁खिल": 6159,
      "▁स्पे": 6160,
      "▁न्यायाधीश": 6161,
      "राण": 6162,
      "▁कैसी": 6163,
      "▁चोर": 6164,
      "▁b": 6165,
      "▁चतु": 6166,
      "है": 6167,
      "▁दिखाने": 6168,
      "▁2013": 6169,
      "लिखित": 6170,
      "▁यूरोप": 6171,
      "।\nइस": 6172,
      "▁सदा": 6173,
      "कश": 6174,
      "▁[": 6175,
      "▁कच्च": 6176,
      "▁भंड": 6177,
      "▁धोनी": 6178,
      "▁ट्रक": 6179,
      "श्त": 6180,
      "▁रनों": 6181,
      "▁कं": 6182,
      "▁केंद्रित": 6183,
      "बिनेट": 6184,
      "▁तार": 6185,
      "▁उद्घाटन": 6186,
      "▁विद्यार्थियों": 6187,
      "▁विषयों": 6188,
      "▁रखकर": 6189,
      "▁मुक्ति": 6190,
      "▁बीमारियों": 6191,
      "▁लोकतंत्र": 6192,
      "▁द्वार": 6193,
      "▁किंग": 6194,
      "वंत": 6195,
      "▁हाला": 6196,
      "\nआ": 6197,
      "▁संस्कृत": 6198,
      "▁कलेक्टर": 6199,
      "▁सकता।": 6200,
      "▁जाएं": 6201,
      "▁एक्टर": 6202,
      "।\nअ": 6203,
      "▁संबंधों": 6204,
      "▁राकेश": 6205,
      "▁इम": 6206,
      "▁पाकिस्तानी": 6207,
      "्रेडिट": 6208,
      "▁अनुप": 6209,
      "▁आत्महत्या": 6210,
      "▁जाम": 6211,
      "▁वार्ता": 6212,
      "ul": 6213,
      "▁ताजा": 6214,
      "▁सहज": 6215,
      "▁फिल्में": 6216,
      "▁व्यापारियों": 6217,
      "ँकि": 6218,
      "▁जितनी": 6219,
      "-सम": 6220,
      "▁प्रय": 6221,
      "▁बेचने": 6222,
      "▁हैदराबाद": 6223,
      "15": 6224,
      "▁शहीद": 6225,
      "▁ली।": 6226,
      "▁मध्यप्रदेश": 6227,
      "ूंकि": 6228,
      "डीए": 6229,
      "ेदी": 6230,
      "▁ईमान": 6231,
      "▁इंटरव्यू": 6232,
      "▁अत": 6233,
      "▁जाए,": 6234,
      "उप": 6235,
      "▁धूम": 6236,
      "▁मज़": 6237,
      "▁ऑपरेशन": 6238,
      "▁त्रि": 6239,
      "▁प्रतीक": 6240,
      "▁डांस": 6241,
      "▁नक्स": 6242,
      "▁अनुसंधान": 6243,
      "▁गणेश": 6244,
      "ुरी": 6245,
      "▁संचार": 6246,
      "▁शर्मा,": 6247,
      "▁ओपन": 6248,
      "▁ख्या": 6249,
      "▁बट": 6250,
      "▁सूत्र": 6251,
      "▁अंतर्राष्ट्रीय": 6252,
      "▁दिलचस्प": 6253,
      "▁सोना": 6254,
      "▁सचिन": 6255,
      "▁दुश्म": 6256,
      "▁बुद्ध": 6257,
      "▁खेत": 6258,
      "▁उपाध्यक्ष": 6259,
      "▁यात्री": 6260,
      "▁टूर्नामेंट": 6261,
      "▁गोद": 6262,
      "▁सीधा": 6263,
      "▁अर्जुन": 6264,
      "▁संभावित": 6265,
      "▁सिखा": 6266,
      "स्को": 6267,
      "▁अर्थात्": 6268,
      "▁निरंतर": 6269,
      "▁दावे": 6270,
      "▁जिक्र": 6271,
      "▁प्लेटफॉर्म": 6272,
      "▁मिलेगा।": 6273,
      "▁लगे।": 6274,
      "▁फर्जी": 6275,
      "▁हैः": 6276,
      "▁चरित्र": 6277,
      "▁इसलिए,": 6278,
      "▁प्राप्ति": 6279,
      "▁भरने": 6280,
      "▁संतुल": 6281,
      "eb": 6282,
      "▁रवाना": 6283,
      "तीत": 6284,
      "▁पॉजिटिव": 6285,
      "▁सराह": 6286,
      "फान": 6287,
      "▁एकदम": 6288,
      "▁पायल": 6289,
      "डकर": 6290,
      "ट्रो": 6291,
      "ृष्टि": 6292,
      "▁तिर": 6293,
      "▁लिप": 6294,
      "▁मिला।": 6295,
      "▁गौरव": 6296,
      "रूप": 6297,
      "▁खबरें": 6298,
      "▁हक": 6299,
      "▁महज": 6300,
      "▁अदा": 6301,
      "▁सभ": 6302,
      "फारिश": 6303,
      "बाजों": 6304,
      "▁ज़रूरत": 6305,
      "▁अपमान": 6306,
      "▁लक": 6307,
      "▁मारपीट": 6308,
      "▁क्षेत्रीय": 6309,
      "चरण": 6310,
      "▁भी,": 6311,
      "▁बौद्ध": 6312,
      "फ्रेंस": 6313,
      "मांड": 6314,
      "लिये": 6315,
      "▁आधा": 6316,
      "▁राजस्व": 6317,
      "▁पत्रिका": 6318,
      "लीय": 6319,
      "िव्य": 6320,
      "▁लगाना": 6321,
      "▁जोशी": 6322,
      "\nज": 6323,
      "▁अगली": 6324,
      "▁बनाये": 6325,
      "▁पुनः": 6326,
      "▁सकी": 6327,
      "चारिक": 6328,
      "▁लापर": 6329,
      "▁इत्या": 6330,
      "▁कुर्": 6331,
      "▁लाइव": 6332,
      "▁है!": 6333,
      "▁कलाकार": 6334,
      "▁सिफारिश": 6335,
      "▁दब": 6336,
      "▁दिग्": 6337,
      "iv": 6338,
      "गेट": 6339,
      "▁आएंगे": 6340,
      "▁ढूं": 6341,
      "▁गया.\n": 6342,
      "▁एकमात्र": 6343,
      "▁अनुश": 6344,
      "ॉर्ट": 6345,
      "नाश": 6346,
      "▁हड़": 6347,
      "▁ब्ला": 6348,
      "▁अत्यधिक": 6349,
      "वेदनशील": 6350,
      "▁पापा": 6351,
      "▁लिए।": 6352,
      "▁जीता": 6353,
      "▁है-": 6354,
      "कर्मियों": 6355,
      "▁जाएगा,": 6356,
      "ें.": 6357,
      "▁बाधा": 6358,
      "शास्त्र": 6359,
      "▁बनता": 6360,
      "▁शता": 6361,
      "▁खतरे": 6362,
      "▁मुस्क": 6363,
      "▁चेन्नई": 6364,
      "▁स्टेड": 6365,
      "▁गौतम": 6366,
      "▁अरविंद": 6367,
      "मूल": 6368,
      "▁कम्प": 6369,
      "▁सदन": 6370,
      "रानी": 6371,
      "▁वस्त": 6372,
      "▁PM": 6373,
      "बानी": 6374,
      "▁क्षण": 6375,
      "▁लिखित": 6376,
      "जुर्ग": 6377,
      "ई,": 6378,
      "हु": 6379,
      "▁बम": 6380,
      "▁कब्जा": 6381,
      "▁शुरु": 6382,
      "▁मिथ": 6383,
      "▁तलाक": 6384,
      "मै": 6385,
      "सनीय": 6386,
      "वाना": 6387,
      "▁सपने": 6388,
      "िताभ": 6389,
      "ाइम": 6390,
      "▁यश": 6391,
      "▁सबको": 6392,
      "▁75": 6393,
      "▁(C": 6394,
      "ईओ": 6395,
      "या,": 6396,
      "▁सर्वो": 6397,
      "ृत्य": 6398,
      "▁नाटक": 6399,
      "▁कर्मियों": 6400,
      "▁विजे": 6401,
      "▁लीटर": 6402,
      "ोकर": 6403,
      "▁प्रतिमा": 6404,
      "▁उर्फ": 6405,
      "▁स्टॉक": 6406,
      "▁ज्व": 6407,
      "णु": 6408,
      "-भ": 6409,
      "’\n": 6410,
      "▁स्टाफ": 6411,
      "▁स्टेडियम": 6412,
      "▁गैंग": 6413,
      "▁मक": 6414,
      "▁तारीफ": 6415,
      "▁घंटों": 6416,
      "▁विशेषता": 6417,
      "▁डॉक्टरों": 6418,
      "▁एकत्र": 6419,
      "▁५": 6420,
      "▁डिवा": 6421,
      "40": 6422,
      "बिल": 6423,
      "उत्तर": 6424,
      "▁निच": 6425,
      "▁तिल": 6426,
      "दिल्ली": 6427,
      "▁रूपये": 6428,
      "▁अश्व": 6429,
      "▁कैसा": 6430,
      "▁खासकर": 6431,
      "▁क्रेडिट": 6432,
      "▁भाग्य": 6433,
      "सीबी": 6434,
      "▁पड़ा।": 6435,
      "▁पहुंचाने": 6436,
      "▁आग्रह": 6437,
      "ot": 6438,
      "-कश्मीर": 6439,
      "लक": 6440,
      "ov": 6441,
      "पुलिस": 6442,
      "लील": 6443,
      "▁रिसर्च": 6444,
      "▁जटिल": 6445,
      "ख्": 6446,
      "एं,": 6447,
      "▁साज": 6448,
      "▁क्षति": 6449,
      "यक": 6450,
      "▁उपयोगी": 6451,
      "▁जवानों": 6452,
      "वली": 6453,
      "▁पेपर": 6454,
      "▁ऑक्सीजन": 6455,
      "तू": 6456,
      "▁समझते": 6457,
      "मतों": 6458,
      "छो": 6459,
      "▁निर्वाचन": 6460,
      "▁विपक्षी": 6461,
      "▁पड़ने": 6462,
      "▁इत्यादि": 6463,
      "▁ट्रेड": 6464,
      "▁साधन": 6465,
      "विंग": 6466,
      "▁भाभी": 6467,
      "▁टक": 6468,
      "▁वस्तुओं": 6469,
      "▁सौर": 6470,
      "दुर": 6471,
      "▁पर्स": 6472,
      "▁जड़": 6473,
      "▁लिया.": 6474,
      "▁ब्रिटेन": 6475,
      "▁एयरपोर्ट": 6476,
      "सेंस": 6477,
      "▁विष्णु": 6478,
      "▁रहेगा": 6479,
      "ंत्रित": 6480,
      "▁भक्ति": 6481,
      "▁बग": 6482,
      "▁अस्तित्व": 6483,
      "▁करेंगे।\n": 6484,
      "▁सुनाई": 6485,
      "▁(S": 6486,
      "व्या": 6487,
      "्ठा": 6488,
      "▁पाउ": 6489,
      "▁डालने": 6490,
      "▁करार": 6491,
      "धिकारियों": 6492,
      "तालों": 6493,
      "▁अमरी": 6494,
      "▁कपिल": 6495,
      "25": 6496,
      "▁मेल": 6497,
      "ाराण": 6498,
      "▁शिश": 6499,
      "▁कैबिनेट": 6500,
      "▁बुनियादी": 6501,
      "▁म्यू": 6502,
      "▁किस्": 6503,
      "ंकन": 6504,
      "▁श्रमिक": 6505,
      "▁घाट": 6506,
      "▁शहरी": 6507,
      "▁गोल्ड": 6508,
      "▁जमानत": 6509,
      "▁समक्ष": 6510,
      "▁चिंत": 6511,
      "शेष": 6512,
      "उथ": 6513,
      "▁टीकाकरण": 6514,
      "क्की": 6515,
      "ष्म": 6516,
      "▁मिलेगा": 6517,
      "▁पंडित": 6518,
      "▁प्रोग्राम": 6519,
      "▁निपटने": 6520,
      "▁अमृत": 6521,
      "▁दां": 6522,
      "▁यादव,": 6523,
      "▁परिचय": 6524,
      "▁प्रौद्योगिकी": 6525,
      "▁सिंध": 6526,
      "करे": 6527,
      "▁यो": 6528,
      "क्ताओं": 6529,
      "▁प्रमो": 6530,
      "व्र": 6531,
      "▁लेकिन,": 6532,
      "▁सिद्धांत": 6533,
      "▁सबके": 6534,
      "▁छुट्टी": 6535,
      "▁कार्यकाल": 6536,
      "ाराणसी": 6537,
      "▁आंकड़ों": 6538,
      "ज्ञात": 6539,
      "▁अभिनय": 6540,
      "ंत्रिक": 6541,
      "ब्यू": 6542,
      "▁उठाए": 6543,
      "▁गेंदबाज": 6544,
      "▁शपथ": 6545,
      "पं": 6546,
      "िद": 6547,
      "▁सिविल": 6548,
      "▁नमक": 6549,
      "▁बच्चन": 6550,
      "▁बुलाया": 6551,
      "▁चैंपियन": 6552,
      "रियर": 6553,
      "दीय": 6554,
      "▁धारण": 6555,
      "हाई": 6556,
      "▁करना,": 6557,
      "माणु": 6558,
      "▁बॉस": 6559,
      "▁करवाने": 6560,
      "▁ट्रंप": 6561,
      "▁समर्पित": 6562,
      "▁महासचिव": 6563,
      "▁बोलने": 6564,
      "▁स्वर": 6565,
      "कंप": 6566,
      "▁नकारात्मक": 6567,
      "▁मस्जिद": 6568,
      "▁जानना": 6569,
      "▁बाबू": 6570,
      "▁जाया": 6571,
      "▁अभाव": 6572,
      "▁दिक्कत": 6573,
      "ल्ट": 6574,
      "▁बुजुर्ग": 6575,
      "▁लालू": 6576,
      "▁हो।\n": 6577,
      "▁यूक्रेन": 6578,
      "ड्र": 6579,
      "▁उड़ा": 6580,
      "▁स्रोत": 6581,
      "▁हैं\n": 6582,
      "▁शीघ्र": 6583,
      "ँह": 6584,
      "▁विद्व": 6585,
      "▁गायब": 6586,
      "शनी": 6587,
      "आइ": 6588,
      "▁कार्यक्रमों": 6589,
      "▁हेल्थ": 6590,
      "▁बला": 6591,
      "▁कीमतों": 6592,
      "▁एंट": 6593,
      "एडा": 6594,
      "▁टक्कर": 6595,
      "▁टन": 6596,
      "▁आपसे": 6597,
      "▁उड़ान": 6598,
      "▁शंकर": 6599,
      "वाड़ा": 6600,
      "▁अस्पतालों": 6601,
      "▁चक्कर": 6602,
      "▁अफगानिस्तान": 6603,
      "▁धरती": 6604,
      "▁प्रीम": 6605,
      "▁पढ़ा": 6606,
      "▁सहारा": 6607,
      "स्थल": 6608,
      "विश्वास": 6609,
      "▁लिखने": 6610,
      "▁हुई,": 6611,
      "▁पदार्थों": 6612,
      "▁सर्विस": 6613,
      "मय": 6614,
      "▁रुचि": 6615,
      "▁थीं,": 6616,
      "▁नहीं.": 6617,
      "▁रकम": 6618,
      "▁मारा": 6619,
      "▁दह": 6620,
      "▁यहीं": 6621,
      "ment": 6622,
      "▁अभिषेक": 6623,
      "▁गिरा": 6624,
      "▁स्मार्टफोन": 6625,
      "कर,": 6626,
      "▁मूर्ति": 6627,
      "▁इंदौर": 6628,
      "▁गार्ड": 6629,
      "▁कुर": 6630,
      "िंग,": 6631,
      "▁हंग": 6632,
      "-एक": 6633,
      "▁शाहरु": 6634,
      "▁है।\nस": 6635,
      "▁विद्युत": 6636,
      "▁चलती": 6637,
      "ड्डा": 6638,
      "ंची": 6639,
      "▁राशन": 6640,
      "▁अंश": 6641,
      "▁चावल": 6642,
      "▁सिक्": 6643,
      "धिकरण": 6644,
      "▁जानें": 6645,
      "▁यानि": 6646,
      "▁प्रतिदिन": 6647,
      "▁करेगी।": 6648,
      "स्फोट": 6649,
      "▁पदाधिकारी": 6650,
      "▁उत्कृष्ट": 6651,
      "ड्स": 6652,
      "▁एकता": 6653,
      "▁पैरों": 6654,
      "▁प्राथमिकता": 6655,
      "मीन": 6656,
      "▁इस्तीफा": 6657,
      "ut": 6658,
      "▁शोर": 6659,
      "▁हैरान": 6660,
      "▁नवीन": 6661,
      "खण्ड": 6662,
      "▁अधिकतर": 6663,
      "▁जोड़ने": 6664,
      "▁उपकरणों": 6665,
      "कर्मी": 6666,
      "▁वादा": 6667,
      "▁फार्म": 6668,
      "▁युक्त": 6669,
      "▁वस": 6670,
      "▁:\n": 6671,
      "▁रोजाना": 6672,
      "▁संस्थानों": 6673,
      "▁कोत": 6674,
      "▁चन्द्र": 6675,
      "फेसर": 6676,
      "बॉ": 6677,
      "▁निर्मित": 6678,
      "▁ईरान": 6679,
      "▁पीड़िता": 6680,
      "▁196": 6681,
      "▁घे": 6682,
      "▁सैकड़ों": 6683,
      "▁हार्": 6684,
      "जीलैंड": 6685,
      "▁करवाया": 6686,
      "▁डालकर": 6687,
      "▁इकाई": 6688,
      "ैस": 6689,
      "▁आपदा": 6690,
      "▁ब्रेक": 6691,
      "दून": 6692,
      "ंटा": 6693,
      "इंग": 6694,
      "ाइयों": 6695,
      "▁रखती": 6696,
      "▁ब्लड": 6697,
      "▁सीर": 6698,
      "लोग": 6699,
      "▁दाल": 6700,
      "फ्तार": 6701,
      "▁पाठ्यक्रम": 6702,
      "▁बढ़ोतरी": 6703,
      "▁महत्त्व": 6704,
      "▁झूठ": 6705,
      "▁संस": 6706,
      "▁ओल": 6707,
      "▁स्टाइल": 6708,
      "द,": 6709,
      "▁इंटरनेशनल": 6710,
      "▁डायरेक्टर": 6711,
      "ियस": 6712,
      "▁दोहरा": 6713,
      "र्मी": 6714,
      "▁जोड़ा": 6715,
      "▁महात्मा": 6716,
      "▁सत्या": 6717,
      "▁कंग": 6718,
      "11": 6719,
      "▁उन्हीं": 6720,
      "शय": 6721,
      "मेर": 6722,
      "▁फर्": 6723,
      "वाय": 6724,
      "▁फायदेमंद": 6725,
      "▁असल": 6726,
      "वायर": 6727,
      "▁स्मृति": 6728,
      "▁मजदूरों": 6729,
      "▁समझौता": 6730,
      "किसी": 6731,
      "▁सूरज": 6732,
      "▁गईं": 6733,
      "▁जापान": 6734,
      "▁एसोसिएशन": 6735,
      "▁व्यस्त": 6736,
      "▁आतंकियों": 6737,
      "▁में।": 6738,
      "▁₹": 6739,
      "णि": 6740,
      "ोगे": 6741,
      "▁क्लास": 6742,
      "▁सैनिक": 6743,
      "▁वर्क": 6744,
      "▁गौरतलब": 6745,
      "▁राज्यसभा": 6746,
      "सायिक": 6747,
      "्यूल": 6748,
      "▁टी20": 6749,
      "▁नरेन्द्र": 6750,
      "जलि": 6751,
      "▁फॉलो": 6752,
      "▁तरीकों": 6753,
      "▁सीटें": 6754,
      "▁अतिथि": 6755,
      "ंचित": 6756,
      "▁६": 6757,
      "▁वास": 6758,
      "ग्रस्त": 6759,
      "▁अधीन": 6760,
      "जीवन": 6761,
      "-ग": 6762,
      "ंसक": 6763,
      "▁स्नान": 6764,
      "हमारे": 6765,
      "▁इमार": 6766,
      "▁परमाणु": 6767,
      "हरादून": 6768,
      "▁पिछली": 6769,
      "▁धु": 6770,
      "▁कोरिया": 6771,
      "▁परे": 6772,
      "▁डेस्क": 6773,
      "▁औद्योगिक": 6774,
      "▁तीर्थ": 6775,
      "प्रति": 6776,
      "▁अनुरूप": 6777,
      "▁ढां": 6778,
      "एससी": 6779,
      "▁दें,": 6780,
      "▁तप": 6781,
      "खु": 6782,
      "▁सुर्": 6783,
      "मेरे": 6784,
      "▁भोज": 6785,
      "▁मनीष": 6786,
      "▁प्रकरण": 6787,
      "एमसी": 6788,
      "पिछ": 6789,
      "▁विज": 6790,
      "पत्ति": 6791,
      "ंगों": 6792,
      "▁विस्फोट": 6793,
      "▁दिए।": 6794,
      "▁(A": 6795,
      "▁अभ्य": 6796,
      "▁प्रेमी": 6797,
      "▁अपर": 6798,
      "▁टीमों": 6799,
      "▁अमिताभ": 6800,
      "▁नयी": 6801,
      "▁स्पेशल": 6802,
      "▁जमी": 6803,
      "▁पारित": 6804,
      "▁नीर": 6805,
      "▁निशान": 6806,
      "▁जन्मदिन": 6807,
      "▁सांप": 6808,
      "▁बनर्जी": 6809,
      "▁चेयर": 6810,
      "▁पार्टनर": 6811,
      "▁प्रत्यक्ष": 6812,
      "▁गंभीरता": 6813,
      "आईआर": 6814,
      "▁आपत्ति": 6815,
      "भुत": 6816,
      "▁बताए": 6817,
      "▁मानी": 6818,
      "सेज": 6819,
      "न्थ": 6820,
      "▁नामांक": 6821,
      "कोट": 6822,
      "नाडु": 6823,
      "▁the": 6824,
      "ab": 6825,
      "▁उन्होने": 6826,
      "▁सहयोगी": 6827,
      "▁उज्ज": 6828,
      "▁लापरवाही": 6829,
      "पुरा": 6830,
      "▁क्यू": 6831,
      "▁व्यक्तित्व": 6832,
      "▁स्थायी": 6833,
      "▁लाइसेंस": 6834,
      "▁पीढ़ी": 6835,
      "▁नारे": 6836,
      "▁बिलकुल": 6837,
      "▁हों,": 6838,
      "▁समझौते": 6839,
      "▁प्रयासों": 6840,
      "▁लह": 6841,
      "▁विवेक": 6842,
      "▁पुराना": 6843,
      "▁लिखा,": 6844,
      "▁हेड": 6845,
      "▁विधेय": 6846,
      "▁आदिवासी": 6847,
      "▁तत्वों": 6848,
      "▁अंदाज": 6849,
      "▁मांगी": 6850,
      "▁इकट": 6851,
      "▁गहरी": 6852,
      "▁चालू": 6853,
      "▁भोग": 6854,
      "▁नजदी": 6855,
      "▁क्ली": 6856,
      "▁श्रद्धाल": 6857,
      "▁गार": 6858,
      "▁संवेदनशील": 6859,
      "▁जिलाधिकारी": 6860,
      "▁श्रद्धा": 6861,
      "▁मुआ": 6862,
      "▁भेजने": 6863,
      "ोसी": 6864,
      "▁गुस्सा": 6865,
      "▁उद्यम": 6866,
      "▁प्रतिनिधित्व": 6867,
      "▁फं": 6868,
      "▁एह": 6869,
      "▁कब्जे": 6870,
      "▁हस्ताक्षर": 6871,
      "दरअसल": 6872,
      "▁वारदा": 6873,
      "भाविक": 6874,
      "▁मास्टर": 6875,
      "▁भावनाओं": 6876,
      "▁है।\nयह": 6877,
      "▁हर्ष": 6878,
      "▁विशेषज्ञों": 6879,
      "▁देंगे": 6880,
      "▁विनो": 6881,
      "▁निल": 6882,
      "▁(स": 6883,
      "▁स्ना": 6884,
      "स्पे": 6885,
      "काशन": 6886,
      "▁छिपा": 6887,
      "ज़न": 6888,
      "▁रिश्ता": 6889,
      "▁गूगल": 6890,
      "▁पाँच": 6891,
      "संख्य": 6892,
      "▁धूप": 6893,
      "▁विफल": 6894,
      "▁चूंकि": 6895,
      "तुम": 6896,
      "▁बैग": 6897,
      "▁मच": 6898,
      "हाबाद": 6899,
      "▁भूख": 6900,
      "12": 6901,
      "▁बलों": 6902,
      "▁राजप": 6903,
      "▁जीवित": 6904,
      "▁गयी।": 6905,
      "▁सटी": 6906,
      "id": 6907,
      "तियां": 6908,
      "ोलॉजी": 6909,
      "▁मेर": 6910,
      "▁गोपाल": 6911,
      "▁उत्तरी": 6912,
      "▁जम्मू-कश्मीर": 6913,
      "▁साजिश": 6914,
      "▁यूनिट": 6915,
      "▁मंड": 6916,
      "ंपरिक": 6917,
      "▁आवाज़": 6918,
      "ation": 6919,
      "-ट": 6920,
      "▁लीड": 6921,
      "▁संसाधन": 6922,
      "चित्र": 6923,
      "▁दिलाने": 6924,
      "▁कन्या": 6925,
      "गौर": 6926,
      "कांग्रेस": 6927,
      "पया": 6928,
      "▁एडम": 6929,
      "▁भारती": 6930,
      "दिग्ध": 6931,
      "▁मध्यम": 6932,
      "बै": 6933,
      "▁पाउडर": 6934,
      "▁तत्कालीन": 6935,
      "केज": 6936,
      "▁प्रोफेसर": 6937,
      "ह्न": 6938,
      "▁निर्यात": 6939,
      "▁कामयाब": 6940,
      "रीय": 6941,
      "ँस": 6942,
      "▁मेट्रो": 6943,
      "याम": 6944,
      "▁पदक": 6945,
      "▁सेवाएं": 6946,
      "▁भौतिक": 6947,
      "▁मुसलमानों": 6948,
      "▁अधि": 6949,
      "▁त्यो": 6950,
      "आईटी": 6951,
      "▁कुशल": 6952,
      "▁करण": 6953,
      "▁आकर्षक": 6954,
      "▁पत्रकारिता": 6955,
      "▁बैक": 6956,
      "▁194": 6957,
      "▁गोरख": 6958,
      "ंतरिक": 6959,
      "▁मानस": 6960,
      "▁इज": 6961,
      "▁निवास": 6962,
      "▁संभ": 6963,
      "▁अजीब": 6964,
      "▁आचार्य": 6965,
      "▁एक्शन": 6966,
      "▁सिन्हा": 6967,
      "▁जुर्म": 6968,
      "▁डिवाइस": 6969,
      "▁सॉफ्ट": 6970,
      "▁वेद": 6971,
      "▁शताब्दी": 6972,
      "ुलर": 6973,
      "▁झग": 6974,
      "पल": 6975,
      "▁रुख": 6976,
      "▁शतक": 6977,
      "ig": 6978,
      "▁बेट": 6979,
      "क्षेत्र": 6980,
      "▁होली": 6981,
      "▁कर्त": 6982,
      "▁नैतिक": 6983,
      "पंच": 6984,
      "वर्ड": 6985,
      "▁रमेश": 6986,
      "▁लंदन": 6987,
      "▁मंडी": 6988,
      "▁गर्भ": 6989,
      "16": 6990,
      "▁आदत": 6991,
      "▁अत्या": 6992,
      "▁तुम्हारा": 6993,
      "▁कंपनियां": 6994,
      "▁शत्र": 6995,
      "▁सीसी": 6996,
      "जिन": 6997,
      "▁कटौती": 6998,
      "▁इंच": 6999,
      "▁3.": 7000,
      "▁33": 7001,
      "डॉ": 7002,
      "▁कायम": 7003,
      "▁ऑफ़": 7004,
      "17": 7005,
      "▁निश्च": 7006,
      "▁जरिये": 7007,
      "▁रायपुर": 7008,
      "-4": 7009,
      "▁संदिग्ध": 7010,
      "▁गेंदबाजी": 7011,
      "▁हूँ,": 7012,
      "▁इमरान": 7013,
      "भूति": 7014,
      "▁ज्ञा": 7015,
      "▁प्रवृत्ति": 7016,
      "▁श्रीवास्तव": 7017,
      "न्ट": 7018,
      "नई": 7019,
      "▁ख़बर": 7020,
      "धीन": 7021,
      "▁डेढ़": 7022,
      "▁आपस": 7023,
      "▁मोर्चा": 7024,
      "▁छापे": 7025,
      "न्द्रीय": 7026,
      "▁हज़ार": 7027,
      "▁एटी": 7028,
      "ंगिक": 7029,
      "▁सावधानी": 7030,
      "▁सब्ज": 7031,
      "लन": 7032,
      "▁आयी": 7033,
      "▁कठोर": 7034,
      "▁आवं": 7035,
      "▁प्रदर्शित": 7036,
      "▁नर्स": 7037,
      "▁दुःख": 7038,
      "99": 7039,
      "▁मुकेश": 7040,
      "▁आरोपों": 7041,
      "▁अधिकारों": 7042,
      "▁उपन्यास": 7043,
      "▁इस्लाम": 7044,
      "▁हिट": 7045,
      "▁न्यूजीलैंड": 7046,
      "▁काव्य": 7047,
      "▁जबरदस्त": 7048,
      "ालों": 7049,
      "▁है।\nक": 7050,
      "बंद": 7051,
      "ौली": 7052,
      "▁वाराणसी": 7053,
      "▁(P": 7054,
      "▁डीजल": 7055,
      "▁कनेक्शन": 7056,
      "▁शाहरुख": 7057,
      "ac": 7058,
      "▁जलवा": 7059,
      "▁स्की": 7060,
      "▁रिजर्व": 7061,
      "▁कोर": 7062,
      "▁ऑल": 7063,
      "▁जनसं": 7064,
      "▁बेरोज": 7065,
      "▁संदेह": 7066,
      "▁ससुर": 7067,
      "चंद": 7068,
      "नेशन": 7069,
      "▁फ्रांस": 7070,
      "▁सब्स": 7071,
      "▁जिसमे": 7072,
      "▁नेहर": 7073,
      "▁भेजे": 7074,
      "ite": 7075,
      "▁बढ़ाया": 7076,
      "▁उत्स": 7077,
      "पह": 7078,
      "ग़": 7079,
      "▁रहेंगे।": 7080,
      "मस": 7081,
      "स्पिटल": 7082,
      "▁पेय": 7083,
      "र्की": 7084,
      "▁हुआ.": 7085,
      "▁अधिव": 7086,
      "▁यूरोपीय": 7087,
      "▁द्वितीय": 7088,
      "▁34": 7089,
      "▁कानपुर": 7090,
      "न्य": 7091,
      "▁अरुण": 7092,
      "धित": 7093,
      "▁नित": 7094,
      "▁डीएम": 7095,
      "▁ब्लॉग": 7096,
      "▁मरने": 7097,
      "लाइट": 7098,
      "▁अन्दर": 7099,
      "ak": 7100,
      "▁उल्लेखनीय": 7101,
      "▁जीते": 7102,
      "ड़िया": 7103,
      "▁कृपा": 7104,
      "▁शिवसेना": 7105,
      "पीड़": 7106,
      "▁किंतु": 7107,
      "▁जाग": 7108,
      "▁तुलसी": 7109,
      "▁बताया,": 7110,
      "गुरु": 7111,
      "▁दिल्ली,": 7112,
      "▁शरण": 7113,
      "▁परिप": 7114,
      "▁प्रशासनिक": 7115,
      "▁मंग": 7116,
      "▁सप्": 7117,
      "आईए": 7118,
      "▁बनना": 7119,
      "विधि": 7120,
      "ण्य": 7121,
      "▁Th": 7122,
      "▁बॉडी": 7123,
      "▁प्राधिकरण": 7124,
      "▁गर्व": 7125,
      "▁रोज़": 7126,
      "ांच": 7127,
      "ार्थी": 7128,
      "▁तीसरा": 7129,
      "▁मुँह": 7130,
      "▁कराए": 7131,
      "▁पेशकश": 7132,
      "▁पोषण": 7133,
      "द्भुत": 7134,
      "टकों": 7135,
      "▁हालाँकि": 7136,
      "▁जरुर": 7137,
      "▁पकड़ा": 7138,
      "क्चर": 7139,
      "वाया": 7140,
      "▁नोएडा": 7141,
      "▁कालेज": 7142,
      "▁बोलते": 7143,
      "▁गाइड": 7144,
      "द्यपि": 7145,
      "शक्ति": 7146,
      "▁गुप्त": 7147,
      "▁एक्टिव": 7148,
      "▁चीफ": 7149,
      "माइ": 7150,
      "▁कच": 7151,
      "▁एसिड": 7152,
      "▁300": 7153,
      "▁पौधे": 7154,
      "▁मिलना": 7155,
      "▁छत": 7156,
      "▁बुक": 7157,
      "▁साउथ": 7158,
      "ड़की": 7159,
      "▁आंतरिक": 7160,
      "▁दस्तावेज": 7161,
      "ंपिक": 7162,
      "▁यूजर्स": 7163,
      "▁ग्रीन": 7164,
      "▁देंगे।": 7165,
      "▁वें": 7166,
      "▁चिप": 7167,
      "▁स्त": 7168,
      "जागर": 7169,
      "▁कोड": 7170,
      "▁अंडर": 7171,
      "▁निकला": 7172,
      "im": 7173,
      "▁पारंपरिक": 7174,
      "▁शुरूआत": 7175,
      "▁बचे": 7176,
      "▁देखता": 7177,
      "▁साझे": 7178,
      "▁ओम": 7179,
      "▁वर्षा": 7180,
      "▁फूड": 7181,
      "लोनी": 7182,
      "कन": 7183,
      "त्मिक": 7184,
      "▁ट्रैक": 7185,
      "▁सब्जी": 7186,
      "मोहन": 7187,
      "्रीट": 7188,
      "▁सरकारों": 7189,
      "▁लिया।\n": 7190,
      "▁ढूंढ": 7191,
      "बॉल": 7192,
      "िकी": 7193,
      "स्वामी": 7194,
      "याग": 7195,
      "▁दिनेश": 7196,
      "बरा": 7197,
      "▁ड्यूटी": 7198,
      "▁गड़": 7199,
      "स्पी": 7200,
      "▁शौच": 7201,
      "▁कैंप": 7202,
      "▁सुरेश": 7203,
      "दृ": 7204,
      "▁गुल": 7205,
      "▁गये।": 7206,
      "▁कमेंट": 7207,
      "▁सुन्दर": 7208,
      "ायतों": 7209,
      "▁सुशांत": 7210,
      "▁कहा।": 7211,
      "स्पति": 7212,
      "▁साढ़े": 7213,
      "▁अज्ञात": 7214,
      "▁पोर्टल": 7215,
      "ल्ले": 7216,
      "करार": 7217,
      "▁ग्लो": 7218,
      "▁मैसे": 7219,
      "▁आतंकवादी": 7220,
      "▁उत्सव": 7221,
      "▁आंध": 7222,
      "▁डूब": 7223,
      "क्ष्य": 7224,
      "▁बढ़ी": 7225,
      "▁जरा": 7226,
      "▁अनुसू": 7227,
      "आरपी": 7228,
      "▁इसलिये": 7229,
      "▁लायक": 7230,
      "▁प्रशंसा": 7231,
      "▁डाक्टर": 7232,
      "▁मनोरंजन": 7233,
      "▁करने,": 7234,
      "▁आश्वास": 7235,
      "▁स्थानांतर": 7236,
      "ोदय": 7237,
      "प्रधान": 7238,
      "▁समझना": 7239,
      "रन": 7240,
      "आउट": 7241,
      "▁'स": 7242,
      "चुनाव": 7243,
      "डीपी": 7244,
      "▁स्वर्ण": 7245,
      "▁सोनिया": 7246,
      "द्वार": 7247,
      "सीपी": 7248,
      "धर्म": 7249,
      "▁अभिव्य": 7250,
      "▁आया।": 7251,
      "तिष्क": 7252,
      "▁वृक्ष": 7253,
      "प्रा": 7254,
      "▁बर्फ": 7255,
      "▁दिखने": 7256,
      "▁48": 7257,
      "ल्लाह": 7258,
      "▁देरी": 7259,
      "▁विजेता": 7260,
      "▁लंबा": 7261,
      "▁चौथे": 7262,
      "▁पवन": 7263,
      "▁छाया": 7264,
      "▁घाटी": 7265,
      "्रेम": 7266,
      "▁स्वाभाविक": 7267,
      "▁पहुंचे।": 7268,
      "्तिक": 7269,
      "▁कोर्स": 7270,
      "▁(ए": 7271,
      "▁निकाय": 7272,
      "▁माध": 7273,
      "▁चलाया": 7274,
      "▁सुर्ख": 7275,
      "▁इंट": 7276,
      "स्टार": 7277,
      "च्छेद": 7278,
      "▁वक़": 7279,
      "▁मैनेज": 7280,
      "न्यू": 7281,
      "▁कोय": 7282,
      "क्राम": 7283,
      "▁बतौर": 7284,
      "▁साम्रा": 7285,
      "▁दोस्ती": 7286,
      "▁बिंदु": 7287,
      "▁रहे।\n": 7288,
      "▁चौकी": 7289,
      "▁अद्भुत": 7290,
      "▁समन्व": 7291,
      "▁सैल": 7292,
      "▁विभागों": 7293,
      "▁वार्ष": 7294,
      "pp": 7295,
      "▁तीव्र": 7296,
      "अर": 7297,
      "▁तमिलनाडु": 7298,
      "▁प्रोफ": 7299,
      "▁ठोस": 7300,
      "▁फर्क": 7301,
      "▁करेगी": 7302,
      "▁समस्याएं": 7303,
      "सीन": 7304,
      "▁नाथ": 7305,
      "ऐसे": 7306,
      "▁निम्नलिखित": 7307,
      "▁सर्वोच्च": 7308,
      "▁शक": 7309,
      "▁कहकर": 7310,
      "मार्टम": 7311,
      "कांत": 7312,
      "▁तालाब": 7313,
      "▁जाँच": 7314,
      "▁शिखर": 7315,
      "▁अंधे": 7316,
      "▁ऊँ": 7317,
      "▁बालक": 7318,
      "िमंडल": 7319,
      "▁भूप": 7320,
      "्यांकन": 7321,
      "्यौ": 7322,
      "um": 7323,
      "▁रोका": 7324,
      "परी": 7325,
      "▁तक,": 7326,
      "▁आफ": 7327,
      "चर्स": 7328,
      "▁(क": 7329,
      "▁टॉ": 7330,
      "र्वाद": 7331,
      "▁फॉर": 7332,
      "▁देहरादून": 7333,
      "▁पूछे": 7334,
      "▁फ्ला": 7335,
      "▁स्वीकृति": 7336,
      "▁ऋष": 7337,
      "किस्तान": 7338,
      "ंचल": 7339,
      "ियंस": 7340,
      "▁श्रीमती": 7341,
      "-र": 7342,
      "दुल": 7343,
      "धानिक": 7344,
      "▁पाठक": 7345,
      "▁रफ्तार": 7346,
      "▁किरण": 7347,
      "▁आंकड़े": 7348,
      "▁मोड़": 7349,
      "▁दिग्गज": 7350,
      "▁राजपूत": 7351,
      "▁आईटी": 7352,
      "ूहिक": 7353,
      "▁इसने": 7354,
      "ंधा": 7355,
      "▁धर्": 7356,
      "▁2011": 7357,
      "▁कलर": 7358,
      "▁सच्चाई": 7359,
      "▁जागरूकता": 7360,
      "▁साक्षा": 7361,
      "▁भव्य": 7362,
      "▁राजद": 7363,
      "▁सोचने": 7364,
      "▁गव": 7365,
      "▁खेलों": 7366,
      "▁एजेंस": 7367,
      "▁मिश्रण": 7368,
      "▁प्लांट": 7369,
      "▁राजकुमार": 7370,
      "▁कोतवाली": 7371,
      "ोग्रा": 7372,
      "ub": 7373,
      "▁त्योहार": 7374,
      "ट,": 7375,
      "▁पोष": 7376,
      "जाने": 7377,
      "▁आश्वासन": 7378,
      "5.": 7379,
      "▁ड्राइवर": 7380,
      "ंगाई": 7381,
      "▁पंजीकरण": 7382,
      "िकेटर": 7383,
      "चाप": 7384,
      "▁शनि": 7385,
      "चलित": 7386,
      "▁दरवाजे": 7387,
      "▁गेह": 7388,
      "▁दीपिका": 7389,
      "▁शर्त": 7390,
      "-\n": 7391,
      "▁ऋषि": 7392,
      "▁शिवराज": 7393,
      "▁घो": 7394,
      "ौज": 7395,
      "खाने": 7396,
      "▁मानक": 7397,
      "दिष्ट": 7398,
      "▁रहे,": 7399,
      "्योर": 7400,
      "भवती": 7401,
      "▁सीता": 7402,
      "▁जज": 7403,
      "▁रहेगी।": 7404,
      "▁टेक्न": 7405,
      "▁ख्याल": 7406,
      "▁विनोद": 7407,
      "स्पर्": 7408,
      "▁जानकार": 7409,
      "▁पोस्टमार्टम": 7410,
      "▁परियोजनाओं": 7411,
      "काया": 7412,
      "▁एक-एक": 7413,
      "▁मरा": 7414,
      "▁निर्देशक": 7415,
      "▁पढ": 7416,
      "14": 7417,
      "▁जितने": 7418,
      "ूद": 7419,
      "▁बलात्कार": 7420,
      "▁ड्रेस": 7421,
      "म्परा": 7422,
      "▁आध्या": 7423,
      "▁आधे": 7424,
      "▁सवालों": 7425,
      "▁हुई.": 7426,
      "-उ": 7427,
      "▁=": 7428,
      "▁दोनो": 7429,
      "▁झेल": 7430,
      "▁प्लास्टिक": 7431,
      "▁चोप": 7432,
      "▁सेमी": 7433,
      "▁ब्यू": 7434,
      "▁आरंभ": 7435,
      "▁माफी": 7436,
      "▁काउंस": 7437,
      "भु": 7438,
      "▁मद्": 7439,
      "▁#": 7440,
      "▁आँख": 7441,
      "▁सीखने": 7442,
      "प्री": 7443,
      "▁पाती": 7444,
      "▁ज्योतिष": 7445,
      "▁जूझ": 7446,
      "▁जुट": 7447,
      "साइड": 7448,
      "▁शक्त": 7449,
      "मंडल": 7450,
      "▁सबूत": 7451,
      "▁नामांकन": 7452,
      "लेस": 7453,
      "▁पहना": 7454,
      "रेन": 7455,
      "▁सर्वाधिक": 7456,
      "ट्": 7457,
      "▁कैमरे": 7458,
      "टके": 7459,
      "▁करोड़ों": 7460,
      "▁मानने": 7461,
      "र्फ़": 7462,
      "▁आए।": 7463,
      "▁रजिस्ट्र": 7464,
      "▁झटका": 7465,
      "▁बुर": 7466,
      "ियों,": 7467,
      "▁संपन्न": 7468,
      "▁चरणों": 7469,
      "ॉड": 7470,
      "वृ": 7471,
      "▁गाना": 7472,
      "क्ष्म": 7473,
      "▁शिल्": 7474,
      "▁पराम": 7475,
      "▁ठंड": 7476,
      "ंदीदा": 7477,
      "▁38": 7478,
      "भेद": 7479,
      "्तों": 7480,
      "ग्रा": 7481,
      "▁डिज़": 7482,
      "▁सीनियर": 7483,
      "▁विचारधारा": 7484,
      "लेशन": 7485,
      "▁शिम": 7486,
      "▁साफ़": 7487,
      "av": 7488,
      "बहुत": 7489,
      "▁डिस्": 7490,
      "▁ट्रेनिंग": 7491,
      "▁दवाओं": 7492,
      "▁मैसेज": 7493,
      "डब्ल्यू": 7494,
      "▁चिकित्सक": 7495,
      "▁लगी।": 7496,
      "▁शिशु": 7497,
      "▁बसपा": 7498,
      "▁Hindi": 7499,
      "▁स्टो": 7500,
      "▁केन्द्रीय": 7501,
      "ध्याय": 7502,
      "ड्डी": 7503,
      "▁सामूहिक": 7504,
      "पाई": 7505,
      "राष्ट्र": 7506,
      "शान": 7507,
      "पिछले": 7508,
      "▁यकीन": 7509,
      "प्रकाश": 7510,
      "▁कहला": 7511,
      "हिता": 7512,
      "▁दिया.\n": 7513,
      "▁यथ": 7514,
      "शुल्क": 7515,
      "▁पड़ोसी": 7516,
      "▁मुज": 7517,
      "▁जोन": 7518,
      "▁आशीर्वाद": 7519,
      "माज": 7520,
      "▁हां,": 7521,
      "▁हार्दिक": 7522,
      "▁शक्तिशाली": 7523,
      "▁वक़्त": 7524,
      "पाठी": 7525,
      "▁ईमेल": 7526,
      "▁पैट": 7527,
      "▁रोशनी": 7528,
      "▁ग्रंथ": 7529,
      "▁रसो": 7530,
      "▁प्रोटीन": 7531,
      "▁वाइ": 7532,
      "चंद्र": 7533,
      "▁पसंदीदा": 7534,
      "▁चपेट": 7535,
      "▁बाई": 7536,
      "▁स्वि": 7537,
      "▁पच": 7538,
      "▁लकड़ी": 7539,
      "▁अभ्यर्थ": 7540,
      "▁दिव्या": 7541,
      "ोजक": 7542,
      "▁सराहना": 7543,
      "नीत": 7544,
      "▁डु": 7545,
      "▁निवेशकों": 7546,
      "▁विधेयक": 7547,
      "▁यूट": 7548,
      "▁कोट": 7549,
      "िवारिक": 7550,
      "▁पैकेज": 7551,
      "▁अत्यंत": 7552,
      "▁शेर": 7553,
      "▁नशे": 7554,
      "▁ताल": 7555,
      "▁कैप": 7556,
      "▁गेंदों": 7557,
      "▁हिम्मत": 7558,
      "पार": 7559,
      "▁इन्हीं": 7560,
      "▁जीएसटी": 7561,
      "बीन": 7562,
      "कालिक": 7563,
      "मार्ग": 7564,
      "▁ब्रह्": 7565,
      "os": 7566,
      ".’’": 7567,
      "▁प्रोत्साहित": 7568,
      "▁गणना": 7569,
      "▁प्रतीत": 7570,
      "▁रोगी": 7571,
      "नाइ": 7572,
      "▁हीरो": 7573,
      "▁मुना": 7574,
      "▁चो": 7575,
      "han": 7576,
      "▁वसू": 7577,
      "est": 7578,
      "शिक": 7579,
      "पीएम": 7580,
      "▁गर्भवती": 7581,
      "▁सकें": 7582,
      "▁प्रतिष्ठित": 7583,
      "▁गढ़": 7584,
      "▁आखिरकार": 7585,
      "सैन": 7586,
      "▁सेल्स": 7587,
      "पता": 7588,
      "▁सदर": 7589,
      "▁अंतरिक्ष": 7590,
      "▁बैठकर": 7591,
      "▁पन": 7592,
      "▁आँखों": 7593,
      "▁ष": 7594,
      "एं.": 7595,
      "पचारिक": 7596,
      "्डी": 7597,
      "▁में\n": 7598,
      "▁तस्वीरों": 7599,
      "र्नर": 7600,
      "्रमण": 7601,
      "6.": 7602,
      "क्रमण": 7603,
      "▁चोपड़ा": 7604,
      "▁चुनौ": 7605,
      "▁मुआव": 7606,
      "▁जाएंगी": 7607,
      "ोगी": 7608,
      "▁कृत": 7609,
      "▁कमर": 7610,
      "▁फैशन": 7611,
      "▁सोचते": 7612,
      "▁समय,": 7613,
      "▁मिलेगी।": 7614,
      "▁पाना": 7615,
      "▁व्याख्या": 7616,
      "ार्थियों": 7617,
      "▁अनुवाद": 7618,
      "्रु": 7619,
      "▁मद्देन": 7620,
      "▁नाबाल": 7621,
      "▁सत्": 7622,
      "▁मनाने": 7623,
      "▁संतु": 7624,
      "▁जाए।\n": 7625,
      "▁दुकानों": 7626,
      "यें": 7627,
      "द्रोह": 7628,
      "▁ब्यूरो": 7629,
      "▁मिर्च": 7630,
      "पेश": 7631,
      "▁असफल": 7632,
      "▁जब्त": 7633,
      "▁पाइ": 7634,
      "▁छुटकारा": 7635,
      "▁पार्टियों": 7636,
      "द्दा": 7637,
      "▁लाई": 7638,
      "▁डिली": 7639,
      "▁150": 7640,
      "▁कष्ट": 7641,
      "▁मासिक": 7642,
      "▁मस्तिष्क": 7643,
      "▁गुम": 7644,
      "▁आजाद": 7645,
      "▁पायलट": 7646,
      "ुसार": 7647,
      "▁अन्यथा": 7648,
      "▁मूल्यांकन": 7649,
      "▁हेम": 7650,
      "▁मीटिंग": 7651,
      "▁मछली": 7652,
      "▁पहुँचा": 7653,
      "▁गीता": 7654,
      "▁अपराधियों": 7655,
      "▁जोड़े": 7656,
      "▁परामर्श": 7657,
      "कामना": 7658,
      "▁अर्ध": 7659,
      "▁हॉस्पिटल": 7660,
      "वेल": 7661,
      "▁परिचित": 7662,
      "▁बेड": 7663,
      "▁साथियों": 7664,
      "▁जनसंख्या": 7665,
      "▁सके।\n": 7666,
      "▁मेले": 7667,
      "म्मा": 7668,
      "तायात": 7669,
      "22": 7670,
      "▁खेलते": 7671,
      "वालों": 7672,
      "▁पौध": 7673,
      "द्धा": 7674,
      "▁\"अ": 7675,
      "ून्य": 7676,
      "▁क्रिप्ट": 7677,
      "▁हरे": 7678,
      "▁पार्ष": 7679,
      "▁मुहैया": 7680,
      "▁सुविधाएं": 7681,
      "र्वेद": 7682,
      "ती,": 7683,
      "िल्ला": 7684,
      "▁उपभोक्ता": 7685,
      "▁पब्लिक": 7686,
      "▁सहमत": 7687,
      "▁कराना": 7688,
      "▁संस्थाओं": 7689,
      "▁प्रारंभिक": 7690,
      "▁वार्षिक": 7691,
      "▁बैटरी": 7692,
      "▁मेकअप": 7693,
      "▁कृपया": 7694,
      "हाद": 7695,
      "यहां": 7696,
      "▁छेड़": 7697,
      "▁l": 7698,
      "▁विद्यार्थी": 7699,
      "▁जनजा": 7700,
      "▁प्रतिबद्ध": 7701,
      "▁देवता": 7702,
      "ैश": 7703,
      "बड़ी": 7704,
      "▁सदी": 7705,
      "▁मुलायम": 7706,
      "▁करेंगे,": 7707,
      "▁भागीदारी": 7708,
      "▁IST": 7709,
      "▁0.": 7710,
      "▁परम्परा": 7711,
      "सारी": 7712,
      "▁भगवान्": 7713,
      "ोम": 7714,
      "▁पेशेवर": 7715,
      "▁उत्तम": 7716,
      "▁जॉन": 7717,
      "▁कठिना": 7718,
      "▁वारदात": 7719,
      "▁घूमने": 7720,
      "▁दी,": 7721,
      "▁संसदीय": 7722,
      "▁हल्के": 7723,
      "▁गारंटी": 7724,
      "शंकर": 7725,
      "ंडीगढ़": 7726,
      "▁निर्देशित": 7727,
      "▁प्रारम्भ": 7728,
      "क्ल": 7729,
      "गौरतलब": 7730,
      "▁बहुमत": 7731,
      "▁बनती": 7732,
      "▁नेहरू": 7733,
      "▁सतह": 7734,
      "▁बेश": 7735,
      ";\n-": 7736,
      "▁ऊंचाई": 7737,
      "पालन": 7738,
      "▁लल": 7739,
      "बस": 7740,
      "▁आयात": 7741,
      "▁कानूनों": 7742,
      "िताब": 7743,
      "▁पूजन": 7744,
      "▁फैक्ट": 7745,
      "▁अवगत": 7746,
      "▁दिवसीय": 7747,
      "▁एग्": 7748,
      "ॉर्": 7749,
      "▁योग्यता": 7750,
      "▁नाय": 7751,
      "जै": 7752,
      "▁पक्षों": 7753,
      "कलन": 7754,
      "▁वचन": 7755,
      "ce": 7756,
      "?’’": 7757,
      "ंगर": 7758,
      "▁आध्यात्मिक": 7759,
      "▁परिणामस्वरूप": 7760,
      "▁रहकर": 7761,
      "▁जौ": 7762,
      "▁देशभर": 7763,
      "िएट": 7764,
      "▁चढ़ा": 7765,
      "▁निः": 7766,
      "▁है।\nम": 7767,
      "▁महंगाई": 7768,
      "▁स्ल": 7769,
      "▁दृढ़": 7770,
      "जिये": 7771,
      "तीन": 7772,
      "▁सतर्क": 7773,
      "▁इलेक्ट्रिक": 7774,
      "▁दुर्गा": 7775,
      "▁ज़रूरी": 7776,
      "▁धान": 7777,
      "णिज": 7778,
      "▁बैठी": 7779,
      "▁इलेक्ट्रॉन": 7780,
      "▁स्टैंड": 7781,
      "-त": 7782,
      "▁उपयोगकर्ता": 7783,
      "ter": 7784,
      "िएंट": 7785,
      "▁प्रतिस्पर्": 7786,
      "▁आंकड़ा": 7787,
      "ष्कार": 7788,
      "▁निष्कर्ष": 7789,
      "ेंच": 7790,
      "▁4.": 7791,
      "60": 7792,
      "त्तियों": 7793,
      "▁कार्तिक": 7794,
      "▁धमा": 7795,
      "▁बलि": 7796,
      "ंचाई": 7797,
      "▁ढेर": 7798,
      "▁औष": 7799,
      "▁है।\"\n": 7800,
      "▁पारिवारिक": 7801,
      "▁बहादुर": 7802,
      "सी,": 7803,
      "▁यद्यपि": 7804,
      "▁व्यावसायिक": 7805,
      "▁बचत": 7806,
      "▁स्टोरी": 7807,
      "▁दिखे": 7808,
      "▁मेन": 7809,
      "▁आश्रम": 7810,
      "▁लेखन": 7811,
      "▁क्रोध": 7812,
      "▁कामका": 7813,
      "प्पी": 7814,
      "वश": 7815,
      "▁शत्रु": 7816,
      "▁कैश": 7817,
      "पनों": 7818,
      "▁बोझ": 7819,
      "▁जाएगी.": 7820,
      "▁हस्तक्षेप": 7821,
      "▁ड्रग": 7822,
      "▁कलाकारों": 7823,
      "▁जहाज": 7824,
      "▁उभर": 7825,
      "▁फाउंड": 7826,
      "▁क्रिकेटर": 7827,
      "▁a": 7828,
      "▁अपराधी": 7829,
      "▁दर्जन": 7830,
      "▁उतनी": 7831,
      "▁राणा": 7832,
      "▁मम्मी": 7833,
      "ऊँ": 7834,
      "▁यातायात": 7835,
      "▁घुट": 7836,
      "ंगन": 7837,
      "▁विश्वसनीय": 7838,
      "▁फांसी": 7839,
      "ऊदी": 7840,
      "ोत्सव": 7841,
      "ामान": 7842,
      "▁बाँ": 7843,
      "▁हैं।\n-": 7844,
      "▁द्वीप": 7845,
      "▁मंत्रियों": 7846,
      "▁चुने": 7847,
      "न्नी": 7848,
      "▁केंद्रों": 7849,
      "▁मिली।": 7850,
      "लोत": 7851,
      "ट्टा": 7852,
      "▁आपात": 7853,
      "सात": 7854,
      "24": 7855,
      "▁नक्सल": 7856,
      "▁ट्रस्ट": 7857,
      "▁शोषण": 7858,
      "▁दशा": 7859,
      "सागर": 7860,
      "▁आर्य": 7861,
      "▁संहिता": 7862,
      "▁सिम": 7863,
      "म्बे": 7864,
      "▁चेयरमैन": 7865,
      "▁रखें।": 7866,
      "▁मिठ": 7867,
      "▁दरवाजा": 7868,
      "▁अल्पसंख्य": 7869,
      "▁कंगना": 7870,
      "▁बीएस": 7871,
      "▁सम्पूर्ण": 7872,
      "▁दुर्ग": 7873,
      "▁खेली": 7874,
      "▁स्क्र": 7875,
      "▁उर्": 7876,
      "▁स्वच्छता": 7877,
      "▁प्रोडक्ट": 7878,
      "रस": 7879,
      "▁दंड": 7880,
      "▁मन्द": 7881,
      "▁दुश्मन": 7882,
      "णिज्य": 7883,
      "▁काटने": 7884,
      "▁स्पोर्ट": 7885,
      "▁(M": 7886,
      "▁लिंग": 7887,
      "्टा": 7888,
      "▁अन्तर": 7889,
      "▁जयं": 7890,
      "▁लाइट": 7891,
      "द्री": 7892,
      "▁लड़का": 7893,
      "▁इन्द्र": 7894,
      "▁जुर्माना": 7895,
      "▁देह": 7896,
      "▁कुश": 7897,
      "व,": 7898,
      "▁शुभकामना": 7899,
      "▁चरम": 7900,
      "▁गिरने": 7901,
      "▁डिज़ाइन": 7902,
      "▁किस्म": 7903,
      "▁+": 7904,
      "ार्टमेंट": 7905,
      "▁जस": 7906,
      "▁जवा": 7907,
      "▁पांडेय": 7908,
      "▁पहने": 7909,
      "▁समानता": 7910,
      "धनों": 7911,
      "बली": 7912,
      "▁थोड़े": 7913,
      "▁पोस्टर": 7914,
      "▁ठाकरे": 7915,
      "▁195": 7916,
      "▁पहनने": 7917,
      "पादन": 7918,
      "ल्फ": 7919,
      "▁सूक्ष्म": 7920,
      "▁अग्नि": 7921,
      "▁इट": 7922,
      "▁अलर्ट": 7923,
      "▁एहसास": 7924,
      "▁श्याम": 7925,
      "▁स्तरी": 7926,
      "▁Co": 7927,
      "▁मजे": 7928,
      "▁काबू": 7929,
      "▁प्रतिरोध": 7930,
      "▁रोटी": 7931,
      "▁ऑफर": 7932,
      "▁दौरान,": 7933,
      "▁मुर": 7934,
      "▁सौंपा": 7935,
      "▁बिस्तर": 7936,
      "▁गोप": 7937,
      "जत": 7938,
      "▁त्रिपाठी": 7939,
      "▁सकें।": 7940,
      "▁सटीक": 7941,
      "▁पहुंचकर": 7942,
      "कड़": 7943,
      "▁नाबालिग": 7944,
      "▁ज्ञापन": 7945,
      "परि": 7946,
      "▁नृत्य": 7947,
      "▁बेस": 7948,
      "▁साइकिल": 7949,
      "▁मानें": 7950,
      "▁अल्लाह": 7951,
      "▁सावधान": 7952,
      "्वल": 7953,
      "्वाल": 7954,
      "▁नाक": 7955,
      "राधिक": 7956,
      "▁बेस्ट": 7957,
      "▁2010": 7958,
      "▁इन्होंने": 7959,
      "▁जर्मनी": 7960,
      "▁चिट": 7961,
      "वाज": 7962,
      "▁ज्ञात": 7963,
      "न्ड": 7964,
      "▁मानो": 7965,
      "oll": 7966,
      "▁रहे.": 7967,
      "▁जीने": 7968,
      "ट्टर": 7969,
      "▁पॉलि": 7970,
      "ीट": 7971,
      "▁धारणा": 7972,
      "गोल": 7973,
      "▁भला": 7974,
      "▁भाषाओं": 7975,
      "▁अनुबंध": 7976,
      "▁साइड": 7977,
      "21": 7978,
      "▁रिटर्न": 7979,
      "▁सिख": 7980,
      "▁करेंगे.": 7981,
      "इंड": 7982,
      "काय": 7983,
      "▁काशी": 7984,
      "▁देगा": 7985,
      "्न": 7986,
      "▁होंगे।\n": 7987,
      "सबसे": 7988,
      "▁h": 7989,
      "▁कंटे": 7990,
      "▁प्रखंड": 7991,
      "▁ऑर्डर": 7992,
      "▁n": 7993,
      "▁आमिर": 7994,
      "विदा": 7995,
      "▁एफआईआर": 7996,
      "▁ठेके": 7997,
      "▁तेजस्वी": 7998,
      "गित": 7999,
      "▁फंस": 8000,
      "स्टल": 8001,
      "▁टेबल": 8002,
      "ess": 8003,
      "▁आपसी": 8004,
      "सुन": 8005,
      "▁स्तरीय": 8006,
      "▁55": 8007,
      "रीबी": 8008,
      "हरण": 8009,
      "▁प्रकाशन": 8010,
      "▁संपूर्ण": 8011,
      "ष्णा": 8012,
      "▁पैदल": 8013,
      "▁कार्यरत": 8014,
      "कोई": 8015,
      "▁डाली": 8016,
      "अपनी": 8017,
      "▁जानवरों": 8018,
      "▁आमंत्रित": 8019,
      "▁Y": 8020,
      "▁क्वार": 8021,
      "▁लेवल": 8022,
      "भावना": 8023,
      "▁संदीप": 8024,
      "जारी": 8025,
      "▁वैसा": 8026,
      "▁जाएँ": 8027,
      "\nश": 8028,
      "▁इकट्ठा": 8029,
      "▁श्रेष्ठ": 8030,
      "▁वंश": 8031,
      "▁इक": 8032,
      "▁मोटा": 8033,
      "com": 8034,
      "टेक": 8035,
      "▁मेहमान": 8036,
      "▁स्ने": 8037,
      "▁पाये": 8038,
      "▁भड़": 8039,
      "▁हथियारों": 8040,
      ",5": 8041,
      "▁प्रवाह": 8042,
      "▁महेश": 8043,
      "▁धातु": 8044,
      "▁गुणों": 8045,
      "▁केश": 8046,
      "डोर": 8047,
      "▁बेंगल": 8048,
      "▁पाय": 8049,
      "▁पहुंचाया": 8050,
      "सीआर": 8051,
      "एनएस": 8052,
      "▁गतिविधि": 8053,
      "▁सिद्धार्थ": 8054,
      "▁खर": 8055,
      "न्तर": 8056,
      "▁कना": 8057,
      "▁जेट": 8058,
      "▁घेर": 8059,
      "▁जलवायु": 8060,
      "▁नीतियों": 8061,
      "▁रांची": 8062,
      "▁है)": 8063,
      "▁होश": 8064,
      "▁मिसाइल": 8065,
      "▁मद्देनजर": 8066,
      "आईपी": 8067,
      "\nएक": 8068,
      "▁सूजन": 8069,
      "▁वंचित": 8070,
      "▁रघु": 8071,
      "▁जयंती": 8072,
      "▁नॉ": 8073,
      "ांजलि": 8074,
      "▁स्पिन": 8075,
      "▁असं": 8076,
      "राक": 8077,
      "मेरी": 8078,
      "▁फि": 8079,
      "▁दस्त": 8080,
      "लपुर": 8081,
      "▁गोवा": 8082,
      "▁हवाले": 8083,
      "▁फेस": 8084,
      "▁आगरा": 8085,
      "▁लू": 8086,
      "▁काग": 8087,
      "▁पद्ध": 8088,
      "▁प्याज": 8089,
      "न्दा": 8090,
      "चुअल": 8091,
      "▁मोड": 8092,
      "▁भेंट": 8093,
      "ंद्रा": 8094,
      "▁किए।": 8095,
      "▁पीछा": 8096,
      "▁खुली": 8097,
      "▁साम्राज्य": 8098,
      "▁”": 8099,
      "पानी": 8100,
      "▁इच्छ": 8101,
      "▁गठित": 8102,
      "▁कुत्ते": 8103,
      "7.": 8104,
      "भाजपा": 8105,
      "वाड़": 8106,
      "ैव": 8107,
      "-0": 8108,
      "▁रेप": 8109,
      "▁निर्द": 8110,
      "▁रेडियो": 8111,
      "▁कर्तव्य": 8112,
      "▁स्वर्ग": 8113,
      "▁जिसको": 8114,
      "▁तालि": 8115,
      "▁श्रेय": 8116,
      "▁कौर": 8117,
      "▁निधि": 8118,
      "▁लिया,": 8119,
      "नैतिक": 8120,
      "िसू": 8121,
      "▁एंट्री": 8122,
      "▁हैंः": 8123,
      "ex": 8124,
      "▁अर्थात": 8125,
      "▁देगा।": 8126,
      "▁आजम": 8127,
      "ट्टे": 8128,
      "▁सलाहकार": 8129,
      "▁घोटाले": 8130,
      "िटीज": 8131,
      "▁जन्": 8132,
      "▁हड़ताल": 8133,
      "-पास": 8134,
      "▁किया.\n": 8135,
      "प्रीत": 8136,
      "▁मकसद": 8137,
      "▁बरकरार": 8138,
      "जना": 8139,
      "न्दगी": 8140,
      "▁कैमरा": 8141,
      "क्रामक": 8142,
      "▁उछ": 8143,
      "ग्रहण": 8144,
      "▁हंगामा": 8145,
      "▁यूजर": 8146,
      "PA": 8147,
      "▁एप्": 8148,
      "▁युवकों": 8149,
      "्वान": 8150,
      "▁गहलोत": 8151,
      "▁इंजीनियरिंग": 8152,
      "▁सिर्फ़": 8153,
      "▁तो,": 8154,
      "▁बटन": 8155,
      "▁तुमने": 8156,
      "▁लें.": 8157,
      "▁उत": 8158,
      "▁मील": 8159,
      "▁बिन": 8160,
      "▁गिन": 8161,
      "▁वैज्ञानिकों": 8162,
      "▁सपोर्ट": 8163,
      "शियों": 8164,
      "▁हैं।\\n": 8165,
      "▁साझेदारी": 8166,
      "ूती": 8167,
      "▁अनुसूचित": 8168,
      "▁आरा": 8169,
      "▁इंदिरा": 8170,
      "▁महेंद्र": 8171,
      "▁बादल": 8172,
      "▁सुभाष": 8173,
      "▁मिलेगी": 8174,
      "▁जायेगा": 8175,
      "▁कीजिए": 8176,
      "▁इलाहाबाद": 8177,
      "a)": 8178,
      "▁फस": 8179,
      "▁दायित्व": 8180,
      "ंबू": 8181,
      "मानी": 8182,
      "\",": 8183,
      "▁बाजारों": 8184,
      "ोज़": 8185,
      "▁बुखार": 8186,
      "रह": 8187,
      "▁साड़ी": 8188,
      "▁परिजन": 8189,
      "▁तन": 8190,
      "▁गरीबों": 8191,
      "▁शरी": 8192,
      "▁निराशा": 8193,
      "▁रात्रि": 8194,
      "ंसी": 8195,
      "▁आनन्द": 8196,
      "▁(B": 8197,
      "एं।\n": 8198,
      "ंडों": 8199,
      "▁शुक्ला": 8200,
      "ंडीज": 8201,
      "ोश": 8202,
      "दूस": 8203,
      "▁तोड़ने": 8204,
      "लिस्ट": 8205,
      "▁क्रांति": 8206,
      "िडी": 8207,
      "▁गहराई": 8208,
      "▁आपराधिक": 8209,
      "▁पकड़ने": 8210,
      "धाम": 8211,
      "▁2000": 8212,
      "▁पैन": 8213,
      "जिया": 8214,
      "डेंट": 8215,
      "▁ओलंपिक": 8216,
      "80": 8217,
      "▁हिल": 8218,
      "्ति": 8219,
      "▁देखिए": 8220,
      "▁हॉट": 8221,
      "▁क्रीम": 8222,
      "▁पेंट": 8223,
      "▁सेन": 8224,
      "▁सृ": 8225,
      "▁समूहों": 8226,
      "इससे": 8227,
      "-मु": 8228,
      "▁बैठने": 8229,
      "▁करेगा।\n": 8230,
      "▁आस्था": 8231,
      "्ती": 8232,
      "जी,": 8233,
      "▁मजाक": 8234,
      "▁मायावती": 8235,
      "एनयू": 8236,
      "फ्तर": 8237,
      "▁कुमारी": 8238,
      "▁पढ़े": 8239,
      "▁सर्वेक्षण": 8240,
      "लाश": 8241,
      "▁प्रशांत": 8242,
      "▁गुरू": 8243,
      "टीआई": 8244,
      "पुरुष": 8245,
      "स्पर": 8246,
      "जपे": 8247,
      "▁विकल्पों": 8248,
      "▁दुबे": 8249,
      "▁साधना": 8250,
      "▁हौ": 8251,
      "जुट": 8252,
      "▁बदमाशों": 8253,
      "िकार": 8254,
      "e)": 8255,
      "▁पंक": 8256,
      "▁ग्रन्थ": 8257,
      "▁सॉफ्टवेयर": 8258,
      "▁मुठ": 8259,
      "आम": 8260,
      "▁डू": 8261,
      "▁धाम": 8262,
      "्यार": 8263,
      "▁हादसा": 8264,
      "▁खिताब": 8265,
      "▁प्रश्": 8266,
      "▁स्कीम": 8267,
      "▁यूनियन": 8268,
      "रेटर": 8269,
      "▁औरत": 8270,
      "्युनि": 8271,
      "▁निश्चय": 8272,
      "▁रसोई": 8273,
      "▁छापेमारी": 8274,
      "▁दत्त": 8275,
      "▁अमीर": 8276,
      "फ्फर": 8277,
      "▁हॉल": 8278,
      "▁लाए": 8279,
      "▁खनन": 8280,
      "▁टाटा": 8281,
      "ैली": 8282,
      "▁सशक्त": 8283,
      "ष्ठा": 8284,
      "▁लगा.": 8285,
      "दुनिया": 8286,
      "13": 8287,
      "▁जाए.": 8288,
      "▁होंगे,": 8289,
      "▁पकड़े": 8290,
      "▁आकर्षण": 8291,
      "▁कैद": 8292,
      "माया": 8293,
      "ख्यात": 8294,
      "डू": 8295,
      "बड़": 8296,
      "▁मण": 8297,
      "▁दुर्भाग्य": 8298,
      "वर्धन": 8299,
      "▁मुखिया": 8300,
      "▁पलट": 8301,
      "▁गेहूं": 8302,
      "सेट": 8303,
      "▁St": 8304,
      "देवी": 8305,
      "▁रिव": 8306,
      "▁नहीं।\n": 8307,
      "▁साइबर": 8308,
      "▁शिमला": 8309,
      "▁अवतार": 8310,
      "वेस्ट": 8311,
      "▁सूचित": 8312,
      "▁5.": 8313,
      "रिस": 8314,
      "रात्रि": 8315,
      "ec": 8316,
      "भूषण": 8317,
      "▁क्यो": 8318,
      "▁टुकड़े": 8319,
      "▁वाणिज्य": 8320,
      "▁ऑप": 8321,
      "ब्बत": 8322,
      "माही": 8323,
      "▁सीईओ": 8324,
      "▁जिंदा": 8325,
      "▁चिन्ह": 8326,
      "▁कड़ा": 8327,
      "▁एक्सच": 8328,
      "▁समृद्ध": 8329,
      "हारिक": 8330,
      "▁टाइम्स": 8331,
      "लेश": 8332,
      "▁मेला": 8333,
      "मिली": 8334,
      "▁दुरु": 8335,
      "▁बीत": 8336,
      "▁आलिया": 8337,
      "▁एकजुट": 8338,
      "▁सर्जरी": 8339,
      "नहीं": 8340,
      "▁मैनेजर": 8341,
      "▁लीजिए": 8342,
      "▁अभिभाव": 8343,
      "क्यू": 8344,
      "धारणा": 8345,
      "▁दफ्तर": 8346,
      "▁k": 8347,
      "▁अफसरों": 8348,
      "▁समीप": 8349,
      "▁कॉन्फ्रेंस": 8350,
      "प्रधानमंत्री": 8351,
      "op": 8352,
      "▁होगा.\n": 8353,
      "▁चंडीगढ़": 8354,
      "ाइक": 8355,
      "र्चे": 8356,
      "▁सऊदी": 8357,
      "▁नाकाम": 8358,
      "▁करीबी": 8359,
      "दूर": 8360,
      "▁खोला": 8361,
      "▁2008": 8362,
      "▁यूट्यूब": 8363,
      "▁आयर": 8364,
      "▁बिगड़": 8365,
      "▁डेवल": 8366,
      "▁बोर": 8367,
      "फाई": 8368,
      "▁शिक्षण": 8369,
      "▁संसाधनों": 8370,
      "▁गत": 8371,
      "▁आलू": 8372,
      "चौ": 8373,
      "ॉइन": 8374,
      "▁रोगियों": 8375,
      "▁न्यायिक": 8376,
      "▁बनते": 8377,
      "▁सदस्यता": 8378,
      "▁फ्लैट": 8379,
      "ठों": 8380,
      "▁छिप": 8381,
      "▁बोन": 8382,
      "▁नायक": 8383,
      "ost": 8384,
      "▁सर्क": 8385,
      "▁डाले": 8386,
      "झी": 8387,
      "▁आत्मविश्वास": 8388,
      "▁दायरे": 8389,
      "▁वस्त्र": 8390,
      "▁पंत": 8391,
      "स्पेक्टर": 8392,
      "▁प्रस्तावित": 8393,
      "▁डाटा": 8394,
      "▁सोनी": 8395,
      "▁खाम": 8396,
      "▁दादा": 8397,
      "पालिका": 8398,
      "▁सप्लाई": 8399,
      "्स,": 8400,
      "▁भूत": 8401,
      "▁बांट": 8402,
      "9.": 8403,
      "▁ज़रूर": 8404,
      "▁चार्ट": 8405,
      "▁बड़": 8406,
      "लीन": 8407,
      "▁प्रयत्न": 8408,
      "▁समर्थक": 8409,
      "▁जानिए": 8410,
      "वाहा": 8411,
      "ोव": 8412,
      "्रय": 8413,
      "▁तुर्की": 8414,
      "▁जात": 8415,
      "▁दुष्कर्म": 8416,
      "▁साधु": 8417,
      "▁संजीव": 8418,
      "डम": 8419,
      "▁ट्रैफिक": 8420,
      "देख": 8421,
      "▁आइस": 8422,
      "▁दुब": 8423,
      "▁जायेगा।": 8424,
      "गणना": 8425,
      "फ्रेंड": 8426,
      "▁पहाड़ी": 8427,
      "मूर्ति": 8428,
      "शिंग": 8429,
      "▁दया": 8430,
      "▁हल्का": 8431,
      "▁रहा.": 8432,
      "▁अटल": 8433,
      "देशक": 8434,
      "▁पहाड़": 8435,
      "▁शरद": 8436,
      "▁रौ": 8437,
      "▁मजबूती": 8438,
      "▁देनी": 8439,
      "▁आशीष": 8440,
      "ंकार": 8441,
      "▁हेयर": 8442,
      "ामान्य": 8443,
      "▁कुंड": 8444,
      "▁65": 8445,
      "▁बताती": 8446,
      "▁घात": 8447,
      "लिटी": 8448,
      "▁आक्रमण": 8449,
      "dat": 8450,
      "▁हानि": 8451,
      "▁है.\\n": 8452,
      "▁बनाती": 8453,
      "▁टोक": 8454,
      "▁बृह": 8455,
      "▁डिप्टी": 8456,
      "▁मार्गदर्शन": 8457,
      "-अप": 8458,
      "▁हुआ।\n": 8459,
      "▁होता।": 8460,
      "▁(सी": 8461,
      "▁निर्देशन": 8462,
      "▁मतदाता": 8463,
      "▁शोक": 8464,
      "▁लिखते": 8465,
      "कार्": 8466,
      "▁गोरखपुर": 8467,
      "▁राजनैतिक": 8468,
      "▁इव": 8469,
      "र्टी": 8470,
      "▁पुणे": 8471,
      "▁कमाल": 8472,
      "▁लघु": 8473,
      "▁मानता": 8474,
      "▁आसमान": 8475,
      "▁७": 8476,
      "▁स्टार्ट": 8477,
      "ड्ढ": 8478,
      "▁कार्यकारी": 8479,
      "▁रहेंगे": 8480,
      "▁बन्द": 8481,
      "एसआई": 8482,
      "डनी": 8483,
      "▁सुनते": 8484,
      "▁बर्बाद": 8485,
      "▁अकाद": 8486,
      "▁प्रदीप": 8487,
      "सरकार": 8488,
      "▁व्यायाम": 8489,
      "▁मेरठ": 8490,
      "▁धवन": 8491,
      "▁तरह,": 8492,
      "▁कामों": 8493,
      "▁कार्या": 8494,
      "निस": 8495,
      "▁2009": 8496,
      "-से": 8497,
      "▁हुसैन": 8498,
      "▁42": 8499,
      "▁ठंडा": 8500,
      "▁एंड्र": 8501,
      "▁v": 8502,
      "▁वां": 8503,
      "▁भगत": 8504,
      "▁लौटने": 8505,
      "षित": 8506,
      "▁स्थलों": 8507,
      "फाइन": 8508,
      "▁दिना": 8509,
      "▁रिश्तों": 8510,
      "▁साक्षात्कार": 8511,
      "▁कांग": 8512,
      "▁मेघ": 8513,
      "सीसीआई": 8514,
      "▁शौचालय": 8515,
      "▁ग्री": 8516,
      "▁मेगा": 8517,
      "ैंट": 8518,
      "▁बारह": 8519,
      "▁शास्त्री": 8520,
      "चुर": 8521,
      "▁है।\"": 8522,
      "▁शून्य": 8523,
      "▁छीन": 8524,
      "▁हाइड": 8525,
      "▁२०": 8526,
      "फिल्म": 8527,
      "पोरेट": 8528,
      "ुद्ध": 8529,
      "▁कस्": 8530,
      "णियों": 8531,
      "▁मांसपेश": 8532,
      "▁आन्द": 8533,
      "ांतिक": 8534,
      "▁राग": 8535,
      "▁चांद": 8536,
      "▁निराश": 8537,
      "▁उजागर": 8538,
      "▁कमाने": 8539,
      "ड्डे": 8540,
      "्तर": 8541,
      "ाना,": 8542,
      "नामा": 8543,
      "▁राजन": 8544,
      "▁उपहार": 8545,
      "▁पर्वत": 8546,
      "ep": 8547,
      "▁बीस": 8548,
      "▁बाला": 8549,
      "ुणा": 8550,
      "▁बढ़त": 8551,
      "▁गरीबी": 8552,
      "▁फाउंडेशन": 8553,
      "▁परिवर्त": 8554,
      "▁सीसीटीवी": 8555,
      "केल": 8556,
      "चार्ज": 8557,
      "▁हान": 8558,
      "▁ख़ास": 8559,
      "तला": 8560,
      "▁सव": 8561,
      "▁आयुर्वेद": 8562,
      "▁व्हाट्स": 8563,
      "ँग": 8564,
      "▁एकल": 8565,
      "प्पा": 8566,
      "▁आस-पास": 8567,
      "न्वयन": 8568,
      "▁खोजने": 8569,
      "फ्ल": 8570,
      "▁लेनदेन": 8571,
      "▁जुल": 8572,
      "\n\n": 8573,
      "▁मन्दिर": 8574,
      "रिय": 8575,
      "▁ट्रेलर": 8576,
      "संघ": 8577,
      "वादियों": 8578,
      "बिन": 8579,
      "टेज": 8580,
      "▁नारी": 8581,
      "▁पॉल": 8582,
      "वाधिकार": 8583,
      "▁पश्चात": 8584,
      "▁पागल": 8585,
      "▁आह्वान": 8586,
      "▁समर्थकों": 8587,
      "▁चक": 8588,
      "35": 8589,
      "▁कामना": 8590,
      "▁अफ़": 8591,
      "gle": 8592,
      "िवेदी": 8593,
      "▁पैक": 8594,
      "▁कपड़ों": 8595,
      "▁पाक": 8596,
      "ियमित": 8597,
      "▁बाय": 8598,
      "-5": 8599,
      "▁हरकत": 8600,
      "▁शुभार": 8601,
      "▁काफ़ी": 8602,
      "▁डिव": 8603,
      "▁जानती": 8604,
      "▁विक्रम": 8605,
      "▁बघ": 8606,
      "▁सिंचाई": 8607,
      "▁धरना": 8608,
      "▁अवधारणा": 8609,
      ":00": 8610,
      "▁स्थगित": 8611,
      "▁अरे": 8612,
      "-पा": 8613,
      "▁हेल": 8614,
      "-छो": 8615,
      "▁परिस्थिति": 8616,
      "▁गृ": 8617,
      "-बा": 8618,
      "▁वाम": 8619,
      "-इ": 8620,
      "▁रेंज": 8621,
      "▁परमा": 8622,
      "▁प्रतिष्ठा": 8623,
      "सेन": 8624,
      "▁ट्रांसफर": 8625,
      "▁आंस": 8626,
      "बीएस": 8627,
      "▁हवाला": 8628,
      "▁मलिक": 8629,
      "▁छोड़ा": 8630,
      "▁बैल": 8631,
      "▁१८": 8632,
      "▁इशारा": 8633,
      "फिकेशन": 8634,
      "▁समग्र": 8635,
      "▁कॉर्": 8636,
      "▁वीं": 8637,
      "▁नजदीक": 8638,
      "▁श्रीराम": 8639,
      "▁आईए": 8640,
      "ञ्": 8641,
      "▁क्रमश": 8642,
      "▁जियो": 8643,
      "▁'द": 8644,
      "▁करवाई": 8645,
      "प्पल": 8646,
      "▁हमे": 8647,
      "▁मृ": 8648,
      "वेज": 8649,
      "▁रोमांच": 8650,
      "▁निभाई": 8651,
      "70": 8652,
      "▁एकड़": 8653,
      "्रल": 8654,
      "▁रजिस्ट्रेशन": 8655,
      "▁ट्रॉ": 8656,
      "▁एसडीएम": 8657,
      "▁घड़ी": 8658,
      "▁हैंड": 8659,
      "▁रिपोर्ट्स": 8660,
      "▁(N": 8661,
      "▁अगु": 8662,
      "▁मल्टी": 8663,
      "ए,": 8664,
      "स्स": 8665,
      "ैम": 8666,
      "▁अनाज": 8667,
      "▁है...": 8668,
      "▁मनोहर": 8669,
      ")।\n": 8670,
      "▁पोषक": 8671,
      "ics": 8672,
      "▁हों।": 8673,
      "रेली": 8674,
      "-पी": 8675,
      "ंबा": 8676,
      "▁लड़कियां": 8677,
      "स्ड": 8678,
      "▁किशन": 8679,
      "▁'क": 8680,
      "▁रहा,": 8681,
      "▁गरम": 8682,
      "▁दीदी": 8683,
      "दित": 8684,
      "ंधन": 8685,
      "▁हितों": 8686,
      "▁हिंदुस्तान": 8687,
      "ोगा": 8688,
      "▁१०": 8689,
      "▁आज़ा": 8690,
      "▁चाहिए.\n": 8691,
      "▁वितरित": 8692,
      "▁फायरिंग": 8693,
      "▁(R": 8694,
      "▁गाँधी": 8695,
      "▁रोगों": 8696,
      "▁इंस्टीट": 8697,
      "omment": 8698,
      "▁दिखता": 8699,
      "▁शिर": 8700,
      "▁मतभेद": 8701,
      "डि़": 8702,
      "▁कमिश्": 8703,
      "▁प्रको": 8704,
      "क्व": 8705,
      "▁कारोबारी": 8706,
      "माटर": 8707,
      "▁सर्दी": 8708,
      "ऐसा": 8709,
      "॥\n": 8710,
      "▁आंखें": 8711,
      "▁बहू": 8712,
      "▁रोशन": 8713,
      "▁ख़िला": 8714,
      "▁अन्न": 8715,
      "▁कक्ष": 8716,
      "▁अनुच्छेद": 8717,
      "▁बताता": 8718,
      "▁गर्ल": 8719,
      "▁(ज": 8720,
      "8.": 8721,
      "▁अभिव्यक्ति": 8722,
      "▁तेरे": 8723,
      "▁चिन्": 8724,
      "▁दीर्": 8725,
      "▁1000": 8726,
      "▁उच्चतम": 8727,
      "▁44": 8728,
      "▁तड़": 8729,
      "▁उठाते": 8730,
      "▁दर्शाता": 8731,
      "▁पॉलिसी": 8732,
      "▁कोने": 8733,
      "सवाल": 8734,
      "▁स्थानांतरित": 8735,
      "▁400": 8736,
      "▁फ्रंट": 8737,
      "ब्स": 8738,
      "▁स्थितियों": 8739,
      "▁बीच,": 8740,
      "पिता": 8741,
      "पुट": 8742,
      "नाल": 8743,
      "▁फीट": 8744,
      "▁है।\nएक": 8745,
      "▁सास": 8746,
      "▁आल": 8747,
      "▁पंकज": 8748,
      "▁निकली": 8749,
      "oogle": 8750,
      "▁लाश": 8751,
      "▁करूंगा": 8752,
      "▁यज्ञ": 8753,
      "▁प्रथा": 8754,
      "▁संतुलन": 8755,
      "▁नतीजा": 8756,
      "▁कच्चे": 8757,
      "▁आधी": 8758,
      "▁भारतीयों": 8759,
      "▁उठाकर": 8760,
      "▁रवी": 8761,
      "▁नगरी": 8762,
      "▁चेतना": 8763,
      "▁भरत": 8764,
      "▁पैटर्न": 8765,
      "थन": 8766,
      "कांड": 8767,
      "▁लैंड": 8768,
      "▁पीड़ा": 8769,
      "▁यथा": 8770,
      "रुण": 8771,
      "▁धूल": 8772,
      "▁फाइल": 8773,
      "स्की": 8774,
      "स्वती": 8775,
      "▁बढ़ाकर": 8776,
      "फ़ा": 8777,
      "▁विंड": 8778,
      "▁बिहारी": 8779,
      "▁शहद": 8780,
      "▁ताज": 8781,
      "▁असा": 8782,
      "▁आवेद": 8783,
      "▁मौजूदगी": 8784,
      "▁गुस्से": 8785,
      "▁सौंद": 8786,
      "गारी": 8787,
      "▁राजकीय": 8788,
      "▁इस्ला": 8789,
      "▁विरासत": 8790,
      "▁कॉम": 8791,
      "▁बताना": 8792,
      "-समय": 8793,
      "-निर्": 8794,
      "▁खुराक": 8795,
      "▁एजेंसियों": 8796,
      "ers": 8797,
      "▁क्रिस": 8798,
      "नाल्ड": 8799,
      "▁ट्रेंड": 8800,
      "ोत्तम": 8801,
      "▁उपयोगकर्ताओं": 8802,
      "▁डाक": 8803,
      "▁पुण्य": 8804,
      "बरी": 8805,
      "▁भेजी": 8806,
      "पंथी": 8807,
      "▁माध्यमिक": 8808,
      "▁है।\nआ": 8809,
      "▁पड़ोस": 8810,
      "पिंग": 8811,
      "▁बैंकिंग": 8812,
      "▁उत्पीड़": 8813,
      "▁पॉप": 8814,
      "▁बंदर": 8815,
      "कारियों": 8816,
      "▁मासूम": 8817,
      "▁सरदार": 8818,
      "▁6.": 8819,
      "▁दिल्लीः": 8820,
      "▁संस्थापक": 8821,
      "सी)": 8822,
      "▁गुलाब": 8823,
      "▁रिजल्ट": 8824,
      "वायरस": 8825,
      "pdat": 8826,
      "▁सूरत": 8827,
      "▁साहि": 8828,
      "▁मथ": 8829,
      "▁अहमदाबाद": 8830,
      "▁वैध": 8831,
      "▁तालिबान": 8832,
      "▁पड़ेगा।": 8833,
      "▁रूट": 8834,
      "▁सुग": 8835,
      "▁रहस्य": 8836,
      "▁राइ": 8837,
      "▁स्कू": 8838,
      "▁रूपए": 8839,
      "▁इंतजाम": 8840,
      "▁ज़ोर": 8841,
      "▁पहलू": 8842,
      "▁सीन": 8843,
      "▁दही": 8844,
      "▁बाप": 8845,
      "▁माला": 8846,
      "▁जानवर": 8847,
      "क्षणिक": 8848,
      "ish": 8849,
      "▁मान्य": 8850,
      "▁प्रबंधक": 8851,
      "▁तेंद": 8852,
      "i)": 8853,
      "▁39": 8854,
      "ब्ब": 8855,
      "▁औपचारिक": 8856,
      "▁फर्म": 8857,
      "▁अधिसू": 8858,
      "पेक्ष": 8859,
      "▁घटनाएं": 8860,
      "▁व्यावहारिक": 8861,
      "▁एरिया": 8862,
      "▁पौधों": 8863,
      "ऊंगा": 8864,
      "▁मूल्यों": 8865,
      "▁पदाधिकारियों": 8866,
      "भवी": 8867,
      "▁दस्तावेजों": 8868,
      "▁कहा।\n": 8869,
      "▁तकली": 8870,
      "▁प्रयाग": 8871,
      "▁गुर्": 8872,
      "▁सिस": 8873,
      "▁उपचुनाव": 8874,
      "▁देखो": 8875,
      "जपेयी": 8876,
      "▁अर्पित": 8877,
      "▁महोत्सव": 8878,
      "सीम": 8879,
      "वैज्ञान": 8880,
      "23": 8881,
      "▁उत्ते": 8882,
      "▁स्नातक": 8883,
      "▁उपभोक्ताओं": 8884,
      "▁किल": 8885,
      "▁साहस": 8886,
      "-अपने": 8887,
      "्वालियर": 8888,
      "ब्बे": 8889,
      "▁का,": 8890,
      "▁सियासी": 8891,
      "▁हैं;": 8892,
      "पीठ": 8893,
      "▁मैनेजमेंट": 8894,
      "लभ": 8895,
      "▁नग": 8896,
      "▁किराए": 8897,
      "बूझ": 8898,
      "▁लिव": 8899,
      "▁वॉल": 8900,
      "▁परिश": 8901,
      "▁उपलब्धि": 8902,
      "▁फूलों": 8903,
      "▁महाविद्यालय": 8904,
      "▁अंध": 8905,
      "▁हैं।\nइस": 8906,
      "ोंग": 8907,
      "भाई": 8908,
      "▁पंप": 8909,
      "नीश": 8910,
      "▁निंदा": 8911,
      "▁नतीजे": 8912,
      "▁पवार": 8913,
      "▁आवश्यकताओं": 8914,
      "▁वय": 8915,
      "▁करें\n": 8916,
      "▁रैं": 8917,
      "▁घाय": 8918,
      "▁कमीशन": 8919,
      "ायती": 8920,
      "वण": 8921,
      "▁बेंच": 8922,
      "our": 8923,
      "भेड़": 8924,
      "\"\n\"": 8925,
      "▁विनय": 8926,
      "▁ग्लोबल": 8927,
      "▁माइक्रो": 8928,
      "कोरोना": 8929,
      "एप": 8930,
      "▁संवाददाता": 8931,
      "▁इंद्र": 8932,
      "देशी": 8933,
      "▁वसूली": 8934,
      "ap": 8935,
      "▁परिणामों": 8936,
      "▁जोरदार": 8937,
      "▁अनुराग": 8938,
      "▁इजाजत": 8939,
      "▁सिलसिला": 8940,
      "▁चांदी": 8941,
      "▁सकते।": 8942,
      "▁मानवीय": 8943,
      "▁विभाजन": 8944,
      "िपल": 8945,
      "▁बायो": 8946,
      "रिएंट": 8947,
      "प्ल": 8948,
      "▁उपायों": 8949,
      "▁टीमें": 8950,
      "▁मांगा": 8951,
      "▁बाज़ार": 8952,
      "▁श्रद्धांजलि": 8953,
      "छाड़": 8954,
      "ष्यों": 8955,
      "▁पसी": 8956,
      "oc": 8957,
      "इंडीज": 8958,
      "क्टी": 8959,
      "▁उदार": 8960,
      "\nउ": 8961,
      "▁आंध्र": 8962,
      "▁रचनात्मक": 8963,
      "▁बेव": 8964,
      "▁मुखर्जी": 8965,
      "सिस": 8966,
      "ायंस": 8967,
      "वानिव": 8968,
      "▁ससुराल": 8969,
      "दाद": 8970,
      "▁झील": 8971,
      "बिहार": 8972,
      "▁मामूली": 8973,
      "▁अवार्ड": 8974,
      "▁'म": 8975,
      "▁नाराजगी": 8976,
      "थाम": 8977,
      "▁बहाने": 8978,
      ".com": 8979,
      "▁मतदाताओं": 8980,
      "▁गहरे": 8981,
      "▁पैसों": 8982,
      "▁हैं-": 8983,
      "▁कुर्सी": 8984,
      "▁खातों": 8985,
      "ows": 8986,
      "▁प्रवासी": 8987,
      "▁पाण्ड": 8988,
      "▁आई।": 8989,
      "▁अरो": 8990,
      "▁आलम": 8991,
      "शिव": 8992,
      "▁पठ": 8993,
      "चालित": 8994,
      "▁राधा": 8995,
      "▁मेजब": 8996,
      "▁निलंबित": 8997,
      "▁पद्धति": 8998,
      "▁चट": 8999,
      "▁गैर-": 9000,
      "▁अन्तर्गत": 9001,
      "▁हिला": 9002,
      "▁प्रोट": 9003,
      "▁निचले": 9004,
      "लांग": 9005,
      "▁2,": 9006,
      "▁चौरा": 9007,
      "▁फिटनेस": 9008,
      "▁जनस": 9009,
      "▁उठे": 9010,
      "▁ख़िलाफ़": 9011,
      "):": 9012,
      "▁आलोक": 9013,
      "▁ट्रेनों": 9014,
      "▁हल्की": 9015,
      "▁निपट": 9016,
      "▁इंस्पेक्टर": 9017,
      "क्टिव": 9018,
      "▁पर्दे": 9019,
      "▁फोर": 9020,
      "▁पाठकों": 9021,
      "ूरती": 9022,
      "बन्": 9023,
      "▁अतीत": 9024,
      "▁भीम": 9025,
      "टित": 9026,
      "▁माँग": 9027,
      "▁जागरण": 9028,
      "▁प्रांत": 9029,
      "शेखर": 9030,
      "▁भव": 9031,
      "▁पड़ेगा": 9032,
      "▁फंसे": 9033,
      "▁लिखकर": 9034,
      "▁प्रिंस": 9035,
      "▁पार्षद": 9036,
      "▁पीस": 9037,
      "▁सकेंगे।": 9038,
      "▁करे।": 9039,
      "▁पंजीकृत": 9040,
      "ियां,": 9041,
      "▁कप्तानी": 9042,
      "▁अपहरण": 9043,
      "मिथ": 9044,
      "▁भागों": 9045,
      "▁१६": 9046,
      "▁सिद्धान्त": 9047,
      "▁सम्रा": 9048,
      "▁फीचर": 9049,
      "▁2026": 9050,
      "ग्व": 9051,
      "▁अकेला": 9052,
      "▁गहन": 9053,
      "▁फेल": 9054,
      "▁हमसे": 9055,
      "▁दुखी": 9056,
      "▁मंदिरों": 9057,
      "ने,": 9058,
      "▁नींबू": 9059,
      "▁भैया": 9060,
      "▁घी": 9061,
      "▁फुल": 9062,
      "▁भक्तों": 9063,
      "▁नाइट": 9064,
      "▁सम्भव": 9065,
      "ुलेंस": 9066,
      "▁मारकर": 9067,
      "▁भेदभाव": 9068,
      "रोक्त": 9069,
      "मेरा": 9070,
      "चन्द्र": 9071,
      "▁लेट": 9072,
      "▁ढा": 9073,
      "डीओ": 9074,
      "▁जिनसे": 9075,
      "▁डेब्यू": 9076,
      "▁प्रतीक्षा": 9077,
      "▁पालिका": 9078,
      "▁शर्तों": 9079,
      "▁दर्जा": 9080,
      "▁एजेंट": 9081,
      "▁समय-समय": 9082,
      "▁टी-20": 9083,
      "ॉर्क": 9084,
      "लत": 9085,
      "▁आज्ञ": 9086,
      "▁परफ": 9087,
      "▁सना": 9088,
      "थित": 9089,
      "▁दक्षिणी": 9090,
      "▁on": 9091,
      "ID": 9092,
      "▁पाकर": 9093,
      "og": 9094,
      "▁भूकंप": 9095,
      "▁सामु": 9096,
      "बर्ग": 9097,
      "▁सूच": 9098,
      "▁नागरिकता": 9099,
      "▁स्तन": 9100,
      "▁टिप्स": 9101,
      "▁पर्यटकों": 9102,
      "▁सबका": 9103,
      "▁कामकाज": 9104,
      "हू": 9105,
      "\n(": 9106,
      "▁हेली": 9107,
      "▁बोल्ड": 9108,
      "▁चिंतित": 9109,
      "▁हार्ट": 9110,
      "▁खरीदा": 9111,
      "▁शौक": 9112,
      "▁प्रायः": 9113,
      "▁अपने-अपने": 9114,
      "▁मायने": 9115,
      "▁फार": 9116,
      "▁खेतों": 9117,
      "▁लेखकों": 9118,
      "तांत्रिक": 9119,
      "मा,": 9120,
      "▁समन्वय": 9121,
      "▁आईडी": 9122,
      "▁पांड": 9123,
      "टिया": 9124,
      "र्जन": 9125,
      "▁एके": 9126,
      "▁आला": 9127,
      "▁टमाटर": 9128,
      "▁ट्रैक्टर": 9129,
      "आईसी": 9130,
      "▁संपादक": 9131,
      "विज्ञान": 9132,
      "▁श्रमिकों": 9133,
      "▁मुजफ्फर": 9134,
      "ड्यूल": 9135,
      "ंगाना": 9136,
      "▁7.": 9137,
      "▁उन्नत": 9138,
      "▁साई": 9139,
      "▁पैनल": 9140,
      "▁आन्दोलन": 9141,
      "▁(D": 9142,
      "▁लिहाज": 9143,
      "कतों": 9144,
      "किट": 9145,
      "▁आतंकवादियों": 9146,
      "▁द्वि": 9147,
      "▁पड": 9148,
      "मरी": 9149,
      "▁दर्शक": 9150,
      "डिशा": 9151,
      "तिन": 9152,
      "▁मज़ा": 9153,
      "▁पूछने": 9154,
      "▁उठता": 9155,
      "▁ईंधन": 9156,
      "▁प्रोत्साहन": 9157,
      "▁ध्वनि": 9158,
      "▁आभार": 9159,
      "▁अफवाह": 9160,
      "▁मौलिक": 9161,
      "▁रत्न": 9162,
      "▁खैर": 9163,
      "▁स्पोर्ट्स": 9164,
      "▁गईं।": 9165,
      "▁हल्दी": 9166,
      "▁शॉर्ट": 9167,
      "▁कनाडा": 9168,
      "राई": 9169,
      "▁सम्प": 9170,
      "▁(एन": 9171,
      "▁होंगे.": 9172,
      "▁पुष्प": 9173,
      "▁रावण": 9174,
      "▁घायलों": 9175,
      "बैक": 9176,
      "▁यूएस": 9177,
      "।\nस": 9178,
      "विजन": 9179,
      "मोह": 9180,
      "▁दशकों": 9181,
      "▁सीरिया": 9182,
      "\nग": 9183,
      "▁झड़": 9184,
      "▁निकाली": 9185,
      "▁फसलों": 9186,
      "▁झलक": 9187,
      "▁मय": 9188,
      "ते,": 9189,
      "▁एक्सचेंज": 9190,
      "\nह": 9191,
      "▁राजेंद्र": 9192,
      "▁ब्रोकर": 9193,
      "▁मांगने": 9194,
      "राशि": 9195,
      "▁ईमानदारी": 9196,
      "▁उज": 9197,
      "गी.\n": 9198,
      "90": 9199,
      "मिन": 9200,
      "▁वाई": 9201,
      "▁उठाना": 9202,
      "▁लाना": 9203,
      "क्रोश": 9204,
      "पहले": 9205,
      "▁इमारत": 9206,
      "क्यों": 9207,
      "ebs": 9208,
      "▁तूफान": 9209,
      "झाने": 9210,
      "▁प्रिंट": 9211,
      "▁प्रदेश,": 9212,
      "▁टेक्नोलॉजी": 9213,
      "▁चौंका": 9214,
      "मुना": 9215,
      "▁चर्": 9216,
      "पाही": 9217,
      "▁अंकित": 9218,
      "ण्ट": 9219,
      "▁प्रशंस": 9220,
      "▁हैं।\nअ": 9221,
      "मेन": 9222,
      "▁52": 9223,
      "▁जेब": 9224,
      "▁जादू": 9225,
      "▁रणबीर": 9226,
      "मर्श": 9227,
      "▁एटीएम": 9228,
      "▁रियल": 9229,
      "▁प्रॉ": 9230,
      "▁कमान": 9231,
      "▁सांसदों": 9232,
      "▁नेहा": 9233,
      "▁नीरज": 9234,
      "▁कर,": 9235,
      "45": 9236,
      "बाग": 9237,
      "▁छान": 9238,
      "▁चाचा": 9239,
      "तिया": 9240,
      "▁X": 9241,
      "नार": 9242,
      "▁साइन": 9243,
      "तन्त्र": 9244,
      "\nर": 9245,
      "णीय": 9246,
      "विल": 9247,
      "▁केयर": 9248,
      "▁दिनांक": 9249,
      "▁मिले।": 9250,
      "▁भाइयों": 9251,
      "▁भी।": 9252,
      "स्थिति": 9253,
      "▁टैंक": 9254,
      "कने": 9255,
      "▁ऊपरी": 9256,
      "▁आर्टिकल": 9257,
      "▁अंसारी": 9258,
      "▁महत्त्वपूर्ण": 9259,
      "▁दिलीप": 9260,
      "▁दिखाते": 9261,
      "▁समुद्री": 9262,
      "▁सैम": 9263,
      "त्नी": 9264,
      "▁मूवी": 9265,
      "▁महल": 9266,
      "▁सर्च": 9267,
      "ख्त": 9268,
      "▁बोतल": 9269,
      "▁डालते": 9270,
      "▁परिस": 9271,
      "▁कॉपी": 9272,
      "▁चिल्ला": 9273,
      "▁नहा": 9274,
      "शीलता": 9275,
      "▁जुटा": 9276,
      "▁बारा": 9277,
      "▁रंगों": 9278,
      "▁अतिक": 9279,
      "▁है!\n": 9280,
      "▁प्रसारण": 9281,
      "▁सम्मिल": 9282,
      "▁रंजन": 9283,
      "यात्रा": 9284,
      "▁कमांड": 9285,
      "ebsite": 9286,
      "▁संतान": 9287,
      "▁साहित्यिक": 9288,
      "▁फीड": 9289,
      "▁डाइट": 9290,
      "▁2007": 9291,
      "▁बाह": 9292,
      "ष्का": 9293,
      "कांक्षा": 9294,
      "▁निवार": 9295,
      "▁फ़ोन": 9296,
      "▁सरस्वती": 9297,
      "▁शेख": 9298,
      "▁स्टूडेंट्स": 9299,
      "ांतों": 9300,
      "चालन": 9301,
      "▁बघेल": 9302,
      "▁कमिश्नर": 9303,
      "ुति": 9304,
      "▁सुर्खियों": 9305,
      "▁पृष्ठभूमि": 9306,
      "▁मुठभेड़": 9307,
      "▁सेंट्रल": 9308,
      "▁(प": 9309,
      "▁श्रद्धालुओं": 9310,
      "▁काउंसिल": 9311,
      "▁लड़कों": 9312,
      "स्तों": 9313,
      "▁एस.": 9314,
      "▁पित": 9315,
      "▁तेज़": 9316,
      "▁कृष्णा": 9317,
      "ंटिक": 9318,
      "▁विनाश": 9319,
      "▁आज्ञा": 9320,
      "▁है।\nज": 9321,
      "▁फाइबर": 9322,
      "▁चित्त": 9323,
      "▁के.": 9324,
      "ंठ": 9325,
      "▁स्पीड": 9326,
      "▁चूस": 9327,
      "िणी": 9328,
      "ht": 9329,
      "मौ": 9330,
      "▁सितम्बर": 9331,
      "▁अमरीका": 9332,
      "▁डिलीवरी": 9333,
      "▁43": 9334,
      "वाहित": 9335,
      "▁एथ": 9336,
      "▁शर": 9337,
      "ाइज": 9338,
      "▁प्रभावशाली": 9339,
      "▁\"स": 9340,
      "day": 9341,
      "ण्डल": 9342,
      "▁फुटबॉल": 9343,
      "स्सी": 9344,
      "ए।": 9345,
      "▁मरम्मत": 9346,
      "▁प्रचलित": 9347,
      "▁आंगन": 9348,
      "ug": 9349,
      "र्नल": 9350,
      "▁हमलों": 9351,
      "▁कारक": 9352,
      "▁जुड़ने": 9353,
      "▁नारियल": 9354,
      "▁बसों": 9355,
      "▁सनी": 9356,
      "खल": 9357,
      "▁उत्पीड़न": 9358,
      "▁चाहें": 9359,
      "▁गवाह": 9360,
      "▁उन्हे": 9361,
      "घात": 9362,
      "▁है।\nउन्होंने": 9363,
      "▁वेल": 9364,
      "▁फोक": 9365,
      "▁कॉमे": 9366,
      "▁फू": 9367,
      "▁पाइप": 9368,
      "▁बुरे": 9369,
      "ट्रिक": 9370,
      "भावस्था": 9371,
      "ेशर": 9372,
      "▁सीधी": 9373,
      "▁ईसाई": 9374,
      "पीएस": 9375,
      "▁ढांचे": 9376,
      "दूसरे": 9377,
      "▁फट": 9378,
      "▁सेकंड": 9379,
      "▁संतुष्ट": 9380,
      "▁कन": 9381,
      "▁शुक्ल": 9382,
      "▁सिलसिले": 9383,
      "▁लड": 9384,
      "-बड़े": 9385,
      "▁हिन्दुस्तान": 9386,
      "▁अंडे": 9387,
      "▁भीषण": 9388,
      "▁टर्म": 9389,
      "▁८": 9390,
      "▁सफ़": 9391,
      "▁अनुभवी": 9392,
      "कला": 9393,
      "▁सेक्सी": 9394,
      "प्टन": 9395,
      "▁..": 9396,
      "▁शीर्षक": 9397,
      "▁गर्दन": 9398,
      "▁संचालक": 9399,
      "▁ढाई": 9400,
      "up": 9401,
      "▁आकलन": 9402,
      "▁वरुण": 9403,
      "▁सुशील": 9404,
      "▁डिफ": 9405,
      "▁लीक": 9406,
      "▁कैलाश": 9407,
      "ik": 9408,
      "▁जरूरतों": 9409,
      "टू": 9410,
      "▁सज": 9411,
      "▁चैट": 9412,
      "्वीप": 9413,
      "▁शेयरों": 9414,
      "▁धीमी": 9415,
      "▁दोग": 9416,
      "ैर्य": 9417,
      "वैधानिक": 9418,
      "▁है।\nब": 9419,
      "▁तरल": 9420,
      "▁शैक्षणिक": 9421,
      "ोली": 9422,
      "▁फैलाने": 9423,
      "▁अमल": 9424,
      "▁मानसून": 9425,
      "▁चुनने": 9426,
      "▁दें.": 9427,
      "्तार": 9428,
      "▁प्रतिनिधियों": 9429,
      "▁कूद": 9430,
      "▁कारण,": 9431,
      "▁आरती": 9432,
      "ड़ा,": 9433,
      "▁श्रीकृष्ण": 9434,
      "▁कथन": 9435,
      "▁अपलोड": 9436,
      "▁डील": 9437,
      "75": 9438,
      "▁पीट": 9439,
      "▁सम्बंध": 9440,
      "▁अश्": 9441,
      "ल्लू": 9442,
      "▁कबीर": 9443,
      "वियत": 9444,
      "▁क्रे": 9445,
      "तिर": 9446,
      "▁त्वर": 9447,
      "▁तिमाही": 9448,
      "न्ने": 9449,
      "▁समापन": 9450,
      "▁सीरियल": 9451,
      "▁website": 9452,
      "-ल": 9453,
      "एमएस": 9454,
      "▁सिपाही": 9455,
      "▁जिम": 9456,
      "▁लाह": 9457,
      "ृत्त": 9458,
      "▁बताया।": 9459,
      "जिस्ट्रे": 9460,
      "ुरू": 9461,
      "▁दीर्घ": 9462,
      "▁सभ्यता": 9463,
      "▁सोनू": 9464,
      "▁*": 9465,
      "▁चर्च": 9466,
      "रीबन": 9467,
      "▁जुटी": 9468,
      "▁प्रतिबंधित": 9469,
      "▁अनो": 9470,
      "▁जताया": 9471,
      "▁वेस्टइंडीज": 9472,
      "▁रणवीर": 9473,
      "▁करीना": 9474,
      "▁विक्रे": 9475,
      "दर्शी": 9476,
      "▁बूथ": 9477,
      "नीर": 9478,
      "▁46": 9479,
      "▁नाज": 9480,
      "न्याय": 9481,
      "▁मोर": 9482,
      "▁जाएगा.\n": 9483,
      "▁बनाम": 9484,
      "▁हाथी": 9485,
      "▁हकी": 9486,
      "▁चुनौतियों": 9487,
      "▁सूख": 9488,
      "▁जूनियर": 9489,
      "▁राजने": 9490,
      "▁घटा": 9491,
      "▁गिरोह": 9492,
      "▁ग्वालियर": 9493,
      "▁लैस": 9494,
      "▁फोर्स": 9495,
      "वा,": 9496,
      "शो": 9497,
      "▁कुलदीप": 9498,
      "▁नंद": 9499,
      "▁सेवानिव": 9500,
      "बुल": 9501,
      "▁समझता": 9502,
      "▁क्राइम": 9503,
      "▁लगी.": 9504,
      "▁सालाना": 9505,
      "▁बिर": 9506,
      "▁इंस्टीट्यूट": 9507,
      "ेली": 9508,
      "वाइ": 9509,
      "▁लेनी": 9510,
      "▁जश्न": 9511,
      "दरी": 9512,
      "▁उर्दू": 9513,
      "▁हरिद्वार": 9514,
      "▁अनुपात": 9515,
      "धड़ी": 9516,
      "▁बस्ती": 9517,
      "’,": 9518,
      "▁परमात्मा": 9519,
      "▁ग्रो": 9520,
      "▁होता,": 9521,
      "▁उत्साहित": 9522,
      "\nऔर": 9523,
      "▁गली": 9524,
      "▁दुल्": 9525,
      "▁क्वाल": 9526,
      "▁उपज": 9527,
      "▁डेवलप": 9528,
      "▁रच": 9529,
      "▁अत्यन्त": 9530,
      "▁लक्षणों": 9531,
      "सरत": 9532,
      "ॉप्टर": 9533,
      "▁पश्चात्": 9534,
      "▁नकली": 9535,
      "िसोड": 9536,
      "▁ईडी": 9537,
      "इसे": 9538,
      "▁डबल": 9539,
      "ओ,": 9540,
      "▁निया": 9541,
      "▁कहानियों": 9542,
      "▁सबकुछ": 9543,
      "▁रहें।": 9544,
      "तरह": 9545,
      "▁गई.\n": 9546,
      "▁जद": 9547,
      "▁निम": 9548,
      "▁टाल": 9549,
      "▁छात्राओं": 9550,
      "▁लक्ष्मण": 9551,
      "▁स्वीकृत": 9552,
      "▁गिरी": 9553,
      "ायें": 9554,
      "▁कम्युनि": 9555,
      "▁सम्मिलित": 9556,
      "▁गणित": 9557,
      "▁मौल": 9558,
      "▁अब्दुल": 9559,
      "▁प्लस": 9560,
      "▁किंग्स": 9561,
      "▁कट्टर": 9562,
      "▁जीतकर": 9563,
      "▁वर्गों": 9564,
      "▁टूर": 9565,
      "▁रथ": 9566,
      "यानक": 9567,
      "▁अत्याचार": 9568,
      "▁माननीय": 9569,
      "▁मधुर": 9570,
      "▁बोनस": 9571,
      "िकारक": 9572,
      "▁12वीं": 9573,
      "▁उठी": 9574,
      "▁दिसम्बर": 9575,
      "▁अध्याय": 9576,
      "▁असंभव": 9577,
      "▁मात": 9578,
      "▁गोपनीय": 9579,
      "▁DN": 9580,
      "▁विवादित": 9581,
      "प्रदाय": 9582,
      "▁पासवान": 9583,
      "▁हिस्सेदारी": 9584,
      "प्रो": 9585,
      "▁फेर": 9586,
      "▁उपाध्याय": 9587,
      "▁व्ही": 9588,
      "▁बगैर": 9589,
      "▁खरीदारी": 9590,
      "▁यथार्थ": 9591,
      "▁नवीनतम": 9592,
      "रेख": 9593,
      "▁नोटबंदी": 9594,
      "▁मांगों": 9595,
      "▁आक्रोश": 9596,
      "▁हिमाल": 9597,
      "▁हार्म": 9598,
      "▁शुभारंभ": 9599,
      "▁आर्मी": 9600,
      "▁सोल": 9601,
      "▁भंग": 9602,
      "घाट": 9603,
      "▁गज": 9604,
      "▁कहें": 9605,
      "ate": 9606,
      "▁कन्": 9607,
      "▁त्वरित": 9608,
      "▁निभाने": 9609,
      "▁रोकथाम": 9610,
      "|\n": 9611,
      "▁किले": 9612,
      "▁पूर्वा": 9613,
      "▁दरों": 9614,
      "▁सके.": 9615,
      "▁अनंत": 9616,
      "फेक्ट": 9617,
      "▁माफ": 9618,
      "▁अंग्रेजों": 9619,
      "िवेश": 9620,
      "वाहिक": 9621,
      "जेक्शन": 9622,
      "म्बा": 9623,
      "▁\"मैं": 9624,
      "िक्षा": 9625,
      "▁भोजपुरी": 9626,
      "BI": 9627,
      "मेह": 9628,
      "▁इक्": 9629,
      "▁लें।\n": 9630,
      "▁सेव": 9631,
      "▁विद्रोह": 9632,
      "▁बढ़िया": 9633,
      "▁सार्थ": 9634,
      "▁अनदे": 9635,
      "200": 9636,
      "▁घटनास्थल": 9637,
      "▁आरोपित": 9638,
      "▁प्रवी": 9639,
      "▁पिटाई": 9640,
      "▁कैल": 9641,
      "▁मथुरा": 9642,
      "साइज": 9643,
      "▁रुपया": 9644,
      "▁अंदाजा": 9645,
      "▁खुलकर": 9646,
      "▁यूं": 9647,
      "धना": 9648,
      "▁निर्धारण": 9649,
      "▁खरीदी": 9650,
      "▁टैग": 9651,
      "▁ज़मीन": 9652,
      "▁मानवता": 9653,
      "▁चिह्न": 9654,
      "▁एकाद": 9655,
      "▁सद्": 9656,
      "▁की.\n": 9657,
      "ia": 9658,
      "▁जर्मन": 9659,
      "▁नदियों": 9660,
      "▁हुई।\n": 9661,
      "▁संयंत्र": 9662,
      "▁बेटियों": 9663,
      "गुण": 9664,
      "▁मार्क": 9665,
      "▁चैंपियनशिप": 9666,
      "िस्तान": 9667,
      "▁प्रो.": 9668,
      "रक्षा": 9669,
      "ist": 9670,
      "▁मदर": 9671,
      "▁बृहस्पति": 9672,
      "▁करें.\n": 9673,
      "निर्माण": 9674,
      "स्तुति": 9675,
      "▁अतिक्रमण": 9676,
      "पोर": 9677,
      "▁'आ": 9678,
      "ल्तान": 9679,
      "▁2024": 9680,
      "▁सिलेंडर": 9681,
      "▁द्रव्य": 9682,
      "-सु": 9683,
      "▁राखी": 9684,
      "दाश्त": 9685,
      "टेस्ट": 9686,
      "▁यार": 9687,
      "कई": 9688,
      "वृत्ति": 9689,
      "▁खूबसूरती": 9690,
      "▁ट्यू": 9691,
      "▁सौंदर्य": 9692,
      "▁शॉट": 9693,
      "▁गुट": 9694,
      "▁पढ़ें-": 9695,
      "▁विभाजित": 9696,
      "▁झटके": 9697,
      "▁कम्पनी": 9698,
      "▁सृष्टि": 9699,
      "▁तकलीफ": 9700,
      "▁उदा": 9701,
      "▁ड्राइव": 9702,
      "ोत्तर": 9703,
      "्यूस": 9704,
      "▁अंबानी": 9705,
      "▁घन": 9706,
      "▁इनसे": 9707,
      "▁जमाने": 9708,
      "▁ऑप्शन": 9709,
      "▁यी": 9710,
      "▁है।\nप": 9711,
      "▁49": 9712,
      "▁खेलना": 9713,
      "▁चलना": 9714,
      "▁बनाएं": 9715,
      "▁शिल": 9716,
      "वाड़ी": 9717,
      "▁\"हम": 9718,
      "▁धैर्य": 9719,
      "▁इलेक्ट्रॉनिक": 9720,
      "▁व्यय": 9721,
      "▁महावीर": 9722,
      "हालांकि,": 9723,
      "▁रिश्तेदार": 9724,
      "▁माफिया": 9725,
      "▁राउंड": 9726,
      "▁लोकप्रियता": 9727,
      "▁पूर्ति": 9728,
      "▁कॉलोनी": 9729,
      "िरो": 9730,
      "▁तेरी": 9731,
      "▁मित्रों": 9732,
      "ानुसार": 9733,
      "▁है:": 9734,
      "▁उर्व": 9735,
      "▁दो-": 9736,
      "27": 9737,
      "▁प्रीमियम": 9738,
      "▁तरफ़": 9739,
      "▁भावनात्मक": 9740,
      "▁आरम्भ": 9741,
      "▁ड्रोन": 9742,
      "ूंगी": 9743,
      "▁छाप": 9744,
      "▁(म": 9745,
      "▁नमू": 9746,
      "▁गाल": 9747,
      "▁ट्रां": 9748,
      "▁खान,": 9749,
      "▁शुगर": 9750,
      "▁एपिसोड": 9751,
      "▁भयानक": 9752,
      "▁आचार": 9753,
[...]
