{
  "version": "1.0",
  "truncation": null,
  "padding": null,
  "added_tokens": [
    {
      "id": 0,
      "content": "<pad>",
      "single_word": false,
      "lstrip": false,
      "rstrip": false,
      "normalized": false,
      "special": true
    },
    {
      "id": 1,
      "content": "<unk>",
      "single_word": false,
      "lstrip": false,
      "rstrip": false,
      "normalized": false,
      "special": true
    },
    {
      "id": 2,
      "content": "<s>",
      "single_word": false,
      "lstrip": false,
      "rstrip": false,
      "normalized": false,
      "special": true
    },
    {
      "id": 3,
      "content": "</s>",
      "single_word": false,
      "lstrip": false,
      "rstrip": false,
      "normalized": false,
      "special": true
    }
  ],
  "normalizer": {
    "type": "Sequence",
    "normalizers": [
      {
        "type": "NFC"
      },
      {
        "type": "Strip",
        "strip_left": true,
        "strip_right": true
      }
    ]
  },
  "pre_tokenizer": {
    "type": "Metaspace",
    "replacement": "▁",
    "prepend_scheme": "always",
    "split": true
  },
  "post_processor": null,
  "decoder": {
    "type": "Metaspace",
    "replacement": "▁",
    "prepend_scheme": "always",
    "split": true
  },
  "model": {
    "type": "BPE",
    "dropout": null,
    "unk_token": "<unk>",
    "continuing_subword_prefix": null,
    "end_of_word_suffix": null,
    "fuse_unk": false,
    "byte_fallback": false,
    "ignore_merges": false,
    "vocab": {
      "<pad>": 0,
      "<unk>": 1,
      "<s>": 2,
      "</s>": 3,
      "\n": 4,
      "!": 5,
      "\"": 6,
      "#": 7,
      "$": 8,
      "%": 9,
      "&": 10,
      "'": 11,
      "(": 12,
      ")": 13,
      "*": 14,
      "+": 15,
      ",": 16,
      "-": 17,
      ".": 18,
      "/": 19,
      "0": 20,
      "1": 21,
      "2": 22,
      "3": 23,
      "4": 24,
      "5": 25,
      "6": 26,
      "7": 27,
      "8": 28,
      "9": 29,
      ":": 30,
      ";": 31,
      "<": 32,
      "=": 33,
      ">": 34,
      "?": 35,
      "@": 36,
      "A": 37,
      "B": 38,
      "C": 39,
      "D": 40,
      "E": 41,
      "F": 42,
      "G": 43,
      "H": 44,
      "I": 45,
      "J": 46,
      "K": 47,
      "L": 48,
      "M": 49,
      "N": 50,
      "O": 51,
      "P": 52,
      "Q": 53,
      "R": 54,
      "S": 55,
      "T": 56,
      "U": 57,
      "V": 58,
      "W": 59,
      "X": 60,
      "Y": 61,
      "Z": 62,
      "[": 63,
      "\\": 64,
      "]": 65,
      "^": 66,
      "_": 67,
      "`": 68,
      "a": 69,
      "b": 70,
      "c": 71,
      "d": 72,
      "e": 73,
      "f": 74,
      "g": 75,
      "h": 76,
      "i": 77,
      "j": 78,
      "k": 79,
      "l": 80,
      "m": 81,
      "n": 82,
      "o": 83,
      "p": 84,
      "q": 85,
      "r": 86,
      "s": 87,
      "t": 88,
      "u": 89,
      "v": 90,
      "w": 91,
      "x": 92,
      "y": 93,
      "z": 94,
      "{": 95,
      "|": 96,
      "}": 97,
      "~": 98,
      "": 99,
      "": 100,
      "": 101,
      "¡": 102,
      "¢": 103,
      "£": 104,
      "¤": 105,
      "¥": 106,
      "§": 107,
      "©": 108,
      "«": 109,
      "¬": 110,
      "®": 111,
      "°": 112,
      "±": 113,
      "·": 114,
      "»": 115,
      "¿": 116,
      "Á": 117,
      "Â": 118,
      "Ã": 119,
      "Ä": 120,
      "Å": 121,
      "Æ": 122,
      "Ç": 123,
      "È": 124,
      "É": 125,
      "Ë": 126,
      "Ï": 127,
      "Ð": 128,
      "Ñ": 129,
      "Ó": 130,
      "Ö": 131,
      "×": 132,
      "Ø": 133,
      "Û": 134,
      "Ü": 135,
      "Þ": 136,
      "ß": 137,
      "à": 138,
      "á": 139,
      "â": 140,
      "ã": 141,
      "ä": 142,
      "å": 143,
      "æ": 144,
      "ç": 145,
      "è": 146,
      "é": 147,
      "ê": 148,
      "ë": 149,
      "ì": 150,
      "í": 151,
      "î": 152,
      "ï": 153,
      "ð": 154,
      "ñ": 155,
      "ò": 156,
      "ó": 157,
      "ô": 158,
      "ö": 159,
      "÷": 160,
      "ø": 161,
      "ù": 162,
      "ú": 163,
      "û": 164,
      "ü": 165,
      "ý": 166,
      "Ā": 167,
      "ā": 168,
      "ă": 169,
      "ć": 170,
      "Č": 171,
      "č": 172,
      "đ": 173,
      "ē": 174,
      "ğ": 175,
      "ī": 176,
      "Į": 177,
      "İ": 178,
      "ı": 179,
      "ļ": 180,
      "ł": 181,
      "ō": 182,
      "Ş": 183,
      "ş": 184,
      "Š": 185,
      "š": 186,
      "ū": 187,
      "Ÿ": 188,
      "ž": 189,
      "ƒ": 190,
      "ǀ": 191,
      "ǔ": 192,
      "ɑ": 193,
      "ə": 194,
      "ɛ": 195,
      "ɪ": 196,
      "ʹ": 197,
      "ʺ": 198,
      "ʻ": 199,
      "ʿ": 200,
      "ˈ": 201,
      "ˌ": 202,
      "ː": 203,
      "˸": 204,
      "́": 205,
      "̃": 206,
      "̈": 207,
      "̊": 208,
      "̧": 209,
      "Δ": 210,
      "Ε": 211,
      "Σ": 212,
      "Ω": 213,
      "ά": 214,
      "ή": 215,
      "ί": 216,
      "α": 217,
      "β": 218,
      "γ": 219,
      "δ": 220,
      "ε": 221,
      "η": 222,
      "θ": 223,
      "ι": 224,
      "κ": 225,
      "λ": 226,
      "μ": 227,
      "ν": 228,
      "ο": 229,
      "π": 230,
      "ρ": 231,
      "ς": 232,
      "σ": 233,
      "τ": 234,
      "υ": 235,
      "φ": 236,
      "χ": 237,
      "ω": 238,
      "ό": 239,
      "І": 240,
      "А": 241,
      "Б": 242,
      "В": 243,
      "Г": 244,
      "Д": 245,
      "Е": 246,
      "Ж": 247,
      "З": 248,
      "И": 249,
      "К": 250,
      "Л": 251,
      "М": 252,
      "Н": 253,
      "О": 254,
      "П": 255,
      "Р": 256,
      "С": 257,
      "Т": 258,
      "У": 259,
      "Ф": 260,
      "Х": 261,
      "Ц": 262,
      "Ч": 263,
      "Ш": 264,
      "Э": 265,
      "Я": 266,
      "а": 267,
      "б": 268,
      "в": 269,
      "г": 270,
      "д": 271,
      "е": 272,
      "ж": 273,
      "з": 274,
      "и": 275,
      "й": 276,
      "к": 277,
      "л": 278,
      "м": 279,
      "н": 280,
      "о": 281,
      "п": 282,
      "р": 283,
      "с": 284,
      "т": 285,
      "у": 286,
      "ф": 287,
      "х": 288,
      "ц": 289,
      "ч": 290,
      "ш": 291,
      "щ": 292,
      "ъ": 293,
      "ы": 294,
      "ь": 295,
      "э": 296,
      "ю": 297,
      "я": 298,
      "ё": 299,
      "і": 300,
      "қ": 301,
      "ְ": 302,
      "ִ": 303,
      "ֵ": 304,
      "ַ": 305,
      "ָ": 306,
      "׀": 307,
      "ׂ": 308,
      "א": 309,
      "ב": 310,
      "ד": 311,
      "ה": 312,
      "ו": 313,
      "י": 314,
      "ל": 315,
      "ם": 316,
      "מ": 317,
      "נ": 318,
      "ע": 319,
      "ר": 320,
      "ש": 321,
      "ת": 322,
      "،": 323,
      "؟": 324,
      "ء": 325,
      "آ": 326,
      "أ": 327,
      "ؤ": 328,
      "إ": 329,
      "ئ": 330,
      "ا": 331,
      "ب": 332,
      "ة": 333,
      "ت": 334,
      "ث": 335,
      "ج": 336,
      "ح": 337,
      "خ": 338,
      "د": 339,
      "ذ": 340,
      "ر": 341,
      "ز": 342,
      "س": 343,
      "ش": 344,
      "ص": 345,
      "ض": 346,
      "ط": 347,
      "ظ": 348,
      "ع": 349,
      "غ": 350,
      "ـ": 351,
      "ف": 352,
      "ق": 353,
      "ك": 354,
      "ل": 355,
      "م": 356,
      "ن": 357,
      "ه": 358,
      "و": 359,
      "ى": 360,
      "ي": 361,
      "ً": 362,
      "ٌ": 363,
      "ٍ": 364,
      "َ": 365,
      "ُ": 366,
      "ِ": 367,
      "ّ": 368,
      "ْ": 369,
      "٠": 370,
      "١": 371,
      "٢": 372,
      "٣": 373,
      "٤": 374,
      "٥": 375,
      "٦": 376,
      "٧": 377,
      "٨": 378,
      "ٹ": 379,
      "پ": 380,
      "چ": 381,
      "ڈ": 382,
      "ڑ": 383,
      "ک": 384,
      "گ": 385,
      "ں": 386,
      "ھ": 387,
      "ہ": 388,
      "ۃ": 389,
      "ی": 390,
      "ے": 391,
      "۔": 392,
      "۰": 393,
      "۱": 394,
      "۲": 395,
      "۳": 396,
      "۴": 397,
      "۵": 398,
      "۷": 399,
      "۸": 400,
      "۹": 401,
      "ऀ": 402,
      "ँ": 403,
      "ं": 404,
      "ः": 405,
      "ऄ": 406,
      "अ": 407,
      "आ": 408,
      "इ": 409,
      "ई": 410,
      "उ": 411,
      "ऊ": 412,
      "ऋ": 413,
      "ऌ": 414,
      "ऍ": 415,
      "ऎ": 416,
      "ए": 417,
      "ऐ": 418,
      "ऑ": 419,
      "ऒ": 420,
      "ओ": 421,
      "औ": 422,
      "क": 423,
      "ख": 424,
      "ग": 425,
      "घ": 426,
      "ङ": 427,
      "च": 428,
      "छ": 429,
      "ज": 430,
      "झ": 431,
      "ञ": 432,
      "ट": 433,
      "ठ": 434,
      "ड": 435,
      "ढ": 436,
      "ण": 437,
      "त": 438,
      "थ": 439,
      "द": 440,
      "ध": 441,
      "न": 442,
      "ऩ": 443,
      "प": 444,
      "फ": 445,
      "ब": 446,
      "भ": 447,
      "म": 448,
      "य": 449,
      "र": 450,
      "ऱ": 451,
      "ल": 452,
      "ळ": 453,
      "ऴ": 454,
      "व": 455,
      "श": 456,
      "ष": 457,
      "स": 458,
      "ह": 459,
      "ऺ": 460,
      "ऻ": 461,
      "़": 462,
      "ऽ": 463,
      "ा": 464,
      "ि": 465,
      "ी": 466,
      "ु": 467,
      "ू": 468,
      "ृ": 469,
      "ॄ": 470,
      "ॅ": 471,
      "ॆ": 472,
      "े": 473,
      "ै": 474,
      "ॉ": 475,
      "ॊ": 476,
      "ो": 477,
      "ौ": 478,
      "्": 479,
      "ॎ": 480,
      "ॏ": 481,
      "ॐ": 482,
      "॑": 483,
      "॒": 484,
      "॓": 485,
      "॔": 486,
      "ॕ": 487,
      "ॖ": 488,
      "ॗ": 489,
      "क़": 490,
      "ख़": 491,
      "ग़": 492,
      "ज़": 493,
      "ड़": 494,
      "ढ़": 495,
      "फ़": 496,
      "य़": 497,
      "ॠ": 498,
      "ॡ": 499,
      "ॢ": 500,
      "ॣ": 501,
      "।": 502,
      "॥": 503,
      "०": 504,
      "१": 505,
      "२": 506,
      "३": 507,
      "४": 508,
      "५": 509,
      "६": 510,
      "७": 511,
      "८": 512,
      "९": 513,
      "॰": 514,
      "ॱ": 515,
      "ॲ": 516,
      "ॳ": 517,
      "ॴ": 518,
      "ॵ": 519,
      "ॶ": 520,
      "ॷ": 521,
      "ॸ": 522,
      "ॹ": 523,
      "ॺ": 524,
      "ॻ": 525,
      "ॼ": 526,
      "ॽ": 527,
      "ॾ": 528,
      "ঁ": 529,
      "ং": 530,
      "অ": 531,
      "আ": 532,
      "ই": 533,
      "উ": 534,
      "এ": 535,
      "ও": 536,
      "ক": 537,
      "খ": 538,
      "গ": 539,
      "ঘ": 540,
      "ঙ": 541,
      "চ": 542,
      "ছ": 543,
      "জ": 544,
      "ঝ": 545,
      "ঞ": 546,
      "ট": 547,
      "ঠ": 548,
      "ড": 549,
      "ণ": 550,
      "ত": 551,
      "থ": 552,
      "দ": 553,
      "ধ": 554,
      "ন": 555,
      "প": 556,
      "ফ": 557,
      "ব": 558,
      "ভ": 559,
      "ম": 560,
      "য": 561,
      "র": 562,
      "ল": 563,
      "শ": 564,
      "ষ": 565,
      "স": 566,
      "হ": 567,
      "়": 568,
      "া": 569,
      "ি": 570,
      "ী": 571,
      "ু": 572,
      "ূ": 573,
      "ৃ": 574,
      "ে": 575,
      "ো": 576,
      "ৌ": 577,
      "্": 578,
      "ৎ": 579,
      "০": 580,
      "১": 581,
      "২": 582,
      "ৰ": 583,
      "ਂ": 584,
      "ਅ": 585,
      "ਆ": 586,
      "ਇ": 587,
      "ਈ": 588,
      "ਉ": 589,
      "ਏ": 590,
      "ਐ": 591,
      "ਓ": 592,
      "ਕ": 593,
      "ਖ": 594,
      "ਗ": 595,
      "ਘ": 596,
      "ਚ": 597,
      "ਛ": 598,
      "ਜ": 599,
      "ਟ": 600,
      "ਡ": 601,
      "ਣ": 602,
      "ਤ": 603,
      "ਥ": 604,
      "ਦ": 605,
      "ਧ": 606,
      "ਨ": 607,
      "ਪ": 608,
      "ਫ": 609,
      "ਬ": 610,
      "ਭ": 611,
      "ਮ": 612,
      "ਰ": 613,
      "ਲ": 614,
      "ਵ": 615,
      "ਸ": 616,
      "ਹ": 617,
      "਼": 618,
      "ਾ": 619,
      "ਿ": 620,
      "ੀ": 621,
      "ੁ": 622,
      "ੂ": 623,
      "ੇ": 624,
      "ੈ": 625,
      "ੋ": 626,
      "ੌ": 627,
      "੍": 628,
      "ੜ": 629,
      "ੰ": 630,
      "ੱ": 631,
      "ઁ": 632,
      "ં": 633,
      "અ": 634,
      "આ": 635,
      "ઇ": 636,
      "ઈ": 637,
      "ઉ": 638,
      "એ": 639,
      "ઓ": 640,
      "ક": 641,
      "ખ": 642,
      "ગ": 643,
      "ઘ": 644,
      "ચ": 645,
      "છ": 646,
      "જ": 647,
      "ઞ": 648,
      "ટ": 649,
      "ઠ": 650,
      "ડ": 651,
      "ઢ": 652,
      "ણ": 653,
      "ત": 654,
      "થ": 655,
      "દ": 656,
      "ધ": 657,
      "ન": 658,
      "પ": 659,
      "ફ": 660,
      "બ": 661,
      "ભ": 662,
      "મ": 663,
      "ય": 664,
      "ર": 665,
      "લ": 666,
      "ળ": 667,
      "વ": 668,
      "શ": 669,
      "ષ": 670,
      "સ": 671,
      "હ": 672,
      "ા": 673,
      "િ": 674,
      "ી": 675,
      "ુ": 676,
      "ૂ": 677,
      "ૃ": 678,
      "ે": 679,
      "ૈ": 680,
      "ો": 681,
      "ૌ": 682,
      "્": 683,
      "૦": 684,
      "૧": 685,
      "૨": 686,
      "૩": 687,
      "૪": 688,
      "૫": 689,
      "૬": 690,
      "૭": 691,
      "ଁ": 692,
      "ଂ": 693,
      "ଃ": 694,
      "ଅ": 695,
      "ଆ": 696,
      "ଇ": 697,
      "ଉ": 698,
      "ଏ": 699,
      "ଓ": 700,
      "କ": 701,
      "ଖ": 702,
      "ଗ": 703,
      "ଘ": 704,
      "ଙ": 705,
      "ଚ": 706,
      "ଛ": 707,
      "ଜ": 708,
      "ଝ": 709,
      "ଞ": 710,
      "ଟ": 711,
      "ଠ": 712,
      "ଡ": 713,
      "ଢ": 714,
      "ଣ": 715,
      "ତ": 716,
      "ଥ": 717,
      "ଦ": 718,
      "ଧ": 719,
      "ନ": 720,
      "ପ": 721,
      "ଫ": 722,
      "ବ": 723,
      "ଭ": 724,
      "ମ": 725,
      "ଯ": 726,
      "ର": 727,
      "ଲ": 728,
      "ଳ": 729,
      "ଵ": 730,
      "ଶ": 731,
      "ଷ": 732,
      "ସ": 733,
      "ହ": 734,
      "଼": 735,
      "ା": 736,
      "ି": 737,
      "ୀ": 738,
      "ୁ": 739,
      "ୂ": 740,
      "ୃ": 741,
      "େ": 742,
      "ୋ": 743,
      "୍": 744,
      "ୟ": 745,
      "୦": 746,
      "୧": 747,
      "୨": 748,
      "୩": 749,
      "୪": 750,
      "୫": 751,
      "୬": 752,
      "୭": 753,
      "୮": 754,
      "୯": 755,
      "ୱ": 756,
      "அ": 757,
      "க": 758,
      "ங": 759,
      "ச": 760,
      "ஜ": 761,
      "ட": 762,
      "ண": 763,
      "த": 764,
      "ந": 765,
      "ன": 766,
      "ப": 767,
      "ம": 768,
      "ய": 769,
      "ர": 770,
      "ற": 771,
      "ல": 772,
      "ள": 773,
      "ழ": 774,
      "வ": 775,
      "ஸ": 776,
      "ா": 777,
      "ி": 778,
      "ு": 779,
      "ூ": 780,
      "ெ": 781,
      "ே": 782,
      "ை": 783,
      "ோ": 784,
      "்": 785,
      "ం": 786,
      "అ": 787,
      "ఆ": 788,
      "క": 789,
      "గ": 790,
      "చ": 791,
      "జ": 792,
      "ట": 793,
      "డ": 794,
      "త": 795,
      "ద": 796,
      "ధ": 797,
      "న": 798,
      "ప": 799,
      "ఫ": 800,
      "బ": 801,
      "భ": 802,
      "మ": 803,
      "య": 804,
      "ర": 805,
      "ల": 806,
      "వ": 807,
      "శ": 808,
      "ష": 809,
      "స": 810,
      "హ": 811,
      "ా": 812,
      "ి": 813,
      "ీ": 814,
      "ు": 815,
      "ూ": 816,
      "ె": 817,
      "ే": 818,
      "ై": 819,
      "ొ": 820,
      "ో": 821,
      "్": 822,
      "ಂ": 823,
      "ಅ": 824,
      "ಕ": 825,
      "ಗ": 826,
      "ಚ": 827,
      "ಟ": 828,
      "ಡ": 829,
      "ತ": 830,
      "ದ": 831,
      "ನ": 832,
      "ಪ": 833,
      "ಬ": 834,
      "ಮ": 835,
      "ಯ": 836,
      "ರ": 837,
      "ಲ": 838,
      "ಳ": 839,
      "ವ": 840,
      "ಶ": 841,
      "ಸ": 842,
      "ಹ": 843,
      "ಾ": 844,
      "ಿ": 845,
      "ೀ": 846,
      "ು": 847,
      "ೂ": 848,
      "ೆ": 849,
      "ೇ": 850,
      "್": 851,
      "ം": 852,
      "ക": 853,
      "ട": 854,
      "ണ": 855,
      "ത": 856,
      "ന": 857,
      "പ": 858,
      "മ": 859,
      "യ": 860,
      "ര": 861,
      "റ": 862,
      "ല": 863,
      "ള": 864,
      "വ": 865,
      "ശ": 866,
      "സ": 867,
      "ാ": 868,
      "ി": 869,
      "ു": 870,
      "െ": 871,
      "േ": 872,
      "്": 873,
      "ර": 874,
      "්": 875,
      "ා": 876,
      "ท": 877,
      "ย": 878,
      "ร": 879,
      "า": 880,
      "་": 881,
      "།": 882,
      "ག": 883,
      "ང": 884,
      "ད": 885,
      "ན": 886,
      "བ": 887,
      "ར": 888,
      "ལ": 889,
      "ས": 890,
      "ི": 891,
      "ོ": 892,
      "န": 893,
      "မ": 894,
      "ာ": 895,
      "ိ": 896,
      "ု": 897,
      "း": 898,
      "်": 899,
      "ြ": 900,
      "ᆬ": 901,
      "ṇ": 902,
      "ṭ": 903,
      "​": 904,
      "‌": 905,
      "‍": 906,
      "‎": 907,
      "‐": 908,
      "‒": 909,
      "–": 910,
      "—": 911,
      "―": 912,
      "‘": 913,
      "’": 914,
      "‚": 915,
      "‛": 916,
      "“": 917,
      "”": 918,
      "†": 919,
      "‡": 920,
      "•": 921,
      "‪": 922,
      "‫": 923,
      "‬": 924,
      "′": 925,
      "›": 926,
      "⁄": 927,
      "€": 928,
      "₹": 929,
      "₽": 930,
      "⃟": 931,
      "⃣": 932,
      "℞": 933,
      "←": 934,
      "↑": 935,
      "→": 936,
      "↓": 937,
      "⇒": 938,
      "⇝": 939,
      "−": 940,
      "∙": 941,
      "√": 942,
      "≤": 943,
      "≥": 944,
      "─": 945,
      "▁": 946,
      "■": 947,
      "▪": 948,
      "▶": 949,
      "►": 950,
      "▼": 951,
      "◆": 952,
      "◉": 953,
      "●": 954,
      "⦁": 955,
      "⭐": 956,
      "。": 957,
      "【": 958,
      "】": 959,
      "い": 960,
      "中": 961,
      "京": 962,
      "人": 963,
      "共": 964,
      "加": 965,
      "华": 966,
      "卐": 967,
      "和": 968,
      "国": 969,
      "坡": 970,
      "大": 971,
      "文": 972,
      "新": 973,
      "本": 974,
      "民": 975,
      "語": 976,
      "语": 977,
      "국": 978,
      "민": 979,
      "주": 980,
      "한": 981,
      "": 982,
      "": 983,
      "": 984,
      "️": 985,
      "﻿": 986,
      "￼": 987,
      "�": 988,
      "🤍": 989,
      "🤔": 990,
      "🤗": 991,
      "🤣": 992,
      "🤩": 993,
      "🤭": 994,
      "🥀": 995,
      "🥰": 996,
      "🥳": 997,
      "🥺": 998,
      "🧿": 999,
      "🪢": 1000,
      "🫀": 1001,
      "🫰": 1002,
      "🫶": 1003,
      "▁क": 1004,
      "▁स": 1005,
      "▁ह": 1006,
      "▁म": 1007,
      "▁प": 1008,
      "ें": 1009,
      "▁है": 1010,
      "▁के": 1011,
      "्र": 1012,
      "ार": 1013,
      "ने": 1014,
      "▁ब": 1015,
      "▁ज": 1016,
      "या": 1017,
      "▁अ": 1018,
      "▁व": 1019,
      "▁द": 1020,
      "▁में": 1021,
      "▁ल": 1022,
      "▁र": 1023,
      "ों": 1024,
      "▁न": 1025,
      "▁की": 1026,
      "ता": 1027,
      "र्": 1028,
      "▁को": 1029,
      "▁आ": 1030,
      "▁उ": 1031,
      "▁से": 1032,
      "▁कर": 1033,
      "ान": 1034,
      "▁त": 1035,
      "▁कि": 1036,
      "▁ग": 1037,
      "▁भ": 1038,
      "▁का": 1039,
      "▁इ": 1040,
      "्य": 1041,
      "▁औ": 1042,
      "▁और": 1043,
      "ना": 1044,
      "िक": 1045,
      "▁प्र": 1046,
      "▁पर": 1047,
      "स्": 1048,
      "▁ए": 1049,
      "ाल": 1050,
      "▁श": 1051,
      "▁है।": 1052,
      "▁च": 1053,
      "▁हो": 1054,
      "ही": 1055,
      "क्": 1056,
      "▁हैं": 1057,
      "▁ने": 1058,
      "िल": 1059,
      "▁य": 1060,
      "▁इस": 1061,
      "ित": 1062,
      "▁थ": 1063,
      "ड़": 1064,
      "ते": 1065,
      "हा": 1066,
      "िए": 1067,
      "▁जा": 1068,
      "न्": 1069,
      "िय": 1070,
      "के": 1071,
      "▁भी": 1072,
      "▁सा": 1073,
      "वा": 1074,
      "िया": 1075,
      "ती": 1076,
      "▁एक": 1077,
      "▁ख": 1078,
      "▁स्": 1079,
      "▁वि": 1080,
      "▁फ": 1081,
      "हीं": 1082,
      "से": 1083,
      "ति": 1084,
      "ंग": 1085,
      "▁लिए": 1086,
      "ला": 1087,
      "▁बा": 1088,
      "त्र": 1089,
      "▁दे": 1090,
      "री": 1091,
      "त्": 1092,
      "रा": 1093,
      "ले": 1094,
      "▁सम": 1095,
      "▁नहीं": 1096,
      "▁अप": 1097,
      "नी": 1098,
      "।\n": 1099,
      "▁रा": 1100,
      "▁सं": 1101,
      "िन": 1102,
      "्या": 1103,
      "का": 1104,
      "सी": 1105,
      "कर": 1106,
      "ोग": 1107,
      "गा": 1108,
      "▁ही": 1109,
      "ाम": 1110,
      "▁ले": 1111,
      "ेश": 1112,
      "▁हु": 1113,
      "िस": 1114,
      "कार": 1115,
      "▁ट": 1116,
      "▁किया": 1117,
      "क्ष": 1118,
      "ुर": 1119,
      "▁यह": 1120,
      "▁था": 1121,
      "्ट": 1122,
      "▁रह": 1123,
      "▁मु": 1124,
      "▁तो": 1125,
      "▁ड": 1126,
      "्व": 1127,
      "की": 1128,
      "▁आप": 1129,
      "▁नि": 1130,
      "मा": 1131,
      "▁करने": 1132,
      "ली": 1133,
      "ाय": 1134,
      "ंद": 1135,
      "▁पह": 1136,
      "▁गया": 1137,
      "▁साथ": 1138,
      "ारी": 1139,
      "ियों": 1140,
      "▁हैं।": 1141,
      "ां": 1142,
      "▁है,": 1143,
      "▁1": 1144,
      "▁कार": 1145,
      "▁उस": 1146,
      "▁सक": 1147,
      "▁कु": 1148,
      "▁उन": 1149,
      "न्ह": 1150,
      "सा": 1151,
      "▁घ": 1152,
      "्म": 1153,
      "▁2": 1154,
      "▁जो": 1155,
      "ास": 1156,
      "रे": 1157,
      "▁है.": 1158,
      "▁अन": 1159,
      "ाह": 1160,
      "▁या": 1161,
      "ल्": 1162,
      "▁हम": 1163,
      "▁कहा": 1164,
      "▁(": 1165,
      "▁अध": 1166,
      "कि": 1167,
      "भा": 1168,
      "▁।": 1169,
      "▁सु": 1170,
      "▁पू": 1171,
      "ंड": 1172,
      "िर": 1173,
      "िव": 1174,
      "▁ध": 1175,
      "▁उन्ह": 1176,
      "भी": 1177,
      "▁अपने": 1178,
      "िला": 1179,
      "▁वाल": 1180,
      "्री": 1181,
      "दी": 1182,
      "▁बाद": 1183,
      "ढ़": 1184,
      "▁छ": 1185,
      "च्": 1186,
      "▁राज": 1187,
      "द्": 1188,
      "▁है।\n": 1189,
      "ारा": 1190,
      "ुल": 1191,
      "▁लोग": 1192,
      "गी": 1193,
      "▁थी": 1194,
      "▁तक": 1195,
      "▁रहे": 1196,
      "▁सि": 1197,
      "ओं": 1198,
      "स्ट": 1199,
      "▁दो": 1200,
      "दा": 1201,
      "ूप": 1202,
      "ैं": 1203,
      "जी": 1204,
      "▁दिया": 1205,
      "गे": 1206,
      "तर": 1207,
      "्रे": 1208,
      "को": 1209,
      "था": 1210,
      "वि": 1211,
      "▁वह": 1212,
      "▁मह": 1213,
      "देश": 1214,
      "ंत्र": 1215,
      "में": 1216,
      "रो": 1217,
      "टी": 1218,
      "ंच": 1219,
      "ष्ट": 1220,
      "▁उप": 1221,
      "▁ऐ": 1222,
      "▁मे": 1223,
      "▁हुए": 1224,
      "्ष": 1225,
      "्त": 1226,
      "ाइ": 1227,
      "ाना": 1228,
      "▁रहा": 1229,
      "▁सी": 1230,
      "▁जिस": 1231,
      "▁थे": 1232,
      "ोज": 1233,
      "किन": 1234,
      "▁पा": 1235,
      "वी": 1236,
      "गर": 1237,
      "▁मिल": 1238,
      "ानी": 1239,
      "▁भार": 1240,
      "▁मा": 1241,
      "स्त": 1242,
      "▁गई": 1243,
      "▁बार": 1244,
      "▁भा": 1245,
      "▁अधिक": 1246,
      "▁कुछ": 1247,
      "जा": 1248,
      "िश": 1249,
      "मी": 1250,
      "▁जी": 1251,
      "▁बी": 1252,
      "ार्": 1253,
      "▁सर": 1254,
      "▁बना": 1255,
      "खा": 1256,
      "ोंने": 1257,
      "▁चाह": 1258,
      "▁तर": 1259,
      "नों": 1260,
      "▁लेकिन": 1261,
      "▁चु": 1262,
      "▁सब": 1263,
      "टर": 1264,
      "▁रही": 1265,
      "▁वे": 1266,
      "ौर": 1267,
      "▁जब": 1268,
      "पी": 1269,
      "पा": 1270,
      "▁रूप": 1271,
      "ूर": 1272,
      "▁बह": 1273,
      "▁करते": 1274,
      "ेल": 1275,
      "▁बता": 1276,
      "▁बात": 1277,
      "▁अनु": 1278,
      "▁'": 1279,
      "▁20": 1280,
      "ड़ा": 1281,
      "द्ध": 1282,
      "▁दी": 1283,
      "▁ला": 1284,
      "ड़ी": 1285,
      "द्र": 1286,
      "▁हैं,": 1287,
      "▁स्थ": 1288,
      "▁पहले": 1289,
      "मान": 1290,
      "र्म": 1291,
      "ंध": 1292,
      "▁वर्": 1293,
      "▁बे": 1294,
      "▁उन्होंने": 1295,
      "▁लगा": 1296,
      "हां": 1297,
      "▁होने": 1298,
      "▁कम": 1299,
      "शन": 1300,
      "्यों": 1301,
      "ुत": 1302,
      "▁सरकार": 1303,
      "बा": 1304,
      "▁कोई": 1305,
      "▁इन": 1306,
      "िंग": 1307,
      "▁विश": 1308,
      "▁जाए": 1309,
      "ये": 1310,
      "क्र": 1311,
      "▁लोगों": 1312,
      "▁कह": 1313,
      "▁समय": 1314,
      "टे": 1315,
      "▁दिन": 1316,
      "▁अपनी": 1317,
      "▁किसी": 1318,
      "▁जाता": 1319,
      "▁द्व": 1320,
      "▁व्य": 1321,
      "क्त": 1322,
      "ूस": 1323,
      "र्व": 1324,
      "▁अब": 1325,
      "बर": 1326,
      "▁-": 1327,
      "ड़े": 1328,
      "▁इसके": 1329,
      "▁सो": 1330,
      "▁देख": 1331,
      "▁तरह": 1332,
      "म्": 1333,
      "हर": 1334,
      "ैसे": 1335,
      "ाप": 1336,
      "▁गए": 1337,
      "▁वाले": 1338,
      "▁जान": 1339,
      "▁उत्": 1340,
      "स्थ": 1341,
      "▁निर्": 1342,
      "▁\"": 1343,
      "च्च": 1344,
      "▁प्रति": 1345,
      ".\n": 1346,
      "ीन": 1347,
      "ूल": 1348,
      "दि": 1349,
      "▁हि": 1350,
      "▁मौ": 1351,
      "▁काम": 1352,
      "कों": 1353,
      "▁बि": 1354,
      "चार": 1355,
      "▁मो": 1356,
      "▁देश": 1357,
      "▁करें": 1358,
      "▁सकता": 1359,
      "ंत्री": 1360,
      "▁था।": 1361,
      "▁क्ष": 1362,
      "▁पी": 1363,
      "ज़": 1364,
      "▁बढ़": 1365,
      "▁करना": 1366,
      "र्ट": 1367,
      "▁ये": 1368,
      "▁मैं": 1369,
      "▁पुल": 1370,
      "▁द्वारा": 1371,
      "ेट": 1372,
      "▁कई": 1373,
      "▁रख": 1374,
      "योग": 1375,
      "ोल": 1376,
      "▁दु": 1377,
      "▁हुआ": 1378,
      "▁कार्य": 1379,
      "िप": 1380,
      "▁भारत": 1381,
      "▁होता": 1382,
      "वार": 1383,
      "▁बहुत": 1384,
      "्स": 1385,
      "च्छ": 1386,
      "▁ओ": 1387,
      "▁टी": 1388,
      "▁लग": 1389,
      "▁उनके": 1390,
      "्ल": 1391,
      "▁सभी": 1392,
      "▁पुलिस": 1393,
      "▁सकते": 1394,
      "वर": 1395,
      "ष्": 1396,
      "ंह": 1397,
      "क्षा": 1398,
      "िका": 1399,
      "ोक": 1400,
      "▁अं": 1401,
      "▁विक": 1402,
      "्यू": 1403,
      "जन": 1404,
      "▁साल": 1405,
      "वे": 1406,
      "▁उन्हें": 1407,
      "श्": 1408,
      "चा": 1409,
      "▁हुई": 1410,
      "ुप": 1411,
      "धान": 1412,
      "वन": 1413,
      "▁शुर": 1414,
      "▁माम": 1415,
      "▁नाम": 1416,
      "▁हैं.": 1417,
      "क्ति": 1418,
      "▁3": 1419,
      "ंप": 1420,
      "्ञ": 1421,
      "▁क्या": 1422,
      "वं": 1423,
      "▁ऑ": 1424,
      "▁मान": 1425,
      "▁फिर": 1426,
      "▁फिल": 1427,
      "ारे": 1428,
      "बी": 1429,
      "मे": 1430,
      "बंध": 1431,
      "▁पार": 1432,
      "▁हा": 1433,
      "▁आज": 1434,
      "▁हर": 1435,
      "00": 1436,
      "▁हैं।\n": 1437,
      "▁पु": 1438,
      "▁ना": 1439,
      "▁पहु": 1440,
      "▁लेकर": 1441,
      "धार": 1442,
      "ूर्": 1443,
      "िट": 1444,
      "▁साम": 1445,
      "▁बै": 1446,
      "भाव": 1447,
      "▁कारण": 1448,
      "▁जि": 1449,
      "ेत्र": 1450,
      "क्स": 1451,
      "िल्": 1452,
      "▁होगा": 1453,
      "जे": 1454,
      "स्ता": 1455,
      "▁मुख": 1456,
      "मार": 1457,
      "ोट": 1458,
      "▁बन": 1459,
      "▁गु": 1460,
      "प्र": 1461,
      "र्थ": 1462,
      "▁चाहिए": 1463,
      "▁दि": 1464,
      "पर": 1465,
      "▁घर": 1466,
      "ोर": 1467,
      "▁खु": 1468,
      "▁सिंह": 1469,
      "▁बताया": 1470,
      "▁क्यों": 1471,
      "ब्": 1472,
      "▁क्षेत्र": 1473,
      "▁अव": 1474,
      "▁चल": 1475,
      "म्म": 1476,
      "▁दौर": 1477,
      "▁दूस": 1478,
      "▁मै": 1479,
      "▁ग्र": 1480,
      "ृत": 1481,
      "▁जन": 1482,
      "▁सह": 1483,
      "▁सबसे": 1484,
      "▁लि": 1485,
      "▁करता": 1486,
      "न्न": 1487,
      "एं": 1488,
      "▁फिल्म": 1489,
      "ंस": 1490,
      "▁पि": 1491,
      "ून": 1492,
      "िवार": 1493,
      "वाल": 1494,
      "डी": 1495,
      "▁ता": 1496,
      "▁जाने": 1497,
      "▁स्व": 1498,
      "्यम": 1499,
      "▁हाल": 1500,
      "ोड़": 1501,
      "▁बु": 1502,
      "▁उसे": 1503,
      "्टी": 1504,
      "तीय": 1505,
      "▁पहुंच": 1506,
      "▁दर्": 1507,
      "▁पास": 1508,
      "▁आपको": 1509,
      "त्व": 1510,
      "▁शिक": 1511,
      "सार": 1512,
      "टा": 1513,
      "▁अभ": 1514,
      "▁तथा": 1515,
      "▁मन": 1516,
      "..": 1517,
      "▁यु": 1518,
      "▁लिया": 1519,
      "ीड": 1520,
      "▁होती": 1521,
      "दार": 1522,
      "▁सू": 1523,
      "पुर": 1524,
      "▁बच्च": 1525,
      "▁जु": 1526,
      "▁5": 1527,
      "▁दौरान": 1528,
      "▁पै": 1529,
      "▁ठ": 1530,
      "▁शाम": 1531,
      "दे": 1532,
      "▁उसके": 1533,
      "फी": 1534,
      "▁वा": 1535,
      "▁अच्छ": 1536,
      "▁बीच": 1537,
      "्रेस": 1538,
      "▁वर्ष": 1539,
      "यर": 1540,
      "▁जर": 1541,
      "तु": 1542,
      "▁शुरू": 1543,
      "ूम": 1544,
      "सर": 1545,
      "▁अन्य": 1546,
      "▁दोनों": 1547,
      "▁एवं": 1548,
      "▁राज्य": 1549,
      "▁निक": 1550,
      "▁क्र": 1551,
      "दान": 1552,
      "▁खिला": 1553,
      "▁परि": 1554,
      "क्ट": 1555,
      "▁झ": 1556,
      "▁नी": 1557,
      "रण": 1558,
      "शी": 1559,
      "▁स्ट": 1560,
      "▁इं": 1561,
      "नि": 1562,
      "वल": 1563,
      "एस": 1564,
      "▁उनकी": 1565,
      "त्म": 1566,
      "सान": 1567,
      "मु": 1568,
      "ैन": 1569,
      "\\n": 1570,
      "▁स्थित": 1571,
      "ेंद्र": 1572,
      "कारी": 1573,
      "ज्ञ": 1574,
      "▁ऐसे": 1575,
      "्यादा": 1576,
      "र्स": 1577,
      "▁महिला": 1578,
      "ेष": 1579,
      "नाव": 1580,
      "िल्ली": 1581,
      "जर": 1582,
      "जार": 1583,
      "िये": 1584,
      "श्य": 1585,
      "▁कै": 1586,
      "ाई": 1587,
      "▁4": 1588,
      "▁आई": 1589,
      "ाने": 1590,
      "एम": 1591,
      "▁स्वा": 1592,
      "धी": 1593,
      "ूं": 1594,
      "▁थी।": 1595,
      "हार": 1596,
      "▁बारे": 1597,
      "▁।\n": 1598,
      "क्रम": 1599,
      "▁बद": 1600,
      "▁आय": 1601,
      "▁वाली": 1602,
      "▁थे।": 1603,
      "▁रुप": 1604,
      "▁प्रदेश": 1605,
      "ंट": 1606,
      "स्था": 1607,
      "▁अल": 1608,
      "्रीय": 1609,
      "▁टीम": 1610,
      "झे": 1611,
      "चित": 1612,
      "▁यहां": 1613,
      "प्": 1614,
      "लों": 1615,
      "▁अपना": 1616,
      "▁ई": 1617,
      "▁दिल्ली": 1618,
      "▁ज्यादा": 1619,
      "▁रो": 1620,
      "▁तै": 1621,
      "न्द": 1622,
      "ुक": 1623,
      "▁गां": 1624,
      "▁ऐसा": 1625,
      "▁अगर": 1626,
      "▁फै": 1627,
      "वाद": 1628,
      "ियां": 1629,
      "▁मामले": 1630,
      "लिए": 1631,
      "्रा": 1632,
      "▁201": 1633,
      "▁इसे": 1634,
      "ताओं": 1635,
      "टना": 1636,
      "ेंगे": 1637,
      "स्प": 1638,
      "▁राष्ट": 1639,
      "▁भारतीय": 1640,
      "ाप्त": 1641,
      "▁शामिल": 1642,
      "्ड": 1643,
      "जू": 1644,
      "▁समझ": 1645,
      "ंक": 1646,
      "गत": 1647,
      "हत": 1648,
      "▁तु": 1649,
      "गा।": 1650,
      "िम": 1651,
      "▁देने": 1652,
      "गी।": 1653,
      "दर्": 1654,
      "चना": 1655,
      "▁निय": 1656,
      "▁समा": 1657,
      "ाली": 1658,
      "वास": 1659,
      "▁सकती": 1660,
      "▁जैसे": 1661,
      "ोजना": 1662,
      "▁श्री": 1663,
      "त्य": 1664,
      "▁जाती": 1665,
      "▁अग": 1666,
      "णा": 1667,
      "▁आरो": 1668,
      "▁ओर": 1669,
      "ोन": 1670,
      "▁बैठ": 1671,
      "द्य": 1672,
      "▁क्योंकि": 1673,
      "इस": 1674,
      "ंब": 1675,
      "▁वै": 1676,
      "▁प्रा": 1677,
      "ियो": 1678,
      "▁किए": 1679,
      "आई": 1680,
      "▁शु": 1681,
      "▁वो": 1682,
      "▁विशेष": 1683,
      "▁काफी": 1684,
      "निया": 1685,
      "भाग": 1686,
      "धा": 1687,
      "▁जीवन": 1688,
      "▁गो": 1689,
      "▁सुर": 1690,
      "▁बो": 1691,
      "▁शा": 1692,
      "ेज": 1693,
      "▁होते": 1694,
      "▁इसी": 1695,
      "▁कॉ": 1696,
      "▁कंप": 1697,
      "▁महा": 1698,
      "लय": 1699,
      "▁व्या": 1700,
      "वान": 1701,
      "▁उठ": 1702,
      "▁डि": 1703,
      "▁था,": 1704,
      "ोष": 1705,
      "▁डॉ": 1706,
      "▁प्रकार": 1707,
      "▁गया।": 1708,
      "▁कांग": 1709,
      "▁है.\n": 1710,
      "ोर्ट": 1711,
      "▁ऊ": 1712,
      "▁संबंध": 1713,
      "▁पूर्व": 1714,
      "तिक": 1715,
      "र्ड": 1716,
      "कर्": 1717,
      "त्रा": 1718,
      "▁इसलिए": 1719,
      "▁चुनाव": 1720,
      "▁अनुसार": 1721,
      "▁पार्टी": 1722,
      "करण": 1723,
      "लो": 1724,
      "▁उपयोग": 1725,
      "ुरु": 1726,
      "▁जानकारी": 1727,
      "स्क": 1728,
      "▁आव": 1729,
      "▁तीन": 1730,
      "▁तैय": 1731,
      "▁ट्र": 1732,
      "ूर्ण": 1733,
      "माण": 1734,
      "▁मुझे": 1735,
      "▁व्यक्ति": 1736,
      "▁अध्य": 1737,
      "▁कांग्रेस": 1738,
      "▁19": 1739,
      "▁पड़": 1740,
      "▁इससे": 1741,
      "▁वहीं": 1742,
      "▁ब्र": 1743,
      "िता": 1744,
      "▁पूरी": 1745,
      "ंत": 1746,
      "▁सामने": 1747,
      "दन": 1748,
      "▁केवल": 1749,
      "क्टर": 1750,
      "▁खिलाफ": 1751,
      "श्यक": 1752,
      "▁शिक्ष": 1753,
      "▁चौ": 1754,
      "▁6": 1755,
      "धिक": 1756,
      "वाई": 1757,
      "▁जारी": 1758,
      "ार्थ": 1759,
      "तों": 1760,
      "▁पद": 1761,
      "▁ली": 1762,
      "▁तब": 1763,
      "ेशन": 1764,
      "▁मार्": 1765,
      "▁यदि": 1766,
      "▁व्यव": 1767,
      "▁संग": 1768,
      "▁आपके": 1769,
      "▁स्क": 1770,
      "ेंट": 1771,
      "पूर्ण": 1772,
      "त्या": 1773,
      "▁जग": 1774,
      "▁सफ": 1775,
      "▁कुमार": 1776,
      "▁प्राप्त": 1777,
      "ष्ठ": 1778,
      "▁में,": 1779,
      "▁स्प": 1780,
      "▁202": 1781,
      "चे": 1782,
      "▁आवश्यक": 1783,
      "▁चे": 1784,
      "हाँ": 1785,
      "▁जिन": 1786,
      "ची": 1787,
      "▁अभी": 1788,
      "▁अला": 1789,
      "शा": 1790,
      "ख्या": 1791,
      "▁सुन": 1792,
      "▁खा": 1793,
      "▁प्रे": 1794,
      "▁रे": 1795,
      "▁परिवार": 1796,
      "▁मद": 1797,
      "▁लड़": 1798,
      "▁आने": 1799,
      "?\n": 1800,
      "ोध": 1801,
      "▁कप": 1802,
      "▁हों": 1803,
      "▁यू": 1804,
      "▁याद": 1805,
      "▁दें": 1806,
      "▁विकास": 1807,
      "तन": 1808,
      "फ़": 1809,
      "▁जिसमें": 1810,
      "रिक": 1811,
      "▁पिछ": 1812,
      "▁बल्": 1813,
      "▁अस": 1814,
      "▁कभी": 1815,
      "▁हे": 1816,
      "▁योग": 1817,
      "भव": 1818,
      "ायर": 1819,
      "▁प्रश": 1820,
      "▁योजना": 1821,
      "र्क": 1822,
      "▁आगे": 1823,
      "▁अलावा": 1824,
      "्यान": 1825,
      "▁चार": 1826,
      "▁छा": 1827,
      "▁10": 1828,
      "▁अलग": 1829,
      "▁विश्व": 1830,
      "तना": 1831,
      "▁जै": 1832,
      "धि": 1833,
      "▁लाख": 1834,
      "▁आदि": 1835,
      "▁दिखा": 1836,
      "▁था.": 1837,
      "ाला": 1838,
      "ुक्त": 1839,
      "▁आए": 1840,
      "▁मंत्री": 1841,
      "▁भर": 1842,
      "▁किया।": 1843,
      "▁उनका": 1844,
      "▁जाते": 1845,
      "▁टे": 1846,
      "▁करती": 1847,
      "तार": 1848,
      "ल्प": 1849,
      "▁पत्र": 1850,
      "▁ची": 1851,
      "▁हमारे": 1852,
      "▁बड़ी": 1853,
      "▁इसका": 1854,
      "स्तान": 1855,
      "▁अधिकार": 1856,
      "ांकि": 1857,
      "िले": 1858,
      "▁7": 1859,
      "▁करे": 1860,
      "▁हूं": 1861,
      "▁दर": 1862,
      "हित": 1863,
      "▁आम": 1864,
      "ूट": 1865,
      "णी": 1866,
      "▁हाथ": 1867,
      "▁एस": 1868,
      "▁मांग": 1869,
      "ध्य": 1870,
      "रोना": 1871,
      "▁गिर": 1872,
      "▁आधार": 1873,
      "▁जांच": 1874,
      "▁पानी": 1875,
      "▁दा": 1876,
      "▁लोक": 1877,
      "क्षण": 1878,
      "▁बनाने": 1879,
      "▁पढ़": 1880,
      "ंबर": 1881,
      "▁जहां": 1882,
      "बू": 1883,
      "▁घटना": 1884,
      "▁मदद": 1885,
      "▁मत": 1886,
      "्यालय": 1887,
      "्यमंत्री": 1888,
      "▁आरोप": 1889,
      "लि": 1890,
      "▁बेह": 1891,
      "यी": 1892,
      "ेंद": 1893,
      "ग्र": 1894,
      "सभा": 1895,
      "▁इस्": 1896,
      "▁बाहर": 1897,
      "▁इसमें": 1898,
      "▁स्थान": 1899,
      "स्या": 1900,
      "र्फ": 1901,
      "▁उसकी": 1902,
      "जूद": 1903,
      "इन": 1904,
      "▁सद": 1905,
      "▁विभाग": 1906,
      "▁राम": 1907,
      "▁पता": 1908,
      "▁करोड़": 1909,
      "▁कोरोना": 1910,
      "▁ती": 1911,
      "▁दूसरे": 1912,
      "▁प्रभाव": 1913,
      "षा": 1914,
      "▁ध्यान": 1915,
      "▁तैयार": 1916,
      "र्य": 1917,
      "▁ज़": 1918,
      "▁चला": 1919,
      "▁अम": 1920,
      "▁मोदी": 1921,
      "▁‘": 1922,
      "▁मज": 1923,
      "राज": 1924,
      "▁स्थिति": 1925,
      "▁:": 1926,
      "ेद": 1927,
      "मुख": 1928,
      "ासन": 1929,
      "▁इला": 1930,
      "▁प्रधान": 1931,
      "▁किसान": 1932,
      "पाल": 1933,
      "जपा": 1934,
      "▁बड़े": 1935,
      "ंगे": 1936,
      "िन्न": 1937,
      "काश": 1938,
      "▁खेल": 1939,
      "▁इंड": 1940,
      "▁आया": 1941,
      "▁कृ": 1942,
      "▁मीड": 1943,
      "▁पां": 1944,
      "▁करी": 1945,
      "▁हालांकि": 1946,
      "▁भाग": 1947,
      "▁कान": 1948,
      "▁8": 1949,
      "▁विचार": 1950,
      "▁मीडिया": 1951,
      "▁मुख्य": 1952,
      "ताब": 1953,
      "हम": 1954,
      "ंदर": 1955,
      "▁गा": 1956,
      "न्द्र": 1957,
      "▁जाना": 1958,
      "▁मिला": 1959,
      "▁छो": 1960,
      "▁ढ": 1961,
      "ाइन": 1962,
      "▁रुपये": 1963,
      "▁अध्यक्ष": 1964,
      "हन": 1965,
      "▁जरूर": 1966,
      "▁करके": 1967,
      "ियर": 1968,
      "▁उत्तर": 1969,
      "▁श्र": 1970,
      "▁जगह": 1971,
      "▁दिनों": 1972,
      "जों": 1973,
      "▁दुनिया": 1974,
      "ियन": 1975,
      "जह": 1976,
      "▁पिछले": 1977,
      "▁नई": 1978,
      "्ला": 1979,
      "ोजन": 1980,
      "▁शे": 1981,
      "▁कहा,": 1982,
      "▁मिले": 1983,
      "▁१": 1984,
      "▁सर्व": 1985,
      "▁समस्या": 1986,
      "सल": 1987,
      "▁देते": 1988,
      "वेश": 1989,
      "▁भाजपा": 1990,
      "शल": 1991,
      "सि": 1992,
      "▁समाज": 1993,
      "▁अमे": 1994,
      "▁रिप": 1995,
      "▁खुद": 1996,
      "भग": 1997,
      "▁सेवा": 1998,
      "काल": 1999,
      "▁व्याप": 2000,
      "मेंट": 2001,
      "िज": 2002,
      "तम": 2003,
      "ूरी": 2004,
      "▁मुख्यमंत्री": 2005,
      "आर": 2006,
      "▁गांव": 2007,
      "ैंड": 2008,
      "▁वाला": 2009,
      "▁कर्म": 2010,
      "श्व": 2011,
      "▁केंद्र": 2012,
      "▁लिये": 2013,
      "▁आर": 2014,
      "▁रहने": 2015,
      "▁महत्व": 2016,
      "▁दूर": 2017,
      "▁शहर": 2018,
      "▁बॉ": 2019,
      "यन": 2020,
      "▁वजह": 2021,
      "▁जिसके": 2022,
      "▁पूरा": 2023,
      "▁मेरे": 2024,
      "िश्": 2025,
      "ित्र": 2026,
      "▁जबकि": 2027,
      "▁बंद": 2028,
      "▁कैसे": 2029,
      "ताल": 2030,
      "▁पे": 2031,
      "▁दर्ज": 2032,
      "▁9": 2033,
      "डे": 2034,
      "▁बड़ा": 2035,
      "▁जिला": 2036,
      "▁पत्": 2037,
      "म्मी": 2038,
      "▁धर्म": 2039,
      "ष्य": 2040,
      "राम": 2041,
      "▁प्रो": 2042,
      "ुआ": 2043,
      "रीर": 2044,
      "▁मूल": 2045,
      "र्ष": 2046,
      "शि": 2047,
      "ीय": 2048,
      "ायक": 2049,
      "▁कंपनी": 2050,
      "▁होना": 2051,
      "▁नजर": 2052,
      "▁मही": 2053,
      "ाया": 2054,
      "मंत्री": 2055,
      "माल": 2056,
      "▁दिए": 2057,
      "▁बिना": 2058,
      "▁ऐसी": 2059,
      "▁परी": 2060,
      "▁छोड़": 2061,
      "जय": 2062,
      "▁हिस्": 2063,
      "▁बच्चों": 2064,
      "▁उसने": 2065,
      "व्य": 2066,
      "▁डे": 2067,
      "▁मैच": 2068,
      "▁सौ": 2069,
      "-प": 2070,
      "▁डी": 2071,
      "ध्यम": 2072,
      "▁बैं": 2073,
      "▁नौ": 2074,
      "बे": 2075,
      "स्थ्य": 2076,
      "फ्त": 2077,
      "दों": 2078,
      "ीक": 2079,
      "▁हजार": 2080,
      "▁बस": 2081,
      "▁हमें": 2082,
      "यास": 2083,
      "▁मां": 2084,
      "कु": 2085,
      "▁संख्या": 2086,
      "▁दिया।": 2087,
      "▁पो": 2088,
      "श्च": 2089,
      "▁राष्ट्र": 2090,
      "▁सम्": 2091,
      "ज्ञान": 2092,
      "▁अच्छा": 2093,
      "तान": 2094,
      "रों": 2095,
      "▁लाभ": 2096,
      "▁विध": 2097,
      "▁कल": 2098,
      "डा": 2099,
      "र्ण": 2100,
      "स्थित": 2101,
      "▁वीड": 2102,
      "▁नए": 2103,
      "▁बाल": 2104,
      "ायत": 2105,
      "▁वहां": 2106,
      "▁आस": 2107,
      "▁करेंगे": 2108,
      "▁पूछ": 2109,
      "▁पं": 2110,
      "▁तहत": 2111,
      "ीर": 2112,
      "▁चि": 2113,
      "▁भाव": 2114,
      "▁लगभग": 2115,
      "बाद": 2116,
      "▁कौ": 2117,
      "▁कार्यक्रम": 2118,
      "इट": 2119,
      "▁रिपोर्ट": 2120,
      "▁इसकी": 2121,
      "▁उत्पा": 2122,
      "वरी": 2123,
      "▁खे": 2124,
      "ंज": 2125,
      "▁लगे": 2126,
      "त्री": 2127,
      "▁आद": 2128,
      "▁उसका": 2129,
      "▁फ़": 2130,
      "▁सम्म": 2131,
      "▁लेने": 2132,
      "▁कोश": 2133,
      "ेंस": 2134,
      "▁विभ": 2135,
      "ुन": 2136,
      "▁करीब": 2137,
      "दर्शन": 2138,
      "▁जिससे": 2139,
      "ृति": 2140,
      "ंगल": 2141,
      "▁जाएगा": 2142,
      "सम": 2143,
      "▁)": 2144,
      "▁शरीर": 2145,
      "ियम": 2146,
      "in": 2147,
      "▁अर्": 2148,
      "▁नेता": 2149,
      "्ले": 2150,
      "▁स्वास्थ्य": 2151,
      "▁वीडियो": 2152,
      "ृष्ट": 2153,
      "▁लिख": 2154,
      "बह": 2155,
      "▁ग्राम": 2156,
      "an": 2157,
      "▁15": 2158,
      "स्थान": 2159,
      "▁भूम": 2160,
      "▁सुरक्षा": 2161,
      "ंदी": 2162,
      "वाह": 2163,
      "ूँ": 2164,
      "▁जल": 2165,
      "ाइल": 2166,
      "हरा": 2167,
      "▁होगी": 2168,
      "▁उम्मी": 2169,
      "▁अस्प": 2170,
      "▁स्कूल": 2171,
      "त्ता": 2172,
      "▁निर्माण": 2173,
      "मत": 2174,
      "▁शर्": 2175,
      "▁सदस": 2176,
      "▁सच": 2177,
      "▁शिक्षा": 2178,
      "▁ऑफ": 2179,
      "▁राजनी": 2180,
      "▁12": 2181,
      "▁रात": 2182,
      "मो": 2183,
      "त्मक": 2184,
      "▁पहली": 2185,
      "▁न्या": 2186,
      "▁मार": 2187,
      "▁ते": 2188,
      "▁जल्": 2189,
      "▁थी.": 2190,
      "▁जीत": 2191,
      "▁शिव": 2192,
      "▁होगा।": 2193,
      "▁शादी": 2194,
      "▁कहना": 2195,
      "▁डाल": 2196,
      "▁देखा": 2197,
      "षण": 2198,
      "▁सिर्फ": 2199,
      "ंगा": 2200,
      "बल": 2201,
      "▁उम्मीद": 2202,
      "ग्": 2203,
      "▁माल": 2204,
      "▁जिले": 2205,
      "▁अधिकारी": 2206,
      "▁मौत": 2207,
      "▁फैस": 2208,
      "▁यही": 2209,
      "▁फी": 2210,
      "र्च": 2211,
      "▁खरी": 2212,
      "ल्ड": 2213,
      "▁खान": 2214,
      "ण्ड": 2215,
      "कान": 2216,
      "▁था।\n": 2217,
      "द्धि": 2218,
      "▁माध्यम": 2219,
      "▁पूरे": 2220,
      "▁पाकि": 2221,
      "▁मंद": 2222,
      "▁सामान": 2223,
      "▁निर्देश": 2224,
      "▁तरी": 2225,
      "▁स्तर": 2226,
      "▁विभिन्न": 2227,
      "▁ट्रे": 2228,
      "चान": 2229,
      "ुट": 2230,
      "राब": 2231,
      "त्रों": 2232,
      "▁गई।": 2233,
      "▁थीं": 2234,
      "▁तरफ": 2235,
      "▁सके": 2236,
      "▁कोर्ट": 2237,
      "र्चा": 2238,
      "मारी": 2239,
      "ैल": 2240,
      "▁भग": 2241,
      "पति": 2242,
      "▁विष": 2243,
      "▁बल्कि": 2244,
      "▁न्यू": 2245,
      "▁मुताब": 2246,
      "▁कहते": 2247,
      "▁वृ": 2248,
      "▁चाहिए।": 2249,
      "▁कोशिश": 2250,
      "▁उद": 2251,
      "▁मुताबिक": 2252,
      "▁विरो": 2253,
      "▁पांच": 2254,
      "▁राष्ट्रीय": 2255,
      "▁प्रधानमंत्री": 2256,
      "▁दिल": 2257,
      "▁धन": 2258,
      "▁उपल": 2259,
      "▁कुल": 2260,
      "▁अर": 2261,
      "शत": 2262,
      "▁मिली": 2263,
      "▁घोष": 2264,
      "मन": 2265,
      "▁अच्छी": 2266,
      "बार": 2267,
      "▁सफल": 2268,
      "▁ज्ञ": 2269,
      "त्ति": 2270,
      "▁वाप": 2271,
      "र्या": 2272,
      "न्म": 2273,
      "▁मि": 2274,
      "▁लेख": 2275,
      "▁की।": 2276,
      "▁प्रमुख": 2277,
      "▁चाहते": 2278,
      "ेक": 2279,
      "▁बच्चे": 2280,
      "स्तव": 2281,
      "▁पुर": 2282,
      "▁रोक": 2283,
      "हास": 2284,
      "▁मी": 2285,
      "▁थी,": 2286,
      "▁रखा": 2287,
      "▁जनता": 2288,
      "▁अंतर": 2289,
      "▁बदल": 2290,
      "▁उपलब्": 2291,
      "रि": 2292,
      "▁महत्वपूर्ण": 2293,
      "▁नियम": 2294,
      "-अ": 2295,
      "▁मंदिर": 2296,
      "▁लॉ": 2297,
      "▁ठीक": 2298,
      "▁सही": 2299,
      "▁संघ": 2300,
      "▁स्था": 2301,
      "▁सवाल": 2302,
      "तेमाल": 2303,
      "▁थे,": 2304,
      "ालय": 2305,
      "ांत": 2306,
      "▁तौर": 2307,
      "▁जिसे": 2308,
      "▁खबर": 2309,
      "▁इस्तेमाल": 2310,
      "▁अति": 2311,
      "▁दूसरी": 2312,
      "युक्त": 2313,
      "▁तुम": 2314,
      "▁एन": 2315,
      "▁विधान": 2316,
      "हाय": 2317,
      "▁रखने": 2318,
      "▁लगता": 2319,
      "पित": 2320,
      "▁पाल": 2321,
      "▁नगर": 2322,
      "▁प्रदान": 2323,
      "▁वित": 2324,
      "▁वायर": 2325,
      "यान": 2326,
      "20": 2327,
      "▁रंग": 2328,
      "ar": 2329,
      "भार": 2330,
      "मिक": 2331,
      "टक": 2332,
      "▁पेश": 2333,
      "▁देखने": 2334,
      "▁महीने": 2335,
      "ंख": 2336,
      "▁उच्च": 2337,
      "स्वी": 2338,
      "▁पस": 2339,
      "नाथ": 2340,
      "▁अंत": 2341,
      "एल": 2342,
      "▁लगातार": 2343,
      "▁माना": 2344,
      "पन": 2345,
      "्वी": 2346,
      "▁प्रकाश": 2347,
      "न्होंने": 2348,
      "▁मैंने": 2349,
      "▁अस्पताल": 2350,
      "▁,": 2351,
      "▁देता": 2352,
      "▁गै": 2353,
      "▁पिता": 2354,
      "▁मंत्र": 2355,
      "▁बचा": 2356,
      "तनी": 2357,
      "▁पीछ": 2358,
      "▁अभि": 2359,
      "▁राशि": 2360,
      "▁शब्": 2361,
      "▁उम": 2362,
      "▁विदेश": 2363,
      "धन": 2364,
      "भर": 2365,
      "वासी": 2366,
      "▁बजे": 2367,
      "▁बैंक": 2368,
      "एन": 2369,
      "▁प्रदर्शन": 2370,
      "वर्": 2371,
      "▁चा": 2372,
      "▁मौजूद": 2373,
      "▁प्रत्य": 2374,
      "▁चुके": 2375,
      "▁दिव": 2376,
      "▁विषय": 2377,
      "ॉल": 2378,
      "▁प्रयास": 2379,
      "...": 2380,
      "▁बढ़ा": 2381,
      "▁गांधी": 2382,
      "▁शुरुआ": 2383,
      "▁पाकिस्तान": 2384,
      "▁होंगे": 2385,
      "▁अर्थ": 2386,
      ")\n": 2387,
      "▁यादव": 2388,
      "तिहास": 2389,
      "▁संप": 2390,
      "▁उपलब्ध": 2391,
      "ग्री": 2392,
      "क्रिया": 2393,
      "▁गर्": 2394,
      "क्षित": 2395,
      "▁लिखा": 2396,
      "लाई": 2397,
      "▁दिख": 2398,
      "यं": 2399,
      "▁बनाया": 2400,
      "▁व्यवस्था": 2401,
      "▁दल": 2402,
      "\"\n": 2403,
      "-1": 2404,
      "ड़क": 2405,
      "▁डा": 2406,
      "ें।": 2407,
      "▁जे": 2408,
      "न्तु": 2409,
      "कट": 2410,
      "एक": 2411,
      "▁गुरु": 2412,
      "▁गये": 2413,
      "er": 2414,
      "ेशा": 2415,
      "▁देव": 2416,
      "▁समर्थ": 2417,
      "▁आवश्यकता": 2418,
      "▁नर": 2419,
      "▁सुबह": 2420,
      "▁अफ": 2421,
      "वाब": 2422,
      "ात": 2423,
      "▁बैठक": 2424,
      "▁गल": 2425,
      "ष्ण": 2426,
      "द्योग": 2427,
      "▁आपकी": 2428,
      "▁रन": 2429,
      "ठन": 2430,
      "▁गं": 2431,
      "श्म": 2432,
      "▁S": 2433,
      "on": 2434,
      "▁‘‘": 2435,
      "यह": 2436,
      "▁उसी": 2437,
      "▁सोच": 2438,
      "▁लाल": 2439,
      "म्ह": 2440,
      "ंटे": 2441,
      "▁गयी": 2442,
      "▁थो": 2443,
      "▁शी": 2444,
      "▁11": 2445,
      "▁लो": 2446,
      "द्यालय": 2447,
      "उन": 2448,
      "▁सेना": 2449,
      "ल्स": 2450,
      "▁सहाय": 2451,
      "▁लिए,": 2452,
      "▁बाजार": 2453,
      "▁नही": 2454,
      "▁शर्मा": 2455,
      "ूब": 2456,
      "▁यात्रा": 2457,
      "ंदा": 2458,
      "लब": 2459,
      "क्शन": 2460,
      "जिक": 2461,
      "्यो": 2462,
      "▁महिलाओं": 2463,
      "ंका": 2464,
      "ड़ों": 2465,
      "न्त": 2466,
      "▁पक्ष": 2467,
      "▁किस": 2468,
      "▁प्रतिशत": 2469,
      "▁गति": 2470,
      "!\n": 2471,
      "▁जन्म": 2472,
      "▁गिरफ्त": 2473,
      "’’": 2474,
      "▁C": 2475,
      "▁ख़": 2476,
      "दम": 2477,
      "▁बच": 2478,
      "ेंड": 2479,
      "▁सूचना": 2480,
      "▁भाषा": 2481,
      "▁मध्य": 2482,
      "▁सीट": 2483,
      "▁रहते": 2484,
      "विधा": 2485,
      "▁सहित": 2486,
      "▁बज": 2487,
      "तंत्र": 2488,
      "▁अधिकारियों": 2489,
      "▁लक्ष": 2490,
      "▁मेरी": 2491,
      "खंड": 2492,
      "गढ़": 2493,
      "▁राह": 2494,
      "▁वास्तव": 2495,
      "▁हैं.\n": 2496,
      "▁थे.": 2497,
      "▁हमेशा": 2498,
      "▁परेश": 2499,
      "कृत": 2500,
      "▁?": 2501,
      "पू": 2502,
      "भीर": 2503,
      "▁अंग": 2504,
      "▁जाएगा।": 2505,
      "▁स्वी": 2506,
      "▁पीछे": 2507,
      "▁चर्चा": 2508,
      "▁रु": 2509,
      "▁आदेश": 2510,
      "▁लाइ": 2511,
      "▁बनाए": 2512,
      "▁भू": 2513,
      "▁भगवान": 2514,
      "हि": 2515,
      "▁जरूरत": 2516,
      "▁युव": 2517,
      "▁निकल": 2518,
      "तियों": 2519,
      "टन": 2520,
      "कल": 2521,
      "▁रोज": 2522,
      "▁प्रक्रिया": 2523,
      "तरा": 2524,
      "▁॥": 2525,
      "▁परीक्षा": 2526,
      "▁मिश": 2527,
      "▁सोशल": 2528,
      "मता": 2529,
      "▁कर्": 2530,
      "▁खास": 2531,
      "▁होकर": 2532,
      "▁सिद्ध": 2533,
      "at": 2534,
      "▁ऊपर": 2535,
      "तः": 2536,
      "ूह": 2537,
      "▁कार्र": 2538,
      "▁पक": 2539,
      "लाह": 2540,
      "▁परिव": 2541,
      "शु": 2542,
      "वादी": 2543,
      "न्हें": 2544,
      "चाल": 2545,
      "▁बेहतर": 2546,
      "▁एम": 2547,
      "ैक": 2548,
      "सं": 2549,
      "▁सीमा": 2550,
      "▁चुकी": 2551,
      "▁देना": 2552,
      "रिका": 2553,
      "णाम": 2554,
      "गल": 2555,
      "▁कार्रवाई": 2556,
      "क्सी": 2557,
      "चर": 2558,
      "हाल": 2559,
      "▁युवा": 2560,
      "▁A": 2561,
      "यू": 2562,
      "▁200": 2563,
      "▁लगाया": 2564,
      "▁कमी": 2565,
      "▁कहीं": 2566,
      "▁18": 2567,
      "िटी": 2568,
      "▁रुपए": 2569,
      "▁फे": 2570,
      "▁उद्": 2571,
      "▁व्यापार": 2572,
      "▁मिलने": 2573,
      "▁ड्र": 2574,
      "▁धार": 2575,
      "-क": 2576,
      "▁समु": 2577,
      "ंबई": 2578,
      "▁शेयर": 2579,
      "▁मृत": 2580,
      "▁विधानसभा": 2581,
      "िली": 2582,
      "▁तेज": 2583,
      "तने": 2584,
      "▁ब्ल": 2585,
      "न,": 2586,
      "▁मना": 2587,
      "▁देखते": 2588,
      "▁एक्स": 2589,
      "▁विप": 2590,
      "▁खरीद": 2591,
      "दाय": 2592,
      "▁पंच": 2593,
      "▁इतना": 2594,
      "▁रि": 2595,
      "▁करें।": 2596,
      "▁बोल": 2597,
      "▁तुम्ह": 2598,
      "▁बने": 2599,
      "▁अवसर": 2600,
      "▁मामला": 2601,
      "नर": 2602,
      "▁आग": 2603,
      "जेपी": 2604,
      "धे": 2605,
      "▁प्य": 2606,
      "▁भाई": 2607,
      "▁समान": 2608,
      "▁पत्नी": 2609,
      "िकेट": 2610,
      "िक्ष": 2611,
      "▁बिहार": 2612,
      "▁पसंद": 2613,
      "▁लौ": 2614,
      "▁फर": 2615,
      "मति": 2616,
      "▁देशों": 2617,
      "ुड": 2618,
      "▁किसानों": 2619,
      "000": 2620,
      "▁संभाव": 2621,
      "▁पोस्ट": 2622,
      "▁शो": 2623,
      "किल": 2624,
      "▁लगी": 2625,
      "▁जवाब": 2626,
      "▁वन": 2627,
      "▁विरोध": 2628,
      "▁उठा": 2629,
      "▁भु": 2630,
      "▁सुविधा": 2631,
      "▁संक्रम": 2632,
      "ंद्र": 2633,
      "जि": 2634,
      "लाइन": 2635,
      "▁पति": 2636,
      "▁इंटर": 2637,
      "▁रहता": 2638,
      "▁गेंद": 2639,
      "गू": 2640,
      "▁हमारी": 2641,
      "▁चुन": 2642,
      "▁रू": 2643,
      "▁चलते": 2644,
      "▁प्रशासन": 2645,
      "▁गंभीर": 2646,
      "ार्ड": 2647,
      "▁ताकि": 2648,
      "नीय": 2649,
      "▁गुण": 2650,
      "मि": 2651,
      "▁सर्": 2652,
      "▁स्पष्ट": 2653,
      "),": 2654,
      "▁पूर्ण": 2655,
      "▁वाह": 2656,
      "▁मौके": 2657,
      "ोजित": 2658,
      "फा": 2659,
      "▁चुका": 2660,
      "▁शक्ति": 2661,
      "▁इंडिया": 2662,
      "▁सदस्य": 2663,
      "▁आख": 2664,
      "▁दक्ष": 2665,
      "्रम": 2666,
      "ेंगे।": 2667,
      "▁चीन": 2668,
      "▁पड़ा": 2669,
      "साय": 2670,
      "▁टेस्ट": 2671,
      "र्थिक": 2672,
      "पु": 2673,
      "▁अमेरिका": 2674,
      "▁जाय": 2675,
      "▁हत्या": 2676,
      "▁हूँ": 2677,
      "▁वापस": 2678,
      "▁रेल": 2679,
      "▁चिक": 2680,
      "ायल": 2681,
      "▁शुरुआत": 2682,
      "िकों": 2683,
      "गार": 2684,
      "▁है?": 2685,
      "नो": 2686,
      "▁सांस": 2687,
      "िशा": 2688,
      "▁गए।": 2689,
      "▁14": 2690,
      "▁नीचे": 2691,
      "▁अद": 2692,
      "▁मजबू": 2693,
      "▁अप्र": 2694,
      "▁30": 2695,
      "लर": 2696,
      "▁सामान्य": 2697,
      "▁कला": 2698,
      "▁परिणाम": 2699,
      "रीज": 2700,
      "▁बर": 2701,
      "▁सम्मान": 2702,
      "न्ध": 2703,
      "▁P": 2704,
      "षि": 2705,
      "▁क्ल": 2706,
      "▁ऋ": 2707,
      "▁रव": 2708,
      "वेदन": 2709,
      "▁दृष्ट": 2710,
      "▁फ्र": 2711,
      "लू": 2712,
      "▁दू": 2713,
      "▁प्रेम": 2714,
      "ॉप": 2715,
      "क,": 2716,
      "लिया": 2717,
      "हरी": 2718,
      "टेड": 2719,
      "▁दुर्": 2720,
      "▁हाई": 2721,
      "वरण": 2722,
      "अप": 2723,
      "▁सरकारी": 2724,
      "▁आत": 2725,
      "्रो": 2726,
      "▁माह": 2727,
      "▁गि": 2728,
      "झा": 2729,
      "▁आर्थिक": 2730,
      "▁दौ": 2731,
      "▁शाह": 2732,
      "स्त्र": 2733,
      "्यु": 2734,
      "▁खो": 2735,
      "चल": 2736,
      "▁प्रयोग": 2737,
      "▁सहयोग": 2738,
      "▁रोग": 2739,
      "▁मुंबई": 2740,
      "▁बीजेपी": 2741,
      "तृ": 2742,
      "▁फैसला": 2743,
      "स्तु": 2744,
      "ता,": 2745,
      "▁उल्": 2746,
      "त्मा": 2747,
      "▁सैन": 2748,
      "▁हिस्सा": 2749,
      "ित्व": 2750,
      "▁व्यक्त": 2751,
      "▁25": 2752,
      "▁निकाल": 2753,
      "▁यहाँ": 2754,
      "▁हास": 2755,
      "▁पृ": 2756,
      "▁हो,": 2757,
      "▁संबंधित": 2758,
      "▁0": 2759,
      "▁छोटे": 2760,
      "▁करा": 2761,
      "▁दिखाई": 2762,
      "▁बिज": 2763,
      "▁पर्या": 2764,
      "ंभ": 2765,
      "▁बयान": 2766,
      "▁महारा": 2767,
      "िकल": 2768,
      "तक": 2769,
      "▁ज्ञान": 2770,
      "▁युद्ध": 2771,
      "▁साफ": 2772,
      "▁नहीं,": 2773,
      "▁तस्वी": 2774,
      "▁जल्द": 2775,
      "रिया": 2776,
      "ोस": 2777,
      "▁कानून": 2778,
      "▁I": 2779,
      "▁राय": 2780,
      "▁तुल": 2781,
      "es": 2782,
      "▁मुद्": 2783,
      "ट्ट": 2784,
      "▁पुरु": 2785,
      "▁थाना": 2786,
      "जें": 2787,
      "ंसा": 2788,
      "▁.": 2789,
      "▁वालों": 2790,
      "▁रिक": 2791,
      "▁फोन": 2792,
      "▁वही": 2793,
      "एफ": 2794,
      "▁एक्ट": 2795,
      "ांस": 2796,
      "▁पाए": 2797,
      "▁शिकायत": 2798,
      "▁२": 2799,
      "▁जरूरी": 2800,
      "▁भे": 2801,
      "▁दक्षि": 2802,
      "ांति": 2803,
      "▁वी": 2804,
      "▁तीस": 2805,
      "साथ": 2806,
      "्रीम": 2807,
      "▁पुरुष": 2808,
      "▁नया": 2809,
      "बंधन": 2810,
      "▁जमा": 2811,
      "मीन": 2812,
      "रात": 2813,
      "▁अंदर": 2814,
      "▁तेल": 2815,
      "▁मिन": 2816,
      "धर": 2817,
      "फे": 2818,
      "▁गिरफ्तार": 2819,
      "सू": 2820,
      "रु": 2821,
      "▁उम्र": 2822,
      "▁पहचान": 2823,
      "▁कौन": 2824,
      "▁स्वयं": 2825,
      "तमान": 2826,
      "▁सोम": 2827,
      "▁आत्म": 2828,
      "▁अख": 2829,
      "वुड": 2830,
      "▁निर्ण": 2831,
      "ठी": 2832,
      "▁देर": 2833,
      "▁मॉ": 2834,
      "ज्": 2835,
      "▁!": 2836,
      "▁प्रत्येक": 2837,
      "खी": 2838,
      "▁विधायक": 2839,
      "▁निवेश": 2840,
      "ोह": 2841,
      "▁शि": 2842,
      "▁रहती": 2843,
      "▁उससे": 2844,
      "स्कार": 2845,
      "▁क्रिकेट": 2846,
      "ोरी": 2847,
      "यों": 2848,
      "करी": 2849,
      "▁नागर": 2850,
      "ियान": 2851,
      "▁फीस": 2852,
      "प्ता": 2853,
      "लग": 2854,
      "▁सामा": 2855,
      "▁बदला": 2856,
      "▁जय": 2857,
      "▁वर्ग": 2858,
      "▁राहुल": 2859,
      "कत": 2860,
      "▁होगी।": 2861,
      "▁वक्त": 2862,
      "ः\n": 2863,
      "▁मंगल": 2864,
      "▁भूमिका": 2865,
      "▁आन": 2866,
      "म्प": 2867,
      "▁प्यार": 2868,
      "नेट": 2869,
      "चन": 2870,
      "▁घंटे": 2871,
      "▁खूब": 2872,
      "▁हार": 2873,
      "तिम": 2874,
      "ंडी": 2875,
      "▁हासिल": 2876,
      "त्त": 2877,
      "मर": 2878,
      "▁पड़े": 2879,
      "आप": 2880,
      "▁धो": 2881,
      "▁माता": 2882,
      "al": 2883,
      "▁भारी": 2884,
      "ियाँ": 2885,
      "ंगी": 2886,
      "▁13": 2887,
      "धिकार": 2888,
      "▁प्रभावित": 2889,
      "or": 2890,
      "कुल": 2891,
      "▁मनु": 2892,
      "▁लागू": 2893,
      "▁नंबर": 2894,
      "▁जित": 2895,
      "▁करवा": 2896,
      "▁पेट": 2897,
      "▁विश्": 2898,
      "मैं": 2899,
      "▁गण": 2900,
      "किंग": 2901,
      "▁भेज": 2902,
      "सु": 2903,
      "▁तरीके": 2904,
      "▁मेरा": 2905,
      "▁मार्च": 2906,
      "▁लगाने": 2907,
      "िति": 2908,
      "▁पश्च": 2909,
      "▁अनुभव": 2910,
      "▁मार्ग": 2911,
      "▁आयोजित": 2912,
      "▁इतिहास": 2913,
      "▁पाया": 2914,
      "कारा": 2915,
      "▁राजा": 2916,
      "▁सामाजिक": 2917,
      "▁16": 2918,
      "लेज": 2919,
      "▁अहम": 2920,
      "▁सड़क": 2921,
      "▁नुक": 2922,
      "▁विस्त": 2923,
      "▁नोट": 2924,
      "is": 2925,
      "▁कमा": 2926,
      "जाब": 2927,
      "▁तय": 2928,
      "▁बिल": 2929,
      "पना": 2930,
      "ड़ने": 2931,
      "लीवुड": 2932,
      "र्न": 2933,
      "▁जून": 2934,
      "▁पहुंचे": 2935,
      "▁साह": 2936,
      "ष्ट्रीय": 2937,
      "ृह": 2938,
      "▁शान": 2939,
      "▁घोषणा": 2940,
      "गम": 2941,
      "ॉक": 2942,
      "▁प्ले": 2943,
      "हरे": 2944,
      "-ब": 2945,
      "▁रण": 2946,
      "▁अथ": 2947,
      "▁डॉक्टर": 2948,
      "▁सार": 2949,
      "▁50": 2950,
      "▁अपरा": 2951,
      "विड": 2952,
      "▁जैसी": 2953,
      "डल": 2954,
      "टल": 2955,
      "▁M": 2956,
      "▁बेहद": 2957,
      "विष्य": 2958,
      "▁राजनीतिक": 2959,
      "▁आरोपी": 2960,
      "▁चिकित": 2961,
      "▁बल": 2962,
      "▁डिज": 2963,
      "ीण": 2964,
      "▁बनी": 2965,
      "▁संभावना": 2966,
      "ानीय": 2967,
      "▁समर्थन": 2968,
      "▁शब्द": 2969,
      "क़": 2970,
      "दर्श": 2971,
      "▁सिर": 2972,
      "ियल": 2973,
      "▁तत्": 2974,
      "र्जी": 2975,
      "▁काल": 2976,
      "वें": 2977,
      "▁तला": 2978,
      "▁विकल्प": 2979,
      "▁नुकसान": 2980,
      "▁आते": 2981,
      "▁पाठ": 2982,
      "▁सुधार": 2983,
      "इड": 2984,
      "▁सित": 2985,
      "▁पैदा": 2986,
      "▁आता": 2987,
      "▁कदम": 2988,
      "▁क्षेत्रों": 2989,
      "▁जिम्म": 2990,
      "▁भविष्य": 2991,
      "सत": 2992,
      "▁T": 2993,
      "ायद": 2994,
      "▁किये": 2995,
      "राव": 2996,
      "▁मजबूत": 2997,
      "▁यून": 2998,
      "र्ग": 2999,
      "ेंद्रीय": 3000,
      "▁त्र": 3001,
      "▁विश्वास": 3002,
      "▁गया.": 3003,
      "▁अच्छे": 3004,
      "काब": 3005,
      "धानी": 3006,
      "कर्ता": 3007,
      "▁तम": 3008,
      "▁यानी": 3009,
      "देव": 3010,
      "रिक्त": 3011,
      "▁फाय": 3012,
      "▁आपका": 3013,
      "दारी": 3014,
      "▁उपस्थित": 3015,
      "▁दी।": 3016,
      "▁D": 3017,
      "रल": 3018,
      "▁चरण": 3019,
      "खन": 3020,
      "▁जाये": 3021,
      "▁शुक्र": 3022,
      "▁जानते": 3023,
      "▁कठ": 3024,
      "्प": 3025,
      "गी।\n": 3026,
      "वीं": 3027,
      "▁वर्तमान": 3028,
      "द्व": 3029,
      "▁संयुक्त": 3030,
      "हित्य": 3031,
      "▁राज्यों": 3032,
      "्वर": 3033,
      "▁स्थानीय": 3034,
      "▁पूजा": 3035,
      "▁निर्णय": 3036,
      "▁प्रभ": 3037,
      "ोलन": 3038,
      "▁जेल": 3039,
      "दू": 3040,
      "▁बाव": 3041,
      "▁रक्षा": 3042,
      "▁टै": 3043,
      "▁पड़ता": 3044,
      "it": 3045,
      "▁अतिरिक्त": 3046,
      "▁तस्वीर": 3047,
      "▁हिंद": 3048,
      "▁जीव": 3049,
      "▁जैसा": 3050,
      "शील": 3051,
      "▁जुड़े": 3052,
      "▁लेते": 3053,
      "▁श्रे": 3054,
      "▁मामलों": 3055,
      "▁थी।\n": 3056,
      "▁पुन": 3057,
      "ँच": 3058,
      "ूर्ति": 3059,
      "बाजी": 3060,
      "▁किया,": 3061,
      "▁वेब": 3062,
      "सिक": 3063,
      "▁कहानी": 3064,
      "▁पत्रकार": 3065,
      "प्त": 3066,
      "▁पहला": 3067,
      "सों": 3068,
      "▁मिनट": 3069,
      "ीत": 3070,
      "▁स्थापित": 3071,
      "▁कीमत": 3072,
      "सित": 3073,
      "ंटी": 3074,
      "क्सर": 3075,
      "एँ": 3076,
      "स्ताव": 3077,
      "▁महान": 3078,
      "▁हमने": 3079,
      "विद्यालय": 3080,
      "▁इलाज": 3081,
      "▁अभियान": 3082,
      "्यता": 3083,
      "en": 3084,
      "▁राष्ट्रपति": 3085,
      "▁लें": 3086,
      "▁अगले": 3087,
      "▁भावना": 3088,
      "ेत": 3089,
      "▁जिसका": 3090,
      "▁ग्रामीण": 3091,
      "स्टर": 3092,
      "▁हटा": 3093,
      "ंडल": 3094,
      "लेख": 3095,
      "▁N": 3096,
      "▁मश": 3097,
      "▁चले": 3098,
      "▁संचाल": 3099,
      "सूस": 3100,
      "▁फॉ": 3101,
      "ूपी": 3102,
      "▁24": 3103,
      "▁दोस्त": 3104,
      "▁दिशा": 3105,
      "दय": 3106,
      "ंबे": 3107,
      "▁मुश्": 3108,
      "ाहरण": 3109,
      "▁समूह": 3110,
      "▁सोमवार": 3111,
      "केट": 3112,
      "▁ऑन": 3113,
      "▁दक्षिण": 3114,
      "▁जाएंगे": 3115,
      "▁विवाद": 3116,
      "▁एड": 3117,
      "विध": 3118,
      "▁17": 3119,
      "▁संगठन": 3120,
      "▁अने": 3121,
      "▁सै": 3122,
      "▁सुख": 3123,
      "▁सात": 3124,
      "▁कराया": 3125,
      "▁थे।\n": 3126,
      "▁खत्म": 3127,
      "▁तेजी": 3128,
      "टने": 3129,
      "▁B": 3130,
      "▁मंत्रालय": 3131,
      "▁न्याया": 3132,
      "▁प्रस्ताव": 3133,
      "▁सचिव": 3134,
      "▁अनुसार,": 3135,
      "स्ती": 3136,
      "▁गया।\n": 3137,
      "▁बोर्ड": 3138,
      "▁साब": 3139,
      "▁सलाह": 3140,
      "▁बल्ले": 3141,
      "▁बावजूद": 3142,
      "पे": 3143,
      "उस": 3144,
      "हे": 3145,
      "ष्ट्र": 3146,
      "▁नेताओं": 3147,
      "▁आश": 3148,
      "▁परिवर्": 3149,
      "▁केंद्रीय": 3150,
      "साद": 3151,
      "-स": 3152,
      "▁पौ": 3153,
      "▁विकेट": 3154,
      "▁मर": 3155,
      "िश्चित": 3156,
      "राने": 3157,
      "▁अंतिम": 3158,
      "▁खाने": 3159,
      "▁बेटी": 3160,
      "▁मुश्किल": 3161,
      "▁संस्क": 3162,
      "▁मुकाब": 3163,
      "द्रा": 3164,
      "▁आवा": 3165,
      "च्छा": 3166,
      "▁बारिश": 3167,
      "▁प्रवेश": 3168,
      "फ्": 3169,
      "दर": 3170,
      "स्व": 3171,
      "▁नियंत्र": 3172,
      "▁शायद": 3173,
      "▁भर्": 3174,
      "▁कवि": 3175,
      "▁गया,": 3176,
      "▁एल": 3177,
      "▁अनुमति": 3178,
      "▁मई": 3179,
      "▁देती": 3180,
      "▁गलत": 3181,
      "▁साहित्य": 3182,
      "तृत्व": 3183,
      "▁महसूस": 3184,
      "कृति": 3185,
      "ंता": 3186,
      "▁वृद्धि": 3187,
      "▁अगस्त": 3188,
      "वरूप": 3189,
      "असल": 3190,
      "▁संर": 3191,
      "ील": 3192,
      "▁पंजाब": 3193,
      "श्मीर": 3194,
      "▁मोह": 3195,
      "▁मात्रा": 3196,
      "▁चाल": 3197,
      "जु": 3198,
      "▁न्याय": 3199,
      "▁कार्ड": 3200,
      "भू": 3201,
      "▁से,": 3202,
      "▁संभव": 3203,
      "▁सामना": 3204,
      "गु": 3205,
      "गा।\n": 3206,
      "▁पट": 3207,
      "▁सफलता": 3208,
      "फ्ट": 3209,
      "▁धी": 3210,
      "▁कट": 3211,
      "क्ता": 3212,
      "फर": 3213,
      "ोप": 3214,
      "▁हालांकि,": 3215,
      "▁कराने": 3216,
      "▁खुश": 3217,
      "▁जनवरी": 3218,
      "▁बुध": 3219,
      "▁वायरस": 3220,
      "ic": 3221,
      "श्न": 3222,
      "▁दुकान": 3223,
      "▁मानव": 3224,
      "तरी": 3225,
      "▁फोट": 3226,
      "▁बनने": 3227,
      "स्ट्रे": 3228,
      "बि": 3229,
      "दु": 3230,
      "▁उनसे": 3231,
      "फल": 3232,
      "▁आयोजन": 3233,
      "▁उद्देश": 3234,
      "प्ताह": 3235,
      "▁परेशान": 3236,
      "▁आदमी": 3237,
      "ॉन": 3238,
      "▁प्रण": 3239,
      "▁समिति": 3240,
      "▁स्वीकार": 3241,
      "▁गुज": 3242,
      "▁नव": 3243,
      "▁सें": 3244,
      "▁चाहता": 3245,
      "▁समी": 3246,
      "▁दवा": 3247,
      "रीब": 3248,
      "▁मौसम": 3249,
      "▁टाइ": 3250,
      "▁वर्षों": 3251,
      "ॉर्ड": 3252,
      "▁तुलना": 3253,
      "ुओं": 3254,
      "▁सुना": 3255,
      "न्स": 3256,
      "ंतर": 3257,
      "▁अप्रैल": 3258,
      "▁आती": 3259,
      "▁फल": 3260,
      "चीत": 3261,
      "▁स्वतंत्र": 3262,
      "▁आंद": 3263,
      "▁तकनी": 3264,
      "▁छात्र": 3265,
      "▁विद्य": 3266,
      "▁अथवा": 3267,
      "जब": 3268,
      "▁अभिने": 3269,
      "▁क्षमता": 3270,
      "▁पॉ": 3271,
      "ब्ल": 3272,
      "▁ति": 3273,
      "▁सहायता": 3274,
      "▁दिस": 3275,
      "▁मिलता": 3276,
      "▁निवासी": 3277,
      "▁पीड़": 3278,
      "▁शै": 3279,
      "▁नेतृत्व": 3280,
      "▁बंग": 3281,
      "▁सारे": 3282,
      "▁कृषि": 3283,
      "th": 3284,
      "▁वार": 3285,
      "शनल": 3286,
      "ड़ियों": 3287,
      "बाइल": 3288,
      "▁उसमें": 3289,
      "▁जमीन": 3290,
      "▁कंपन": 3291,
      "▁रिश्": 3292,
      "▁पालन": 3293,
      "ूक": 3294,
      "▁रखते": 3295,
      "▁उदाहरण": 3296,
      "▁आयोग": 3297,
      "▁बातचीत": 3298,
      "गो": 3299,
      "पि": 3300,
      "पक": 3301,
      "▁राजनीति": 3302,
      "▁निर्धार": 3303,
      "▁बिजली": 3304,
      "▁भोजन": 3305,
      "▁संस्था": 3306,
      "▁बदलाव": 3307,
      "▁डॉ.": 3308,
      "मित": 3309,
      "▁आतंक": 3310,
      "▁लड़की": 3311,
      "▁भर्ती": 3312,
      "ंदगी": 3313,
      "▁खर्च": 3314,
      "▁पैसे": 3315,
      "▁विदेशी": 3316,
      "▁नरेंद्र": 3317,
      "▁राजस्थान": 3318,
      "▁अक्सर": 3319,
      "▁एयर": 3320,
      "वत": 3321,
      "▁दूसरा": 3322,
      "▁दावा": 3323,
      "▁साध": 3324,
      "▁निर": 3325,
      "▁हमला": 3326,
      "▁शुक्रवार": 3327,
      "▁छात्रों": 3328,
      "बाज": 3329,
      "▁आध": 3330,
      "▁ग्रह": 3331,
      "्रोल": 3332,
      "▁दबा": 3333,
      "▁जुलाई": 3334,
      "▁एंड": 3335,
      "ौल": 3336,
      "▁R": 3337,
      "▁सीएम": 3338,
      "▁टिक": 3339,
      "ालत": 3340,
      "र्जा": 3341,
      "▁संत": 3342,
      "▁सम्ब": 3343,
      "▁उद्योग": 3344,
      "-अलग": 3345,
      "▁उम्मीदवार": 3346,
      "ूरत": 3347,
      "ूड": 3348,
      "नु": 3349,
      "▁अमेरिक": 3350,
      "सब": 3351,
      "'\n": 3352,
      "▁सुरक्षित": 3353,
      "▁प्रव": 3354,
      "▁निजी": 3355,
      "उट": 3356,
      "मक": 3357,
      "ें,": 3358,
      "▁अनेक": 3359,
      "▁कैं": 3360,
      "िटल": 3361,
      "ग्रह": 3362,
      "भाल": 3363,
      "▁उत्प": 3364,
      "▁मंगलवार": 3365,
      "▁देवी": 3366,
      "िक्स": 3367,
      "▁खराब": 3368,
      "▁अलग-अलग": 3369,
      "▁गे": 3370,
      "▁संक्रमण": 3371,
      "▁पुत्र": 3372,
      "▁समेत": 3373,
      "ॉट": 3374,
      "▁पीएम": 3375,
      "▁कोविड": 3376,
      "िक्": 3377,
      "कर्ताओं": 3378,
      "म्ब": 3379,
      "▁भीतर": 3380,
      "▁हिन्द": 3381,
      "▁रचना": 3382,
      "▁प्रार": 3383,
      "▁लक्ष्य": 3384,
      "▁मनुष्य": 3385,
      "▁शन": 3386,
      "▁दर्द": 3387,
      "▁हुआ।": 3388,
      "श्वर": 3389,
      "▁मगर": 3390,
      "▁आवेदन": 3391,
      "▁देकर": 3392,
      "▁अपराध": 3393,
      "▁लंबे": 3394,
      "थम": 3395,
      "▁लड़ा": 3396,
      "▁21": 3397,
      "▁100": 3398,
      "▁बर्": 3399,
      "खे": 3400,
      "▁तुर": 3401,
      "▁आसान": 3402,
      "▁उत्पादन": 3403,
      "-साथ": 3404,
      "▁कार्यालय": 3405,
      "▁किया।\n": 3406,
      "▁मतलब": 3407,
      "▁निश": 3408,
      "ौती": 3409,
      "▁रविवार": 3410,
      "▁मोबाइल": 3411,
      "ंतु": 3412,
      "▁रूस": 3413,
      "▁छह": 3414,
      "▁किलो": 3415,
      "पास": 3416,
      "▁शासन": 3417,
      "ूबर": 3418,
      "▁वस्तु": 3419,
      "▁लेना": 3420,
      "▁सजा": 3421,
      "ियार": 3422,
      "▁लिया।": 3423,
      "हान": 3424,
      "▁वोट": 3425,
      "▁साबित": 3426,
      "उंड": 3427,
      "▁नौकरी": 3428,
      "▁धारा": 3429,
      "▁बुधवार": 3430,
      "▁बॉलीवुड": 3431,
      "▁निभा": 3432,
      "▁लं": 3433,
      "▁प्रतिनि": 3434,
      "ॉय": 3435,
      "▁इतनी": 3436,
      "स्ते": 3437,
      "जल": 3438,
      "कर्ष": 3439,
      "▁मूल्य": 3440,
      "▁वहाँ": 3441,
      "जाम": 3442,
      "खनऊ": 3443,
      "▁साइ": 3444,
      "▁बातें": 3445,
      "▁साथ-साथ": 3446,
      "▁रखना": 3447,
      "श्चित": 3448,
      "▁इनमें": 3449,
      "स्तुत": 3450,
      "ठा": 3451,
      "▁युवक": 3452,
      "▁यूपी": 3453,
      "▁सुनिश्चित": 3454,
      "▁वैसे": 3455,
      "गी.": 3456,
      "▁शनिवार": 3457,
      "▁प्रती": 3458,
      "▁दश": 3459,
      "▁बेटे": 3460,
      "▁विश्वविद्यालय": 3461,
      "▁आयु": 3462,
      "▁विकसित": 3463,
      "▁फीसदी": 3464,
      "▁2020": 3465,
      "चिका": 3466,
      "▁घा": 3467,
      "▁समाप्त": 3468,
      "▁उद्देश्य": 3469,
      "▁आंख": 3470,
      "▁सुप": 3471,
      "गतान": 3472,
      "▁उत्पाद": 3473,
      "▁नदी": 3474,
      "▁ऑनलाइन": 3475,
      "▁केस": 3476,
      "▁ट्रेन": 3477,
      "▁गुप": 3478,
      "स्ल": 3479,
      "्ति": 3480,
      "▁उपाय": 3481,
      "▁मुला": 3482,
      "▁सामग्री": 3483,
      "एच": 3484,
      "जित": 3485,
      "▁इनके": 3486,
      "चारी": 3487,
      "▁सप्ताह": 3488,
      "▁डाय": 3489,
      "▁वरि": 3490,
      "▁जाकर": 3491,
      "चारियों": 3492,
      "▁सत्ता": 3493,
      "दीप": 3494,
      "▁नीति": 3495,
      "▁तभी": 3496,
      "▁कपूर": 3497,
      "▁रस": 3498,
      "▁दिवस": 3499,
      "▁गौर": 3500,
      "▁आंदोलन": 3501,
      "▁बढ़ाने": 3502,
      "वाही": 3503,
      "▁2019": 3504,
      "चि": 3505,
      "ज़र": 3506,
      "डर": 3507,
      "▁सूची": 3508,
      "▁संके": 3509,
      "न्दी": 3510,
      "न्या": 3511,
      "▁ठा": 3512,
      "घा": 3513,
      "▁भुगतान": 3514,
      "मार्ट": 3515,
      "▁देखकर": 3516,
      "▁शुभ": 3517,
      "ित्य": 3518,
      "धिकारी": 3519,
      "गा,": 3520,
      "▁प्ल": 3521,
      "▁संस्थान": 3522,
      "▁मेड": 3523,
      "सन": 3524,
      "▁रिली": 3525,
      "▁खोज": 3526,
      "वै": 3527,
      "ियोजना": 3528,
      "क्षक": 3529,
      "▁रेलवे": 3530,
      "▁री": 3531,
      "▁दृष्टि": 3532,
      "▁वरिष्ठ": 3533,
      "भारत": 3534,
      "▁भूमि": 3535,
      "▁रै": 3536,
      "▁अदालत": 3537,
      "▁अध्ययन": 3538,
      "लेट": 3539,
      "▁हथ": 3540,
      "▁/": 3541,
      "▁असर": 3542,
      "-द": 3543,
      "और": 3544,
      "सिद्ध": 3545,
      "▁छोटी": 3546,
      "▁खोल": 3547,
      "▁मं": 3548,
      "▁करनी": 3549,
      "▁दोष": 3550,
      "ायी": 3551,
      "▁सूर्": 3552,
      "▁निश्चित": 3553,
      "▁सांसद": 3554,
      "▁संस": 3555,
      "ड्ड": 3556,
      "▁गाय": 3557,
      "ानों": 3558,
      ",000": 3559,
      "ब्र": 3560,
      "ं।": 3561,
      "▁विजय": 3562,
      "उन्होंने": 3563,
      "▁हमारा": 3564,
      "▁2021": 3565,
      "्मिक": 3566,
      "▁परियोजना": 3567,
      "▁इन्": 3568,
      "▁आठ": 3569,
      "शिया": 3570,
      "साइट": 3571,
      "▁खिलाड़ी": 3572,
      "▁तैयारी": 3573,
      "तौर": 3574,
      "▁उनमें": 3575,
      "▁बहु": 3576,
      "▁इंग": 3577,
      "कम": 3578,
      "▁व्यवहार": 3579,
      "ामा": 3580,
      "म्स": 3581,
      "▁कॉलेज": 3582,
      "▁करेंगे।": 3583,
      "▁शानदार": 3584,
      "▁पल": 3585,
      "▁कर्मचारियों": 3586,
      "▁अंक": 3587,
      "ंव": 3588,
      "▁जोर": 3589,
      "▁चाहे": 3590,
      "▁डर": 3591,
      "ुनिक": 3592,
      "▁विस्तार": 3593,
      "▁आंक": 3594,
      "स्ट्र": 3595,
      "▁शव": 3596,
      "▁राजधानी": 3597,
      "▁जिसकी": 3598,
      "▁तारी": 3599,
      "▁याचिका": 3600,
      "▁गौ": 3601,
      "ंडा": 3602,
      "▁मुद्रा": 3603,
      "▁पंचायत": 3604,
      "▁अमेरिकी": 3605,
      "जरी": 3606,
      "▁चित्र": 3607,
      "यु": 3608,
      "▁अंग्रे": 3609,
      "▁जाएगी।": 3610,
      "▁गृह": 3611,
      "▁बिल्": 3612,
      "▁शराब": 3613,
      "▁हिंदी": 3614,
      "जो": 3615,
      "▁संब": 3616,
      "स्ट्रेलिया": 3617,
      "▁दिसंबर": 3618,
      "▁ग्राह": 3619,
      "क्या": 3620,
      "▁सत": 3621,
      "▁मल": 3622,
      "ार्क": 3623,
      "▁पर्य": 3624,
      "▁खाना": 3625,
      "ों,": 3626,
      "▁ट्वी": 3627,
      "▁डेट": 3628,
      "▁प्रतिक": 3629,
      "थि": 3630,
      "ed": 3631,
      "▁ओवर": 3632,
      "ज़ा": 3633,
      "▁परन्तु": 3634,
      "▁निर्धारित": 3635,
      "▁22": 3636,
      "▁सभा": 3637,
      "▁जाति": 3638,
      "▁प्रिय": 3639,
      "▁पूछा": 3640,
      "▁कही": 3641,
      "वाले": 3642,
      "▁फरवरी": 3643,
      "▁दरअसल": 3644,
      "राह": 3645,
      "ानि": 3646,
      "▁कथ": 3647,
      "स्टम": 3648,
      "▁इंत": 3649,
      "▁पदार्थ": 3650,
      "▁जरिए": 3651,
      "▁उल्लेख": 3652,
      "▁जल्दी": 3653,
      "▁नार": 3654,
      "▁दिला": 3655,
      "▁प्रशिक्ष": 3656,
      "▁अवधि": 3657,
      "ra": 3658,
      "▁अग्र": 3659,
      "▁चर": 3660,
      "र्गत": 3661,
      "▁अश": 3662,
      "नल": 3663,
      "▁चिंता": 3664,
      "▁परिवर्तन": 3665,
      "▁उनको": 3666,
      "▁हल्": 3667,
      "▁परम": 3668,
      "▁जिन्हें": 3669,
      "▁तुरंत": 3670,
      "▁बताते": 3671,
      "▁है?\n": 3672,
      "मीटर": 3673,
      "▁सत्य": 3674,
      "क्टूबर": 3675,
      "ैट": 3676,
      "▁लोकसभा": 3677,
      "▁आपने": 3678,
      "▁स्टे": 3679,
      "▁पुस्त": 3680,
      "▁हल": 3681,
      "तो": 3682,
      "▁E": 3683,
      "▁रोड": 3684,
      "▁सुपर": 3685,
      "▁त्व": 3686,
      "▁इलाके": 3687,
      "▁घायल": 3688,
      "शे": 3689,
      "▁चयन": 3690,
      "थमिक": 3691,
      "▁होगा।\n": 3692,
      "चीन": 3693,
      "▁घु": 3694,
      "ैया": 3695,
      "▁उपकरण": 3696,
      "िड": 3697,
      "▁विवाह": 3698,
      "▁श्रद्ध": 3699,
      "▁चाहिए।\n": 3700,
      "▁फोटो": 3701,
      "▁हो।": 3702,
      "▁की,": 3703,
      "▁प्रसाद": 3704,
      "▁शांति": 3705,
      "▁40": 3706,
      "-2": 3707,
      "ैर": 3708,
      "▁ट्वीट": 3709,
      "▁लखनऊ": 3710,
      "जनों": 3711,
      "▁गई.": 3712,
      "पूर्व": 3713,
      "▁संपर्क": 3714,
      "ना,": 3715,
      "प्रिय": 3716,
      "▁मौका": 3717,
      "▁वर्ण": 3718,
      "ध्यक्ष": 3719,
      "िको": 3720,
      "▁वायरल": 3721,
      "▁खुला": 3722,
      "कारात्मक": 3723,
      "▁हरिया": 3724,
      "▁विज्ञान": 3725,
      "राष्ट्रीय": 3726,
      "▁सार्व": 3727,
      "▁मैदान": 3728,
      "त्ती": 3729,
      "le": 3730,
      "▁आखिर": 3731,
      "▁माँ": 3732,
      "▁फ्ल": 3733,
      "▁बेच": 3734,
      "▁रहे।": 3735,
      "▁हुई।": 3736,
      "ेश्वर": 3737,
      "▁अत्य": 3738,
      "▁आइ": 3739,
      "▁सीरीज": 3740,
      "दूर": 3741,
      "▁वाय": 3742,
      "▁जम": 3743,
      "▁थोड़ा": 3744,
      "▁चाहती": 3745,
      "▁पृथ": 3746,
      "वस्था": 3747,
      "▁आसपास": 3748,
      "▁किन्तु": 3749,
      "चार्य": 3750,
      "▁हेतु": 3751,
      "▁निगम": 3752,
      "प्तान": 3753,
      "गा.": 3754,
      "्रीन": 3755,
      "▁पश्चिम": 3756,
      "वंबर": 3757,
      "रान": 3758,
      "▁इच्छा": 3759,
      "▁प्राथमिक": 3760,
      "▁यूरो": 3761,
      "्राम": 3762,
      "▁दस": 3763,
      "▁सारी": 3764,
      "▁प्रमाण": 3765,
      "▁सूर्य": 3766,
      "▁सेवन": 3767,
      "▁अक्टूबर": 3768,
      "▁फिल्मों": 3769,
      "▁जता": 3770,
      "▁प्रचार": 3771,
      "टो": 3772,
      "ल्क": 3773,
      "पोर्ट": 3774,
      "▁उचित": 3775,
      "▁विमान": 3776,
      "▁अक्ष": 3777,
      "▁टिप": 3778,
      "िरी": 3779,
      "▁दर्शन": 3780,
      "▁बीमारी": 3781,
      "▁गुजरात": 3782,
      "▁पाने": 3783,
      "▁क्व": 3784,
      "्सा": 3785,
      "▁आनंद": 3786,
      "म्बर": 3787,
      "▁हॉ": 3788,
      "▁चंद्र": 3789,
      "▁चेहरे": 3790,
      "स्म": 3791,
      "▁राहत": 3792,
      "▁बनाई": 3793,
      "▁गठ": 3794,
      "र्श": 3795,
      "▁टीवी": 3796,
      "▁बुला": 3797,
      "▁दूध": 3798,
      "ोधित": 3799,
      "▁पार्ट": 3800,
      "▁जिन्होंने": 3801,
      "ंघ": 3802,
      "▁चढ़": 3803,
      "▁अलावा,": 3804,
      "▁पहुंचा": 3805,
      "▁नो": 3806,
      "▁विपक्ष": 3807,
      "▁कार्यों": 3808,
      "▁मिलती": 3809,
      "▁पूर्": 3810,
      "▁मरी": 3811,
      "▁विशेषज्ञ": 3812,
      "▁सिंह,": 3813,
      "▁मृत्यु": 3814,
      "▁ऊर्जा": 3815,
      "▁H": 3816,
      "▁बंगाल": 3817,
      "्रिय": 3818,
      "▁संघर्ष": 3819,
      "▁स्टेशन": 3820,
      "▁प्रस्तुत": 3821,
      "▁प्रणाली": 3822,
      "▁नागरिक": 3823,
      "▁पर,": 3824,
      "▁ज़र": 3825,
      "▁जहाँ": 3826,
      "▁हवा": 3827,
      "▁बिक": 3828,
      "▁त्वचा": 3829,
      "ग्राम": 3830,
      "▁प्रश्न": 3831,
      "▁23": 3832,
      "▁पैसा": 3833,
      "न्ना": 3834,
      "▁नवंबर": 3835,
      "स्लिम": 3836,
      "▁दर्श": 3837,
      "▁वेबसाइट": 3838,
      "▁किन": 3839,
      "▁महाराष्ट्र": 3840,
      "▁दिया.": 3841,
      "▁लगाए": 3842,
      "ियोग": 3843,
      "▁बाद,": 3844,
      "▁आसानी": 3845,
      "▁फा": 3846,
      "▁योगी": 3847,
      "▁निष्": 3848,
      "▁सितंबर": 3849,
      "▁परिष": 3850,
      "▁जोड़": 3851,
      "▁पर्याप्त": 3852,
      "as": 3853,
      "डिंग": 3854,
      "▁सुप्रीम": 3855,
      "▁रिकॉर्ड": 3856,
      "▁करें।\n": 3857,
      "ियत": 3858,
      "▁धीरे": 3859,
      "केश": 3860,
      "▁सदस्यों": 3861,
      "▁2022": 3862,
      "▁किया.": 3863,
      "▁ब्रह": 3864,
      "▁प्रकाशित": 3865,
      "▁विरा": 3866,
      "खर": 3867,
      "▁उत्पन्न": 3868,
      "▁प्रथम": 3869,
      "्यास": 3870,
      "▁बीमार": 3871,
      "▁भूल": 3872,
      "टिंग": 3873,
      "लेक्ट": 3874,
      "▁जिनमें": 3875,
      "वाला": 3876,
      "-म": 3877,
      "ल,": 3878,
      "▁भेजा": 3879,
      "ष्टि": 3880,
      "▁गुरुवार": 3881,
      "सव": 3882,
      "द्योगिक": 3883,
      "ंकर": 3884,
      "▁स्टार": 3885,
      "▁मिट": 3886,
      "▁चली": 3887,
      "काम": 3888,
      "निक": 3889,
      ",\n": 3890,
      "▁कितना": 3891,
      "▁आईपी": 3892,
      "▁बजट": 3893,
      "▁कंपनियों": 3894,
      "▁मू": 3895,
      "▁न्यायालय": 3896,
      "▁रिश्ते": 3897,
      "▁पहन": 3898,
      "▁शीर्ष": 3899,
      "▁हमले": 3900,
      "▁धार्मिक": 3901,
      "ार्ज": 3902,
      "▁रिलीज": 3903,
      "om": 3904,
      "दिन": 3905,
      "ोटा": 3906,
      "▁इंग्ल": 3907,
      "▁अली": 3908,
      "ांश": 3909,
      "▁(1": 3910,
      "▁दिया।\n": 3911,
      "▁कब्": 3912,
      "▁सक्रिय": 3913,
      "क्षम": 3914,
      "▁वाहन": 3915,
      "जनिक": 3916,
      "▁दृ": 3917,
      "क्रे": 3918,
      "वीर": 3919,
      "चानक": 3920,
      "यम": 3921,
      "▁मनो": 3922,
      "▁तत्काल": 3923,
      "▁पहुंची": 3924,
      "गी,": 3925,
      "्याण": 3926,
      "जीत": 3927,
      "फ्र": 3928,
      "▁जैन": 3929,
      "▁कब": 3930,
      "शाली": 3931,
      "▁नै": 3932,
      "▁खड़े": 3933,
      "▁ताप": 3934,
      "▁हित": 3935,
      "▁लै": 3936,
      "▁क़": 3937,
      "▁वैज्ञान": 3938,
      "▁मिलकर": 3939,
      "▁स्थापना": 3940,
      "▁उत्तरा": 3941,
      "नेस": 3942,
      "▁हिन्दी": 3943,
      "कोर्ट": 3944,
      "▁तत्व": 3945,
      "▁हिस्से": 3946,
      "पो": 3947,
      "50": 3948,
      "▁गर्म": 3949,
      "▁प्रसिद्ध": 3950,
      "▁सल": 3951,
      "-19": 3952,
      "▁कारो": 3953,
      "▁फूल": 3954,
      "▁फिलहाल": 3955,
      "▁धर": 3956,
      "स्ट्री": 3957,
      "▁पीड़ित": 3958,
      "▁प्ला": 3959,
      "▁छुट": 3960,
      "▁G": 3961,
      "▁इंस्ट": 3962,
      "नियर": 3963,
      "ंथ": 3964,
      "िलों": 3965,
      "▁सुंदर": 3966,
      "वधान": 3967,
      "▁कश्मीर": 3968,
      "▁वहीं,": 3969,
      "▁सिस्टम": 3970,
      "▁26": 3971,
      "▁समुदाय": 3972,
      "ट्र": 3973,
      "ेदारी": 3974,
      "▁कि,": 3975,
      "▁चैन": 3976,
      "▁सिल": 3977,
      "▁मिस": 3978,
      "▁हूं।": 3979,
      "▁तलाश": 3980,
      "▁तथ": 3981,
      "▁मेडिकल": 3982,
      "ापन": 3983,
      "▁संकेत": 3984,
      "▁अचानक": 3985,
      "▁जागर": 3986,
      "ौन": 3987,
      "▁बाकी": 3988,
      "▁पकड़": 3989,
      "▁बनाकर": 3990,
      "▁चुना": 3991,
      "▁मानसिक": 3992,
      "▁लड़क": 3993,
      "▁हरियाणा": 3994,
      "ाब": 3995,
      "▁करो": 3996,
      "ूनी": 3997,
      "▁रहना": 3998,
      "सेना": 3999,
      "ol": 4000,
      "▁कमरे": 4001,
      "▁है।\\n": 4002,
      "ंश": 4003,
      "▁प्री": 4004,
      "▁जाएगा।\n": 4005,
      "▁चिकित्सा": 4006,
      "▁होगा,": 4007,
      "▁सार्वजनिक": 4008,
      "कर्म": 4009,
      "▁तनाव": 4010,
      "▁लाइन": 4011,
      "▁बाइ": 4012,
      "▁लाने": 4013,
      "▁डिग्री": 4014,
      "▁मुस्लिम": 4015,
      "जेंसी": 4016,
      "▁पुरस्कार": 4017,
      "त्रियों": 4018,
      "▁वास्तविक": 4019,
      "-प्र": 4020,
      "▁हाद": 4021,
      "▁चीनी": 4022,
      "▁इतने": 4023,
      "▁समार": 4024,
      "कू": 4025,
      "▁भो": 4026,
      "▁आधारित": 4027,
      "▁कप्तान": 4028,
      "हली": 4029,
      "▁उपा": 4030,
      "म्भ": 4031,
      "▁नियंत्रण": 4032,
      "▁कमज": 4033,
      "श्री": 4034,
      "थे": 4035,
      "▁रखी": 4036,
      "▁हाथों": 4037,
      "▁व्यवसाय": 4038,
      "▁उपचार": 4039,
      "▁जिंदगी": 4040,
      "▁सक्षम": 4041,
      "▁बैठे": 4042,
      "▁घोषित": 4043,
      "▁तोड़": 4044,
      "▁2018": 4045,
      "▁रोकने": 4046,
      "▁खाते": 4047,
      "▁पुराने": 4048,
      "▁लॉक": 4049,
      "di": 4050,
      "्ता": 4051,
      "डाउन": 4052,
      "▁गैर": 4053,
      "▁मुताबिक,": 4054,
      "▁कर्मचारी": 4055,
      "रित": 4056,
      "कात": 4057,
      "▁स्म": 4058,
      "▁199": 4059,
      "उंट": 4060,
      "ion": 4061,
      "ैंस": 4062,
      "▁ऑस्ट्रेलिया": 4063,
      "आज": 4064,
      "▁नहीं।": 4065,
      "▁पर्व": 4066,
      "▁फैसले": 4067,
      "▁अरब": 4068,
      "ट्स": 4069,
      "▁थीं।": 4070,
      "▁बू": 4071,
      "लाम": 4072,
      "▁भ्र": 4073,
      "ws": 4074,
      "▁चाहिए,": 4075,
      "▁अके": 4076,
      "▁संस्कृति": 4077,
      "▁इन्हें": 4078,
      "▁महामारी": 4079,
      "तीश": 4080,
      "्मी": 4081,
      "▁समारोह": 4082,
      "▁वित्त": 4083,
      "्रिया": 4084,
      "▁विल": 4085,
      "िटर": 4086,
      "▁परिस": 4087,
      "▁उल": 4088,
      "▁हथियार": 4089,
      "▁अका": 4090,
      "▁गरीब": 4091,
      "इसके": 4092,
      "विधान": 4093,
      "▁हृ": 4094,
      "▁प्रबंधन": 4095,
      "स्य": 4096,
      "▁कृष्ण": 4097,
      "ष्टा": 4098,
      "▁एफ": 4099,
      "ur": 4100,
      "सीसी": 4101,
      "▁सम्बन्ध": 4102,
      "ल्ल": 4103,
      "ोषण": 4104,
      "▁आधुनिक": 4105,
      "▁प्रत": 4106,
      "▁सीख": 4107,
      "▁नेट": 4108,
      "▁ट्व": 4109,
      "ोत्": 4110,
      "▁लड़ाई": 4111,
      "▁मध": 4112,
      "ेदार": 4113,
      "▁28": 4114,
      "▁संकट": 4115,
      "▁३": 4116,
      "▁सीधे": 4117,
      "▁प्रभा": 4118,
      "कीय": 4119,
      "▁अनुर": 4120,
      "▁सुनवाई": 4121,
      "बो": 4122,
      "▁लोकप्रिय": 4123,
      "धारण": 4124,
      "▁संजय": 4125,
      "▁समाधान": 4126,
      "▁छि": 4127,
      "▁पारी": 4128,
      "▁समस्याओं": 4129,
      "▁रेड": 4130,
      "▁बिग": 4131,
      "▁तू": 4132,
      "▁होंगे।": 4133,
      "्तीय": 4134,
      "▁अपील": 4135,
      "▁निदेश": 4136,
      "▁परीक्षण": 4137,
      "ोधन": 4138,
      "▁हैं?": 4139,
      "▁आत्मा": 4140,
      "ाये": 4141,
      "जनक": 4142,
      "▁पहल": 4143,
      "▁F": 4144,
      "▁रखें": 4145,
      "▁उड़": 4146,
      "▁समीक्षा": 4147,
      "पान": 4148,
      "▁दबाव": 4149,
      "म्मू": 4150,
      "ेंज": 4151,
      "▁डॉलर": 4152,
      "▁प्लेट": 4153,
      "▁समाचार": 4154,
      "कारों": 4155,
      "▁भीड़": 4156,
      "▁वैक्सी": 4157,
      "▁पूछता": 4158,
      "▁केन्द्र": 4159,
      "▁लौट": 4160,
      "ंकी": 4161,
      "▁परिस्थित": 4162,
      "▁नम": 4163,
      "गंज": 4164,
      "▁लक्षण": 4165,
      "▁अर्था": 4166,
      "ान्त": 4167,
      "▁मित्र": 4168,
      "▁परिषद": 4169,
      "▁27": 4170,
      "्न": 4171,
      "लैंड": 4172,
      "ंजन": 4173,
      "▁कल्याण": 4174,
      "बीआई": 4175,
      "म्मद": 4176,
      "▁गोल": 4177,
      "▁पड़ी": 4178,
      "▁किर": 4179,
      "▁खुल": 4180,
      "▁आये": 4181,
      "▁गोली": 4182,
      "निर्": 4183,
      "नगर": 4184,
      "श्वास": 4185,
      "▁योग्य": 4186,
      "▁सत्र": 4187,
      "▁क्रम": 4188,
      "चु": 4189,
      "▁आराम": 4190,
      "▁खुशी": 4191,
      "क्कर": 4192,
      "▁थाने": 4193,
      "▁तह": 4194,
      "▁जुड़ी": 4195,
      "न्दर": 4196,
      "▁टिकट": 4197,
      "्मण": 4198,
      "▁बौ": 4199,
      "पने": 4200,
      "▁घरे": 4201,
      "▁जिलों": 4202,
      "▁मुकाबले": 4203,
      "▁तीनों": 4204,
      "दियों": 4205,
      "िल्म": 4206,
      "▁मरीजों": 4207,
      "▁\"\n": 4208,
      "▁मुक्त": 4209,
      "▁दोप": 4210,
      "▁खड़ा": 4211,
      "▁अनुमान": 4212,
      "सिंह": 4213,
      "▁लॉन्": 4214,
      "▁रणनी": 4215,
      "▁व्यक्तिगत": 4216,
      "▁पाई": 4217,
      "कद": 4218,
      "▁तमाम": 4219,
      "▁जवान": 4220,
      "▁चलता": 4221,
      "त,": 4222,
      "▁मुह": 4223,
      "धरी": 4224,
      "वाली": 4225,
      "ढ़ी": 4226,
      "▁शौ": 4227,
      "्रेड": 4228,
      "▁लेखक": 4229,
      "▁रक्त": 4230,
      "▁जाए।": 4231,
      "कुर": 4232,
      "▁हालत": 4233,
      "ेक्षा": 4234,
      "कृतिक": 4235,
      "▁मंच": 4236,
      "▁जिसने": 4237,
      "▁हिंसा": 4238,
      "▁सच्च": 4239,
      "ाइड": 4240,
      "▁31": 4241,
      "्टर": 4242,
      "िष्ट": 4243,
      "्योति": 4244,
      "▁जिम्मेदारी": 4245,
      "▁मास": 4246,
      "▁समझौ": 4247,
      "द्द": 4248,
      "▁वजन": 4249,
      "▁वर्षीय": 4250,
      "▁दूरी": 4251,
      "हो": 4252,
      "▁मस": 4253,
      "टेन": 4254,
      "▁गाँ": 4255,
      "▁चलने": 4256,
      "बाल": 4257,
      "▁एक्सप": 4258,
      "▁1.": 4259,
      "▁लागत": 4260,
      "▁बढ़ने": 4261,
      "रेट": 4262,
      "ला,": 4263,
      "▁सब्": 4264,
      "▁स्वामी": 4265,
      "▁सहायक": 4266,
      "▁रूसी": 4267,
      "▁प्रस": 4268,
      "▁अमित": 4269,
      "माने": 4270,
      "सो": 4271,
      "▁नियमित": 4272,
      "▁व्": 4273,
      "नाक": 4274,
      "▁दम": 4275,
      "▁खी": 4276,
      "▁प्रतिक्रिया": 4277,
      "▁पढ़ाई": 4278,
      "▁हृदय": 4279,
      "▁प्राइ": 4280,
      "पल": 4281,
      "▁आकर्ष": 4282,
      "▁आजा": 4283,
      "व्यवस्था": 4284,
      "▁आकार": 4285,
      "▁दिया,": 4286,
      "ेय": 4287,
      "▁मुलाकात": 4288,
      "▁घरेलू": 4289,
      "कल्प": 4290,
      "▁योगदान": 4291,
      "▁फाइन": 4292,
      "त्कार": 4293,
      "▁निप": 4294,
      "▁सालों": 4295,
      "▁कहने": 4296,
      "▁अन्त": 4297,
      "-ज": 4298,
      "▁हिंदू": 4299,
      "▁प्रतिबंध": 4300,
      "▁घूम": 4301,
      "▁बजाय": 4302,
      "▁करें,": 4303,
      "ृत्ति": 4304,
      "▁सन्": 4305,
      "लाल": 4306,
      "▁रखे": 4307,
      "▁आउट": 4308,
      "▁सुनी": 4309,
      "▁इंग्लैंड": 4310,
      "▁बीते": 4311,
      "▁प्रभारी": 4312,
      "▁बालों": 4313,
      "▁जू": 4314,
      "▁कोल": 4315,
      "▁परेशानी": 4316,
      "▁वित्तीय": 4317,
      "st": 4318,
      "▁मिश्र": 4319,
      "▁.\n": 4320,
      "▁भरो": 4321,
      "▁कड़ी": 4322,
      "पाद": 4323,
      "▁ऊंच": 4324,
      "▁विद्यालय": 4325,
      "▁आवाज": 4326,
      "▁भले": 4327,
      "यो": 4328,
      "▁प्रकृति": 4329,
      "▁नारा": 4330,
      "ं,": 4331,
      "▁वायु": 4332,
      "▁K": 4333,
      "▁डिप": 4334,
      "▁किलोमीटर": 4335,
      "▁साझा": 4336,
      "▁प्रशिक्षण": 4337,
      "▁चाहिये": 4338,
      "▁बातों": 4339,
      "▁तैना": 4340,
      "▁चोट": 4341,
      "▁होनी": 4342,
      "▁करियर": 4343,
      "▁गतिविध": 4344,
      "▁लु": 4345,
      "▁शिकार": 4346,
      "▁मुझ": 4347,
      "▁शोध": 4348,
      "▁निर्म": 4349,
      "्याज": 4350,
      "▁मॉडल": 4351,
      "दास": 4352,
      "▁की।\n": 4353,
      "त्तीस": 4354,
      "▁मुद्दे": 4355,
      "▁इंस": 4356,
      "▁2017": 4357,
      "▁चुनौती": 4358,
      "▁पैर": 4359,
      "▁तीसरे": 4360,
      "म्न": 4361,
      "▁संगीत": 4362,
      "▁होगा.": 4363,
      "▁टा": 4364,
      "▁सलमान": 4365,
      "▁झू": 4366,
      "▁कितनी": 4367,
      "दो": 4368,
      "▁पूछताछ": 4369,
      "▁ऑफिस": 4370,
      "▁वीर": 4371,
      "थर": 4372,
      "▁कपड़े": 4373,
      "▁अवै": 4374,
      "▁भवन": 4375,
      "30": 4376,
      "▁कितने": 4377,
      "▁व्यापक": 4378,
      "ली,": 4379,
      "न्व": 4380,
      "▁पहा": 4381,
      "जूदा": 4382,
      "शिप": 4383,
      "ॉर्म": 4384,
      "▁सख": 4385,
      "वां": 4386,
      "▁जम्मू": 4387,
      "▁रास्ते": 4388,
      "▁मानना": 4389,
      "ंजी": 4390,
      "▁चौधरी": 4391,
      "▁बनाना": 4392,
      "▁खूबस": 4393,
      "▁तापमान": 4394,
      "▁प्राचीन": 4395,
      "▁सां": 4396,
      "▁स्मार्ट": 4397,
      "रद": 4398,
      "अब": 4399,
      "▁मीटर": 4400,
      "▁आकर": 4401,
      "साइ": 4402,
      "▁अंतर्गत": 4403,
      "गन": 4404,
      "दिक": 4405,
      "जान": 4406,
      ")।": 4407,
      "▁फायदा": 4408,
      "कृ": 4409,
      "▁मस्": 4410,
      "▁टीका": 4411,
      "चक": 4412,
      "▁अध्या": 4413,
      "िनी": 4414,
      "▁किश": 4415,
      "▁जिनके": 4416,
      "▁अंतरराष्ट्रीय": 4417,
      "ाले": 4418,
      "▁हुए,": 4419,
      "द्दी": 4420,
      "▁कथा": 4421,
      "▁उतर": 4422,
      "बद्ध": 4423,
      "am": 4424,
      "▁शब्दों": 4425,
      "▁कहां": 4426,
      "▁मात्र": 4427,
      "रीन": 4428,
      "या।": 4429,
      "▁ऐप": 4430,
      "▁मतदान": 4431,
      "▁स्वरूप": 4432,
      "▁छोटा": 4433,
      "▁क्ला": 4434,
      "ेंडर": 4435,
      "▁हाईकोर्ट": 4436,
      "▁संश": 4437,
      "▁इलेक्ट": 4438,
      "बादी": 4439,
      "▁संसद": 4440,
      "▁रोजगार": 4441,
      "फार": 4442,
      "▁पटना": 4443,
      "▁रहें": 4444,
      "▁इंद": 4445,
      "▁बिल्कुल": 4446,
      "▁–": 4447,
      "▁नवी": 4448,
      "▁गाड़ी": 4449,
      "▁काट": 4450,
      "▁नियमों": 4451,
      "▁दोपहर": 4452,
      "ांक": 4453,
      "द्या": 4454,
      "▁आँ": 4455,
      "▁शूट": 4456,
      "▁रहा।": 4457,
      "▁युवाओं": 4458,
      "गति": 4459,
      "▁पृथ्वी": 4460,
      "▁संवाद": 4461,
      "▁दान": 4462,
      "▁संपत्ति": 4463,
      "▁एक्ट्रेस": 4464,
      "▁कल्प": 4465,
      "पण": 4466,
      "▁अखिल": 4467,
      "▁अना": 4468,
      "घर": 4469,
      "▁होटल": 4470,
      "▁ड्राइ": 4471,
      "▁बंध": 4472,
      "ंदन": 4473,
      "▁विवे": 4474,
      "▁उन्": 4475,
      "▁बहा": 4476,
      "ंडे": 4477,
      "वासियों": 4478,
      "▁गंगा": 4479,
      "जीव": 4480,
      "▁।।": 4481,
      "▁अवैध": 4482,
      "पद": 4483,
      "ज्ज": 4484,
      "यदि": 4485,
      "▁स्वस्थ": 4486,
      "▁संग्र": 4487,
      "▁डिजिटल": 4488,
      "▁मजदूर": 4489,
      "▁विभा": 4490,
      "▁की.": 4491,
      "िनियम": 4492,
      "▁मौजूदा": 4493,
      "▁बढ़ती": 4494,
      "िस्ट": 4495,
      "▁कमजोर": 4496,
      "वेद": 4497,
      "▁किताब": 4498,
      "▁अधिकांश": 4499,
      "दारों": 4500,
      "▁चाहिए.": 4501,
      "▁खिलाड़ियों": 4502,
      "▁था.\n": 4503,
      "▁कोहली": 4504,
      "बीर": 4505,
      "▁हिस": 4506,
      "▁प्राकृतिक": 4507,
      "▁संक्रमित": 4508,
      "▁डिजाइन": 4509,
      "▁मिलते": 4510,
      "▁देखना": 4511,
      "▁स्वतंत्रता": 4512,
      "त्तीसगढ़": 4513,
      "वत्ता": 4514,
      "▁लिमि": 4515,
      "-20": 4516,
      "▁अन्": 4517,
      "▁निर्भर": 4518,
      "▁निरा": 4519,
      "▁स्वागत": 4520,
      "▁प्रतिनिध": 4521,
      "कुछ": 4522,
      "▁थोड़ी": 4523,
      "▁छूट": 4524,
      ";\n": 4525,
      "▁सीटों": 4526,
      "राय": 4527,
      "▁लिमिटेड": 4528,
      "▁ज्योति": 4529,
      "▁परिजनों": 4530,
      "▁ठाकुर": 4531,
      "▁सेंटर": 4532,
      "▁माइ": 4533,
      "▁मानते": 4534,
      "▁इनकी": 4535,
      "▁चीज": 4536,
      "▁ट्रै": 4537,
      "',": 4538,
      "▁संदेश": 4539,
      "▁चारों": 4540,
      "▁सोने": 4541,
      "▁मेहन": 4542,
      "▁घरों": 4543,
      "▁लगती": 4544,
      "▁बुरा": 4545,
      "▁नामक": 4546,
      "▁इंतजार": 4547,
      "ध्या": 4548,
      "बु": 4549,
      "ज़ार": 4550,
      "▁शिक्षक": 4551,
      "▁गैस": 4552,
      "▁स्थानों": 4553,
      "▁रिज": 4554,
      "▁आखिरी": 4555,
      "▁निर्मा": 4556,
      "स्कृत": 4557,
      "▁विद्यार्थ": 4558,
      "▁विशाल": 4559,
      "खों": 4560,
      "▁दस्ता": 4561,
      "▁बचाने": 4562,
      "▁त्या": 4563,
      "छा": 4564,
      "▁रवि": 4565,
      "▁महिलाएं": 4566,
      "िवर्स": 4567,
      "म,": 4568,
      "ानु": 4569,
      "▁पुष्टि": 4570,
      "▁एंटी": 4571,
      "▁स्थल": 4572,
      "यात": 4573,
      "▁सारा": 4574,
      "ज़ी": 4575,
      "्वा": 4576,
      "▁एशिया": 4577,
      "▁लगने": 4578,
      "सलमान": 4579,
      "▁प्रतिष्ठ": 4580,
      "▁चोरी": 4581,
      "▁डेटा": 4582,
      "▁कठिन": 4583,
      "▁उत्सा": 4584,
      "▁गी": 4585,
      "▁L": 4586,
      "▁टिप्प": 4587,
      "▁दिये": 4588,
      "▁मैने": 4589,
      "▁सके।": 4590,
      "दर्भ": 4591,
      "मह": 4592,
      "ंडर": 4593,
      "▁मशीन": 4594,
      "▁सन": 4595,
      "▁गई।\n": 4596,
      "▁गुर": 4597,
      "प्रदेश": 4598,
      "▁लॉकडाउन": 4599,
      "▁60": 4600,
      "▁छोड़कर": 4601,
      "कुमार": 4602,
      "▁पव": 4603,
      "▁ग्रहण": 4604,
      "▁ब्रे": 4605,
      "▁स्त्री": 4606,
      "ोने": 4607,
      "विंद": 4608,
      "▁झार": 4609,
      "ाइट": 4610,
      "▁हिमा": 4611,
      "▁फायदे": 4612,
      "▁संविधान": 4613,
      "▁आरोपियों": 4614,
      "▁घट": 4615,
      "▁वर": 4616,
      "▁आवास": 4617,
      "▁खतरा": 4618,
      "▁29": 4619,
      "वर्क": 4620,
      "▁विन": 4621,
      "▁शास": 4622,
      "शाला": 4623,
      "ारीरिक": 4624,
      "▁कैम": 4625,
      "▁खाली": 4626,
      "भूम": 4627,
      "▁कॉन्": 4628,
      "न्त्र": 4629,
      "▁गुणवत्ता": 4630,
      "▁क्रिया": 4631,
      "▁प्रतियोग": 4632,
      "▁सैन्य": 4633,
      "श्चा": 4634,
      "▁आल": 4635,
      "तरे": 4636,
      "▁आदित्य": 4637,
      "▁पटेल": 4638,
      "▁W": 4639,
      "नतम": 4640,
      "▁मरीज": 4641,
      "▁बाबा": 4642,
      "▁निम्न": 4643,
      "▁साथ,": 4644,
      "▁नाग": 4645,
      "▁लॉन्च": 4646,
      "ेलन": 4647,
      "००": 4648,
      "त्न": 4649,
      "▁कक्षा": 4650,
      "गण": 4651,
      "▁कंट": 4652,
      "▁आगा": 4653,
      "▁ट्विटर": 4654,
      "तिहासिक": 4655,
      "दाता": 4656,
      "वती": 4657,
      "देन": 4658,
      "र्डर": 4659,
      "▁चक्र": 4660,
      "▁जहा": 4661,
      "▁धम": 4662,
      "▁फैल": 4663,
      "ठे": 4664,
      "▁समझा": 4665,
      "▁पुरानी": 4666,
      "अल": 4667,
      "▁संबंधी": 4668,
      "िफ": 4669,
      "जिए": 4670,
      "▁तरीका": 4671,
      "जिट": 4672,
      "de": 4673,
      "▁जला": 4674,
      "टका": 4675,
      "▁प्रत्या": 4676,
      "▁द्र": 4677,
      "▁उसको": 4678,
      "▁निरी": 4679,
      "▁अधिनियम": 4680,
      "▁प्लान": 4681,
      "ch": 4682,
      "▁प्रसार": 4683,
      "▁रिट": 4684,
      "▁फैंस": 4685,
      "▁क्लिक": 4686,
      "▁अय": 4687,
      "िमी": 4688,
      "▁तथ्य": 4689,
      "▁मालिक": 4690,
      "▁कार्यकर्ताओं": 4691,
      "▁बहन": 4692,
      "▁ज्यादातर": 4693,
      "▁कारोबार": 4694,
      "▁o": 4695,
      "▁पेट्रोल": 4696,
      "▁वैक्सीन": 4697,
      "क्का": 4698,
      "▁बराम": 4699,
      "▁टूट": 4700,
      "ेंगे।\n": 4701,
      "▁श्रेणी": 4702,
      "▁अशोक": 4703,
      "▁शारीरिक": 4704,
      "▁संगठ": 4705,
      "मल": 4706,
      "िक्र": 4707,
      "ैनिक": 4708,
      "ूसरे": 4709,
      "▁मेह": 4710,
      "▁नती": 4711,
      "▁१९": 4712,
      "▁पहुंचने": 4713,
      "ं.": 4714,
      "▁मकान": 4715,
      "▁विराट": 4716,
      "▁एजेंसी": 4717,
      "▁चीजों": 4718,
      "्लो": 4719,
      "ेंशन": 4720,
      "लेकिन": 4721,
      "ing": 4722,
      "▁आशा": 4723,
      "▁संबोधित": 4724,
      "▁संय": 4725,
      "\nअ": 4726,
      "▁दरवा": 4727,
      "▁बढ़ावा": 4728,
      "▁इलेक्ट्र": 4729,
      "पुर,": 4730,
      "ताव": 4731,
      "र्ज": 4732,
      "▁अंदा": 4733,
      "▁ग्रे": 4734,
      "ाप्ति": 4735,
      "▁अपेक्षा": 4736,
      "ay": 4737,
      "▁टू": 4738,
      "धिकारिक": 4739,
      "▁विश्ले": 4740,
      "ोजे": 4741,
      "19": 4742,
      "एसपी": 4743,
      "▁सफाई": 4744,
      "तलब": 4745,
      "कोर": 4746,
      "▁जितना": 4747,
      "धीरे": 4748,
      "▁जर्म": 4749,
      "▁सरल": 4750,
      "▁परिसर": 4751,
      "एं।": 4752,
      "▁फैला": 4753,
      "श्विक": 4754,
      "▁ईश्वर": 4755,
      "▁बाइक": 4756,
      "ङ्": 4757,
      "▁विज्ञ": 4758,
      "▁हूं,": 4759,
      "ैंक": 4760,
      "▁संचालन": 4761,
      "▁पढ़ें": 4762,
      "▁देखें": 4763,
      "▁हां": 4764,
      "▁आंखों": 4765,
      "ायण": 4766,
      "▁विशिष्ट": 4767,
      "▁करें.": 4768,
      "▁दस्तावे": 4769,
      "राग": 4770,
      "▁पुस्तक": 4771,
      "▁सेट": 4772,
      "▁सीजन": 4773,
      "▁मान्यता": 4774,
      "▁मुंह": 4775,
      "▁इका": 4776,
      "▁नज़र": 4777,
      "मैन": 4778,
      "▁भौ": 4779,
      "▁आलो": 4780,
      "▁अभिन": 4781,
      "▁अर्थव्यवस्था": 4782,
      "▁कॉल": 4783,
      "▁पंड": 4784,
      "▁संसा": 4785,
      "▁अल्": 4786,
      "▁संदर्भ": 4787,
      "▁वकी": 4788,
      "▁युग": 4789,
      "ताप": 4790,
      "▁इंटरनेट": 4791,
      "▁जिम्मेदार": 4792,
      "▁पहुँच": 4793,
      "क्षे": 4794,
      "▁छत्तीसगढ़": 4795,
      "▁गए.": 4796,
      "▁अफ्री": 4797,
      "भो": 4798,
      "▁पदा": 4799,
      "▁फें": 4800,
      "▁यूक्रे": 4801,
      "ंधे": 4802,
      "▁पशु": 4803,
      "लाब": 4804,
      "▁ग्रुप": 4805,
      "घटना": 4806,
      "▁शहरों": 4807,
      "▁समुद्र": 4808,
      "▁प्रारंभ": 4809,
      "▁एच": 4810,
      "▁जमकर": 4811,
      "▁U": 4812,
      "माग": 4813,
      "▁भेद": 4814,
      "▁f": 4815,
      "▁गई,": 4816,
      "भाषा": 4817,
      "▁धा": 4818,
      "▁विधि": 4819,
      "▁बोले": 4820,
      "▁योजनाओं": 4821,
      "▁मेहनत": 4822,
      "▁प्रबंध": 4823,
      "थी": 4824,
      "▁खेती": 4825,
      "खिम": 4826,
      "▁असम": 4827,
      "▁महत्": 4828,
      "▁2016": 4829,
      "▁कहती": 4830,
      "▁अभिनेता": 4831,
      "-पिता": 4832,
      "▁ढंग": 4833,
      "▁हवाई": 4834,
      "नाम": 4835,
      "ुण": 4836,
      "ो,": 4837,
      "▁हाउस": 4838,
      "▁कविता": 4839,
      "▁खाद्य": 4840,
      "▁विरोधी": 4841,
      "▁आईपीएल": 4842,
      "▁सूत्रों": 4843,
      "▁रोहित": 4844,
      "▁हरा": 4845,
      "▁माहौल": 4846,
      "▁गुजर": 4847,
      "डु": 4848,
      "▁लगाई": 4849,
      "▁मनी": 4850,
      "▁सर्वे": 4851,
      "▁बरामद": 4852,
      "सबुक": 4853,
      "▁बरा": 4854,
      "▁व्र": 4855,
      "▁अतः": 4856,
      "▁एज": 4857,
      "▁आबादी": 4858,
      "र्द": 4859,
      "▁वैज्ञानिक": 4860,
      "फोन": 4861,
      "पूर्वक": 4862,
      "▁दुख": 4863,
      "▁कथित": 4864,
      "▁ऐतिहासिक": 4865,
      "▁खंड": 4866,
      "▁इलाकों": 4867,
      "▁शुद्ध": 4868,
      "▁किरदार": 4869,
      "स्वा": 4870,
      "▁आदर्श": 4871,
      "▁साथी": 4872,
      "▁कोच": 4873,
      "वह": 4874,
      "▁रहेगा।": 4875,
      "▁एका": 4876,
      "▁स्कूलों": 4877,
      "▁कराई": 4878,
      "▁तुम्हें": 4879,
      "त्तर": 4880,
      "▁लंबी": 4881,
      "▁सिने": 4882,
      "▁भरा": 4883,
      "▁चाय": 4884,
      "नान": 4885,
      "▁टुक": 4886,
      "्यवाद": 4887,
      "il": 4888,
      "टिल": 4889,
      "▁अजय": 4890,
      "▁संग्रह": 4891,
      "▁आधिकारिक": 4892,
      "▁हिन्दू": 4893,
      "▁बिक्री": 4894,
      "▁झारखंड": 4895,
      "▁35": 4896,
      "▁दाम": 4897,
      "▁जानने": 4898,
      "▁मुसलमान": 4899,
      "▁?\n": 4900,
      "स्टिक": 4901,
      "ज,": 4902,
      "▁जोखिम": 4903,
      "▁साहब": 4904,
      "एंगे": 4905,
      "▁है।\nइस": 4906,
      "▁वर्ल्ड": 4907,
      "▁कार्यवाही": 4908,
      "ंदे": 4909,
      "दल": 4910,
      "▁पढ़ने": 4911,
      "▁सीमित": 4912,
      "▁चिकित्स": 4913,
      "▁अनुक": 4914,
      "▁उत्तराखंड": 4915,
      "▁होम": 4916,
      "▁रास्ता": 4917,
      "▁उत्पादों": 4918,
      "▁सुझा": 4919,
      "▁वैश्विक": 4920,
      "▁सवार": 4921,
      "▁झा": 4922,
      "िया,": 4923,
      "▁जंग": 4924,
      "▁उतार": 4925,
      "▁नीतीश": 4926,
      "▁सॉ": 4927,
      "ंपरा": 4928,
      "▁सम्मेलन": 4929,
      "▁मुकद": 4930,
      "▁हिसाब": 4931,
      "ेर": 4932,
      "▁मिश्रा": 4933,
      "ुरा": 4934,
      "▁दीप": 4935,
      "▁फिट": 4936,
      "▁नेशनल": 4937,
      "ंटर": 4938,
      "▁प्रभावी": 4939,
      "▁छात्रा": 4940,
      "▁सकारात्मक": 4941,
      "ारों": 4942,
      "▁ब्रह्म": 4943,
      "▁'अ": 4944,
      "ूंगा": 4945,
      "▁गहरा": 4946,
      "णे": 4947,
      "▁दूसरों": 4948,
      "▁ब्रि": 4949,
      "▁मंडल": 4950,
      "नाटक": 4951,
      "▁2014": 4952,
      "▁दिखाया": 4953,
      "पात": 4954,
      "▁भक्त": 4955,
      "▁श्रृ": 4956,
      "स्तानी": 4957,
      "▁पंजी": 4958,
      "▁कले": 4959,
      "भूमि": 4960,
      "▁प्रौ": 4961,
      "▁गठन": 4962,
      "▁वेतन": 4963,
      "▁आपूर्ति": 4964,
      "▁उठाया": 4965,
      "▁माता-पिता": 4966,
      "स्वरूप": 4967,
      "▁ट्रांस": 4968,
      "चय": 4969,
      "ष्टाचार": 4970,
      "घु": 4971,
      "▁पदों": 4972,
      "बारी": 4973,
      "▁2.": 4974,
      "▁दशक": 4975,
      "▁दिलच": 4976,
      "▁ब्रां": 4977,
      "बत": 4978,
      "▁पर्": 4979,
      "▁इनका": 4980,
      "▁सका": 4981,
      "▁सड़": 4982,
      "▁मार्केट": 4983,
      "▁दाख": 4984,
      "ितीय": 4985,
      "▁हफ्": 4986,
      "▁ब्राह": 4987,
      "▁खुलासा": 4988,
      "▁वॉ": 4989,
      "\nस": 4990,
      "पुरी": 4991,
      "▁तैनात": 4992,
      "▁कैंसर": 4993,
      "us": 4994,
      "▁चैनल": 4995,
      "▁हूं.": 4996,
      "राज्य": 4997,
      "▁मिट्टी": 4998,
      "▁स्वच्छ": 4999,
      "▁बेहत": 5000,
      "▁कल्पना": 5001,
      "▁पर्यावरण": 5002,
      "ंखला": 5003,
      "▁रम": 5004,
      "▁स्किन": 5005,
      "▁मोहम्मद": 5006,
      "▁मैचों": 5007,
      "विक": 5008,
      "▁लाइफ": 5009,
      "▁ज़्यादा": 5010,
      "▁गतिविधियों": 5011,
      "▁वर्मा": 5012,
      "▁दाय": 5013,
      "▁लगाकर": 5014,
      "बारा": 5015,
      "▁अंग्रेजी": 5016,
      "पत्र": 5017,
      "▁मनाया": 5018,
      "ूत": 5019,
      "हिर": 5020,
      "▁ध्व": 5021,
      "▁फ़िल्म": 5022,
      "▁लगते": 5023,
      "▁अनिवार": 5024,
      "▁निर्वा": 5025,
      "▁इंजी": 5026,
      "▁भरोसा": 5027,
      "▁प्रजा": 5028,
      "▁लड़कियों": 5029,
      "ग्न": 5030,
      "नै": 5031,
      "▁बचाव": 5032,
      "स्करण": 5033,
      "मंद": 5034,
      "लोड": 5035,
      "▁रजि": 5036,
      "▁198": 5037,
      "▁लुक": 5038,
      "ad": 5039,
      "▁प्रकट": 5040,
      "मती": 5041,
      "▁गर्मी": 5042,
      "▁चै": 5043,
      "िग": 5044,
      "▁वार्ड": 5045,
      "▁रिस": 5046,
      "▁होगी।\n": 5047,
      "िकोण": 5048,
      "▁स्ट्र": 5049,
      "▁यूनिवर्स": 5050,
      "▁गीत": 5051,
      "बता": 5052,
      "▁वापसी": 5053,
      "▁लेता": 5054,
      "-श": 5055,
      "▁वर्णन": 5056,
      "▁विपरी": 5057,
      "▁नष्ट": 5058,
      "el": 5059,
      "वों": 5060,
      "▁हालात": 5061,
      "▁संसार": 5062,
      "▁खींच": 5063,
      "▁हुआ,": 5064,
      "▁बढ़ते": 5065,
      "तल": 5066,
      "ोग्राम": 5067,
      "▁बुद्धि": 5068,
      "▁विट": 5069,
      "▁व्यक्तियों": 5070,
      "▁तारीख": 5071,
      "▁तिव": 5072,
      "▁डाला": 5073,
      "▁फसल": 5074,
      "▁दोस्तों": 5075,
      "▁परंपरा": 5076,
      "▁डो": 5077,
      "▁सपा": 5078,
      "▁कहता": 5079,
      "वेट": 5080,
      "लान": 5081,
      "▁४": 5082,
      "ब्दी": 5083,
      "क्षी": 5084,
      "▁पश्चिमी": 5085,
      "▁प्रगति": 5086,
      "▁O": 5087,
      "▁गठबंधन": 5088,
      "▁आमतौर": 5089,
      "▁अनुकूल": 5090,
      "गरी": 5091,
      "ंग्ला": 5092,
      "▁प्रेस": 5093,
      "▁राव": 5094,
      "लिंग": 5095,
      "▁जुड़ा": 5096,
      "▁कौशल": 5097,
      "▁राजी": 5098,
      "▁of": 5099,
      "ेंगे.": 5100,
      "▁एप": 5101,
      "देह": 5102,
      "▁न्यूज": 5103,
      "▁रखता": 5104,
      "▁तकनीकी": 5105,
      "▁दलों": 5106,
      "▁निदेशक": 5107,
      "▁अवश्य": 5108,
      "▁प्रोड": 5109,
      "▁तुम्हारे": 5110,
      "-ए": 5111,
      "▁रेट": 5112,
      "ल्ला": 5113,
      "▁ताकत": 5114,
      "▁मंजू": 5115,
      "▁है।\n-": 5116,
      "▁हफ्ते": 5117,
      "टरी": 5118,
      "▁दर्शकों": 5119,
      "▁कैप": 5120,
      "▁हुए।": 5121,
      "▁भिन्न": 5122,
      "▁मिलाकर": 5123,
      "▁जागरूक": 5124,
      "रोज": 5125,
      "▁कमे": 5126,
      "▁तिवारी": 5127,
      "ir": 5128,
      "▁परंतु": 5129,
      "▁th": 5130,
      "▁अक": 5131,
      "मात्र": 5132,
      "स्तर": 5133,
      "भि": 5134,
      "▁कार्यकर्ता": 5135,
      "्डी": 5136,
      "▁आना": 5137,
      "▁किनारे": 5138,
      "▁परा": 5139,
      "▁पेड़": 5140,
      "▁प्रदर्श": 5141,
      "▁अभ्यास": 5142,
      "्ली": 5143,
      "▁अट": 5144,
      "▁...": 5145,
      "▁नागरिकों": 5146,
      "हीन": 5147,
      "▁वाहनों": 5148,
      "▁प्रियंका": 5149,
      "▁टैक्स": 5150,
      "न्यास": 5151,
      "िटिश": 5152,
      "▁एव": 5153,
      "▁छाप": 5154,
      "▁बें": 5155,
      "त्सा": 5156,
      "▁बल्लेबाज": 5157,
      "▁करेगा": 5158,
      "▁बोली": 5159,
      "▁सम्मानित": 5160,
      "पथ": 5161,
      "▁तकनीक": 5162,
      "▁उक्त": 5163,
      "▁गुप्ता": 5164,
      "मेल": 5165,
      "....": 5166,
      "वरों": 5167,
      "्यूटर": 5168,
      "▁ग्राहकों": 5169,
      "▁80": 5170,
      "भाष": 5171,
      "-वि": 5172,
      "▁सिनेमा": 5173,
      "▁बच्चा": 5174,
      "र,": 5175,
      "▁सश": 5176,
      "ारण": 5177,
      "▁अकाउंट": 5178,
      "-बार": 5179,
      "▁हस्त": 5180,
      "▁खड़ी": 5181,
      "▁है।\nअ": 5182,
      "▁चौहान": 5183,
      "▁नोटिस": 5184,
      "▁है;": 5185,
      "▁सम्प": 5186,
      "▁समझने": 5187,
      "▁शुक्": 5188,
      "▁तट": 5189,
      "▁संभाल": 5190,
      "▁इंसान": 5191,
      "▁फार": 5192,
      "▁जाएंगे।": 5193,
      "▁गर": 5194,
      "त्रि": 5195,
      "स,": 5196,
      "▁कानूनी": 5197,
      "▁गुस्": 5198,
      "▁हादसे": 5199,
      "ट्यू": 5200,
      "▁चीजें": 5201,
      "▁संरक्षण": 5202,
      "▁उपस्थिति": 5203,
      "ष्णु": 5204,
      "▁पृष्ठ": 5205,
      "ैंप": 5206,
      "दरा": 5207,
      "▁मारे": 5208,
      "पेट": 5209,
      "▁“": 5210,
      "▁निधन": 5211,
      "▁ऋण": 5212,
      "बूर": 5213,
      "▁खेलने": 5214,
      "▁विचारों": 5215,
      "▁रेखा": 5216,
      "श्चर्य": 5217,
      "▁रोल": 5218,
      "▁कने": 5219,
      "▁हेल्": 5220,
      "▁प्रावधान": 5221,
      "ीप": 5222,
      "▁शुल्क": 5223,
      "▁बेहतरीन": 5224,
      "▁रोमा": 5225,
      "▁कमेटी": 5226,
      "▁फंड": 5227,
      "▁करेगा।": 5228,
      "▁अमर": 5229,
      "जरीवाल": 5230,
      "ुस्तान": 5231,
      "▁कू": 5232,
      "▁c": 5233,
      "ews": 5234,
      "▁माने": 5235,
      "लाइ": 5236,
      "▁पवित्र": 5237,
      "▁शख": 5238,
      "▁अनिवार्य": 5239,
      "▁अर्थात्": 5240,
      "वाने": 5241,
      "▁प्राय": 5242,
      "▁पोल": 5243,
      "▁नियुक्त": 5244,
      "▁दिमाग": 5245,
      "ज्य": 5246,
      "डेट": 5247,
      "▁पाते": 5248,
      "▁मालूम": 5249,
      "▁कोविड-19": 5250,
      "▁समस्त": 5251,
      "1.": 5252,
      "▁अवि": 5253,
      "et": 5254,
      "▁बदलने": 5255,
      "▁w": 5256,
      "▁इंजीनियर": 5257,
      "▁नाराज": 5258,
      "गज": 5259,
      "▁तृ": 5260,
      "▁प्रोजे": 5261,
      "▁खूबसूरत": 5262,
      "▁साइट": 5263,
      "▁घटनाओं": 5264,
      "▁70": 5265,
      "ामिन": 5266,
      "▁हजारों": 5267,
      "▁बाग": 5268,
      "▁लिस्ट": 5269,
      "रावट": 5270,
      "▁लिप": 5271,
      "▁सेवाओं": 5272,
      "▁पांडे": 5273,
      "▁लाखों": 5274,
      "्राष्ट्रीय": 5275,
      "वट": 5276,
      "▁मुद्दों": 5277,
      "▁हैः": 5278,
      "▁अह": 5279,
      "▁इंडस्ट्री": 5280,
      "▁यात्रियों": 5281,
      "दाबाद": 5282,
      "▁नेटवर्क": 5283,
      "-धीरे": 5284,
      "▁भोपाल": 5285,
      "▁(अ": 5286,
      "▁श्रा": 5287,
      "▁खरीदने": 5288,
      "ेंगे,": 5289,
      "पूर": 5290,
      "▁प्रि": 5291,
      "▁दलित": 5292,
      "▁स्रो": 5293,
      "▁दीवार": 5294,
      "▁शूटिंग": 5295,
      "▁गिरावट": 5296,
      "▁स्थिर": 5297,
      "▁मजबूर": 5298,
      "▁शांत": 5299,
      "▁प्रदू": 5300,
      "▁है\n": 5301,
      "-फ": 5302,
      "▁आशी": 5303,
      "रणा": 5304,
      "ई,": 5305,
      "वो": 5306,
      "▁खुले": 5307,
      "oo": 5308,
      "▁(I": 5309,
      "रत": 5310,
      "▁सागर": 5311,
      "▁भाषण": 5312,
      "▁वार्": 5313,
      "▁भय": 5314,
      "▁स्क्रीन": 5315,
      "▁चलाने": 5316,
      "▁सिटी": 5317,
      "▁सोन": 5318,
      "ुक्ति": 5319,
      "▁मिशन": 5320,
      "▁अवस्था": 5321,
      "▁विरु": 5322,
      "▁दृष्टिकोण": 5323,
      "▁तंत्र": 5324,
      "माश": 5325,
      "▁तर्क": 5326,
      "▁जाएगा.": 5327,
      "▁भ्रष्टाचार": 5328,
      "▁शेष": 5329,
      "▁दौरे": 5330,
      "▁बचने": 5331,
      "▁व्याव": 5332,
      "फॉर्म": 5333,
      "अपने": 5334,
      "ुष": 5335,
      "▁फो": 5336,
      "▁आतंकवाद": 5337,
      "▁अनिल": 5338,
      "▁रणनीति": 5339,
      "-आ": 5340,
      "▁दास": 5341,
      "▁हरि": 5342,
      "▁कमाई": 5343,
      "▁आश्चर्य": 5344,
      "▁खतर": 5345,
      "▁हस्ता": 5346,
      "▁फाइनल": 5347,
      "▁पीठ": 5348,
      "▁प्रेरित": 5349,
      "▁बनाते": 5350,
      "▁केजरीवाल": 5351,
      "▁फेसबुक": 5352,
      "िके": 5353,
      "▁उल्ल": 5354,
      "▁पीने": 5355,
      "▁बुरी": 5356,
      "▁टेली": 5357,
      "लामी": 5358,
      "ांसी": 5359,
      "▁गाने": 5360,
      "बान": 5361,
      "▁प्रभु": 5362,
      "िरा": 5363,
      "▁कर्नाटक": 5364,
      "ें।\n": 5365,
      "म्मत": 5366,
      "▁डाउन": 5367,
      "-च": 5368,
      "स्कृतिक": 5369,
      "सुर": 5370,
      "▁परिवहन": 5371,
      "▁जनरल": 5372,
      "2.": 5373,
      "▁दुर्घटना": 5374,
      "▁टिप्पणी": 5375,
      "▁प्रतिभा": 5376,
      "▁ब्राह्मण": 5377,
      "▁रद्द": 5378,
      "ेड़": 5379,
      "ंग्लादेश": 5380,
      "▁पश्चा": 5381,
      "▁फुट": 5382,
      "▁देखभाल": 5383,
      "▁बढ़े": 5384,
      "▁जाएगी": 5385,
      "लिख": 5386,
      "▁पोर्ट": 5387,
      "रोध": 5388,
      "▁धीरे-धीरे": 5389,
      "मुझे": 5390,
      "स्टिस": 5391,
      "ेन्द्र": 5392,
      "▁५": 5393,
      "▁एसपी": 5394,
      "▁वितरण": 5395,
      "▁हिमाचल": 5396,
      "ag": 5397,
      "▁सैनिकों": 5398,
      "▁दें।": 5399,
      "▁2023": 5400,
      "ग्ध": 5401,
      "रक": 5402,
      "सप": 5403,
      "▁अब्": 5404,
      "▁बांध": 5405,
      "▁शिक्षकों": 5406,
      "▁महीनों": 5407,
      "▁साव": 5408,
      "ांतर": 5409,
      "▁माय": 5410,
      "श्रे": 5411,
      "▁V": 5412,
      "▁जॉ": 5413,
      "▁कमल": 5414,
      "▁यूनिवर्सिटी": 5415,
      "▁लंबा": 5416,
      "▁तस्वीरें": 5417,
      "िशन": 5418,
      "पत": 5419,
      "▁लड़के": 5420,
      "▁सूर": 5421,
      "व्र": 5422,
      "▁विवरण": 5423,
      "▁कव": 5424,
      "▁प्रय": 5425,
      "ानिस्तान": 5426,
      "ज्ञा": 5427,
      "▁नींद": 5428,
      "लंका": 5429,
      "▁काउ": 5430,
      "▁सड़कों": 5431,
      "ी,": 5432,
      "▁विरुद्ध": 5433,
      "▁नये": 5434,
      "क्रो": 5435,
      "▁बराबर": 5436,
      "▁डायरे": 5437,
      "▁अभिनेत्री": 5438,
      "▁लेन": 5439,
      "सच": 5440,
      "राइ": 5441,
      "कालीन": 5442,
      "▁महाराज": 5443,
      "▁साधारण": 5444,
      "रूप": 5445,
      "कृष्ण": 5446,
      "▁प्रवक्ता": 5447,
      "▁इस्ती": 5448,
      "ेंट्स": 5449,
      "यल": 5450,
      "▁मछ": 5451,
      "▁आगामी": 5452,
      "▁पूर्वी": 5453,
      "▁किरा": 5454,
      "▁बध": 5455,
      "▁ब्रिटिश": 5456,
      "▁प्रार्थ": 5457,
      "मस": 5458,
      "कता": 5459,
      "हल": 5460,
      "▁फ्री": 5461,
      "ढ़े": 5462,
      "un": 5463,
      "ायकों": 5464,
      "▁अग्रवाल": 5465,
      "▁अखबार": 5466,
      "ent": 5467,
      "▁काले": 5468,
      "▁J": 5469,
      "ैक्ट": 5470,
      "▁तमिल": 5471,
      "▁प्रोजेक्ट": 5472,
      "▁निकाला": 5473,
      "▁अफ्रीका": 5474,
      "▁समर्": 5475,
      "▁p": 5476,
      "▁सुल": 5477,
      "▁इंडियन": 5478,
      "▁जानी": 5479,
      "▁मूर्": 5480,
      "▁अकेले": 5481,
      "धारा": 5482,
      "▁रानी": 5483,
      "्यूटी": 5484,
      "▁स्वभाव": 5485,
      "▁धन्यवाद": 5486,
      "▁(2": 5487,
      "▁प्रौद्योगिक": 5488,
      "▁चम": 5489,
      "▁दुः": 5490,
      "▁लें।": 5491,
      "▁आलोचना": 5492,
      "▁त्याग": 5493,
      "▁पहुँ": 5494,
      "भाग्य": 5495,
      "▁निशाना": 5496,
      "▁भ्रम": 5497,
      "lo": 5498,
      "▁मंजूरी": 5499,
      "▁श्रृंखला": 5500,
      "▁बिता": 5501,
      "▁आर्ट": 5502,
      "▁एक्सप्रेस": 5503,
      "▁सिव": 5504,
      "▁जीतने": 5505,
      "नी,": 5506,
      "▁लोगो": 5507,
      "हारी": 5508,
      "▁टो": 5509,
      "▁व्रत": 5510,
      "▁कुमार,": 5511,
      "▁सेहत": 5512,
      "▁सुझाव": 5513,
      "▁शह": 5514,
      "▁हटाने": 5515,
      "▁धमकी": 5516,
      "▁बोला": 5517,
      "▁दीपक": 5518,
      "शाह": 5519,
      "▁शास्त्र": 5520,
      "▁संस्कृत": 5521,
      "and": 5522,
      "▁टॉ": 5523,
      "▁पुरुषों": 5524,
      "स्फ": 5525,
      "▁शैली": 5526,
      "▁प्रोत्सा": 5527,
      "▁खेले": 5528,
      "▁उल्लंघ": 5529,
      "▁निकट": 5530,
      "पीय": 5531,
      "▁अफग": 5532,
      "▁प्राण": 5533,
      "-व": 5534,
      "▁अधिकतम": 5535,
      "▁दरअसल,": 5536,
      "▁बिंद": 5537,
      "-कभी": 5538,
      "गाह": 5539,
      "▁सफेद": 5540,
      "▁स्कोर": 5541,
      "▁स्पे": 5542,
      "▁बताने": 5543,
      "स्कर": 5544,
      "▁खि": 5545,
      "▁लाया": 5546,
      "▁लहर": 5547,
      "क्षर": 5548,
      "▁इसको": 5549,
      "▁संस्कार": 5550,
      "▁प्रसन्न": 5551,
      "▁विटामिन": 5552,
      "टीन": 5553,
      "क्षेप": 5554,
      "▁पत्रिका": 5555,
      "10": 5556,
      "▁वाता": 5557,
      "▁बदले": 5558,
      "म्मच": 5559,
      "िना": 5560,
      "▁वनडे": 5561,
      "▁नज": 5562,
      "▁हरी": 5563,
      "▁खून": 5564,
      "▁एक-द": 5565,
      "▁रहीं": 5566,
      "याल": 5567,
      "▁2015": 5568,
      "राण": 5569,
      "▁झु": 5570,
      "▁मास्क": 5571,
      "काता": 5572,
      "▁रॉय": 5573,
      "क्य": 5574,
      "re": 5575,
      "▁in": 5576,
      "▁197": 5577,
      "▁शता": 5578,
      "▁विद्या": 5579,
      "▁पत": 5580,
      "व्यू": 5581,
      "▁लूट": 5582,
      "पीट": 5583,
      "डि": 5584,
      "▁अस्त": 5585,
      "▁ग्रामीणों": 5586,
      "▁माया": 5587,
      "दायक": 5588,
      "मार्": 5589,
      "▁विश्लेषण": 5590,
      "▁पार्क": 5591,
      "▁पत्थर": 5592,
      "▁45": 5593,
      "▁६": 5594,
      "▁चम्मच": 5595,
      "▁सोचा": 5596,
      "यत": 5597,
      "▁पात्र": 5598,
      "षेक": 5599,
      "▁अखिलेश": 5600,
      "गरानी": 5601,
      "▁फॉर्म": 5602,
      "▁उपभो": 5603,
      "▁चुनावों": 5604,
      "▁विविध": 5605,
      "इयों": 5606,
      "▁अल्प": 5607,
      "▁इंस्टा": 5608,
      "iv": 5609,
      "▁रुक": 5610,
      "▁जगत": 5611,
      "साई": 5612,
      "▁वकील": 5613,
      "▁रही।": 5614,
      "▁जानता": 5615,
      "द,": 5616,
      "▁उठाने": 5617,
      "▁गए।\n": 5618,
      "▁पहले,": 5619,
      "▁कामया": 5620,
      "▁बीज": 5621,
      "▁शख्स": 5622,
      "धीश": 5623,
      "▁रज": 5624,
      "हूर": 5625,
      "▁अर्ज": 5626,
      "▁देखी": 5627,
      "रू": 5628,
      "▁ऐलान": 5629,
      "▁यूक्रेन": 5630,
      "▁बेटा": 5631,
      "▁अस्थ": 5632,
      "▁दैनिक": 5633,
      "ST": 5634,
      "▁शही": 5635,
      "▁संरचना": 5636,
      "▁गेम": 5637,
      "▁निगरानी": 5638,
      "कअप": 5639,
      "▁इरा": 5640,
      "▁मुकाबला": 5641,
      "▁खार": 5642,
      "▁पाप": 5643,
      "▁ब्लॉक": 5644,
      "ित्त": 5645,
      "▁यूरोप": 5646,
      "▁वातावरण": 5647,
      "▁आकाश": 5648,
      "▁आर्": 5649,
      "ro": 5650,
      "▁स्टी": 5651,
      "▁संकल्प": 5652,
      "▁इमर": 5653,
      "▁भागी": 5654,
      "▁हद": 5655,
      "तावनी": 5656,
      "▁रिया": 5657,
      "▁सेक्टर": 5658,
      "▁चुप": 5659,
      "▁उल्लंघन": 5660,
      "▁इश": 5661,
      "फिक": 5662,
      "▁बजा": 5663,
      "▁संचालित": 5664,
      "परेशन": 5665,
      "-3": 5666,
      "▁खेला": 5667,
      "▁न्यूनतम": 5668,
      "टों": 5669,
      "▁कारणों": 5670,
      "वर्ती": 5671,
      "न्थ": 5672,
      "▁लीग": 5673,
      "▁37": 5674,
      "▁विस्तृत": 5675,
      "▁दोबारा": 5676,
      "▁मिलियन": 5677,
      "▁उन्न": 5678,
      "▁s": 5679,
      "▁गाँव": 5680,
      "▁बांग्लादेश": 5681,
      "कृष्ट": 5682,
      "ंख्य": 5683,
      "▁ममता": 5684,
      "▁सदा": 5685,
      "बन": 5686,
      ".’’": 5687,
      "▁बार-बार": 5688,
      "▁रैली": 5689,
      "▁आर्य": 5690,
      "वानी": 5691,
      "▁प्रतियोगिता": 5692,
      "▁संगठनों": 5693,
      "▁स्टेट": 5694,
      "▁ज़ि": 5695,
      "▁परिवारों": 5696,
      "▁मधु": 5697,
      "क्सीजन": 5698,
      "▁आहार": 5699,
      "्रेट": 5700,
      "▁गह": 5701,
      "▁दौड़": 5702,
      "▁दी.": 5703,
      "▁श्रीलंका": 5704,
      "▁आशंका": 5705,
      "▁सीबीआई": 5706,
      "िमा": 5707,
      "▁थीं.": 5708,
      "▁उतना": 5709,
      "▁मुख्यालय": 5710,
      "▁वेस्ट": 5711,
      "▁फाइ": 5712,
      "▁मनोर": 5713,
      "▁:\n": 5714,
      "▁हनु": 5715,
      "ृष्टि": 5716,
      "▁औसत": 5717,
      "रा,": 5718,
      "▁चेतावनी": 5719,
      "▁सांस्कृतिक": 5720,
      "स्को": 5721,
      "सेस": 5722,
      "-न": 5723,
      "ha": 5724,
      "रासत": 5725,
      "▁काली": 5726,
      "▁गोर": 5727,
      "फिया": 5728,
      "▁बच्ची": 5729,
      "हु": 5730,
      "▁ठे": 5731,
      "श्रेष्ठ": 5732,
      "▁बौद्ध": 5733,
      "▁आतंकी": 5734,
      "▁इधर": 5735,
      "काने": 5736,
      "▁पार्": 5737,
      "▁बाढ़": 5738,
      "▁फायर": 5739,
      "वारी": 5740,
      "▁अंजाम": 5741,
      "▁नियुक्ति": 5742,
      "▁दर्शा": 5743,
      "▁सिक": 5744,
      "▁पथ": 5745,
      "▁स्टूड": 5746,
      "ढ़ा": 5747,
      "▁गलती": 5748,
      "जिटिव": 5749,
      "▁बढ": 5750,
      "▁सपना": 5751,
      "जात": 5752,
      "▁जगहों": 5753,
      "वेयर": 5754,
      "▁बल्लेबाजी": 5755,
      "हत्या": 5756,
      "▁गए,": 5757,
      "▁समृ": 5758,
      "▁हिस्सों": 5759,
      "▁संस्करण": 5760,
      "▁परिस्थितियों": 5761,
      "▁पुनः": 5762,
      "ार्ट": 5763,
      "▁अनुस": 5764,
      "▁मशहूर": 5765,
      "्तर": 5766,
      "्वे": 5767,
      "▁इनकार": 5768,
      "▁परमेश्वर": 5769,
      "▁चुनावी": 5770,
      "▁प्रार्थना": 5771,
      "त्ते": 5772,
      "▁पुनर्": 5773,
      "▁अफसर": 5774,
      "▁उम्मीदवारों": 5775,
      "ख़": 5776,
      "▁कार्": 5777,
      "एक्स": 5778,
      "▁अमी": 5779,
      "▁प्रेरणा": 5780,
      "▁अर्जुन": 5781,
      "▁बीमा": 5782,
      "▁अक्षय": 5783,
      "▁सभ": 5784,
      "▁लगाते": 5785,
      "▁फरार": 5786,
      "▁'स": 5787,
      "▁विधायकों": 5788,
      "▁आजादी": 5789,
      "▁नवा": 5790,
      "▁90": 5791,
      "▁हिरासत": 5792,
      "ct": 5793,
      "▁पर्यटन": 5794,
      "▁होगी.": 5795,
      "घाटन": 5796,
      "▁उदय": 5797,
      "▁सुनकर": 5798,
      "▁प्रतिनिधि": 5799,
      "▁एक्": 5800,
      "▁मोटर": 5801,
      "▁किमी": 5802,
      "ोध्या": 5803,
      "जर्स": 5804,
      "▁जिनका": 5805,
      "▁राज्यपाल": 5806,
      "▁सौं": 5807,
      "▁सख्त": 5808,
      "▁सुश": 5809,
      "▁इसीलिए": 5810,
      "▁उपयुक्त": 5811,
      "▁प्राप्ति": 5812,
      "▁जंगल": 5813,
      "▁इम": 5814,
      "ोड": 5815,
      "लिखित": 5816,
      "▁जाहिर": 5817,
      "इंट": 5818,
      "▁नेपाल": 5819,
      "िएशन": 5820,
      "▁शाखा": 5821,
      "ूनों": 5822,
      "▁मनोज": 5823,
      "▁इंस्टाग्राम": 5824,
      "▁चमक": 5825,
      "▁निकलने": 5826,
      "लिये": 5827,
      "▁दी।\n": 5828,
      "▁अभिय": 5829,
      "ें.": 5830,
      "नेशनल": 5831,
      "▁अधी": 5832,
      "▁तीसरी": 5833,
      "्यक्रम": 5834,
      "eb": 5835,
      "▁चंद": 5836,
      "▁इसलिए,": 5837,
      "▁महत्त्व": 5838,
      "िव्य": 5839,
      "▁बैंकों": 5840,
      "▁निरीक्षण": 5841,
      "अगर": 5842,
      "मेट": 5843,
      "▁केरल": 5844,
      "▁प्रदूषण": 5845,
      "▁चालक": 5846,
      "कां": 5847,
      "▁500": 5848,
      "-सा": 5849,
      "▁पंडित": 5850,
      "▁भरी": 5851,
      "▁को,": 5852,
      "▁ग्राहक": 5853,
      "▁जिनकी": 5854,
      "वक": 5855,
      "▁तिथि": 5856,
      "▁सौंप": 5857,
      "पट": 5858,
      "गांव": 5859,
      "▁पूंजी": 5860,
      "▁कभी-कभी": 5861,
      "▁मृतक": 5862,
      "ीकरण": 5863,
      "ंटों": 5864,
      "जिद": 5865,
      "▁जताई": 5866,
      "▁प्रत्याशी": 5867,
      "▁किशोर": 5868,
      "▁बेल": 5869,
      "ंबित": 5870,
      "▁बधाई": 5871,
      "सास": 5872,
      "▁यश": 5873,
      "▁प्रताप": 5874,
      "18": 5875,
      "▁श्रम": 5876,
      "▁पेशे": 5877,
      "▁लड़ने": 5878,
      "▁थी.\n": 5879,
      "▁जाएगी।\n": 5880,
      "ू,": 5881,
      "▁मचा": 5882,
      "▁सूत्र": 5883,
      "▁सेंट": 5884,
      "▁सर्वा": 5885,
      "▁बढ़कर": 5886,
      "▁मिथ": 5887,
      "▁भरपूर": 5888,
      "▁ब्याज": 5889,
      "▁सैक": 5890,
      "▁ब्रा": 5891,
      "▁इजा": 5892,
      "▁गले": 5893,
      "ष्क": 5894,
      "▁अत": 5895,
      "▁विद्व": 5896,
      "▁बुद्ध": 5897,
      "▁भरे": 5898,
      "▁अध्यक्षता": 5899,
      "▁आदित्यनाथ": 5900,
      "▁निर्माता": 5901,
      "स्त्री": 5902,
      "▁सुनील": 5903,
      "▁लक्ष्मी": 5904,
      "im": 5905,
      "har": 5906,
      "दाताओं": 5907,
      "▁संबंधों": 5908,
      "▁दिक्": 5909,
      "▁लिखी": 5910,
      "▁चीज़": 5911,
      "सीय": 5912,
      "▁the": 5913,
      "▁शुरुआती": 5914,
      "▁सेल": 5915,
      "▁पुष्": 5916,
      "▁अज": 5917,
      "▁विषयों": 5918,
      "▁लेती": 5919,
      "▁ग़": 5920,
      "▁साधन": 5921,
      "▁कवर": 5922,
      "▁राजीव": 5923,
      "▁गिल": 5924,
      "लोक": 5925,
      "▁In": 5926,
      "▁हुये": 5927,
      "3.": 5928,
      "▁इंजन": 5929,
      "वर्ष": 5930,
      "▁बढ़ो": 5931,
      "वीय": 5932,
      "▁खाता": 5933,
      "▁मंज": 5934,
      "▁!\n": 5935,
      "वली": 5936,
      "▁दुष्": 5937,
      "घ्र": 5938,
      "▁बढ़ता": 5939,
      "▁उत्साह": 5940,
      "बीसी": 5941,
      "▁बदमाश": 5942,
      "▁रॉ": 5943,
      "कीन": 5944,
      "यां": 5945,
      "▁स्वाद": 5946,
      "तें": 5947,
      "▁अनुरोध": 5948,
      "▁पैमाने": 5949,
      "▁काव्य": 5950,
      "▁खारिज": 5951,
      "▁भि": 5952,
      "▁मोहन": 5953,
      "गीय": 5954,
      "▁भक्ति": 5955,
      "▁(C": 5956,
      "▁आइए": 5957,
      "▁तल": 5958,
      "▁दृश्य": 5959,
      "▁उद्ध": 5960,
      "▁पेंशन": 5961,
      "▁कोलकाता": 5962,
      "▁दौरा": 5963,
      "▁तिर": 5964,
      "नाश": 5965,
      "शास्त्र": 5966,
      "ब्ल्यू": 5967,
      "दराबाद": 5968,
      "▁दुश्म": 5969,
      "▁विपरीत": 5970,
      "▁प्रतीक": 5971,
      "▁टेक्": 5972,
      "▁बाहरी": 5973,
      "▁[": 5974,
      "▁चतु": 5975,
      "▁गिरफ्तारी": 5976,
      "▁लोन": 5977,
      "▁32": 5978,
      "▁नौकर": 5979,
      "▁बॉक्स": 5980,
      "मानत": 5981,
      "▁राजेश": 5982,
      "▁स्टा": 5983,
      "▁होगी,": 5984,
      "▁बनाता": 5985,
      "▁दायर": 5986,
      "कै": 5987,
      "पक्ष": 5988,
      "▁एक्टर": 5989,
      "प्शन": 5990,
      "डो": 5991,
      "री,": 5992,
      "्याम": 5993,
      "▁पड़ती": 5994,
      "▁अपडेट": 5995,
      "▁फेंक": 5996,
      "▁परमाण": 5997,
      "▁विशेषता": 5998,
      "दायिक": 5999,
      "ंधान": 6000,
      "▁निकालने": 6001,
      "▁कहाँ": 6002,
      "▁कृत": 6003,
      "▁क्लब": 6004,
      "▁ही,": 6005,
      "नेश": 6006,
      "▁बुनिया": 6007,
      "▁व्यापारी": 6008,
      "▁दोषी": 6009,
      "▁ऑटो": 6010,
      "▁कंट्रोल": 6011,
      "▁खतरनाक": 6012,
      "▁चरित्र": 6013,
      "-सम": 6014,
      "▁इत्या": 6015,
      "-भ": 6016,
      "भूत": 6017,
      "एसएस": 6018,
      "▁भट्ट": 6019,
      "▁संशोधन": 6020,
      "िकाओं": 6021,
      "▁टॉप": 6022,
      "▁बताई": 6023,
      "हालांकि": 6024,
      "▁चेन्न": 6025,
      "▁आकर्षित": 6026,
      "▁(S": 6027,
      "▁किंग": 6028,
      "▁लिखित": 6029,
      "▁धोनी": 6030,
      "खार": 6031,
      "▁हो.": 6032,
      "ोलॉ": 6033,
      "▁अंतर्राष्ट्रीय": 6034,
      "▁बुल": 6035,
      "▁जस्टिस": 6036,
      "▁लिखे": 6037,
      "▁व्याख्या": 6038,
      "▁सर्वश्रेष्ठ": 6039,
      "▁1,": 6040,
      "▁जबरद": 6041,
      "▁सेक्स": 6042,
      "▁हट": 6043,
      "वास्तव": 6044,
      "फो": 6045,
      "▁कां": 6046,
      "▁उधर": 6047,
      "णु": 6048,
      "सचिव": 6049,
      "▁दाखिल": 6050,
      "▁हनुमान": 6051,
      "▁पावर": 6052,
      "-सी": 6053,
      "▁नियंत्रित": 6054,
      "▁त्रि": 6055,
      "▁युवती": 6056,
      "▁फु": 6057,
      "द्दीन": 6058,
      "▁स्पी": 6059,
      "▁हाइ": 6060,
      "▁कहान": 6061,
      "धारी": 6062,
      "▁कहे": 6063,
      "वहीं": 6064,
      "▁36": 6065,
      "▁नारायण": 6066,
      "▁चौक": 6067,
      "▁जोड़ी": 6068,
      "डिया": 6069,
      "▁बचपन": 6070,
      "▁सुनने": 6071,
      "सील": 6072,
      "▁जयपुर": 6073,
      "▁ग्रा": 6074,
      "म्बे": 6075,
      "▁द्वार": 6076,
      "▁पॉजिटिव": 6077,
      "जिस": 6078,
      "▁मजा": 6079,
      "बंदी": 6080,
      "▁असली": 6081,
      "तीत": 6082,
      "▁संतुल": 6083,
      "▁जाल": 6084,
      "▁अनुप": 6085,
      "▁समाजवादी": 6086,
      "▁ठहरा": 6087,
      "▁2013": 6088,
      "▁गुना": 6089,
      "▁लिहा": 6090,
      "▁गू": 6091,
      "▁छवि": 6092,
      "तियां": 6093,
      "▁दिलचस्प": 6094,
      "▁आह": 6095,
      "▁मिलेगा।": 6096,
      "▁चैंप": 6097,
      "▁विष्णु": 6098,
      "▁काला": 6099,
      "▁सिया": 6100,
      "▁जुड़": 6101,
      "▁News": 6102,
      "वंत": 6103,
      "...\n": 6104,
      "▁रनों": 6105,
      "▁प्राइवेट": 6106,
      "▁बीमारियों": 6107,
      "▁धारण": 6108,
      "▁कर्ज": 6109,
      "▁यौन": 6110,
      "शेष": 6111,
      "लीय": 6112,
      "▁मुक्ति": 6113,
      "▁शताब्दी": 6114,
      "▁देखे": 6115,
      "ियस": 6116,
      "▁3.": 6117,
      "▁रिश": 6118,
      "▁गौरव": 6119,
      "है": 6120,
      "▁एक-दूसरे": 6121,
      "▁मध्यप्रदेश": 6122,
      "चरण": 6123,
      "▁छू": 6124,
      "▁क्षेत्रीय": 6125,
      "▁हाँ": 6126,
      "टीवी": 6127,
      "▁छोड़ने": 6128,
      "▁बैठा": 6129,
      "▁भोग": 6130,
      "▁वस्तुओं": 6131,
      "▁चार्ज": 6132,
      "▁ब्लैक": 6133,
      "▁सफर": 6134,
      "▁कच्च": 6135,
      "▁कंप्यूटर": 6136,
      "कड़ी": 6137,
      "▁सहज": 6138,
      "▁अनुसंधान": 6139,
      "▁अयोध्या": 6140,
      "▁सर्वो": 6141,
      "▁यात्री": 6142,
      "▁ऑपरेशन": 6143,
      "▁गेट": 6144,
      "▁मुकदमा": 6145,
      "▁भंड": 6146,
      "▁तप": 6147,
      "▁चोर": 6148,
      "▁सकता।": 6149,
      "रेन्द्र": 6150,
      "ूली": 6151,
      "▁उद्घाटन": 6152,
      "▁संपाद": 6153,
      "व्या": 6154,
      "▁नाटक": 6155,
      "▁कस": 6156,
      "▁आजकल": 6157,
      "्मा": 6158,
      "▁चेहरा": 6159,
      "▁प्रतिमा": 6160,
      "▁अश्व": 6161,
      "▁ताल": 6162,
      "▁ज्व": 6163,
      "▁दिल्ली।": 6164,
      "▁व्हा": 6165,
      "▁लिए।": 6166,
      "मय": 6167,
      "▁धूम": 6168,
      "▁गांवों": 6169,
      "▁कब्जा": 6170,
      "▁टूर्": 6171,
      "▁डा.": 6172,
      "▁अंश": 6173,
      "मूल": 6174,
      "णि": 6175,
      "▁एकमात्र": 6176,
      "▁हड़": 6177,
      "▁सहमति": 6178,
      "▁भी,": 6179,
      "▁न्यायाधीश": 6180,
      "▁जटिल": 6181,
      "▁मैन": 6182,
      "कर,": 6183,
      "▁ली।": 6184,
      "▁₹": 6185,
      "▁मौल": 6186,
      "▁इत्यादि": 6187,
      "▁लव": 6188,
      "▁करेंगे।\n": 6189,
      "▁वेद": 6190,
      "▁अपमान": 6191,
      "▁यो": 6192,
      "या,": 6193,
      "एसटी": 6194,
      "ट्रो": 6195,
      "ॉग": 6196,
      "नामेंट": 6197,
      "▁तार": 6198,
      "▁194": 6199,
      "▁हैं?\n": 6200,
      "▁चेक": 6201,
      "▁सदन": 6202,
      "▁ब्रिटेन": 6203,
      "▁स्पेश": 6204,
      "▁लोकतंत्र": 6205,
      ";\n-": 6206,
      "न्हा": 6207,
      "▁संतोष": 6208,
      "▁ईरान": 6209,
      "▁अत्यधिक": 6210,
      "बिनेट": 6211,
      "ॉर्ट": 6212,
      "▁घोट": 6213,
      "स्टे": 6214,
      "-4": 6215,
      "▁बट": 6216,
      "▁75": 6217,
      "▁वार्ता": 6218,
      "▁अजी": 6219,
      "▁पाता": 6220,
      "▁खबरों": 6221,
      "ब्लिक": 6222,
      "▁मारने": 6223,
      "▁एसोस": 6224,
      "▁धोखा": 6225,
      "▁खिल": 6226,
      "ूंकि": 6227,
      "▁ताजा": 6228,
      "▁मिला।": 6229,
      "▁सकी": 6230,
      "▁विद्यार्थियों": 6231,
      "▁पत्रकारों": 6232,
      "▁पदार्थों": 6233,
      "▁कुर्": 6234,
      "▁क्षण": 6235,
      "▁फिल्में": 6236,
      "फारिश": 6237,
      "फान": 6238,
      "▁चन्द्र": 6239,
      "▁न्यूज़": 6240,
      "▁हैदराबाद": 6241,
      "▁खतरे": 6242,
      "▁सुविधाओं": 6243,
      "▁कम्प": 6244,
      "▁परमाणु": 6245,
      "▁जाएगा,": 6246,
      "▁पायल": 6247,
      "▁दिग्": 6248,
      "▁जापान": 6249,
      "▁रिल": 6250,
      "▁डांस": 6251,
      "▁बारी": 6252,
      "▁म्यू": 6253,
      "▁संचार": 6254,
      "▁आयुक्त": 6255,
      "▁जाम": 6256,
      "▁ऑक्सीजन": 6257,
      "▁इंटरव्यू": 6258,
      "▁उत्तरी": 6259,
      "▁लगे।": 6260,
      "▁सिद्धांत": 6261,
      "▁गौतम": 6262,
      "▁मुफ्त": 6263,
      "▁अभाव": 6264,
      "▁सिफारिश": 6265,
      "▁आत्महत्या": 6266,
      "रेज": 6267,
      "▁अभिनय": 6268,
      "ब्यू": 6269,
      "▁केंद्रित": 6270,
      "▁बनकर": 6271,
      "▁पड़ा।": 6272,
      "▁छु": 6273,
      "▁कलाकार": 6274,
      "▁निकले": 6275,
      "वाणी": 6276,
      "▁विज्ञापन": 6277,
      "▁अस्तित्व": 6278,
      "▁शर्मा,": 6279,
      "▁मुद्दा": 6280,
      "▁मारपीट": 6281,
      "मुख्यमंत्री": 6282,
      "▁उड़ान": 6283,
      "▁टूर्नामेंट": 6284,
      "▁सोना": 6285,
      "▁उत्कृष्ट": 6286,
      "?’’": 6287,
      "▁गणेश": 6288,
      "▁जितनी": 6289,
      "बॉ": 6290,
      "▁अधीक्षक": 6291,
      "\n\n": 6292,
      "▁उपयोगी": 6293,
      "▁निरंतर": 6294,
      "4.": 6295,
      "▁अनुश": 6296,
      "▁साम्रा": 6297,
      "भारतीय": 6298,
      "▁बहस": 6299,
      "ाँ": 6300,
      "▁हंस": 6301,
      "▁अहमद": 6302,
      "▁निश्च": 6303,
      "hi": 6304,
      "▁जाओ": 6305,
      "ैस": 6306,
      "▁प्रौद्योगिकी": 6307,
      "▁गौरतलब": 6308,
      "▁भाग्य": 6309,
      "▁अमृत": 6310,
      "▁अधीन": 6311,
      "▁जड़": 6312,
      "द्यपि": 6313,
      "▁निच": 6314,
      "▁बाधा": 6315,
      "▁उपाध्यक्ष": 6316,
      "▁ट्रेडिंग": 6317,
      "▁स्टेड": 6318,
      "ंकन": 6319,
      "ंची": 6320,
      "▁बम": 6321,
      "▁अफगानिस्तान": 6322,
      "नन": 6323,
      "▁है-": 6324,
      "▁जीता": 6325,
      "खाने": 6326,
      "▁संभावित": 6327,
      "ेदी": 6328,
      "ड्स": 6329,
      "▁(A": 6330,
      "▁नवीन": 6331,
      "▁m": 6332,
      "▁सिंध": 6333,
      "टिव": 6334,
      "▁एकत्र": 6335,
      "▁युक्त": 6336,
      "▁हैं।\\n": 6337,
      "▁t": 6338,
      "बाजों": 6339,
      "ष्म": 6340,
      "▁कर्मियों": 6341,
      "▁टाइम": 6342,
      "कई": 6343,
      "▁सराह": 6344,
      "चारिक": 6345,
      "▁सचिन": 6346,
      "कश": 6347,
      "▁रुचि": 6348,
      "कस": 6349,
      "कंप": 6350,
      "▁खोलने": 6351,
      "▁शिविर": 6352,
      "काशन": 6353,
      "▁वस": 6354,
      "▁बनता": 6355,
      "▁सिलस": 6356,
      "▁दिखाने": 6357,
      "▁पाकिस्तानी": 6358,
      "▁राकेश": 6359,
      "▁डॉक्टरों": 6360,
      "▁घंटों": 6361,
      "▁आएंगे": 6362,
      "रानी": 6363,
      "▁भरने": 6364,
      "ट,": 6365,
      "▁महज": 6366,
      "▁स्टेडियम": 6367,
      "▁कलेक्टर": 6368,
      "▁क्षति": 6369,
      "▁पाएंगे": 6370,
      "डीए": 6371,
      "▁लापर": 6372,
      "▁जिक्र": 6373,
      "▁Th": 6374,
      "उथ": 6375,
      "▁आरक्षण": 6376,
      "▁दावे": 6377,
      "▁लगाना": 6378,
      "▁तीर्थ": 6379,
      "▁जानें": 6380,
      "▁ट्रक": 6381,
      "ाइम": 6382,
      "क्के": 6383,
      "▁नक": 6384,
      "▁अदा": 6385,
      "▁जाए,": 6386,
      "श्त": 6387,
      "ंत्रिक": 6388,
      "▁सिविल": 6389,
      "▁तलाक": 6390,
      "ेंसी": 6391,
      "प्रकाश": 6392,
      "▁ओपन": 6393,
      "▁स्वर": 6394,
      "यक": 6395,
      "▁सिंग": 6396,
      "▁(स": 6397,
      "▁थे.\n": 6398,
      "नई": 6399,
      "केशन": 6400,
      "▁श्रमिक": 6401,
      "▁करना,": 6402,
      "▁राजस्व": 6403,
      "▁हक": 6404,
      "िप्ट": 6405,
      "▁गोद": 6406,
      "▁पड़ने": 6407,
      "▁तहसील": 6408,
      "▁परिचय": 6409,
      "▁टीकाकरण": 6410,
      "▁सेक": 6411,
      "▁सौर": 6412,
      "▁धु": 6413,
      "र्की": 6414,
      "▁टन": 6415,
      "कर्मियों": 6416,
      "▁विपक्षी": 6417,
      "फ्रेंस": 6418,
      "▁आचार्य": 6419,
      "▁चेन्नई": 6420,
      "▁अरविंद": 6421,
      "जुर्ग": 6422,
      "▁रूम": 6423,
      "ul": 6424,
      "▁दुःख": 6425,
      "एं,": 6426,
      "▁अमरी": 6427,
      ":\n": 6428,
      "▁आग्रह": 6429,
      "▁गेंदबाज": 6430,
      "▁बिजनेस": 6431,
      "▁196": 6432,
      "▁एकता": 6433,
      "रियर": 6434,
      "▁समझते": 6435,
      "▁स्टाफ": 6436,
      "▁b": 6437,
      "▁कहा-": 6438,
      "-कश्मीर": 6439,
      "▁तुम्हारी": 6440,
      "▁नु": 6441,
      "▁शहरी": 6442,
      "▁विजे": 6443,
      "▁तारीफ": 6444,
      "▁शत्र": 6445,
      "▁पाँच": 6446,
      "▁रखकर": 6447,
      "▁तिल": 6448,
      "▁हुई,": 6449,
      "▁भौतिक": 6450,
      "▁नमक": 6451,
      "▁प्रत्यक्ष": 6452,
      "ंत्रित": 6453,
      "दुर": 6454,
      "▁जनपद": 6455,
      "▁ख्या": 6456,
      "▁थीं,": 6457,
      "▁बनाये": 6458,
      "▁Co": 6459,
      "उप": 6460,
      "सनीय": 6461,
      "▁अज्ञ": 6462,
      "वेदनशील": 6463,
      "▁बुनियादी": 6464,
      "▁पेपर": 6465,
      "▁साज": 6466,
      "▁लगा।": 6467,
      "▁एयरपोर्ट": 6468,
      "▁आंकड़ों": 6469,
      "दीय": 6470,
      "▁अग्": 6471,
      "▁मूर्ति": 6472,
      "▁लेकिन,": 6473,
      "▁$": 6474,
      "▁नक्स": 6475,
      "▁इमार": 6476,
      "▁यूरोपीय": 6477,
      "▁ईमान": 6478,
      "विश्वास": 6479,
      "▁सैनिक": 6480,
      "▁अभिषेक": 6481,
      "▁महात्मा": 6482,
      "▁कैबिनेट": 6483,
      "ड्डा": 6484,
      "▁उर्फ": 6485,
      "▁पहुंचाने": 6486,
      "▁खेत": 6487,
      "▁खासकर": 6488,
      "सायिक": 6489,
      "स्थल": 6490,
      "▁छुट्टी": 6491,
      "▁क्यू": 6492,
      "▁निर्मित": 6493,
      "बानी": 6494,
      "▁भगवान्": 6495,
      "▁शीघ्र": 6496,
      "▁फर्जी": 6497,
      "▁लिंक": 6498,
      "▁धर्": 6499,
      "पुल": 6500,
      "सीबी": 6501,
      "▁बलों": 6502,
      "डीएम": 6503,
      "▁जमानत": 6504,
      "▁इंदौर": 6505,
      "▁\"अ": 6506,
      "चित्र": 6507,
      "▁एंट": 6508,
      "▁रिसर्च": 6509,
      "क्षेत्र": 6510,
      "▁अगली": 6511,
      "15": 6512,
      "तालों": 6513,
      "▁वास": 6514,
      "▁हेल्थ": 6515,
      "▁शपथ": 6516,
      "▁=": 6517,
      "भाविक": 6518,
      "कॉ": 6519,
      "▁(P": 6520,
      "टाने": 6521,
      "▁कं": 6522,
      "▁असल": 6523,
      "ig": 6524,
      "ण्य": 6525,
      "करे": 6526,
      "▁महासचिव": 6527,
      "▁निर्वाचन": 6528,
      "ग़": 6529,
      "▁पाउ": 6530,
      "▁टी20": 6531,
      "करा": 6532,
      "▁ओल": 6533,
      "▁कार्यकाल": 6534,
      "▁कैसा": 6535,
      "▁जोशी": 6536,
      "▁लिया.": 6537,
      "▁कंग": 6538,
      "▁नकारात्मक": 6539,
      "▁स्रोत": 6540,
      "▁स्नान": 6541,
      "▁सीधा": 6542,
      "▁उपकरणों": 6543,
      "▁टक्कर": 6544,
      "▁समक्ष": 6545,
      "▁औद्योगिक": 6546,
      "▁गैंग": 6547,
      "प्रति": 6548,
      "▁मज़": 6549,
      "▁इकाई": 6550,
      "▁जाएं": 6551,
      "▁शहीद": 6552,
      "▁बेचने": 6553,
      "क्की": 6554,
      "▁शाहरु": 6555,
      "स्फोट": 6556,
      "▁जनसं": 6557,
      "▁शिश": 6558,
      "▁स्टोर": 6559,
      "▁जाया": 6560,
      "फ़ी": 6561,
      "▁लीटर": 6562,
      "25": 6563,
      "▁मानस": 6564,
      "▁पीड़िता": 6565,
      "▁ब्रांड": 6566,
      "▁प्रीम": 6567,
      "बिल": 6568,
      "▁ढूं": 6569,
      "▁निपटने": 6570,
      "जीलैंड": 6571,
      "कर्मी": 6572,
      "▁गार्ड": 6573,
      "▁करेगी।": 6574,
      "िताभ": 6575,
      "▁डिवा": 6576,
      "▁दह": 6577,
      "मतों": 6578,
      "तू": 6579,
      "धिकारियों": 6580,
      "▁रखती": 6581,
      "िंग,": 6582,
      "▁कपिल": 6583,
      "▁उज्ज": 6584,
      "्ठा": 6585,
      "▁सिक्": 6586,
      "ंटा": 6587,
      "एडा": 6588,
      "▁फ्रांस": 6589,
      "▁त्यो": 6590,
      "▁फर्": 6591,
      "▁स्थायी": 6592,
      "णसी": 6593,
      "▁हो।\n": 6594,
      "▁व्यक्तित्व": 6595,
      "▁प्लेटफॉर्म": 6596,
      "स्पे": 6597,
      "▁कुर": 6598,
      "▁दब": 6599,
      "▁रवाना": 6600,
      "▁शर्म": 6601,
      "प्ले": 6602,
      "▁है.\\n": 6603,
      "▁बुजुर्ग": 6604,
      "▁आधा": 6605,
      "▁प्रमो": 6606,
      "▁मानी": 6607,
      "▁स्मृति": 6608,
      "▁समर्पित": 6609,
      "▁घाट": 6610,
      "▁(आई": 6611,
      "▁नहीं.": 6612,
      "▁द्वितीय": 6613,
      "▁वर्षा": 6614,
      "▁अस्पतालों": 6615,
      "लील": 6616,
      "▁घे": 6617,
      "▁समझौता": 6618,
      "▁विवेक": 6619,
      "▁लिखा,": 6620,
      "▁पदाधिकारी": 6621,
      "▁चैंपियन": 6622,
      "▁हूँ।": 6623,
      "आपको": 6624,
      "▁जमी": 6625,
      "▁पारित": 6626,
      "धीन": 6627,
      "▁उठाए": 6628,
      "▁विद्युत": 6629,
      "▁बच्चन": 6630,
      "ुसार": 6631,
      "▁जोड़ा": 6632,
      "▁मेल": 6633,
      "▁अधिकतर": 6634,
      "▁दें,": 6635,
      "▁गायब": 6636,
      "ंचित": 6637,
      "ाराणसी": 6638,
      "▁अभ्य": 6639,
      "▁सीर": 6640,
      "▁स्टाइल": 6641,
      "▁ग्रंथ": 6642,
      "▁हर्ष": 6643,
      "▁समझौते": 6644,
      "द्भ": 6645,
      "धिकरण": 6646,
      "भूति": 6647,
      "▁चिंत": 6648,
      "▁परे": 6649,
      "▁पदक": 6650,
      "▁सुनाई": 6651,
      "▁मध्यम": 6652,
      "▁ढां": 6653,
      "ईओ": 6654,
      "▁संस्थानों": 6655,
      "इंग": 6656,
      "मै": 6657,
      "▁रावत": 6658,
      "▁ज़रूरत": 6659,
      "▁जीवित": 6660,
      "▁करार": 6661,
      "▁दां": 6662,
      "▁शोर": 6663,
      "▁जोड़ने": 6664,
      "ोई": 6665,
      "▁सुन्दर": 6666,
      "-एक": 6667,
      "संग": 6668,
      "▁जलवा": 6669,
      "ंसक": 6670,
      "▁बुलाया": 6671,
      "▁रहेगा": 6672,
      "▁प्रेमी": 6673,
      "▁प्रतिनिधित्व": 6674,
      "॥\n": 6675,
      "▁निर्यात": 6676,
      "छो": 6677,
      "▁कन्या": 6678,
      "हाई": 6679,
      "▁इन्द्र": 6680,
      "▁विशेषज्ञों": 6681,
      "▁सैकड़ों": 6682,
      "▁उल्लेखनीय": 6683,
      "▁हंग": 6684,
      "आइ": 6685,
      "▁इस्तीफा": 6686,
      "▁अधि": 6687,
      "धर्म": 6688,
      "▁यादव,": 6689,
      "▁तत्वों": 6690,
      "वाय": 6691,
      "▁निवास": 6692,
      "▁रोजाना": 6693,
      "नाडु": 6694,
      "▁सबको": 6695,
      "▁चू": 6696,
      "▁बोलने": 6697,
      "ाइयों": 6698,
      "टकों": 6699,
      "▁डाक्टर": 6700,
      "▁सीटें": 6701,
      "▁श्रद्धा": 6702,
      "▁इंटरनेशनल": 6703,
      "▁उन्हीं": 6704,
      "▁व्यापारियों": 6705,
      "▁खबरें": 6706,
      "।\nअ": 6707,
      "मेर": 6708,
      "वाना": 6709,
      "▁जानना": 6710,
      "▁डालने": 6711,
      "फ्तार": 6712,
      "▁धरती": 6713,
      "▁यहीं": 6714,
      "▁करण": 6715,
      "लक": 6716,
      "▁में।": 6717,
      "▁सपने": 6718,
      "▁उड़ा": 6719,
      "जलि": 6720,
      "▁विस्फोट": 6721,
      "▁गोल्ड": 6722,
      "▁हैरान": 6723,
      "▁कर्त": 6724,
      "▁कीमतों": 6725,
      "▁गुप्त": 6726,
      "क्ताओं": 6727,
      "▁कोरिया": 6728,
      "लन": 6729,
      "आत": 6730,
      "जी,": 6731,
      "▁तरीकों": 6732,
      "विंग": 6733,
      "ov": 6734,
      "ोदय": 6735,
      "▁शंकर": 6736,
      "▁बाबू": 6737,
      "▁आपदा": 6738,
      "▁इसलिये": 6739,
      "ंतरिक": 6740,
      "ह्न": 6741,
      "▁प्रतिदिन": 6742,
      "▁दोहरा": 6743,
      "▁छिपा": 6744,
      "▁प्राथमिकता": 6745,
      "▁पर्स": 6746,
      "फिर": 6747,
      "स्पति": 6748,
      "फेसर": 6749,
      "▁व्यस्त": 6750,
      "▁कार्यक्रमों": 6751,
      "ंपरिक": 6752,
      "▁सुर्": 6753,
      "▁विज": 6754,
      "▁कृपा": 6755,
      "▁राजपू": 6756,
      "▁मजदूरों": 6757,
      "▁फायदेमंद": 6758,
      "▁प्रवृत्ति": 6759,
      "▁लह": 6760,
      "ड्र": 6761,
      "▁बढ़ोतरी": 6762,
      "ग्रस्त": 6763,
      "▁नीर": 6764,
      "▁अनुरूप": 6765,
      "▁सहारा": 6766,
      "एमसी": 6767,
      "▁ब्लड": 6768,
      "▁नित": 6769,
      "▁ग्रन्थ": 6770,
      "▁गर्भ": 6771,
      "▁मनीष": 6772,
      "▁मेर": 6773,
      "▁बनर्जी": 6774,
      "▁घुस": 6775,
      "▁प्रकरण": 6776,
      "▁राज्यसभा": 6777,
      "▁भोज": 6778,
      "▁टीमों": 6779,
      "▁उपन्यास": 6780,
      "▁विफल": 6781,
      "▁ट्रंप": 6782,
      "▁हस्ताक्षर": 6783,
      "PA": 6784,
      "।\n-": 6785,
      "▁विधेय": 6786,
      "▁गिरा": 6787,
      "▁बॉस": 6788,
      "▁मुझसे": 6789,
      "▁अपर": 6790,
      "▁गईं": 6791,
      "ot": 6792,
      "भेद": 6793,
      "id": 6794,
      "▁किंतु": 6795,
      "▁सावधानी": 6796,
      "कांग": 6797,
      "▁चावल": 6798,
      "▁चिप": 6799,
      "▁श्रद्धाल": 6800,
      "▁हार्": 6801,
      "वायर": 6802,
      "▁पार्टनर": 6803,
      "▁पापा": 6804,
      "▁चक्कर": 6805,
      "▁ऑल": 6806,
      "▁धूप": 6807,
      "▁लाइव": 6808,
      "▁झग": 6809,
      "▁वर्क": 6810,
      "▁झूठ": 6811,
      "▁पैरों": 6812,
      "सेज": 6813,
      "▁करवाया": 6814,
      "▁रकम": 6815,
      "em": 6816,
      "▁क्रेड": 6817,
      "▁सत्या": 6818,
      "▁सूरज": 6819,
      "▁दिल्ली,": 6820,
      "▁पीढ़ी": 6821,
      "▁फॉलो": 6822,
      "ः\n-": 6823,
      "sit": 6824,
      "▁पिछली": 6825,
      "याम": 6826,
      "▁पेज": 6827,
      "बै": 6828,
      "ोसी": 6829,
      "▁कठोर": 6830,
      "▁बर्फ": 6831,
      "▁रहेंगे।": 6832,
      "रीय": 6833,
      "▁है!": 6834,
      "▁दिक्कत": 6835,
      "▁34": 6836,
      "▁बला": 6837,
      "-ग": 6838,
      "▁मोर्चा": 6839,
      "ut": 6840,
      "▁यद्यपि": 6841,
      "एं.": 6842,
      "▁वादा": 6843,
      "▁सबके": 6844,
      "▁दाल": 6845,
      "▁ख़ु": 6846,
      "▁पुराना": 6847,
      "▁एडम": 6848,
      "▁निशान": 6849,
      "▁मारा": 6850,
      "▁इकट": 6851,
      "▁फं": 6852,
      "▁तुलसी": 6853,
      "िकी": 6854,
      "indi": 6855,
      "▁स्वीकृति": 6856,
      "▁स्त": 6857,
      "डियो": 6858,
      "▁मंड": 6859,
      "▁चूंकि": 6860,
      "न्द्रीय": 6861,
      "जीवन": 6862,
      "▁है।\"\n": 6863,
      "त्मिक": 6864,
      "दृ": 6865,
      "▁करवाने": 6866,
      "99": 6867,
      "उत्तर": 6868,
      "▁नामांक": 6869,
      "▁सहयोगी": 6870,
      "▁33": 6871,
      "▁भावनाओं": 6872,
      "▁प्रयासों": 6873,
      "ab": 6874,
      "▁न्यूजीलैंड": 6875,
      "एससी": 6876,
      "▁ट्यू": 6877,
      "▁जम्मू-कश्मीर": 6878,
      "▁पाठ्यक्रम": 6879,
      "खण्ड": 6880,
      "्यूल": 6881,
      "▁कब्जे": 6882,
      "▁किस्": 6883,
      "नेशन": 6884,
      "▁उद्यम": 6885,
      "▁लापरवाही": 6886,
      "▁मच": 6887,
      "ती,": 6888,
      "▁नैतिक": 6889,
      "▁स्वाभाविक": 6890,
      "ोद": 6891,
      "▁स्टॉक": 6892,
      "▁तत्कालीन": 6893,
      "▁स्पेशल": 6894,
      "ation": 6895,
      "ोव": 6896,
      "▁शुरु": 6897,
      "▁मेट्रो": 6898,
      "▁पढ़ा": 6899,
      "▁डायरेक्टर": 6900,
      "याग": 6901,
      "धित": 6902,
      "▁4.": 6903,
      "क्ष्म": 6904,
      "आव": 6905,
      "▁आंतरिक": 6906,
      "▁डालकर": 6907,
      "िद": 6908,
      "▁परिप": 6909,
      "▁कुशल": 6910,
      "म्परा": 6911,
      "▁लालू": 6912,
      "▁गहरी": 6913,
      "▁सब्ज": 6914,
      "▁आपत्ति": 6915,
      "▁रिश्ता": 6916,
      "▁होली": 6917,
      "▁जन्मदिन": 6918,
      "▁वृक्ष": 6919,
      "ंपिक": 6920,
      "माय": 6921,
      "▁अत्या": 6922,
      "▁एसोसिएशन": 6923,
      "▁विनो": 6924,
      "ुरी": 6925,
      "▁क्ली": 6926,
      "▁गोरख": 6927,
      "्तिक": 6928,
      "▁चलती": 6929,
      "हाबाद": 6930,
      "▁अभिव्य": 6931,
      "चलित": 6932,
      "▁पौधे": 6933,
      "▁वारदा": 6934,
      "▁अधिकारों": 6935,
      "▁नेहर": 6936,
      "डकर": 6937,
      "▁साउथ": 6938,
      "सेंस": 6939,
      "▁तीव्र": 6940,
      "▁अंदाज": 6941,
      "▁नरेन्द्र": 6942,
      "▁गंभीरता": 6943,
      "▁वें": 6944,
      "▁प्रोग्राम": 6945,
      "पुरा": 6946,
      "▁मंडी": 6947,
      "▁आकर्षक": 6948,
      "▁गेंदबाजी": 6949,
      "▁शाहरुख": 6950,
      "▁तक,": 6951,
      "▁उत्सव": 6952,
      "दिग्ध": 6953,
      "▁निम्नलिखित": 6954,
      "▁सुशांत": 6955,
      "▁द्वीप": 6956,
      "▁(क": 6957,
      "▁'प": 6958,
      "▁संभ": 6959,
      "▁साम्राज्य": 6960,
      "हमारे": 6961,
      "▁प्रारम्भ": 6962,
      "▁सिन्हा": 6963,
      "▁लिखने": 6964,
      "▁यूनिट": 6965,
      "▁लीड": 6966,
      "▁धाम": 6967,
      "▁जवानों": 6968,
      "न्यू": 6969,
      "▁नयी": 6970,
      "\",": 6971,
      "▁पारंपरिक": 6972,
      "▁कहला": 6973,
      "▁पाउडर": 6974,
      "▁है।\nस": 6975,
      "▁शतक": 6976,
      "▁रूपये": 6977,
      "शनी": 6978,
      "▁अमिताभ": 6979,
      "▁बढ़ाया": 6980,
      "▁क्रेडिट": 6981,
      "▁प्रतीत": 6982,
      "▁निल": 6983,
      "▁साजिश": 6984,
      "▁उन्होने": 6985,
      "द्भुत": 6986,
      "।\nइस": 6987,
      "▁मस्जिद": 6988,
      "दिल्ली": 6989,
      "▁शक्त": 6990,
      "▁छाया": 6991,
      "जिन": 6992,
      "▁यथ": 6993,
      "कामना": 6994,
      "▁हों,": 6995,
      "▁संसाधन": 6996,
      "▁बिलकुल": 6997,
      "▁डाउनलोड": 6998,
      "▁गार": 6999,
      "▁ऋषि": 7000,
      "▁उत्स": 7001,
      "कर्षण": 7002,
      "▁तीसरा": 7003,
      "गैर": 7004,
      "विधि": 7005,
      "▁प्रोफेसर": 7006,
      "▁कानपुर": 7007,
      "▁संवेदनशील": 7008,
      "▁गोपाल": 7009,
      "▁हिट": 7010,
      "▁प्रशासनिक": 7011,
      "▁स्ना": 7012,
      "▁त्योहार": 7013,
      "▁आवं": 7014,
      "शक्ति": 7015,
      "▁बताए": 7016,
      "▁फार्म": 7017,
      "बंद": 7018,
      "▁शरण": 7019,
      "।\\n": 7020,
      "क्ष्य": 7021,
      "▁सेल्स": 7022,
      "▁प्रदर्शित": 7023,
      "न्य": 7024,
      "▁जनसंख्या": 7025,
      "▁सटी": 7026,
      "▁संदेह": 7027,
      "▁एक्शन": 7028,
      "▁इमरान": 7029,
      "▁रहेगी।": 7030,
      "▁एक्टिव": 7031,
      "▁अन्तर": 7032,
      "▁वाराणसी": 7033,
      "▁ट्रेड": 7034,
      "▁निकाय": 7035,
      "ंचल": 7036,
      "▁ख़बर": 7037,
      "इसी": 7038,
      "▁कोर": 7039,
      "▁चेयर": 7040,
      "▁नजदी": 7041,
      "▁भेजने": 7042,
      "क्राम": 7043,
      "▁संदिग्ध": 7044,
      "ंगों": 7045,
      "▁डेस्क": 7046,
      "क्रमण": 7047,
      "▁रुख": 7048,
      "▁मरा": 7049,
      "▁अंतरिक्ष": 7050,
      "▁१८": 7051,
      "▁कालेज": 7052,
      "▁(ए": 7053,
      "▁मंग": 7054,
      "च्छेद": 7055,
      "s.": 7056,
      "मंडल": 7057,
      "▁सीसी": 7058,
      "-र": 7059,
      "ञ्": 7060,
      "आईआर": 7061,
      "▁अनुसू": 7062,
      "▁राशन": 7063,
      "▁कामयाब": 7064,
      "पंथ": 7065,
      "▁॥\n": 7066,
      "दिष्ट": 7067,
      "न्तर": 7068,
      "कन": 7069,
      "▁मांगी": 7070,
      "▁फूड": 7071,
      "▁है।\nयह": 7072,
      "▁दिए।": 7073,
      "▁सर्विस": 7074,
      "▁आरोपों": 7075,
      "▁समानता": 7076,
      "▁मिश्रण": 7077,
      "▁माध": 7078,
      "▁नारे": 7079,
      "▁भूख": 7080,
      "▁इज": 7081,
      "शय": 7082,
      "▁छत": 7083,
      "▁डेढ़": 7084,
      "▁जबरदस्त": 7085,
      "▁प्रशंसा": 7086,
      "▁उत्तम": 7087,
      "▁नर्स": 7088,
      "▁सेवाएं": 7089,
      "▁स्वर्ण": 7090,
      "▁७": 7091,
      "▁0.": 7092,
      "▁हेड": 7093,
      "▁बैग": 7094,
      "▁अतिथि": 7095,
      "▁2026": 7096,
      "▁अधिव": 7097,
      "▁कायम": 7098,
      "▁सत्": 7099,
      "संख्य": 7100,
      "▁तमिलनाडु": 7101,
      "▁आंध": 7102,
      "▁नोएडा": 7103,
      "▁एसिड": 7104,
      "स्पिटल": 7105,
      "▁चोप": 7106,
      "▁दिलाने": 7107,
      "वृ": 7108,
      "ंगिक": 7109,
      "▁सीता": 7110,
      "▁स्थानांतर": 7111,
      "▁समन्व": 7112,
      "▁पेय": 7113,
      "▁सांप": 7114,
      "▁आदिवासी": 7115,
      "▁इसने": 7116,
      "्टन": 7117,
      "▁मिलेगा": 7118,
      "ak": 7119,
      "क्ल": 7120,
      "▁48": 7121,
      "▁स्की": 7122,
      "▁जहाज": 7123,
      "▁पोषण": 7124,
      "▁कटौती": 7125,
      "▁अग्नि": 7126,
      "▁ग्लो": 7127,
      "ट्": 7128,
      "▁ससुर": 7129,
      "▁मछली": 7130,
      "▁यानि": 7131,
      "ुलर": 7132,
      "▁अज्ञात": 7133,
      "▁छापे": 7134,
      "▁चौथे": 7135,
      "▁300": 7136,
      "तुम": 7137,
      "क्चर": 7138,
      "▁आध्या": 7139,
      "▁क्लास": 7140,
      "▁देवता": 7141,
      "स्वामी": 7142,
      "▁कोत": 7143,
      "▁राजकुमार": 7144,
      "केज": 7145,
      "11": 7146,
      "▁मास्टर": 7147,
      "▁पहुंचे।": 7148,
      "▁गर्व": 7149,
      "▁रमेश": 7150,
      "ृत्य": 7151,
      "▁सर्वोच्च": 7152,
      "▁बालक": 7153,
      "▁साझे": 7154,
      "um": 7155,
      "▁इस्लाम": 7156,
      "▁ऋष": 7157,
      "▁असं": 7158,
      "▁जुर्म": 7159,
      "▁मरने": 7160,
      "▁हैंः": 7161,
      "▁दिल्लीः": 7162,
      "▁एह": 7163,
      "▁डिवाइस": 7164,
      "▁लिया।\n": 7165,
      "भु": 7166,
      "पुलिस": 7167,
      "▁देंगे।": 7168,
      "ध्याय": 7169,
      "▁ग्रीन": 7170,
      "धानिक": 7171,
      "▁सतह": 7172,
      "▁हज़ार": 7173,
      "ौली": 7174,
      "सागर": 7175,
      "▁जनजा": 7176,
      "▁अद्भुत": 7177,
      "ल्ट": 7178,
      "▁घाटी": 7179,
      "▁आपस": 7180,
      "पंच": 7181,
      "▁सेमी": 7182,
      "▁भेजे": 7183,
      "रन": 7184,
      "▁शिम": 7185,
      "▁जरा": 7186,
      "▁समझना": 7187,
      "बॉल": 7188,
      "करार": 7189,
      "▁हालाँ": 7190,
      "▁समस्याएं": 7191,
      "लोग": 7192,
      "▁देरी": 7193,
      "av": 7194,
      "▁ग्ल": 7195,
      "▁रिजर्व": 7196,
      "▁स्मार्टफोन": 7197,
      "▁हालाँकि": 7198,
      "▁दीपिका": 7199,
      "▁ऊँ": 7200,
      "▁2012": 7201,
      "परी": 7202,
      "▁ठंड": 7203,
      "▁सुर्ख": 7204,
      "▁डीजल": 7205,
      "▁कोय": 7206,
      "▁ब्ला": 7207,
      "▁सदी": 7208,
      "▁प्राधिकरण": 7209,
      "रेन": 7210,
      "िमंडल": 7211,
      "प्रधान": 7212,
      "▁लें.": 7213,
      "▁दोनो": 7214,
      "ियंस": 7215,
      "▁परम्परा": 7216,
      "मांड": 7217,
      "वाया": 7218,
      "ग्रा": 7219,
      "▁जीते": 7220,
      "▁चालू": 7221,
      "▁परियोजनाओं": 7222,
      "▁डूब": 7223,
      "▁एकदम": 7224,
      "▁कच": 7225,
      "वाड़ा": 7226,
      "▁घो": 7227,
      "▁दौरान,": 7228,
      "▁शक्तिशाली": 7229,
      "▁भूप": 7230,
      "▁गया.\n": 7231,
      "▁ज्ञात": 7232,
      "▁समय,": 7233,
      "▁यूजर्स": 7234,
      "▁मनोरंजन": 7235,
      "▁नाथ": 7236,
      "▁'द": 7237,
      "▁प्लांट": 7238,
      "▁शिखर": 7239,
      "▁गुस्सा": 7240,
      "▁रफ्तार": 7241,
      "▁हुआ.": 7242,
      "स्पी": 7243,
      "▁शत्रु": 7244,
      "▁पवन": 7245,
      "▁सर्वाधिक": 7246,
      "▁जाग": 7247,
      "सीपी": 7248,
      "ँस": 7249,
      "लोनी": 7250,
      "▁पन": 7251,
      "शान": 7252,
      "▁आदत": 7253,
      "▁गणना": 7254,
      "▁परिणामस्वरूप": 7255,
      "मार्ग": 7256,
      "▁मुसलमानों": 7257,
      "्रीट": 7258,
      "▁निः": 7259,
      "▁फ्ला": 7260,
      "▁मूल्या": 7261,
      "▁साढ़े": 7262,
      "▁चलाया": 7263,
      "▁बेट": 7264,
      "17": 7265,
      "किसी": 7266,
      "▁१६": 7267,
      "▁लंदन": 7268,
      "▁चोपड़ा": 7269,
      "▁कंपनियां": 7270,
      "▁अरुण": 7271,
      "▁ठोस": 7272,
      "▁प्रयत्न": 7273,
      "पया": 7274,
      "▁बतौर": 7275,
      "▁लकड़ी": 7276,
      "द्रोह": 7277,
      "▁मिलना": 7278,
      "▁बोलते": 7279,
      "मार्टम": 7280,
      "▁अजीब": 7281,
      "▁लायक": 7282,
      "▁भव्य": 7283,
      "▁शिवसेना": 7284,
      "▁मुकेश": 7285,
      "ायतों": 7286,
      "▁गयी।": 7287,
      "▁शिवराज": 7288,
      "▁आफ": 7289,
      "बाई": 7290,
      "▁लाइसेंस": 7291,
      "▁प्रतिष्ठित": 7292,
      "▁सैल": 7293,
      "▁शिल्": 7294,
      "द्री": 7295,
      "तिष्क": 7296,
      "▁सूक्ष्म": 7297,
      "▁किरण": 7298,
      "▁ड्यूटी": 7299,
      "▁सरकारों": 7300,
      "ॉस": 7301,
      "▁मानक": 7302,
      "▁पोष": 7303,
      "▁गये।": 7304,
      "▁रायपुर": 7305,
      "▁सब्स": 7306,
      "▁38": 7307,
      "▁साक्षा": 7308,
      "कांत": 7309,
      "▁दिग्गज": 7310,
      "पीड़": 7311,
      "▁बढ़ी": 7312,
      "▁वंश": 7313,
      "-ट": 7314,
      "ूहिक": 7315,
      "चुनाव": 7316,
      "▁(प": 7317,
      "▁प्लास्टिक": 7318,
      "्षिक": 7319,
      "▁चीफ": 7320,
      "▁\"मैं": 7321,
      "▁दृढ़": 7322,
      "ियों,": 7323,
      "▁आरंभ": 7324,
      "12": 7325,
      "भवती": 7326,
      "काया": 7327,
      "ार्थी": 7328,
      "▁(M": 7329,
      "्रु": 7330,
      ")।\n": 7331,
      "लेशन": 7332,
      "▁देंगे": 7333,
      "▁एटी": 7334,
      "महा": 7335,
      "बरा": 7336,
      "▁निश्चय": 7337,
      "गुरु": 7338,
      "▁बिंदु": 7339,
      "▁बेरोज": 7340,
      "▁कराए": 7341,
      "▁सप्": 7342,
      "चंद": 7343,
      "नहीं": 7344,
      "आईटी": 7345,
      "▁सुरेश": 7346,
      "▁केन्द्रीय": 7347,
      "▁जरिये": 7348,
      "आउट": 7349,
      "ूद": 7350,
      "▁अंडर": 7351,
      "ोलॉजी": 7352,
      "▁बनना": 7353,
      "अर": 7354,
      "खु": 7355,
      "▁रहे,": 7356,
      "▁कष्ट": 7357,
      "जै": 7358,
      "▁कोट": 7359,
      "्रेम": 7360,
      "▁जोन": 7361,
      "ून्य": 7362,
      "e)": 7363,
      "▁पोस्टमार्टम": 7364,
      "दून": 7365,
      "▁मेकअप": 7366,
      "▁धातु": 7367,
      "▁आंकड़े": 7368,
      "साइड": 7369,
      "चर्स": 7370,
      "▁विभागों": 7371,
      "▁गुणों": 7372,
      "▁गीता": 7373,
      "▁ऊंचाई": 7374,
      "16": 7375,
      "▁--": 7376,
      "▁गड़": 7377,
      "▁श्रीवास्तव": 7378,
      "▁दस्तावेज": 7379,
      "▁शनि": 7380,
      "▁निकला": 7381,
      "गोल": 7382,
      "▁विजेता": 7383,
      "▁कैंप": 7384,
      "▁जर्मनी": 7385,
      "▁हां,": 7386,
      "र्वाद": 7387,
      "▁गुल": 7388,
      "ालों": 7389,
      "▁पत्रकारिता": 7390,
      "▁मानने": 7391,
      "▁आतंकवादी": 7392,
      "राष्ट्र": 7393,
      "▁निर्देशक": 7394,
      "िवारिक": 7395,
      "▁गाइड": 7396,
      "डीपी": 7397,
      "▁आश्वास": 7398,
      "▁आया।": 7399,
      "▁आईटी": 7400,
      "▁करने,": 7401,
      "▁बचे": 7402,
      "▁है।\"": 7403,
      "ोकर": 7404,
      "▁सिखा": 7405,
      "▁१०": 7406,
      "▁शक": 7407,
      "▁आए।": 7408,
      "ड़िया": 7409,
      "▁ओम": 7410,
      "▁दिनेश": 7411,
      "▁तुम्हारा": 7412,
      "िकेटर": 7413,
      "दुल": 7414,
      "▁हुई.": 7415,
      "सीन": 7416,
      "▁चरणों": 7417,
      "▁अर्ध": 7418,
      "ri": 7419,
      "बन्ध": 7420,
      "▁ज्योतिष": 7421,
      "▁ट्रैक": 7422,
      "▁कठिना": 7423,
      "▁बताया,": 7424,
      "▁अभ्यर्थ": 7425,
      "▁गूगल": 7426,
      "ac": 7427,
      "▁भड़": 7428,
      "▁कलर": 7429,
      "▁आपसे": 7430,
      "▁सोनिया": 7431,
      "▁पेशकश": 7432,
      "▁ऑफ़": 7433,
      "▁गेंदों": 7434,
      "▁web": 7435,
      "▁बख": 7436,
      "कारियों": 7437,
      "▁दुश्मन": 7438,
      "▁रोका": 7439,
      "▁ष": 7440,
      "▁जौ": 7441,
      "▁पराम": 7442,
      "site": 7443,
      "स्टार": 7444,
      "▁मुज": 7445,
      "स्पर्": 7446,
      "▁हथियारों": 7447,
      "▁कानूनों": 7448,
      "कोट": 7449,
      "▁मुस्क": 7450,
      "▁आध्यात्मिक": 7451,
      "ौज": 7452,
      "▁पौध": 7453,
      "han": 7454,
      "▁दशा": 7455,
      "हिता": 7456,
      "▁पड़ोसी": 7457,
      "▁कहा।": 7458,
      "▁मन्द": 7459,
      "▁पकड़ा": 7460,
      "▁प्रारंभिक": 7461,
      "▁डीएम": 7462,
      "▁पिट": 7463,
      "▁आखिरकार": 7464,
      "्यौ": 7465,
      "डब्ल्यू": 7466,
      "िकेशन": 7467,
      "▁देखता": 7468,
      "नम": 7469,
      "▁खेलों": 7470,
      "▁जुट": 7471,
      "▁सामूहिक": 7472,
      "▁मोड़": 7473,
      "ड्": 7474,
      "हरादून": 7475,
      "▁काउंस": 7476,
      "▁मिलेगी।": 7477,
      "स्पर": 7478,
      "▁पाठक": 7479,
      "▁मैसे": 7480,
      "▁एक-एक": 7481,
      "▁सम्पूर्ण": 7482,
      "▁5.": 7483,
      "▁अनुवाद": 7484,
      "▁पच": 7485,
      "▁भारती": 7486,
      "▁हेम": 7487,
      "▁website": 7488,
      "▁दवाओं": 7489,
      "-उ": 7490,
      "▁गवर्": 7491,
      "▁इन्हीं": 7492,
      "▁फैशन": 7493,
      "▁आधे": 7494,
      "ज़न": 7495,
      "▁पाइ": 7496,
      "▁विनोद": 7497,
      "▁अंध": 7498,
      "▁कनेक्शन": 7499,
      "▁नामांकन": 7500,
      "द्धा": 7501,
      "ंडीगढ़": 7502,
      "न्ट": 7503,
      "▁नेहरू": 7504,
      "▁ऑप": 7505,
      "▁फॉर": 7506,
      "▁अत्यंत": 7507,
      "नीत": 7508,
      "ोग्रा": 7509,
      "▁रांची": 7510,
      "▁गर्भवती": 7511,
      "▁शर्त": 7512,
      "▁जलवायु": 7513,
      "▁कोड": 7514,
      "वश": 7515,
      "▁उर्": 7516,
      "▁सिद्धान्त": 7517,
      "▁\"स": 7518,
      "चंद्र": 7519,
      "चाप": 7520,
      "▁शौच": 7521,
      "दाई": 7522,
      "▁बॉडी": 7523,
      "नाइ": 7524,
      "▁अन्यथा": 7525,
      "्स,": 7526,
      "▁जाएगी.": 7527,
      "▁पैट": 7528,
      "▁संपन्न": 7529,
      "▁इंट": 7530,
      "▁सीनियर": 7531,
      "▁तुर्की": 7532,
      "▁मैनेज": 7533,
      "▁रहे।\n": 7534,
      "▁कहकर": 7535,
      "▁ड्राइवर": 7536,
      "माइ": 7537,
      "▁कमेंट": 7538,
      "▁दरवाजे": 7539,
      "्रमण": 7540,
      "▁मद्": 7541,
      "▁चपेट": 7542,
      "▁आश्वासन": 7543,
      "▁प्रोफ": 7544,
      "▁PM": 7545,
      "▁कोर्स": 7546,
      "लाइट": 7547,
      "▁पोर्टल": 7548,
      "▁परिचित": 7549,
      "विच": 7550,
      "▁दोस्ती": 7551,
      "▁नाबाल": 7552,
      "▁जितने": 7553,
      "▁मिसाइल": 7554,
      "▁आरोपित": 7555,
      "ुद्ध": 7556,
      "14": 7557,
      "िएंट": 7558,
      "▁195": 7559,
      "▁दिव्या": 7560,
      "▁श्रेष्ठ": 7561,
      "▁जज": 7562,
      "ल्लाह": 7563,
      "▁बुक": 7564,
      "व,": 7565,
      "▁सराहना": 7566,
      "▁सोचने": 7567,
      "▁गेह": 7568,
      "▁तालाब": 7569,
      "▁आनन्द": 7570,
      "▁जूझ": 7571,
      "▁भाषाओं": 7572,
      "द्दा": 7573,
      "▁निष्कर्ष": 7574,
      "▁रोगी": 7575,
      "▁एजेंस": 7576,
      "▁पारिवारिक": 7577,
      "वेल": 7578,
      "▁कैसी": 7579,
      "्तों": 7580,
      "▁विधेयक": 7581,
      "▁पक्षों": 7582,
      "▁अंधे": 7583,
      "पाई": 7584,
      "▁आशीर्वाद": 7585,
      "▁प्रोटीन": 7586,
      "माज": 7587,
      "णिज": 7588,
      "▁आयात": 7589,
      "▁जागरूकता": 7590,
      "पादन": 7591,
      "▁जिलाधिकारी": 7592,
      "▁श्रीमती": 7593,
      "▁फर्क": 7594,
      "पाठी": 7595,
      "बीन": 7596,
      "▁सॉफ्ट": 7597,
      "ष्कार": 7598,
      "▁2011": 7599,
      "▁ब्रेक": 7600,
      "▁नाय": 7601,
      "तन्त्र": 7602,
      "▁जाँच": 7603,
      "▁भागीदारी": 7604,
      "▁मनाने": 7605,
      "▁मुर": 7606,
      "▁इट": 7607,
      "जाने": 7608,
      "पचारिक": 7609,
      "▁इन्होंने": 7610,
      "▁दुर्गा": 7611,
      "क्यू": 7612,
      "▁धान": 7613,
      "▁पार्ष": 7614,
      "▁कार्तिक": 7615,
      "▁जिसमे": 7616,
      "ंगाई": 7617,
      "▁केश": 7618,
      "डॉ": 7619,
      "▁जब्त": 7620,
      "▁पायलट": 7621,
      "रस": 7622,
      "ामान": 7623,
      "ल्ले": 7624,
      "ंदीदा": 7625,
      "\"\n\"": 7626,
      "▁आयी": 7627,
      "▁कामका": 7628,
      "▁टेक्न": 7629,
      "▁दिखने": 7630,
      "ान्": 7631,
      "▁मूल्यांकन": 7632,
      "तला": 7633,
      "▁सहमत": 7634,
      "▁घूमने": 7635,
      "▁गाना": 7636,
      "▁पर्वत": 7637,
      "ap": 7638,
      "▁पहना": 7639,
      "▁जाएंगी": 7640,
      "▁कंगना": 7641,
      "्वल": 7642,
      "▁छुटकारा": 7643,
      "किस्तान": 7644,
      "▁परामर्श": 7645,
      "▁पद्ध": 7646,
      "▁वाइ": 7647,
      "त्तियों": 7648,
      "▁बसपा": 7649,
      "▁गढ़": 7650,
      "ण,": 7651,
      "▁हरे": 7652,
      "▁चुनौ": 7653,
      "ub": 7654,
      "▁असफल": 7655,
      "सी,": 7656,
      "लेस": 7657,
      "▁करोड़ों": 7658,
      "▁55": 7659,
      "पह": 7660,
      "▁वार्षिक": 7661,
      "▁बलि": 7662,
      "ोत्सव": 7663,
      "कालिक": 7664,
      "लोत": 7665,
      "▁हस्तक्षेप": 7666,
      "ार्टमेंट": 7667,
      "▁पूछे": 7668,
      "▁बाँ": 7669,
      "▁नृत्य": 7670,
      "▁DN": 7671,
      "▁150": 7672,
      "पुरुष": 7673,
      "▁मुआव": 7674,
      "▁आश्रम": 7675,
      "▁पहुँचा": 7676,
      "▁हूँ,": 7677,
      "▁बहुमत": 7678,
      "▁सदर": 7679,
      "▁खेली": 7680,
      "▁ड्रेस": 7681,
      "▁संस्थाओं": 7682,
      "▁झटका": 7683,
      "▁ढूंढ": 7684,
      "▁चौकी": 7685,
      "ांच": 7686,
      "▁वचन": 7687,
      "▁आजाद": 7688,
      "यें": 7689,
      "एनयू": 7690,
      "▁संसदीय": 7691,
      "▁इंच": 7692,
      "▁आंकड़ा": 7693,
      "est": 7694,
      "▁सबूत": 7695,
      "ोगे": 7696,
      "▁मासिक": 7697,
      "▁मस्तिष्क": 7698,
      "▁पूजन": 7699,
      "पिछ": 7700,
      "▁पसंदीदा": 7701,
      "▁डिस्": 7702,
      "▁ग्री": 7703,
      "र्वेद": 7704,
      "द्वार": 7705,
      "ंद्रा": 7706,
      "▁वैज्ञानिकों": 7707,
      "्वाल": 7708,
      "▁(B": 7709,
      "▁क्रीम": 7710,
      "▁कैमरे": 7711,
      "▁ट्रेनिंग": 7712,
      "▁माफी": 7713,
      "शः": 7714,
      "▁जॉन": 7715,
      "आरपी": 7716,
      "▁बाई": 7717,
      "▁अलर्ट": 7718,
      "▁जानवरों": 7719,
      "▁वसू": 7720,
      "▁आक्रमण": 7721,
      "▁लल": 7722,
      "▁वारदात": 7723,
      "वर्ड": 7724,
      "णिज्य": 7725,
      "जागर": 7726,
      "40": 7727,
      "वालों": 7728,
      "▁प्रोत्साहित": 7729,
      "▁योग्यता": 7730,
      "▁हॉस्पिटल": 7731,
      "ोम": 7732,
      "▁कंटे": 7733,
      "a)": 7734,
      "▁सव": 7735,
      "▁चरम": 7736,
      "कड़": 7737,
      "▁तस्वीरों": 7738,
      "▁मील": 7739,
      "▁मिली।": 7740,
      "▁देशभर": 7741,
      "▁झेल": 7742,
      "▁बेश": 7743,
      "▁प्रकाशन": 7744,
      "▁साधु": 7745,
      "-त": 7746,
      "▁ब्यू": 7747,
      "▁यज्ञ": 7748,
      "▁मंत्रियों": 7749,
      "मोहन": 7750,
      "▁हार्दिक": 7751,
      "▁मद्देन": 7752,
      "ollo": 7753,
      "▁+": 7754,
      "▁अपराधियों": 7755,
      "ॉड": 7756,
      "▁जाए।\n": 7757,
      "▁औष": 7758,
      "▁क्रिकेटर": 7759,
      "▁रखें।": 7760,
      "▁हीरो": 7761,
      "▁पैकेज": 7762,
      "▁करेंगे,": 7763,
      "▁आगरा": 7764,
      "ॉर्": 7765,
      "▁स्ने": 7766,
      "▁बलात्कार": 7767,
      "▁बेस": 7768,
      "धनों": 7769,
      "▁n": 7770,
      "भावना": 7771,
      "▁नाबालिग": 7772,
      "्रय": 7773,
      "▁जाप": 7774,
      "▁पंजीकरण": 7775,
      "ेंच": 7776,
      "कलन": 7777,
      "▁निर्देशित": 7778,
      "▁नशे": 7779,
      "▁प्रखंड": 7780,
      "▁कुश": 7781,
      "▁राजपूत": 7782,
      "▁सवालों": 7783,
      "▁धारणा": 7784,
      "राधिक": 7785,
      "▁रहकर": 7786,
      "गित": 7787,
      "▁प्रवाह": 7788,
      "▁करेगी": 7789,
      "▁प्रायः": 7790,
      "▁मैसेज": 7791,
      "▁पाती": 7792,
      "▁दी,": 7793,
      "▁याता": 7794,
      "म्मा": 7795,
      "▁सतर्क": 7796,
      "पता": 7797,
      "▁जात": 7798,
      "▁तेजस्वी": 7799,
      "▁सब्जी": 7800,
      "ैव": 7801,
      "▁शुरूआत": 7802,
      "▁ख्याल": 7803,
      "्ती": 7804,
      "▁रोशनी": 7805,
      "परि": 7806,
      "रह": 7807,
      "फार्म": 7808,
      "▁मिर्च": 7809,
      "ष्णा": 7810,
      "▁केंद्रों": 7811,
      "▁डिज़": 7812,
      "▁कर्तव्य": 7813,
      "बहुत": 7814,
      "ोजक": 7815,
      "▁सच्चाई": 7816,
      "न्दा": 7817,
      "▁सीखने": 7818,
      "▁इच्छ": 7819,
      "िप्त": 7820,
      "▁तालि": 7821,
      "▁संतु": 7822,
      "बड़ी": 7823,
      "▁सूजन": 7824,
      "▁हल्के": 7825,
      "▁दुकानों": 7826,
      "ऊदी": 7827,
      "▁मानें": 7828,
      "▁ब्रह्मा": 7829,
      "▁जोड़े": 7830,
      "▁शिशु": 7831,
      "▁इलेक्ट्रिक": 7832,
      "्टा": 7833,
      "▁एग्": 7834,
      "▁बनती": 7835,
      "▁क्वार": 7836,
      "▁२०": 7837,
      "▁पार्टियों": 7838,
      "▁इलेक्ट्रॉन": 7839,
      "▁जयं": 7840,
      "▁श्याम": 7841,
      "▁संहिता": 7842,
      "िसू": 7843,
      "▁मेन": 7844,
      "6.": 7845,
      "▁प्याज": 7846,
      "स्की": 7847,
      "▁दंड": 7848,
      "▁मेहमान": 7849,
      "▁रजिस्ट्र": 7850,
      "▁जवा": 7851,
      "▁फैक्ट": 7852,
      "▁होंगे।\n": 7853,
      "▁उपभोक्ता": 7854,
      "60": 7855,
      "▁स्टैंड": 7856,
      "▁श्रेय": 7857,
      "▁ठाकरे": 7858,
      "▁८": 7859,
      "▁सिद्धार्थ": 7860,
      "विदा": 7861,
      "▁प्रतिस्पर्": 7862,
      "▁साथियों": 7863,
      "▁Eth": 7864,
      "डोर": 7865,
      "▁गतिविधि": 7866,
      "▁पब्लिक": 7867,
      "▁काशी": 7868,
      "▁क्यो": 7869,
      "▁गिरने": 7870,
      "▁लेखन": 7871,
      "िताब": 7872,
      "▁बेंगल": 7873,
      "▁कृपया": 7874,
      "ट्टर": 7875,
      "▁सुविधाएं": 7876,
      "वाड़": 7877,
      "िकार": 7878,
      "▁गुम": 7879,
      "▁दिवसीय": 7880,
      "▁छेड़": 7881,
      "▁मृ": 7882,
      "सैन": 7883,
      "▁सके।\n": 7884,
      "ैश": 7885,
      "▁राणा": 7886,
      "▁6.": 7887,
      "▁कोतवाली": 7888,
      "▁किए।": 7889,
      "▁खेलते": 7890,
      "स्टल": 7891,
      "ार्थियों": 7892,
      "मेरे": 7893,
      "▁देहरादून": 7894,
      "▁follo": 7895,
      "▁विद्यार्थी": 7896,
      "▁गहलोत": 7897,
      "▁'\n": 7898,
      "▁पैदल": 7899,
      "क्रामक": 7900,
      "ख्यात": 7901,
      "▁चुने": 7902,
      "▁ड्रग": 7903,
      "▁कटा": 7904,
      "▁अवतार": 7905,
      "▁आरा": 7906,
      "▁मानो": 7907,
      "हारिक": 7908,
      "▁पेर": 7909,
      "▁मीटिंग": 7910,
      "▁काटने": 7911,
      "▁व्यावसायिक": 7912,
      "5.": 7913,
      "टके": 7914,
      "▁यथा": 7915,
      "▁कलाकारों": 7916,
      "▁रघु": 7917,
      ",5": 7918,
      "▁मिठ": 7919,
      "दरअसल": 7920,
      "ाना,": 7921,
      "▁This": 7922,
      "चन्द्र": 7923,
      "राक": 7924,
      "24": 7925,
      "▁गोवा": 7926,
      "▁Code": 7927,
      "▁मण": 7928,
      "सेन": 7929,
      "▁मतभेद": 7930,
      "▁पहनने": 7931,
      "▁वीं": 7932,
      "जारी": 7933,
      "▁किस्म": 7934,
      "▁सावधान": 7935,
      "▁समृद्ध": 7936,
      "▁हड़ताल": 7937,
      "▁उभर": 7938,
      "▁करेंगे.": 7939,
      "▁ओलंपिक": 7940,
      "▁कार्यरत": 7941,
      "▁आपात": 7942,
      "▁शेर": 7943,
      "सात": 7944,
      "▁यातायात": 7945,
      "▁कौर": 7946,
      "▁बैठकर": 7947,
      "▁चिन्": 7948,
      "प्रा": 7949,
      "▁आमंत्रित": 7950,
      "▁अपराधी": 7951,
      "▁यकीन": 7952,
      "▁चढ़ा": 7953,
      "वियत": 7954,
      "ंचाई": 7955,
      "▁बहादुर": 7956,
      "▁कॉर्": 7957,
      "▁बैठी": 7958,
      "▁'क": 7959,
      "▁द्रव्य": 7960,
      "शियों": 7961,
      "ोगी": 7962,
      "ter": 7963,
      "▁स्क्र": 7964,
      "▁सम्रा": 7965,
      "▁सोचते": 7966,
      "ुप्त": 7967,
      "▁वंचित": 7968,
      "गौर": 7969,
      "▁दर्जन": 7970,
      "▁महंगाई": 7971,
      "शंकर": 7972,
      "▁चंडीगढ़": 7973,
      "काय": 7974,
      "▁आतंकियों": 7975,
      "▁DNPA": 7976,
      "▁सिख": 7977,
      "▁follows": 7978,
      "ल्फ": 7979,
      "टेक": 7980,
      "म्बा": 7981,
      "▁शिमला": 7982,
      "▁डिली": 7983,
      "▁परमा": 7984,
      "▁खर": 7985,
      "▁त्रिपाठी": 7986,
      "▁बादल": 7987,
      "▁मेले": 7988,
      "▁हिम्मत": 7989,
      "▁बोझ": 7990,
      "▁शोषण": 7991,
      "▁चिकित्सक": 7992,
      "▁प्रतिबद्ध": 7993,
      "▁बृह": 7994,
      "▁धमा": 7995,
      "न्नी": 7996,
      "▁प्रशांत": 7997,
      "ट्टा": 7998,
      "▁पेशेवर": 7999,
      "▁उतनी": 8000,
      "▁कना": 8001,
      "▁प्रतिरोध": 8002,
      "▁सकें": 8003,
      "▁फाउंड": 8004,
      "▁ट्रस्ट": 8005,
      "▁जन्": 8006,
      "वाज": 8007,
      "सुन": 8008,
      "▁पोस्टर": 8009,
      "▁टुकड़े": 8010,
      "▁'आ": 8011,
      "▁इकट्ठा": 8012,
      "▁आकर्षण": 8013,
      "▁तो,": 8014,
      "▁फांसी": 8015,
      "ुरे": 8016,
      "▁समूहों": 8017,
      "▁अनुबंध": 8018,
      "ड्डी": 8019,
      "▁दिखे": 8020,
      "सीआर": 8021,
      "▁पहुंचकर": 8022,
      "सारी": 8023,
      "ग्रहण": 8024,
      "▁रहे.": 8025,
      "जत": 8026,
      "▁Ethic": 8027,
      "▁जयंती": 8028,
      "▁लिंग": 8029,
      "्योर": 8030,
      "▁लू": 8031,
      "▁बचत": 8032,
      "▁आपराधिक": 8033,
      "▁थोड़े": 8034,
      "▁नॉ": 8035,
      "्रीत": 8036,
      "▁बरकरार": 8037,
      "▁महेंद्र": 8038,
      "ंडों": 8039,
      "ङ्ग": 8040,
      "▁अत्यन्त": 8041,
      "▁#": 8042,
      "▁विश्वसनीय": 8043,
      "▁निवेशकों": 8044,
      "▁Ethics.": 8045,
      "▁अल्पसंख्य": 8046,
      "बली": 8047,
      "▁गारंटी": 8048,
      "▁संपूर्ण": 8049,
      "▁स्वच्छता": 8050,
      "ंडीज": 8051,
      "▁महत्त्वपूर्ण": 8052,
      "▁अनुसूचित": 8053,
      "▁लगी।": 8054,
      "▁(N": 8055,
      "▁रसोई": 8056,
      "▁स्पोर्ट": 8057,
      "स्स": 8058,
      "धाम": 8059,
      "▁वैसा": 8060,
      "▁बैटरी": 8061,
      "▁लाइट": 8062,
      "▁फंस": 8063,
      "▁विचारधारा": 8064,
      "▁देगा।": 8065,
      "▁लिया,": 8066,
      "▁आयर": 8067,
      "▁पकड़ने": 8068,
      "र्त": 8069,
      "▁एंट्री": 8070,
      "▁जरुर": 8071,
      "▁।\n(": 8072,
      "▁आपसी": 8073,
      "एं।\n": 8074,
      "▁बैक": 8075,
      "वर्धन": 8076,
      "▁जाए.": 8077,
      "▁पैन": 8078,
      "▁समीप": 8079,
      "▁लाई": 8080,
      "ट्यूब": 8081,
      "टीआई": 8082,
      "▁नीतियों": 8083,
      "▁लड़का": 8084,
      "▁ब्यूरो": 8085,
      "▁आजम": 8086,
      "ांजलि": 8087,
      "▁पहुंचाया": 8088,
      "▁प्रश्": 8089,
      "ैंट": 8090,
      "▁एफआईआर": 8091,
      "▁निर्द": 8092,
      "▁सिम": 8093,
      "▁गिन": 8094,
      "▁रोज़": 8095,
      "▁पहने": 8096,
      "जना": 8097,
      "▁पढ़ें-": 8098,
      "▁ढेर": 8099,
      "▁भरत": 8100,
      "▁नाक": 8101,
      "▁हाइड": 8102,
      "मिली": 8103,
      "7.": 8104,
      "िक,": 8105,
      "देवी": 8106,
      "▁सर्वेक्षण": 8107,
      "▁रोटी": 8108,
      "▁सटीक": 8109,
      "▁जुर्माना": 8110,
      "भूषण": 8111,
      "पालिका": 8112,
      "लीन": 8113,
      "▁भव": 8114,
      "शुल्क": 8115,
      "▁शोक": 8116,
      "▁'ब": 8117,
      "▁परिश": 8118,
      "▁मांस": 8119,
      "▁सेन": 8120,
      "▁ई०": 8121,
      "ड़की": 8122,
      "स्तक": 8123,
      "फ्फर": 8124,
      "गणना": 8125,
      "दित": 8126,
      "▁काबू": 8127,
      "▁भेंट": 8128,
      "▁वाणिज्य": 8129,
      "्वान": 8130,
      "▁अवगत": 8131,
      "▁यूजर": 8132,
      "▁स्वर्ग": 8133,
      "▁जीएसटी": 8134,
      "▁आइस": 8135,
      "▁नक्सल": 8136,
      "▁साझेदारी": 8137,
      "डि़": 8138,
      "▁आवाज़": 8139,
      "▁महेश": 8140,
      "▁आलिया": 8141,
      "▁करेगा।\n": 8142,
      "▁साधना": 8143,
      "ंगन": 8144,
      "▁गोप": 8145,
      "▁क्रोध": 8146,
      "ंकार": 8147,
      "कांग्रेस": 8148,
      "▁वां": 8149,
      "▁स्तरी": 8150,
      "ST)\n": 8151,
      "▁न्यायिक": 8152,
      "▁राग": 8153,
      "▁हेयर": 8154,
      "▁फस": 8155,
      "▁रात्रि": 8156,
      "▁दायित्व": 8157,
      "िल्ला": 8158,
      "▁7.": 8159,
      "▁मद्देनजर": 8160,
      "▁चेयरमैन": 8161,
      "▁गठित": 8162,
      "▁घुट": 8163,
      "धारणा": 8164,
      "▁दर्शाता": 8165,
      "▁पहाड़ी": 8166,
      "▁पीछा": 8167,
      "▁टेबल": 8168,
      "ामान्य": 8169,
      "▁मानता": 8170,
      "▁साइकिल": 8171,
      "▁पाय": 8172,
      "▁भला": 8173,
      "▁42": 8174,
      "▁दुर्भाग्य": 8175,
      "▁आमिर": 8176,
      "▁इंजीनियरिंग": 8177,
      "▁(ज": 8178,
      "▁मुलायम": 8179,
      "▁पुण्य": 8180,
      "▁कार्या": 8181,
      "▁स्टो": 8182,
      "▁क्रांति": 8183,
      "▁बीएस": 8184,
      "▁फेस": 8185,
      "▁शुक्ला": 8186,
      "▁दुबे": 8187,
      "-पास": 8188,
      "▁इलाहाबाद": 8189,
      "▁दुष्कर्म": 8190,
      "▁लेवल": 8191,
      "▁शरद": 8192,
      "▁सकें।": 8193,
      "▁हादसा": 8194,
      "▁पाये": 8195,
      "▁सुभाष": 8196,
      "▁पॉलि": 8197,
      "▁संदीप": 8198,
      "▁रेडियो": 8199,
      "▁डिव": 8200,
      "ष्ठा": 8201,
      "निस": 8202,
      "जुट": 8203,
      "ैली": 8204,
      "रात्रि": 8205,
      "▁निराशा": 8206,
      "▁दरवाजा": 8207,
      "▁उपदेश": 8208,
      "▁बेस्ट": 8209,
      "▁घात": 8210,
      "▁यूनियन": 8211,
      "नैतिक": 8212,
      "▁आत्मविश्वास": 8213,
      "शिंग": 8214,
      "▁टाटा": 8215,
      "▁गहराई": 8216,
      "सपेश": 8217,
      "▁ऑर्डर": 8218,
      "▁खाम": 8219,
      "▁नारी": 8220,
      "▁(R": 8221,
      "-इ": 8222,
      "▁बिगड़": 8223,
      "▁कुमारी": 8224,
      "केदार": 8225,
      "▁डिज़ाइन": 8226,
      "▁पश्चात्": 8227,
      "▁पाना": 8228,
      "▁परिजन": 8229,
      "पार": 8230,
      "▁तन": 8231,
      "तिन": 8232,
      "▁आँख": 8233,
      "्युनि": 8234,
      "▁शून्य": 8235,
      "▁साइबर": 8236,
      "बस": 8237,
      "▁स्थलों": 8238,
      "▁'म": 8239,
      "▁पेंट": 8240,
      "्वीप": 8241,
      "▁प्रस्तावित": 8242,
      "▁कड़ा": 8243,
      "▁काग": 8244,
      "िणी": 8245,
      "▁प्रोडक्ट": 8246,
      "हरण": 8247,
      "▁मन्दिर": 8248,
      "▁दक्षिणी": 8249,
      "▁साइड": 8250,
      "▁हानि": 8251,
      "▁Hindi": 8252,
      "▁स्पिन": 8253,
      "i)": 8254,
      "▁संसाधनों": 8255,
      "रेटर": 8256,
      "-0": 8257,
      "▁देखिए": 8258,
      "▁कुत्ते": 8259,
      "▁मांसपेश": 8260,
      "एनएस": 8261,
      "▁अन्दर": 8262,
      "▁निधि": 8263,
      "▁स्तरीय": 8264,
      "▁आस्था": 8265,
      "▁कप्ता": 8266,
      "▁अर्थात": 8267,
      "▁हौ": 8268,
      "▁उत": 8269,
      "▁युवकों": 8270,
      "▁रेप": 8271,
      "▁कीजिए": 8272,
      "▁St": 8273,
      "▁डिप्टी": 8274,
      "▁बन्द": 8275,
      "▁मुँ": 8276,
      "21": 8277,
      "▁मुहैया": 8278,
      "▁डाली": 8279,
      "▁)\n": 8280,
      "▁साहित्यिक": 8281,
      "▁मोड": 8282,
      "▁होश": 8283,
      "▁डु": 8284,
      "▁सऊदी": 8285,
      "▁कराना": 8286,
      "ग्व": 8287,
      "▁प्रथा": 8288,
      "▁एहसास": 8289,
      "▁2010": 8290,
      "▁मेरठ": 8291,
      "▁प्रयाग": 8292,
      "िटीज": 8293,
      "▁दया": 8294,
      "▁एकजुट": 8295,
      "प्पी": 8296,
      "▁Y": 8297,
      "लै": 8298,
      "▁गत": 8299,
      "▁मेघ": 8300,
      "र्चे": 8301,
      "▁सूचित": 8302,
      "प्ति": 8303,
      "▁शुभकामना": 8304,
      "वाधिकार": 8305,
      "▁लैंड": 8306,
      "▁पांडेय": 8307,
      "डेंट": 8308,
      "▁\"हम": 8309,
      "गुण": 8310,
      "▁सशक्त": 8311,
      "▁में\n": 8312,
      "लिस्ट": 8313,
      "ढा": 8314,
      "▁करीबी": 8315,
      "▁मुना": 8316,
      "▁हुआ।\n": 8317,
      "▁मथ": 8318,
      "▁लघु": 8319,
      "माही": 8320,
      "▁बिस्तर": 8321,
      "▁नायक": 8322,
      "▁होंगे,": 8323,
      "▁कैद": 8324,
      "▁डू": 8325,
      "▁2000": 8326,
      "▁लेखकों": 8327,
      "▁छिप": 8328,
      "▁परिवर्त": 8329,
      "▁आन्द": 8330,
      "▁फ्लैट": 8331,
      "ब्स": 8332,
      "▁टोक": 8333,
      "रीबी": 8334,
      "▁गृ": 8335,
      "▁सोवियत": 8336,
      "तीन": 8337,
      "▁बिन": 8338,
      "▁सर्जरी": 8339,
      "▁ठंडा": 8340,
      "षित": 8341,
      "▁हान": 8342,
      "9.": 8343,
      "▁इंदिरा": 8344,
      "लपुर": 8345,
      "▁कथन": 8346,
      "डू": 8347,
      "ुणा": 8348,
      "क्यों": 8349,
      "▁खिताब": 8350,
      "मानी": 8351,
      "जिया": 8352,
      "▁पुणे": 8353,
      "प्रदाय": 8354,
      "▁65": 8355,
      "▁हॉल": 8356,
      "▁तोड़ने": 8357,
      "▁रिपोर्ट्स": 8358,
      "▁देगा": 8359,
      "▁चिन्ह": 8360,
      "फ्तर": 8361,
      "--": 8362,
      "▁छापेमारी": 8363,
      "▁हंगामा": 8364,
      "os": 8365,
      "प्प": 8366,
      "▁भागों": 8367,
      "▁व्यायाम": 8368,
      "▁चेतना": 8369,
      "▁रिव": 8370,
      "▁सलाहकार": 8371,
      "80": 8372,
      "-अप": 8373,
      "▁रहस्य": 8374,
      "-से": 8375,
      "वंश": 8376,
      "▁(सी": 8377,
      "▁तरह,": 8378,
      "▁अन्न": 8379,
      "वैधानिक": 8380,
      "▁श्रीराम": 8381,
      "ंधन": 8382,
      "▁सपोर्ट": 8383,
      "▁मजाक": 8384,
      "णियों": 8385,
      "▁अल्लाह": 8386,
      "▁परिस्थिति": 8387,
      "▁बड़": 8388,
      "▁ज्ञापन": 8389,
      "▁लौटने": 8390,
      "▁बोर": 8391,
      "▁लाए": 8392,
      "▁एकल": 8393,
      "▁मान्य": 8394,
      "▁मुनि": 8395,
      "▁सृ": 8396,
      "वाहा": 8397,
      "▁सदस्यता": 8398,
      "▁निभाई": 8399,
      "▁मुखिया": 8400,
      "▁मजे": 8401,
      "सिस": 8402,
      "▁लड़कियां": 8403,
      "पिता": 8404,
      "▁आलू": 8405,
      "▁समुद्री": 8406,
      "▁जीने": 8407,
      "▁चित्त": 8408,
      "▁ऑफर": 8409,
      "▁बदमाशों": 8410,
      "▁हिल": 8411,
      "▁बारह": 8412,
      "▁बेड": 8413,
      "ऊँ": 8414,
      "्यार": 8415,
      "▁इंस्टी": 8416,
      "▁अनाज": 8417,
      "▁अमीर": 8418,
      "-5": 8419,
      "चुअल": 8420,
      "▁गोरखपुर": 8421,
      "मूर्ति": 8422,
      "▁हवाले": 8423,
      "लाश": 8424,
      "प्रधानमंत्री": 8425,
      "▁व्यावहारिक": 8426,
      "▁कामना": 8427,
      "▁बुखार": 8428,
      "▁रिटर्न": 8429,
      "▁देह": 8430,
      "▁दीर्": 8431,
      "▁सर्क": 8432,
      "▁है)": 8433,
      "▁पंत": 8434,
      "दुनिया": 8435,
      "▁पकड़े": 8436,
      "▁कॉन्फ्रेंस": 8437,
      "ापुर": 8438,
      "▁44": 8439,
      "िंट": 8440,
      "बड़": 8441,
      "▁श्रीकृष्ण": 8442,
      "▁विक्रम": 8443,
      "▁अभिव्यक्ति": 8444,
      "▁खुली": 8445,
      "op": 8446,
      "▁अवधारणा": 8447,
      "▁किल": 8448,
      "▁जेट": 8449,
      "▁अफ़": 8450,
      "▁बनाती": 8451,
      "न्धी": 8452,
      "▁प्रतिष्ठा": 8453,
      "चुर": 8454,
      "▁दुब": 8455,
      "▁असा": 8456,
      "▁किशन": 8457,
      "▁समर्थक": 8458,
      "▁स्थानांतरित": 8459,
      "▁बनते": 8460,
      "▁(D": 8461,
      "▁दफ्तर": 8462,
      "ess": 8463,
      "▁उदार": 8464,
      "▁बाजारों": 8465,
      "▁h": 8466,
      "▁मजबूती": 8467,
      "▁पंक": 8468,
      "▁स्थगित": 8469,
      "▁तालिबान": 8470,
      "▁गरीबों": 8471,
      "▁पलट": 8472,
      "▁बीत": 8473,
      "▁बैठने": 8474,
      "▁चांद": 8475,
      "▁दुर": 8476,
      "▁रहा.": 8477,
      "▁कामों": 8478,
      "▁शास्त्री": 8479,
      "▁सुग": 8480,
      "रिय": 8481,
      "▁नहीं।\n": 8482,
      "ांतिक": 8483,
      "-मु": 8484,
      "स्पेक्टर": 8485,
      "सबसे": 8486,
      "▁मनोहर": 8487,
      "लिटी": 8488,
      "▁पौधों": 8489,
      "▁दत्त": 8490,
      "▁लिखते": 8491,
      "▁अन्तर्गत": 8492,
      "22": 8493,
      "▁कपड़ों": 8494,
      "ाइनल": 8495,
      "gle": 8496,
      "झी": 8497,
      "▁जिसको": 8498,
      "▁नगरी": 8499,
      "▁विरासत": 8500,
      "▁क्रमशः": 8501,
      "▁समग्र": 8502,
      "टेज": 8503,
      "ष्यों": 8504,
      "न्वयन": 8505,
      "▁सप": 8506,
      "▁धवन": 8507,
      "▁निर्देशन": 8508,
      "▁रोगियों": 8509,
      "▁मकस": 8510,
      "▁संजीव": 8511,
      "▁पहाड़": 8512,
      "▁ट्रॉ": 8513,
      "ँग": 8514,
      "वण": 8515,
      "▁अकाद": 8516,
      "ड्डे": 8517,
      "▁इव": 8518,
      "▁बीच,": 8519,
      "वादियों": 8520,
      "▁शरी": 8521,
      "▁हिन्दुस्तान": 8522,
      "▁सास": 8523,
      "जिये": 8524,
      "▁2008": 8525,
      "ate": 8526,
      "लेश": 8527,
      "▁झील": 8528,
      "▁ट्रैफिक": 8529,
      "\nम": 8530,
      "लभ": 8531,
      "▁सीईओ": 8532,
      "▁हिंदुस्तान": 8533,
      "▁पॉल": 8534,
      "▁भारतीयों": 8535,
      "बर्ग": 8536,
      "▁रिश्तों": 8537,
      "▁पद्धति": 8538,
      "▁साड़ी": 8539,
      "▁सप्लाई": 8540,
      "▁सभ्यता": 8541,
      "▁सैं": 8542,
      "▁राजन": 8543,
      "मैंने": 8544,
      "ंसी": 8545,
      "▁ग्वाल": 8546,
      "▁संतुलन": 8547,
      "एसआई": 8548,
      "▁पर्यटकों": 8549,
      "▁जानती": 8550,
      "▁अधिसू": 8551,
      "▁सम्भव": 8552,
      "पै": 8553,
      "▁मकसद": 8554,
      "▁मेगा": 8555,
      "▁होता।": 8556,
      "▁दिना": 8557,
      "▁स्टोरी": 8558,
      "▁पोषक": 8559,
      "▁रोगों": 8560,
      "▁उपहार": 8561,
      "▁राजनैतिक": 8562,
      "▁सीरिया": 8563,
      "▁कमर": 8564,
      "▁वक़": 8565,
      "प्पा": 8566,
      "यहां": 8567,
      "▁दही": 8568,
      "▁सौंद": 8569,
      "▁सीसीटीवी": 8570,
      "▁अनुराग": 8571,
      "▁स्कीम": 8572,
      "म्र": 8573,
      "पिछले": 8574,
      "ंबा": 8575,
      "▁आह्वान": 8576,
      "▁शिर": 8577,
      "▁वस्त्र": 8578,
      "▁दें.": 8579,
      "▁साफ़": 8580,
      "▁उपचुनाव": 8581,
      "▁नाश": 8582,
      "▁आज्ञ": 8583,
      "णीय": 8584,
      "▁बहू": 8585,
      "इससे": 8586,
      "▁बंदर": 8587,
      "▁टैंक": 8588,
      "भाजपा": 8589,
      "▁दादा": 8590,
      "▁अनुच्छेद": 8591,
      "▁दायरे": 8592,
      "ब्ब": 8593,
      "ंबू": 8594,
      "▁जुटा": 8595,
      "▁जिंदा": 8596,
      "▁सोनी": 8597,
      "▁मॉड": 8598,
      "ोश": 8599,
      "▁पड": 8600,
      "▁बीस": 8601,
      "▁गेहूं": 8602,
      "▁जानिए": 8603,
      "वैज्ञान": 8604,
      "▁टी-20": 8605,
      "ाइक": 8606,
      "▁विनय": 8607,
      "▁फीट": 8608,
      "▁प्रचलित": 8609,
      "▁रहा,": 8610,
      "▁उपयोगकर्ता": 8611,
      "▁विभाजन": 8612,
      "oogle": 8613,
      "ए,": 8614,
      "▁प्रको": 8615,
      "रिएंट": 8616,
      "▁जर्मन": 8617,
      "▁डाले": 8618,
      "▁१२": 8619,
      "▁छीन": 8620,
      "▁हितों": 8621,
      "▁जानवर": 8622,
      "न्ड": 8623,
      "▁फि": 8624,
      "▁सम्मिल": 8625,
      "▁साक्षात्कार": 8626,
      "▁निराश": 8627,
      "▁फायरिंग": 8628,
      "ec": 8629,
      "▁कार्यकारी": 8630,
      "-पा": 8631,
      "▁अध्याय": 8632,
      "▁ईमेल": 8633,
      "▁खुराक": 8634,
      "▁खनन": 8635,
      "▁कच्चे": 8636,
      "ोज़": 8637,
      "▁कैश": 8638,
      "▁फ्रंट": 8639,
      "▁क्रिस": 8640,
      "▁देनी": 8641,
      "▁ओड": 8642,
      "▁सेल्सियस": 8643,
      "▁वय": 8644,
      "▁इंद्र": 8645,
      "▁आस-पास": 8646,
      "▁ताज": 8647,
      "▁(3": 8648,
      "▁आंखें": 8649,
      "▁विनाश": 8650,
      "जपे": 8651,
      "ट्टे": 8652,
      "विज्ञान": 8653,
      "▁रेंज": 8654,
      "▁यमु": 8655,
      "▁शिक्षण": 8656,
      "▁चिट": 8657,
      "चौ": 8658,
      "-समय": 8659,
      "माटर": 8660,
      "▁बाय": 8661,
      "▁पुराण": 8662,
      "▁यूट्यूब": 8663,
      "पीठ": 8664,
      "▁साहस": 8665,
      "नामा": 8666,
      "कोई": 8667,
      "▁अभिभाव": 8668,
      "▁घोटाले": 8669,
      "▁बाला": 8670,
      "▁स्थितियों": 8671,
      "▁लिव": 8672,
      "बिन": 8673,
      "▁टाइम्स": 8674,
      "▁तत्त्व": 8675,
      "▁हवाला": 8676,
      "▁सौंपा": 8677,
      "▁सूच": 8678,
      "▁खोला": 8679,
      "▁ज़रूरी": 8680,
      "▁डेवल": 8681,
      "▁सृष्टि": 8682,
      "▁मतदाता": 8683,
      "ow": 8684,
      "थन": 8685,
      "▁तेंद": 8686,
      "स्त्रों": 8687,
      "▁उछ": 8688,
      "इंड": 8689,
      "निर्माण": 8690,
      "सीसीआई": 8691,
      "▁मल्टी": 8692,
      "▁रत्न": 8693,
      "क्व": 8694,
      "▁52": 8695,
      "▁बढ़त": 8696,
      "▁भगत": 8697,
      "▁आंस": 8698,
      "कला": 8699,
      "पेक्ष": 8700,
      "▁मैनेजर": 8701,
      "केल": 8702,
      "कांड": 8703,
      "ने,": 8704,
      "▁पवार": 8705,
      "सी)": 8706,
      "▁प्रांत": 8707,
      "▁कमिश्": 8708,
      "▁आसमान": 8709,
      "फाई": 8710,
      "▁हैंड": 8711,
      "▁बताती": 8712,
      "्रल": 8713,
      "▁v": 8714,
      "▁समर्थकों": 8715,
      "टित": 8716,
      "टर्स": 8717,
      "▁राधा": 8718,
      "▁सरदार": 8719,
      "िवेदी": 8720,
      "▁कारोबारी": 8721,
      "▁बांट": 8722,
      "▁बर्बाद": 8723,
      "▁अटल": 8724,
      "-छो": 8725,
      "ोगा": 8726,
      "▁छोड़ा": 8727,
      "▁है।\nम": 8728,
      "▁वाम": 8729,
      "▁अहमदाबाद": 8730,
      "▁अर्पित": 8731,
      "ऐसे": 8732,
      "▁गुरू": 8733,
      "▁मानसून": 8734,
      "दूसरे": 8735,
      "▁39": 8736,
      "▁मेला": 8737,
      "र्फ़": 8738,
      "▁आयुर्वेद": 8739,
      "▁हुसैन": 8740,
      "▁फूलों": 8741,
      "वत्": 8742,
      "डनी": 8743,
      "▁प्रदेश,": 8744,
      "िडी": 8745,
      "▁बघ": 8746,
      "▁मायावती": 8747,
      "▁घेर": 8748,
      "डम": 8749,
      "▁400": 8750,
      "▁१५": 8751,
      "▁कैमरा": 8752,
      "▁प्रोट": 8753,
      "▁मंदिरों": 8754,
      "▁गैर-": 8755,
      "):": 8756,
      "▁प्रदीप": 8757,
      "▁हैं-": 8758,
      "▁सिंचाई": 8759,
      "▁कमाल": 8760,
      "70": 8761,
      "▁ट्रेंड": 8762,
      "▁एरिया": 8763,
      "▁उपायों": 8764,
      "स्वती": 8765,
      "▁धूल": 8766,
      "रुण": 8767,
      "▁रूट": 8768,
      "▁*": 8769,
      "▁धरना": 8770,
      "शिव": 8771,
      "▁घड़ी": 8772,
      "▁रौ": 8773,
      "▁मूल्यों": 8774,
      "नाल": 8775,
      "स्ड": 8776,
      "▁उपलब्धि": 8777,
      "▁परिणामों": 8778,
      "▁रंगों": 8779,
      "▁प्रवासी": 8780,
      "▁मार्गदर्शन": 8781,
      "▁आंध्र": 8782,
      "▁समन्वय": 8783,
      "▁भूकंप": 8784,
      "▁रवी": 8785,
      "भवी": 8786,
      "▁राइ": 8787,
      "▁आशीष": 8788,
      "ियमित": 8789,
      "संघ": 8790,
      "▁मोर": 8791,
      "ूर्व": 8792,
      "13": 8793,
      "▁घाय": 8794,
      "▁पुष्प": 8795,
      "▁पदाधिकारियों": 8796,
      "आम": 8797,
      "▁ईंधन": 8798,
      "▁लीजिए": 8799,
      "▁2009": 8800,
      "▁महोत्सव": 8801,
      "▁वितरित": 8802,
      "▁फाउंडेशन": 8803,
      "▁वैध": 8804,
      "▁ट्रेलर": 8805,
      "▁कक्ष": 8806,
      "▁भेजी": 8807,
      "▁ससुराल": 8808,
      "इंडीज": 8809,
      "▁एंड्र": 8810,
      "▁नजदीक": 8811,
      "▁कप्तानी": 8812,
      "▁जुल": 8813,
      "▁जायेगा।": 8814,
      "▁पठ": 8815,
      "▁हेली": 8816,
      "ोत्तम": 8817,
      "▁मौलिक": 8818,
      "गर्": 8819,
      "▁रथ": 8820,
      "रेली": 8821,
      "▁बाह": 8822,
      "क्टी": 8823,
      "▁सुनते": 8824,
      "▁आँखों": 8825,
      "up": 8826,
      "▁चो": 8827,
      "ण्डल": 8828,
      "▁मुजफ्फर": 8829,
      "▁अफसरों": 8830,
      "▁हल्का": 8831,
      "▁2,": 8832,
      "8.": 8833,
      "▁उच्चतम": 8834,
      "स्थिति": 8835,
      "▁वक़्त": 8836,
      "▁बेंच": 8837,
      "▁साहि": 8838,
      "▁एकड़": 8839,
      "▁घटनाएं": 8840,
      "▁सना": 8841,
      "▁पित": 8842,
      "▁कस्": 8843,
      "▁सम्मिलित": 8844,
      "▁कमान": 8845,
      "▁करूंगा": 8846,
      "्यव": 8847,
      "▁औपचारिक": 8848,
      "▁इंस्टीट्यू": 8849,
      "▁बढ़ाकर": 8850,
      "▁यथार्थ": 8851,
      "▁सर्दी": 8852,
      "चार्ज": 8853,
      "▁X": 8854,
      "ृत्त": 8855,
      "▁किया.\n": 8856,
      "▁उत्पीड़": 8857,
      "▁डेब्यू": 8858,
      "▁इस्ला": 8859,
      "▁मौजूदगी": 8860,
      "सीम": 8861,
      "▁43": 8862,
      "▁कारण,": 8863,
      "▁दिखता": 8864,
      "▁जाएँ": 8865,
      "▁संस्थापक": 8866,
      "▁शॉर्ट": 8867,
      "▁नाइट": 8868,
      "▁बैल": 8869,
      "▁गरीबी": 8870,
      "यिक": 8871,
      "▁मानवीय": 8872,
      "▁नेहा": 8873,
      "▁माध्यमिक": 8874,
      "देशक": 8875,
      "▁इक": 8876,
      "▁शौचालय": 8877,
      "▁निचले": 8878,
      "वायरस": 8879,
      "▁विद्रोह": 8880,
      "▁हों।": 8881,
      "▁गरम": 8882,
      "▁प्रिंस": 8883,
      "▁का,": 8884,
      "▁राजद": 8885,
      "ht": 8886,
      "▁फिटनेस": 8887,
      "▁इमारत": 8888,
      "▁करवाई": 8889,
      "▁शुक्ल": 8890,
      "▁चर्च": 8891,
      "बीएस": 8892,
      "▁बिहारी": 8893,
      "▁हरकत": 8894,
      "त्प": 8895,
      "▁मामूली": 8896,
      "▁हेल": 8897,
      "▁मुँह": 8898,
      "घात": 8899,
      "▁श्रमिकों": 8900,
      "▁ऊपरी": 8901,
      "▁रचनात्मक": 8902,
      "▁समय-समय": 8903,
      "▁पंप": 8904,
      "▁परमात्मा": 8905,
      "ोत्तर": 8906,
      "▁डै": 8907,
      "▁फंसे": 8908,
      "-पी": 8909,
      "पिंग": 8910,
      "-अपने": 8911,
      "▁गहरे": 8912,
      "▁स्टार्ट": 8913,
      "▁भीम": 8914,
      "हू": 8915,
      "तांत्रिक": 8916,
      "ोंग": 8917,
      "▁मधुर": 8918,
      "▁जायेगा": 8919,
      "▁भूत": 8920,
      "▁स्कू": 8921,
      "▁पर्दे": 8922,
      "शेखर": 8923,
      "▁आन्दोलन": 8924,
      "▁माला": 8925,
      "नाल्ड": 8926,
      "मर्श": 8927,
      "▁बायो": 8928,
      "▁जागरण": 8929,
      "▁फर्म": 8930,
      "▁गहन": 8931,
      "▁अतीत": 8932,
      "ांतों": 8933,
      "▁शुभार": 8934,
      "▁रोमांच": 8935,
      "▁मय": 8936,
      "▁अगु": 8937,
      "क्षणिक": 8938,
      "▁हल्की": 8939,
      "▁औरत": 8940,
      "▁फीड": 8941,
      "▁पड़ेगा।": 8942,
      "वानिव": 8943,
      "▁श्रद्धांजलि": 8944,
      "▁हाथी": 8945,
      "▁कामकाज": 8946,
      "▁मुठ": 8947,
      "▁पांड": 8948,
      "▁एजेंसियों": 8949,
      "▁टीमें": 8950,
      "▁शहद": 8951,
      "▁सियासी": 8952,
      "▁दिया.\n": 8953,
      "▁पड़ोस": 8954,
      "▁नतीजा": 8955,
      "▁रीति": 8956,
      "▁पाकर": 8957,
      "▁लाह": 8958,
      "▁टमाटर": 8959,
      "ce": 8960,
      "▁मेजब": 8961,
      "▁ग्लोबल": 8962,
      "▁उठाते": 8963,
      "▁भक्तों": 8964,
      "भावस्था": 8965,
      "▁पार्षद": 8966,
      "ब्बे": 8967,
      "कने": 8968,
      "वेस्ट": 8969,
      "▁पढ": 8970,
      "▁उजागर": 8971,
      "सवाल": 8972,
      "▁तूफान": 8973,
      "▁ट्रांसफर": 8974,
      "नीश": 8975,
      "▁पाक": 8976,
      "▁ध्वनि": 8977,
      "▁बताता": 8978,
      "▁आधी": 8979,
      "▁पंकज": 8980,
      "▁चांदी": 8981,
      "गौरतलब": 8982,
      "▁निपट": 8983,
      "▁रोशन": 8984,
      "▁शान्ति": 8985,
      "▁आरम्भ": 8986,
      "त्नी": 8987,
      "▁नागरिकता": 8988,
      "▁किराए": 8989,
      "▁हॉट": 8990,
      "▁विकल्पों": 8991,
      "▁विभाजित": 8992,
      "▁आई।": 8993,
      "वाहित": 8994,
      "▁स्टूडेंट्स": 8995,
      "▁कर,": 8996,
      "▁राजकीय": 8997,
      "▁है।\nएक": 8998,
      "▁एस.": 8999,
      "र्टी": 9000,
      "▁आवश्यकताओं": 9001,
      "▁माइक्रो": 9002,
      "▁महल": 9003,
      "दूस": 9004,
      "▁वॉल": 9005,
      "▁पश्चात": 9006,
      "▁गुस्से": 9007,
      "▁आज्ञा": 9008,
      "▁उत्ते": 9009,
      "▁सशस्त्र": 9010,
      "▁गईं।": 9011,
      "▁जुड़ने": 9012,
      "क्टिव": 9013,
      "▁इंतजाम": 9014,
      "▁गुर्": 9015,
      "थित": 9016,
      "▁पॉलिसी": 9017,
      "▁खोजने": 9018,
      "▁नदियों": 9019,
      "▁कोने": 9020,
      "▁लड़कों": 9021,
      "▁सकेंगे।": 9022,
      "▁पैक": 9023,
      "▁संयंत्र": 9024,
      "ंधा": 9025,
      "▁रणबीर": 9026,
      "मायण": 9027,
      "▁खरीदा": 9028,
      "रोक्त": 9029,
      "▁मिलेगी": 9030,
      "शीलता": 9031,
      "▁नौसेना": 9032,
      "▁निकली": 9033,
      "▁मलिक": 9034,
      "िवेश": 9035,
      "▁ग्वालियर": 9036,
      "▁भीषण": 9037,
      "▁एक्सच": 9038,
      "▁फसलों": 9039,
      "▁पाण्ड": 9040,
      "▁पीड़ा": 9041,
      "▁घायलों": 9042,
      "▁कनाडा": 9043,
      "▁ट्रेनों": 9044,
      "▁हैं;": 9045,
      "बाग": 9046,
      "▁क्रिप्ट": 9047,
      "▁इंस्पेक्टर": 9048,
      "▁रहित": 9049,
      "▁इशारा": 9050,
      "ुलेंस": 9051,
      "▁उत्पत्ति": 9052,
      "गारी": 9053,
      "▁(एन": 9054,
      "▁तरल": 9055,
      "ूरती": 9056,
      "▁नतीजे": 9057,
      "▁एथ": 9058,
      "▁रहेंगे": 9059,
      "▁समझता": 9060,
      "देख": 9061,
      "▁जानकार": 9062,
      "ive": 9063,
      "▁वसूली": 9064,
      "मिन": 9065,
      "▁उन्नत": 9066,
      "▁मोक्ष": 9067,
      "▁किले": 9068,
      "हाद": 9069,
      "▁डाटा": 9070,
      "▁कमांड": 9071,
      "वेज": 9072,
      "▁सकते।": 9073,
      "▁ढांचे": 9074,
      "▁व्यय": 9075,
      "▁नाराजगी": 9076,
      "▁दीर्घ": 9077,
      "▁कुंड": 9078,
      "▁रचनाओं": 9079,
      "▁के.": 9080,
      "▁मथुरा": 9081,
      "▁सिर्फ़": 9082,
      "▁बटन": 9083,
      "विजन": 9084,
      "▁हैंः\n": 9085,
      "र्जन": 9086,
      "▁लाश": 9087,
      "▁हिमाल": 9088,
      "▁पृष्ठभूमि": 9089,
      "छाड़": 9090,
      "▁माँग": 9091,
      "ते,": 9092,
      "▁।\nअ": 9093,
      "▁स्त्र": 9094,
      "▁दशकों": 9095,
      "दाद": 9096,
      "▁एके": 9097,
      "▁सीन": 9098,
      "बूझ": 9099,
      "चालन": 9100,
      "देशी": 9101,
      "▁जोरदार": 9102,
      "थाम": 9103,
      "▁सॉफ्टवेयर": 9104,
      "▁घन": 9105,
      "ost": 9106,
      "▁प्रभावशाली": 9107,
      "▁लिहाज": 9108,
      "▁शेख": 9109,
      "▁मम्मी": 9110,
      "▁अंडे": 9111,
      "▁उठे": 9112,
      "▁इजाजत": 9113,
      "▁रावण": 9114,
      "ियां,": 9115,
      "▁सूरत": 9116,
      "▁स्मार": 9117,
      "\nक": 9118,
      "वा,": 9119,
      "पंथी": 9120,
      "▁प्रतीक्षा": 9121,
      "दूरी": 9122,
      "फ्रेंड": 9123,
      "▁प्रतिनिधियों": 9124,
      "▁ओडिशा": 9125,
      "\nप": 9126,
      "▁प्रशंस": 9127,
      "▁चिह्न": 9128,
      "▁1000": 9129,
      "िस्तान": 9130,
      "▁जियो": 9131,
      "▁दर्जा": 9132,
      "▁सद्": 9133,
      "▁अपने-अपने": 9134,
      "मिथ": 9135,
      "पीएम": 9136,
      "▁पॉप": 9137,
      "▁महावीर": 9138,
      "▁रणवीर": 9139,
      "मा,": 9140,
      "▁गुलाब": 9141,
      "▁संतान": 9142,
      "▁लेनदेन": 9143,
      "ण्ट": 9144,
      "▁होगा.\n": 9145,
      "▁अरे": 9146,
      "▁मतदाताओं": 9147,
      "पुट": 9148,
      "▁नंद": 9149,
      "▁फाइबर": 9150,
      "▁फाइल": 9151,
      "ंटिक": 9152,
      "▁असंभव": 9153,
      "▁फोर": 9154,
      "▁मांगा": 9155,
      "नार": 9156,
      "सेट": 9157,
      "▁चौंका": 9158,
      "▁ख़िला": 9159,
      "▁पाठकों": 9160,
      "▁नीरज": 9161,
      "▁कृष्णा": 9162,
      "▁डाइट": 9163,
      "▁वाणी": 9164,
      "▁मैनेजमेंट": 9165,
      "▁ईसाई": 9166,
      "▁निंदा": 9167,
      "▁आवेद": 9168,
      "▁प्रोत्साहन": 9169,
      "▁खेतों": 9170,
      "वृत्ति": 9171,
      "ment": 9172,
      "▁मोटा": 9173,
      "▁एसडीएम": 9174,
      "भाई": 9175,
      "▁दुखी": 9176,
      "▁वेस्टइंडीज": 9177,
      "▁जद": 9178,
      "ैर्य": 9179,
      "▁उपभोक्ताओं": 9180,
      "▁निलंबित": 9181,
      "▁भंग": 9182,
      "▁बिर": 9183,
      "▁होंगे.": 9184,
      "▁डिफ": 9185,
      "पोरेट": 9186,
      "▁सोल": 9187,
      "श्र": 9188,
      "▁झलक": 9189,
      "▁तेलंग": 9190,
      "▁महाविद्यालय": 9191,
      "▁स्मरण": 9192,
      "▁वर्गों": 9193,
      "▁।\"": 9194,
      "अपनी": 9195,
      "दर्शी": 9196,
      "▁हार्ट": 9197,
      "▁उठता": 9198,
      "▁नग": 9199,
      "▁पैसों": 9200,
      "▁चौरा": 9201,
      "▁संल": 9202,
      "▁अंग्रेजों": 9203,
      "िपल": 9204,
      "▁सुर्खियों": 9205,
      "▁पाइप": 9206,
      "▁मुठभ": 9207,
      "▁किंग्स": 9208,
      "फ्ल": 9209,
      "▁घटा": 9210,
      "▁स्वीकृत": 9211,
      "▁श्रद्धालुओं": 9212,
      "▁केयर": 9213,
      "▁शासित": 9214,
      "▁गर्ल": 9215,
      "▁नाट": 9216,
      "▁(१": 9217,
      "▁आईए": 9218,
      "▁देखो": 9219,
      "ॉर्क": 9220,
      "▁चट": 9221,
      "▁अमरीका": 9222,
      "▁मरम्मत": 9223,
      "▁लक्षणों": 9224,
      "▁रिजल्ट": 9225,
      "▁घी": 9226,
      "▁मिले।": 9227,
      "▁बूथ": 9228,
      "▁भेदभाव": 9229,
      "▁क्रे": 9230,
      "▁जीतकर": 9231,
      "▁सबकुछ": 9232,
      "▁बेव": 9233,
      "ष्का": 9234,
      "▁उठाकर": 9235,
      "ए)": 9236,
      "▁चक": 9237,
      "90": 9238,
      "▁भाइयों": 9239,
      "▁पूर्ति": 9240,
      "▁चिंतित": 9241,
      "▁कैल": 9242,
      "▁स्नातक": 9243,
      "ID": 9244,
      "▁पहलू": 9245,
      "▁on": 9246,
      "ट्रिक": 9247,
      "▁आलोक": 9248,
      "▁बोल्ड": 9249,
      "▁माननीय": 9250,
      "यात्रा": 9251,
      "▁जिनसे": 9252,
      "▁मासूम": 9253,
      "▁शौक": 9254,
      "▁सबका": 9255,
      "▁प्रवर्": 9256,
      "▁अवार्ड": 9257,
      "कांक्षा": 9258,
      "▁कारक": 9259,
      "▁ट्रैक्टर": 9260,
      "▁है।\nक": 9261,
      "विल": 9262,
      "यानक": 9263,
      "▁उर्व": 9264,
      "पालन": 9265,
      "▁लाना": 9266,
      "▁कबीर": 9267,
      "▁ऋतु": 9268,
      "▁निवार": 9269,
      "▁बृहस्पति": 9270,
      "▁जनस": 9271,
      "▁पैटर्न": 9272,
      "▁कहा।\n": 9273,
      "▁यूएस": 9274,
      "▁कमीशन": 9275,
      "▁मारकर": 9276,
      "▁ब्लॉग": 9277,
      "▁गज": 9278,
      "▁सामु": 9279,
      "▁46": 9280,
      "माया": 9281,
      "▁हमलों": 9282,
      "▁तड़": 9283,
      "▁चार्ट": 9284,
      "▁आतंकवादियों": 9285,
      "▁दर्शक": 9286,
      "▁नाज": 9287,
      "▁प्रकार,": 9288,
      "▁मुखर्जी": 9289,
      "▁स्पोर्ट्स": 9290,
      "▁वरुण": 9291,
      "ug": 9292,
      "बरी": 9293,
      "▁व्हाट्स": 9294,
      "ंठ": 9295,
      "▁होता,": 9296,
      "चालित": 9297,
      "झाने": 9298,
      "▁k": 9299,
      "▁सर्दियों": 9300,
      "▁११": 9301,
      "▁पालिका": 9302,
      "▁2024": 9303,
      "▁पागल": 9304,
      "नीर": 9305,
      "▁कमिश्नर": 9306,
      "▁शिल": 9307,
      "▁लिखकर": 9308,
      "▁निकाली": 9309,
      "▁अंकित": 9310,
      "ोली": 9311,
      "▁सीधी": 9312,
      "▁अफवाह": 9313,
      "रक्षा": 9314,
      "▁कन": 9315,
      "लांग": 9316,
      "षे": 9317,
      "ॉप्टर": 9318,
      "▁47": 9319,
      "▁बैंकिंग": 9320,
      "ers": 9321,
      "▁गणित": 9322,
      "ड़ा,": 9323,
      "▁पसी": 9324,
      "▁खनि": 9325,
      "▁अकेला": 9326,
      "▁तुमने": 9327,
      "▁काउंसिल": 9328,
      "▁रजिस्ट्रेशन": 9329,
      "▁हुई।\n": 9330,
      "▁सूख": 9331,
      "▁महोदय": 9332,
      "▁अनुभवी": 9333,
      "ish": 9334,
      "▁डालते": 9335,
      "गेट": 9336,
      "▁एजेंट": 9337,
      "▁सहन": 9338,
      "▁लें।\n": 9339,
      "▁है!\n": 9340,
      "▁सरस्वती": 9341,
      "▁सेंट्रल": 9342,
      "कतों": 9343,
      "▁आचार": 9344,
      "▁नील": 9345,
      "▁वैदिक": 9346,
      "▁193": 9347,
      "▁शर्तों": 9348,
      "▁छान": 9349,
      "▁पद्म": 9350,
      "▁पढ़े": 9351,
      "▁चित": 9352,
      "ip": 9353,
      "-बा": 9354,
      "▁विविधता": 9355,
      "▁करे।": 9356,
      "▁लक्ष्मण": 9357,
      "बुल": 9358,
      "मेन": 9359,
      "▁फुटबॉल": 9360,
      "निर्भर": 9361,
      "▁हमे": 9362,
      "▁अनुपात": 9363,
      "▁धीमी": 9364,
      "ओ,": 9365,
      "-बड़े": 9366,
      "ायती": 9367,
      "▁गाँधी": 9368,
      "वाहिक": 9369,
      "▁संयोग": 9370,
      "▁सौंदर्य": 9371,
      "▁फेल": 9372,
      "ia": 9373,
      "▁2007": 9374,
      "▁दिनांक": 9375,
      "▁अहि": 9376,
      "▁लैस": 9377,
      "जपेयी": 9378,
      "▁अतिक": 9379,
      "▁बहाल": 9380,
      "▁बताना": 9381,
      "▁मातृ": 9382,
      "▁उपास": 9383,
      "▁है।\nप": 9384,
      "▁उदा": 9385,
      "▁नाव": 9386,
      "▁प्रबंधक": 9387,
      "▁सनी": 9388,
      "भक्ति": 9389,
      "ाइज": 9390,
      "▁गुट": 9391,
      "▁उत्पीड़न": 9392,
      "▁सीरियल": 9393,
      "ब्बत": 9394,
      "▁राजेंद्र": 9395,
      "▁अत्याचार": 9396,
      "िकारक": 9397,
      "▁अद्व": 9398,
      "लीफ": 9399,
      "▁मात": 9400,
      "▁बसों": 9401,
      "23": 9402,
      "ानुसार": 9403,
      "प्ट": 9404,
      "▁आरती": 9405,
      "ep": 9406,
      "▁कैलाश": 9407,
      "▁उन्नति": 9408,
      "▁आकलन": 9409,
      "▁उठाना": 9410,
      "द्वीप": 9411,
      "मोह": 9412,
      "▁हिस्सेदारी": 9413,
      "▁दिलीप": 9414,
      "फ़ा": 9415,
      "▁चर्": 9416,
      "▁जुटी": 9417,
      "▁आर्मी": 9418,
      "▁भयानक": 9419,
      "▁अपहरण": 9420,
      "▁प्रसारण": 9421,
      "▁बारा": 9422,
      "▁सिलसिला": 9423,
      "ew": 9424,
      "ल्हा": 9425,
      "धना": 9426,
      "▁पीस": 9427,
      "▁नाना": 9428,
      "▁पंजीकृत": 9429,
      "▁पूर्वा": 9430,
      "▁कट्टर": 9431,
      "▁पड़ेगा": 9432,
      "▁रंजन": 9433,
      "शाही": 9434,
      "▁सांसदों": 9435,
      "▁फोक": 9436,
      "ायंस": 9437,
      "▁धैर्य": 9438,
      "▁फैमिली": 9439,
      "▁लीक": 9440,
      "▁नींबू": 9441,
      "▁प्रतिबंधित": 9442,
      "▁खण्ड": 9443,
      "▁कहा.": 9444,
      "ist": 9445,
      "▁डाक": 9446,
      "पीएस": 9447,
      "ॉम": 9448,
      "▁सीमाओं": 9449,
      "▁आज़ा": 9450,
      "▁ख़िलाफ़": 9451,
      "स्सी": 9452,
      "▁कमाने": 9453,
      "▁कहानियों": 9454,
      "▁किलोग्राम": 9455,
      "▁टाल": 9456,
      "▁रैं": 9457,
      "ल्तान": 9458,
      "▁सुशील": 9459,
      "▁नमू": 9460,
      "▁दुर्ग": 9461,
      "मरी": 9462,
      "▁सेवानिव": 9463,
      "रेख": 9464,
      "▁कॉमे": 9465,
      "▁विंड": 9466,
      "▁शेड": 9467,
      "▁खैर": 9468,
      "▁जूनियर": 9469,
      "▁जश्न": 9470,
      "▁हार्म": 9471,
      "▁तिमाही": 9472,
      "▁दिखाते": 9473,
      "▁नारियल": 9474,
      "▁जाएंगे।\n": 9475,
      "▁व्ही": 9476,
      "वित": 9477,
      "▁कीर्": 9478,
      "▁निया": 9479,
      "▁संवाददाता": 9480,
      "▁हिर": 9481,
      "▁मंत्रिमंडल": 9482,
      "▁आभार": 9483,
      "▁स्पर्श": 9484,
      "ik": 9485,
      "▁अशु": 9486,
      "विशेष": 9487,
      "▁चुनौतियों": 9488,
      "▁हाँ,": 9489,
      "▁गवाह": 9490,
      "पाही": 9491,
      "-ल": 9492,
      "▁दोग": 9493,
      "ूण": 9494,
      "▁पैनल": 9495,
      "▁बताया।": 9496,
      "▁बघेल": 9497,
      "▁जादू": 9498,
      "▁देवताओं": 9499,
      "▁नरेश": 9500,
      "▁फैलाने": 9501,
      "ए।": 9502,
      "▁हैं।\nइस": 9503,
      "▁निम": 9504,
      "▁उर्दू": 9505,
      "▁सज": 9506,
      "BI": 9507,
      "▁शिवा": 9508,
      "▁पासवान": 9509,
      "क्रोश": 9510,
      "▁इंस्टीट्यूट": 9511,
      "▁गंग": 9512,
      "गमन": 9513,
      "▁करीना": 9514,
      "▁काफ़ी": 9515,
      "▁क्राइम": 9516,
      "▁मायने": 9517,
      "▁आला": 9518,
      "▁ऐश्व": 9519,
      "▁ईडी": 9520,
      "-सं": 9521,
      "खल": 9522,
      "▁खातों": 9523,
      "▁सके.": 9524,
      "ल्लू": 9525,
      "▁रच": 9526,
      "▁उग्र": 9527,
      "▁प्रवी": 9528,
      "▁जरूरतों": 9529,
      "▁उपाध्याय": 9530,
      "▁है।\nआ": 9531,
      "▁फलों": 9532,
      "घाट": 9533,
      "▁ख़ास": 9534,
      "▁(म": 9535,
      "▁वाई": 9536,
      "▁कुलदीप": 9537,
      "▁प्रिंट": 9538,
      "▁संवैधानिक": 9539,
      "▁घटनास्थल": 9540,
      "▁वसा": 9541,
      "▁उभ": 9542,
      "▁विवादित": 9543,
      "▁चौथा": 9544,
      "▁खूबसूरती": 9545,
      "▁रुपया": 9546,
      "45": 9547,
      "ठों": 9548,
      "▁रहें।": 9549,
      "▁सोनू": 9550,
      "▁ईमानदारी": 9551,
      "▁कम्युनि": 9552,
      "▁वाक्य": 9553,
      "।\"": 9554,
      "▁कूद": 9555,
      "▁बहाने": 9556,
      "▁स्तन": 9557,
      "▁ड्रोन": 9558,
      "▁]": 9559,
      "बिहार": 9560,
      "▁मुठभेड़": 9561,
      "▁कुर्सी": 9562,
      "▁जताया": 9563,
      "▁उपयोगकर्ताओं": 9564,
      "▁लीला": 9565,
      "▁संतुष्ट": 9566,
      "▁चाहें": 9567,
      "▁शैक्षणिक": 9568,
      "▁and": 9569,
      "▁लंबाई": 9570,
      "▁टिप्स": 9571,
      "▁डोज": 9572,
      "शिंगटन": 9573,
      "▁ज़रूर": 9574,
      "▁बुरे": 9575,
      "न्याय": 9576,
      "टिया": 9577,
      "▁अक्षर": 9578,
      "▁स्वतन्त्र": 9579,
      "वाइ": 9580,
      "▁सेकंड": 9581,
      "▁सर्च": 9582,
      "aj": 9583,
      "▁डबल": 9584,
      "▁है...": 9585,
      "▁धीर": 9586,
      "▁विशेषताओं": 9587,
      "▁गायक": 9588,
      "▁प्रदेशों": 9589,
      "▁शासक": 9590,
      "▁सम्पन्न": 9591,
      "▁टूर": 9592,
      "▁सम्राट": 9593,
      "ऐसा": 9594,
      "▁मुस": 9595,
      "▁अनंत": 9596,
      "ूर्त": 9597,
      "▁जिम": 9598,
      "▁निर्धारण": 9599,
      "▁इक्": 9600,
      "▁मांगने": 9601,
      "▁पाचन": 9602,
      "तिर": 9603,
      "▁घातक": 9604,
      "▁रूपए": 9605,
      "▁गिरोह": 9606,
      "▁दें।\n": 9607,
      "▁पूछने": 9608,
      "▁सिलेंडर": 9609,
      "▁शीर्षक": 9610,
      "सरकार": 9611,
      "▁प्लस": 9612,
      "▁सार्थ": 9613,
      "जेक्शन": 9614,
      "▁उत्साहित": 9615,
      "▁फुल": 9616,
      "▁बॉर्डर": 9617,
      "▁कन्": 9618,
      "ूंगी": 9619,
      "▁मौर्य": 9620,
      "▁सितम्बर": 9621,
      "▁8.": 9622,
      "▁साइन": 9623,
      "▁करेगा,": 9624,
      "▁डिलीवरी": 9625,
      "किट": 9626,
      "मेरी": 9627,
      "▁परस्पर": 9628,
      "▁निवासियों": 9629,
      "▁शेट": 9630,
      "▁ढाई": 9631,
      "दत्त": 9632,
      "्यूस": 9633,
      "वाड़ी": 9634,
      "प्रो": 9635,
      "▁पैरा": 9636,
      "व्": 9637,
      "▁चैंपियनशिप": 9638,
      "▁चुनने": 9639,
      "वैज्ञानिक": 9640,
      "▁अमल": 9641,
      "फिस": 9642,
      "27": 9643,
      "▁नमी": 9644,
      "▁दीन": 9645,
      "▁भावनात्मक": 9646,
      "▁बाघ": 9647,
      "▁जानकर": 9648,
      "▁रसाय": 9649,
      "▁फोर्स": 9650,
      "▁सम्य": 9651,
      "▁हैः\n": 9652,
      "▁सदैव": 9653,
      "लत": 9654,
      "▁जेब": 9655,
      "▁अंसारी": 9656,
      "▁खाल": 9657,
      "▁क्रू": 9658,
      "▁49": 9659,
      "▁शर": 9660,
      "▁सख्ती": 9661,
      "राशि": 9662,
      "▁सिस": 9663,
      "एमएक्स": 9664,
      "▁आगमन": 9665,
      "▁साहिब": 9666,
      "▁दुर्लभ": 9667,
      "▁भी।": 9668,
      "▁नाकाम": 9669,
      "▁उपज": 9670,
      "▁मांसपेशियों": 9671,
      "▁प्रयागराज": 9672,
      "बैक": 9673,
      "▁बृ": 9674,
      "▁निभाने": 9675,
      "▁सिलसिले": 9676,
      "▁दुल्": 9677,
      "▁मांगों": 9678,
      "▁संचालक": 9679,
      "▁राजमार्ग": 9680,
      "▁हैंडल": 9681,
      "▁अब्दुल": 9682,
      "▁लड": 9683,
      "▁आंगन": 9684,
      "▁बादशाह": 9685,
      "▁आईडी": 9686,
      "▁किसे": 9687,
      "▁लोकप्रियता": 9688,
      "छित": 9689,
      "▁डेविड": 9690,
      "▁मानवता": 9691,
      "ेशर": 9692,
      "ऊंगा": 9693,
      "▁सालाना": 9694,
      "▁अड्डे": 9695,
      "▁(आ": 9696,
      "▁लेनी": 9697,
      "जाबी": 9698,
      "▁अवकाश": 9699,
      "▁महंगा": 9700,
      "विन": 9701,
      "िस्ट्रे": 9702,
      "-6": 9703,
      "▁भोजपुरी": 9704,
      "▁सिपाही": 9705,
      "िक्षा": 9706,
      "धड़ी": 9707,
      "▁चाहिए.\n": 9708,
      "▁जोध": 9709,
      "▁एकाद": 9710,
      "▁ड्राइव": 9711,
      "▁ग्राउंड": 9712,
      "▁दिसम्बर": 9713,
      "ोषित": 9714,
      "▁ट्रायल": 9715,
      "▁कर्मी": 9716,
      "टी,": 9717,
      "▁सिद्धू": 9718,
      "▁अनो": 9719,
      "▁आचरण": 9720,
      "▁त्वर": 9721,
      "प्पल": 9722,
      "▁फेर": 9723,
      "▁व्यवस्थित": 9724,
      "▁बस्ती": 9725,
      "▁लम्": 9726,
      "▁हानिकारक": 9727,
      "▁न्यूय": 9728,
      "▁रहेगी": 9729,
      "▁उपायुक्त": 9730,
      "▁शोभा": 9731,
      "मंड": 9732,
      "▁इनसे": 9733,
      "▁फीचर": 9734,
      "▁कॉलोनी": 9735,
      "▁खरीदी": 9736,
      "▁रिश्तेदार": 9737,
      "▁बंधन": 9738,
      "▁ग्रो": 9739,
      "▁रियल": 9740,
      "▁शेयरों": 9741,
      "▁12वीं": 9742,
      "▁तेरे": 9743,
      "साइज": 9744,
      "▁एटीएम": 9745,
      "ार,": 9746,
      "▁खान,": 9747,
      "▁राजने": 9748,
      "▁बतला": 9749,
[...]
