<pad>
<unk>
<s>
</s>
\n
!
"
#
$
%
&
'
(
)
*
+
,
-
.
/
0
1
2
3
4
5
6
7
8
9
:
;
<
=
>
?
@
A
B
C
D
E
F
G
H
I
J
K
L
M
N
O
P
Q
R
S
T
U
V
W
X
Y
Z
[
\\
]
^
_
`
a
b
c
d
e
f
g
h
i
j
k
l
m
n
o
p
q
r
s
t
u
v
w
x
y
z
{
|
}
~



¡
¢
£
¤
¥
§
©
«
¬
®
°
±
¶
·
»
¿
Á
Â
Ã
Ä
Ç
È
É
Ï
Ð
Ñ
Ó
Ö
×
Ø
Ú
Û
Ü
Þ
ß
à
á
â
ã
ä
å
æ
ç
è
é
ê
ë
ì
í
î
ï
ð
ñ
ò
ó
ô
ö
÷
ø
ù
ú
û
ü
ý
Ā
ā
ć
Č
č
đ
ğ
ī
Į
İ
ı
ł
ō
Ş
ş
š
ū
Ÿ
ž
ƒ
ǀ
ə
ɛ
ɪ
ʹ
ʺ
ʻ
ˈ
ː
˸
́
̃
̈
̊
̧
Δ
Ε
Π
Σ
Φ
Ω
ά
έ
ή
ί
α
β
γ
δ
ε
η
θ
ι
κ
λ
μ
ν
ξ
ο
π
ρ
ς
σ
τ
υ
φ
χ
ω
ό
А
Б
В
Г
Д
Е
З
И
К
Л
М
Н
О
П
Р
С
Т
У
Ф
Х
Ч
Ш
Э
Я
а
б
в
г
д
е
ж
з
и
й
к
л
м
н
о
п
р
с
т
у
ф
х
ц
ч
ш
щ
ъ
ы
ь
э
ю
я
ё
ѕ
і
ְ
ִ
ָ
׀
א
ב
ד
ה
ו
י
ל
ם
מ
נ
ע
ר
ש
ת
،
ؓ
؟
ء
آ
أ
ؤ
إ
ئ
ا
ب
ة
ت
ث
ج
ح
خ
د
ذ
ر
ز
س
ش
ص
ض
ط
ظ
ع
غ
ـ
ف
ق
ك
ل
م
ن
ه
و
ى
ي
ً
ٌ
ٍ
َ
ُ
ِ
ّ
ْ
١
٢
٣
٤
٥
٦
٨
ٰ
ٱ
ٹ
پ
چ
ڈ
ڑ
ک
گ
ں
ھ
ہ
ۃ
ی
ے
۔
ۡ
۰
۱
۲
۳
۴
۷
۸
۹
ऀ
ँ
ं
ः
ऄ
अ
आ
इ
ई
उ
ऊ
ऋ
ऌ
ऍ
ऎ
ए
ऐ
ऑ
ऒ
ओ
औ
क
ख
ग
घ
ङ
च
छ
ज
झ
ञ
ट
ठ
ड
ढ
ण
त
थ
द
ध
न
ऩ
प
फ
ब
भ
म
य
र
ऱ
ल
ळ
ऴ
व
श
ष
स
ह
ऺ
ऻ
़
ऽ
ा
ि
ी
ु
ू
ृ
ॄ
ॅ
ॆ
े
ै
ॉ
ॊ
ो
ौ
्
ॎ
ॏ
ॐ
॑
॒
॓
॔
ॕ
ॖ
ॗ
क़
ख़
ग़
ज़
ड़
ढ़
फ़
य़
ॠ
ॡ
ॢ
ॣ
।
॥
०
१
२
३
४
५
६
७
८
९
॰
ॱ
ॲ
ॳ
ॴ
ॵ
ॶ
ॷ
ॸ
ॹ
ॺ
ॻ
ॼ
ॽ
ॾ
ॿ
ঁ
ং
অ
আ
ই
উ
এ
ও
ক
খ
গ
ঘ
ঙ
চ
ছ
জ
ঝ
ঞ
ট
ঠ
ড
ণ
ত
থ
দ
ধ
ন
প
ফ
ব
ভ
ম
য
র
ল
শ
ষ
স
হ
়
া
ি
ী
ু
ূ
ৃ
ে
ো
ৌ
্
ৎ
০
১
২
ৰ
৷
ਂ
ਅ
ਆ
ਇ
ਈ
ਉ
ਏ
ਐ
ਓ
ਕ
ਖ
ਗ
ਘ
ਚ
ਛ
ਜ
ਟ
ਡ
ਣ
ਤ
ਥ
ਦ
ਧ
ਨ
ਪ
ਫ
ਬ
ਭ
ਮ
ਯ
ਰ
ਲ
ਵ
ਸ
ਹ
਼
ਾ
ਿ
ੀ
ੁ
ੂ
ੇ
ੈ
ੋ
ੌ
੍
ੜ
ੰ
ੱ
ં
અ
આ
ઇ
ઈ
ઉ
એ
ઓ
ક
ખ
ગ
ઘ
ચ
છ
જ
ઞ
ટ
ઠ
ડ
ણ
ત
થ
દ
ધ
ન
પ
ફ
બ
ભ
મ
ય
ર
લ
ળ
વ
શ
ષ
સ
હ
ા
િ
ી
ુ
ૂ
ૃ
ે
ૈ
ો
ૌ
્
ૐ
૦
૧
૨
૪
૬
ଁ
ଂ
ଅ
ଆ
ଇ
ଉ
ଏ
ଓ
କ
ଖ
ଗ
ଘ
ଙ
ଚ
ଛ
ଜ
ଞ
ଟ
ଠ
ଡ
ଣ
ତ
ଥ
ଦ
ଧ
ନ
ପ
ଫ
ବ
ଭ
ମ
ଯ
ର
ଲ
ଳ
ଵ
ଶ
ଷ
ସ
ହ
଼
ା
ି
ୀ
ୁ
ୂ
ୃ
େ
ୋ
୍
ୟ
୦
୧
୨
୩
୪
୫
୬
୭
୮
୯
ୱ
அ
க
ங
ச
ஜ
ட
ண
த
ந
ன
ப
ம
ய
ர
ல
ள
ழ
வ
ஸ
ா
ி
ீ
ு
ூ
ெ
ே
ை
ோ
்
ం
అ
ఆ
క
గ
చ
జ
ట
డ
త
ద
ధ
న
ప
ఫ
బ
భ
మ
య
ర
ల
వ
శ
ష
స
హ
ా
ి
ీ
ు
ూ
ె
ే
ై
ొ
ో
్
ಂ
ಕ
ಗ
ಟ
ಡ
ತ
ದ
ನ
ಪ
ಬ
ಮ
ಯ
ರ
ಲ
ಳ
ವ
ಶ
ಸ
ಹ
ಾ
ಿ
ು
ೂ
ೆ
ೋ
್
ം
അ
ക
ഗ
ങ
ച
ജ
ട
ണ
ത
ദ
ന
പ
ബ
മ
യ
ര
റ
ല
ള
വ
ശ
ഷ
സ
ാ
ി
ീ
ു
ൂ
െ
േ
ോ
്
ර
්
ร
า
་
ག
ད
བ
ར
ལ
ས
ི
ོ
န
မ
ာ
်
ြ
၊
ᅳ
ᆬ
ṇ
​
‌
‍
‎
‐
‒
–
—
―
‘
’
‚
‛
“
”
„
†
‡
•
‪
‫
‬
′
‹
›
⁄
€
₹
⃣
℞
←
↑
→
↓
↔
⇒
⇓
⇨
−
∙
√
≡
≤
≥
⏩
─
┄
┅
═
▁
■
▪
▬
▲
▶
▸
►
▼
◆
◉
◊
○
●
◦
◼
◾
⦁
⬇
⭐
、
。
》
【
】
〰
ン
ー
中
人
卐
国
大
文
新
日
民
理
管
語
다
아
은
을
이


﴾
﴿
︎
️
﻿
�
🤍
🤔
🤗
🤣
🤩
🤭
🥀
🥰
🥳
🥺
🦚
🫶
▁क
▁स
▁ह
▁म
▁प
ें
▁है
▁के
ार
्र
ने
▁ब
▁ज
या
▁द
▁अ
▁व
▁ल
▁में
▁र
ों
▁न
▁की
ता
▁को
▁आ
र्
▁कर
▁से
▁उ
▁त
ान
▁कि
▁ग
▁भ
▁का
▁इ
्य
▁औ
▁और
ना
िक
▁पर
▁प्र
स्
ाल
▁ए
▁च
▁श
▁हो
ही
▁है।
▁हैं
क्
▁ने
िल
▁य
▁इस
ते
ड़
ित
▁थ
हा
िए
▁जा
▁भी
के
न्
िय
▁सा
वा
िया
▁ख
ती
▁एक
▁फ
▁स्
हीं
से
▁वि
ंग
ला
▁लिए
▁बा
री
ति
▁दे
रा
त्र
ले
▁अप
▁नहीं
नी
त्
▁सम
।\n
ाम
सी
िन
कर
्या
▁सं
ोग
का
▁रा
▁ही
गा
▁ले
ेश
▁हु
▁ट
िस
कार
▁मु
▁तो
▁आप
▁किया
ुर
▁रह
क्ष
▁था
▁ड
▁यह
्ट
की
ली
▁करने
्व
▁नि
ाय
मा
ंद
▁पह
▁गया
▁साथ
ारी
▁उस
ां
ियों
▁कार
▁कु
▁सक
▁उन
▁1
सा
▁है,
▁हैं।
न्ह
रे
▁घ
्म
▁है.
▁जो
▁2
▁हम
ास
▁या
ाह
ैं
ल्
▁अन
▁कहा
कि
िर
▁अध
▁सु
भी
▁अपने
▁पू
भा
िव
▁ध
▁वाल
▁उन्ह
िला
दी
ढ़
▁बाद
▁छ
्री
गी
च्
▁लोग
▁(
ुल
ारा
▁थी
▁रहे
▁है।\n
▁तक
ंड
दा
▁राज
स्ट
▁दो
▁सि
गे
ओं
द्
▁दिया
▁मे
जी
को
्रे
तर
▁।
टी
ूप
वि
ंच
ंत्र
देश
रो
▁ऐ
▁रहा
▁वह
ाइ
▁मह
▁हुए
▁उप
में
था
ाना
▁सी
ोज
्ष
किन
ष्ट
प्
गर
▁जिस
▁थे
▁पा
▁मा
ानी
▁मिल
▁बार
▁कुछ
वी
▁जी
▁सर
स्त
▁गई
▁बी
िश
जा
▁बना
▁अधिक
▁चु
▁भार
खा
▁रही
▁भा
▁तर
▁चाह
ार्
▁लेकिन
▁कम
ोंने
टर
नों
▁सब
पी
▁जब
ेल
▁बह
▁बात
ौर
ूर
▁करते
▁बता
पा
▁वे
र्म
ड़ा
▁दी
▁ला
ड़ी
▁20
.\n
▁बे
▁लगा
▁रूप
▁अनु
▁पहले
▁हैं,
▁कोई
द्र
ये
िंग
बा
▁सरकार
ंध
ुत
▁होने
▁जाए
शन
हां
्यों
▁अपनी
▁स्थ
▁उन्होंने
▁किसी
▁कह
मान
▁वर्
▁इन
द्ध
▁दिन
▁लोगों
ीन
▁अब
▁मैं
टे
क्र
ैसे
▁समय
बर
▁विश
ज़
▁देख
▁द्व
ूस
ड़े
▁व्य
▁तरह
▁सो
हर
▁जाता
क्त
▁वाले
▁जान
▁गए
च्च
▁करें
र्व
म्
▁इसके
▁मो
▁बि
▁काम
ूल
▁मौ
▁निर्
स्थ
▁पी
▁प्रति
कों
▁ये
▁हि
ंत्री
चार
▁सकता
र्ट
दि
▁देश
▁उत्
▁करना
ेट
▁रख
▁बढ़
▁'
▁बहुत
ोल
▁पुल
▁द्वारा
▁कार्य
▁दु
▁लग
योग
▁कई
▁था।
▁क्ष
▁सकते
▁हुआ
च्छ
वार
मी
▁उनके
▁टी
▁ओ
▁होता
▁सभी
्ल
▁भारत
ंह
▁पुलिस
चा
्यू
्स
▁साल
▁अं
ोक
्त
क्षा
वे
वर
▁शुर
▁विक
▁उन्हें
▁ऑ
▁क्या
▁फिर
िका
जन
▁-
ारे
..
▁हुई
ष्
▁गु
धान
▁प्रा
▁माम
ंप
वन
▁वा
बी
▁नाम
श्
00
वं
▁हा
▁3
▁फिल
▁हैं.
▁आज
▁हर
टा
▁ना
▁लेकर
िप
क्ति
▁रु
मे
क्स
▁पार
बंध
▁पहु
▁जि
▁"
▁मान
▁बै
जे
▁हैं।\n
▁होगा
िल्
▁साम
▁खु
्ञ
▁दि
मार
धार
▁बन
स्ता
▁घर
िट
पर
ूर्
▁बताया
▁चल
▁क्यों
▁चाहिए
▁कारण
▁मुख
प्र
म्म
▁पु
▁सिंह
ोर
▁आपको
भाव
ेत्र
डी
▁मै
▁लि
र्थ
▁पि
▁दौर
ब्
▁सह
ंस
▁करता
▁जन
वाल
एं
▁सबसे
▁ग्र
▁दूस
▁अव
▁फिल्म
▁वो
▁जाने
▁क्षेत्र
▁पास
िवार
्यम
ून
ोड़
▁उसे
प्त
▁बु
▁ता
पुर
▁उसके
▁पहुंच
्टी
▁हाल
▁शिक
▁दर्
▁बच्च
▁लिया
दार
न्न
ीड
ृत
▁पै
▁अच्छ
▁जु
▁स्व
तीय
▁जर
सर
▁अभ
फी
▁होती
दे
▁ठ
▁शुरू
यर
झे
▁शाम
▁सू
▁मन
▁निक
▁दौरान
्रेस
एस
▁5
▁समा
▁बीच
सार
▁एवं
ूम
▁इं
▁यु
्यादा
त्व
▁स्ट
▁दोनों
▁खिला
▁नी
शी
▁उनकी
दान
क्ट
▁झ
सान
कारी
▁अन्य
▁तथा
ेंद्र
र्स
मु
▁ऐसे
▁वर्ष
जार
▁क्र
ोट
▁आई
नाव
एम
▁राज्य
▁हू
▁परि
▁कै
िल्ली
जर
रण
तु
त्म
ाने
नि
▁बारे
वल
▁बद
ाई
ैन
▁रुप
▁स्थित
▁महिला
▁अपना
▁वाली
▁4
धी
िये
ंट
▁ज्यादा
▁आय
▁तु
क्रम
श्य
▁स्वा
इस
▁गां
▁थी।
ज्ञ
▁अगर
ेष
हार
▁टीम
▁201
▁अल
▁रो
▁‘
ंक
▁तै
स्था
▁ऐसा
▁दिल्ली
ेंगे
▁प्रदेश
▁थे।
लों
ियां
्रीय
▁फै
लिए
चित
▁यहां
जू
ोन
्ड
▁ई
▁देने
ोजना
▁है.\n
▁मुझे
▁मामले
ताओं
टना
वाद
▁समझ
हत
▁जैसे
दर्
▁इसे
गत
▁बैठ
▁शामिल
िम
आई
स्प
्रा
गा।
गी।
ाली
▁बो
▁निय
ुक
▁क्योंकि
वास
चना
▁राष्ट
▁भारतीय
▁आरो
▁अग
▁कॉ
▁श्री
▁जाती
▁सकती
ियो
न्द
▁ओर
णा
▁किए
▁।\n
▁काफी
▁उठ
निया
धा
ेज
▁कंप
ोर्ट
ंब
▁सुर
▁डॉ
भाग
लय
▁गो
▁डि
▁शु
▁जीवन
▁आपके
द्य
फ़
▁व्या
लो
र्ड
▁शा
▁होते
ंग्रेस
▁ऊ
्यक्ष
▁जानकारी
▁चुनाव
▁वै
ोष
▁इसी
▁इसलिए
त्रा
▁उपयोग
▁गया।
▁छा
▁ट्र
▁पार्टी
▁विशेष
▁था,
वान
▁तैय
▁तीन
▁पूरी
▁संबंध
तिक
ुरु
करण
▁सामने
▁पूर्व
▁व्यक्ति
▁पड़
स्क
ंत
▁महा
क्टर
▁इससे
िता
वाई
▁स्क
▁कांग्रेस
▁ली
▁शिक्ष
▁अनुसार
ेशन
तों
▁तब
▁आव
दन
ूर्ण
▁खा
▁खिलाफ
▁चौ
▁जारी
र्ष
▁कुमार
धिक
▁मार्
माण
चे
▁प्रकार
ेंट
▁सुन
▁अभी
त्य
▁व्यव
▁6
▁यदि
▁कभी
▁योजना
▁हों
ची
▁19
▁याद
▁वहीं
▁जग
▁आने
▁संग
श्यक
त्या
▁मद
हाँ
▁ब्र
▁चे
▁केवल
▁रे
ार्थ
▁परिवार
पूर्ण
\\n
?\n
▁लड़
▁प्रे
▁हमारे
▁सफ
इन
▁ज़
ूट
ष्ठ
▁जिन
र्क
▁पिछ
▁अला
ोध
▁उसकी
▁आगे
▁प्राप्त
▁पद
शा
▁भर
▁छो
▁कप
▁पढ़
्यान
▁बल्
▁दें
तना
▁स्प
▁आवश्यक
▁हे
ायर
यी
▁दिखा
▁जिसमें
▁लाख
▁हाथ
▁मेरे
▁पत्र
▁प्रश
▁विकास
ाला
▁आए
ूत
▁ची
▁था.
▁10
तार
▁अलग
ल्प
▁जै
▁जाते
▁करे
▁उनका
▁टे
▁एस
▁मांग
▁बड़ी
भव
▁अलावा
▁राम
▁योग
▁चार
▁करती
▁हूं
▁अस
रिक
▁पानी
▁202
▁बनाने
▁मंत्री
▁में,
▁दर
▁आम
▁विश्व
ंबर
▁दा
▁बाहर
स्तान
तन
्यालय
▁मदद
▁बेह
▁जांच
▁पता
ख्या
▁इसका
▁अधिकार
▁गिर
र्फ
▁यू
जब
▁मोदी
िले
▁आदि
▁इस्
ांकि
्यमंत्री
▁7
धि
जूद
▁मत
▁आधार
क्षण
▁किया।
ुक्त
▁जहां
रोना
▁चला
▁आरोप
लि
▁घटना
▁करोड़
सभा
▁लोक
▁:
स्या
हम
पाल
▁विभाग
▁खेल
▁इसमें
▁तैयार
▁अम
ेंद
ंगे
हित
णी
▁इला
▁आया
▁सद
▁दूसरे
ग्र
▁ध्यान
▁किसान
▁प्रधान
▁गा
▁मीड
ंदर
▁रुपये
▁बड़े
ताब
▁पां
▁कोरोना
▁करके
मुख
▁करी
ीस
राज
जह
▁इंड
▁मीडिया
▁बैं
▁स्थान
ासन
▁मिला
▁जरूर
ूरी
हन
▁प्रभाव
▁जगह
▁,
ाइन
▁कहा,
▁कैसे
▁ढ
▁अध्यक्ष
जपा
▁स्थिति
▁कान
वेश
▁खुद
▁दुनिया
सल
▁दिनों
▁गांव
ेद
▁मिले
▁उसने
पन
मेंट
▁पूरा
▁देते
▁पे
ियर
▁पिछले
▁जाना
▁समाज
▁8
▁शे
▁वाला
▁समस्या
्ला
▁वजह
▁हालांकि
िन्न
जों
प्ता
आर
▁मुख्य
▁सेवा
▁आर
म्मी
▁विचार
▁बंद
यन
▁रिप
▁मैंने
▁व्याप
▁बॉ
▁कृ
▁दिए
▁नई
िज
▁भाग
▁दूर
काश
षा
शल
ोजन
▁जिला
▁केंद्र
मंत्री
▁मुख्यमंत्री
▁कर्म
िश्
न्द्र
ैंड
ियन
▁फ़
इट
▁प्रो
राम
▁बस
▁रहने
तम
▁पर्
डे
ंज
ताल
▁उत्तर
▁जबकि
▁बच्चों
▁जिसके
▁डी
भग
▁दर्ज
▁महत्व
▁हमें
माल
▁बड़ा
▁मही
▁पूछ
▁पत्
▁सर्व
▁भाजपा
काल
▁होना
▁कंपनी
▁शहर
▁डे
ुआ
ाया
▁अमे
▁पो
ध्यम
▁लाभ
सि
ायक
ीर
▁बिना
▁छोड़
फ्त
▁नजर
श्व
▁अच्छा
in
बे
▁ऐसी
कु
▁मूल
▁परी
▁9
▁श्र
ीक
▁मैच
▁नौ
▁लिये
शि
▁लगे
▁सौ
ायत
▁हिस्
यास
दों
स्थ्य
कर्
▁आस
▁कार्यक्रम
रीर
▁करेंगे
▁वहां
▁हजार
▁लेने
ंदी
▁बाल
ित्र
▁उसका
ष्य
▁रिपोर्ट
ेंस
▁कल
▁नए
डा
बाद
▁वीड
▁कोश
-प
▁जिससे
ीय
▁जाएगा
▁चि
जय
ाइल
▁आद
ंगा
▁ग्राम
रों
▁तहत
▁होगी
▁विध
▁स्कूल
बह
▁दिया।
▁लिख
▁करीब
ंगल
▁संख्या
▁कौ
▁नेता
मो
▁ट्रे
▁खे
मत
▁ऑफ
▁सच
▁रात
▁इसकी
▁वीडियो
वरी
▁सुरक्षा
हरा
▁उम्मी
▁धर्म
▁सिर्फ
्ले
▁पं
▁डाल
▁सम्म
स्थित
दर्शन
▁अधिकारी
▁शर्
▁देखा
▁स्वास्थ्य
▁राष्ट्र
▁लगभग
▁जल्
▁12
▁मेरी
▁मां
▁मार
▁कहना
▁तुम
▁तरी
▁ते
त्री
▁राजनी
...
▁खरी
ियम
▁15
▁शिक्षा
▁उत्पा
▁विभ
▁मध
an
स्थान
▁पहली
▁उम्मीद
▁जीत
▁अस्प
▁फैस
कान
▁माध्यम
\n-
▁भाव
▁तरफ
र्ण
सम
▁माल
▁शादी
त्ता
ुन
▁शरीर
▁सदस
▁मौत
▁न्या
▁थी.
ल्ड
वाह
▁निर्माण
▁पाकि
▁स्तर
व्य
▁यही
▁चाहते
बल
▁भूम
चान
▁निर्देश
राब
▁सम्
▁कोशिश
▁पूरे
▁शिव
▁खान
र्च
▁होगा।
▁दिल
▁प्रधानमंत्री
ज्ञान
▁मंद
▁सके
▁जल
श्च
▁छात्र
▁कोर्ट
ुट
बार
▁जिले
ग्
▁उपल
ृति
▁न्यू
▁अर्
▁मुताब
त्मक
▁मुताबिक
▁मि
▁बल्कि
▁वाप
मारी
▁था।\n
▁पांच
ण्ड
पति
▁विरो
▁अच्छी
▁गई।
▁सही
▁विभिन्न
▁बच्चे
▁कहते
▁सामान
▁उपलब्
र्चा
ैल
▁रोक
▁बदल
शत
▁सवाल
▁लगता
▁मिली
▁खबर
▁धन
▁घोष
▁थीं
▁रखा
न्होंने
▁ठीक
तेमाल
▁जनता
▁इस्तेमाल
ॉक
ृष्ट
▁चाहिए।
▁प्रदान
▁थी,
▁बैंक
▁सफल
रि
▁गयी
मन
▁मंदिर
स्तव
▁एन
▁चा
भार
▁कुल
▁पेश
▁तौर
-अ
एक
▁जिसे
▁राष्ट्रीय
▁पुर
▁देखने
▁वित
▁नियम
▁ख़
▁प्रमुख
▁आपकी
▁अर
▁महत्वपूर्ण
म्ह
▁मी
▁महीने
▁की।
▁उद
▁रखने
▁१
▁अंत
▁बचा
ar
20
▁हैं.\n
द्धि
▁पस
▁दूसरी
▁विष
▁अंतर
▁पीछ
तनी
स्वी
ंख
ालय
एल
न्म
यह
▁आग
▁गै
षण
▁डा
▁लेख
▁अति
▁भग
यान
ांत
मिक
▁देता
▁लगातार
हाय
ेक
▁संघ
▁थे,
त्ति
पित
▁दल
टक
वासी
▁थो
▁दिख
युक्त
▁पाल
▁उपलब्ध
▁मौजूद
▁वृ
उन
▁यादव
ूब
▁उच्च
ॉल
▁सोच
वाब
▁वायर
▁बाजार
▁होंगे
▁पिता
▁बजे
नाथ
▁चुके
▁प्रयास
▁नगर
▁अस्पताल
▁मजब
▁संप
▁पाकिस्तान
▁उम
▁विधान
ेशा
▁जम
▁स्था
एन
▁रंग
▁बढ़ा
हास
ड़क
▁विदेश
दम
▁हूँ
▁अभि
▁गल
▁मंत्र
ें।
▁सुबह
लब
▁प्रदर्शन
▁बैठक
▁ज्ञ
▁गांधी
▁S
▁शुरुआ
▁जे
▁समर्थ
लाई
▁लाल
▁व्यवस्था
▁दिव
द्यालय
भर
▁किस
▁राशि
ंदा
er
▁बनाया
श्म
ंटे
▁लगी
▁नही
क्रिया
▁नर
क्षित
▁अफ
▁गये
शु
▁निकल
▁शर्मा
क्शन
▁आवश्यकता
▁लिखा
▁रोज
विधा
▁बच
ात
▁लो
जि
on
▁C
▁ऊपर
▁गं
-1
र्न
ेंड
▁ब्ल
!\n
▁प्रकाश
यं
▁लाइ
लाइन
▁गुरु
धन
ग्री
▁राह
▁तुम्ह
▁हमेशा
▁माना
▁शी
गढ़
ठन
्वी
▁पीछे
▁रन
▁पक
▁प्रतिशत
▁गिरफ्त
▁सूचना
▁11
▁उसी
▁यात्रा
▁व्यापार
▁बज
ड़ों
कट
at
▁परेश
हाल
▁थे.
▁विषय
▁सहाय
द्योग
ैक
तरा
▁रहते
लाह
▁)
जिक
▁सहित
▁शब्
▁बेहतर
▁फे
▁अधिकारियों
▁रि
▁“
क्सी
▁कहीं
▁जरूरत
▁चुकी
तिहास
खंड
▁अर्थ
▁चर्चा
कल
▁सीट
ल्स
▁युव
▁कार्र
▁महिलाओं
▁लक्ष
▁खास
गल
जेपी
▁एम
▁पक्ष
ंका
▁आदेश
▁जाएगा।
▁मिश
▁खरीद
▁A
▁वास्तव
तान
न्हें
चाल
▁रुपए
भीर
▁बनाए
▁परीक्षा
टन
▁भाई
▁गति
▁पोस्ट
▁देना
▁युवा
▁प्य
▁जन्म
▁हमारी
िटी
मैं
▁प्रक्रिया
▁बोल
▁कार्रवाई
▁सोशल
▁मिलने
▁उठा
▁एक्स
तने
000
मता
▁इंटर
▁होकर
▁शेयर
्यो
यू
▁200
ष्ण
▁देव
▁दू
▁इतना
र्य
र्ग
▁लिए,
▁ड्र
वादी
▁कमी
▁सुविधा
▁लगाया
▁देखते
▁मेरा
▁अंग
▁सेना
चर
सं
▁जवाब
-क
तंत्र
▁स्वी
▁अवसर
ूह
िली
▁ताकि
किल
तियों
▁मामला
▁भु
▁बने
▁करें।
पे
▁नीचे
▁पसंद
▁मध्य
▁पंच
▁आत
दाय
▁सीमा
▁चुन
▁क्ल
▁किसानों
▁तेज
फा
िकेट
रिका
धे
▁विरोध
▁आख
गू
▁लौ
▁पत्नी
▁चलते
ंबई
ॉप
▁वापस
▁मना
▁परिव
▁विधानसभा
▁चुका
▁18
कृत
▁मौके
▁शो
▁उद्
लर
▁–
▁फर
णाम
अप
▁भगवान
▁भाषा
▁बिज
▁प्रशासन
हि
▁चिक
▁बिहार
▁विप
वेदन
)\n
▁इंडिया
▁संभाव
ार्ड
िक्ष
ुड
▁रेल
मति
गार
ोजित
▁P
▁निकाल
ार्म
साय
▁सरकारी
▁हत्या
नो
झा
▁मृत
▁बीजेपी
▁गंभीर
▁रहता
▁वाह
आप
▁समु
▁माह
▁गेंद
▁सांस
नीय
▁पति
▁है?
▁पड़ा
क़
▁अद
न्तु
ेंगे।
िशा
▁अंदर
ंद्र
▁फोन
ायल
पु
▁सदस्य
बू
▁संक्रम
▁शुरुआत
ूं
एफ
▁टेस्ट
्वर
▁देर
▁सिद्ध
▁I
▁निवेश
▁बर
▁खो
▁गए।
▁वन
▁रव
▁देशों
▁सम्मान
▁गि
हरी
▁ती
लू
’’
क्षि
▁?
▁30
▁चीन
पू
"\n
्रम
▁दौ
▁भू
▁मुद्
▁प्रेम
सु
▁करा
▁फैसला
र्थिक
▁यहाँ
▁सर्
ोस
लिया
रीज
▁हो,
न,
तः
▁‘‘
▁अमेरिका
▁जमा
▁तस्वी
▁14
▁बयान
es
▁हिस्सा
▁साफ
रु
▁हास
▁शाह
िकल
▁थाना
▁राय
▁वालों
▁वही
▁जल्द
▁मिन
▁कला
▁पाए
जें
▁25
▁रोग
▁पूर्ण
▁उससे
▁प्रत्य
▁छोटे
▁हाई
▁सहयोग
▁अप्र
र्ती
तक
▁रिक
वरण
▁गुण
फे
▁शिकायत
▁स्पष्ट
स्त्र
▁परिणाम
करी
▁दिखाई
्रीम
▁सामान्य
▁.
बंधन
कत
▁रू
▁फीस
षि
िकों
▁फ्र
▁कानून
▁पहचान
▁अख
▁वक्त
▁प्यार
्यु
▁जरूरी
धर
▁कौन
▁समान
▁शक्ति
मि
टेड
ंभ
▁आर्थिक
नेट
▁संबंधित
▁प्रयोग
ांस
▁नंबर
मर
ट्ट
ोरी
▁कमा
रात
तृ
▁मुंबई
▁ऋ
▁भे
▁जाय
▁विकल्प
▁करवा
▁उम्र
or
्रो
▁तेल
किंग
▁व्यक्त
चल
▁नया
▁लॉ
▁तरीके
▁ऑन
▁पड़े
▁जाये
ंसा
▁आपका
सू
▁गिरफ्तार
▁राहुल
न्त
ुओं
ित्व
कुल
ठी
▁नोट
साथ
ंगी
▁घंटे
▁कर्
▁नहीं,
▁एक्ट
ियान
▁तुल
▁0
▁बदला
▁तीस
▁खूब
▁वेब
▁भेज
ांति
▁पेट
▁पर्या
▁दोस्त
रिया
लग
▁हासिल
लेज
▁महारा
▁मंगल
▁विधायक
▁लगाने
▁क्रिकेट
▁निर्ण
खी
▁आन
▁प्ले
▁आता
),
▁रहती
ियाँ
▁उल्
▁जय
वुड
▁!
उस
ायद
▁स्वयं
ोह
▁वी
ज्
▁अनुभव
▁साह
▁धो
ीण
क,
▁बिल
▁घोषणा
▁लागू
▁तय
▁सड़क
▁मॉ
यों
▁दृष्ट
तिम
-ब
तमान
▁कहानी
▁भूमिका
▁सोम
ंडी
ड़ने
इड
स्कार
al
▁आयोजित
▁नागर
▁M
▁रण
▁अहम
▁कदम
▁शि
▁आत्म
▁पाया
्वास
हरे
▁जैसी
▁तला
▁चिकित
▁माता
en
ियल
▁होगी।
▁नुक
त्मा
र्जी
▁फाय
▁वर्ग
▁बेहद
▁हमने
िति
▁अच्छे
नर
▁आते
▁डॉक्टर
▁गर्
▁सैन
▁भारी
▁समर्थन
▁पहुंचे
▁जित
▁प्रभावित
टल
कारा
चन
▁पुरु
▁सामा
▁अपरा
▁13
दर
विष्य
▁मार्ग
▁पत्रकार
▁50
धिकार
▁ज्ञान
ंटी
म्प
▁कार्ड
ष्ट्रीय
▁राजनीतिक
▁मार्च
▁जानते
लीवुड
▁तम
▁प्रत्येक
▁सामाजिक
पना
ानीय
कर्ता
▁नुकसान
▁लेते
▁पाठ
▁आरोपी
▁पृ
▁16
▁बनी
▁जिम्म
▁सित
▁जून
▁पैदा
▁गया.
▁पुरुष
▁विस्त
▁भविष्य
▁सिर
▁टै
ीत
केट
▁डिज
▁गण
▁कीमत
न्ध
▁दक्षि
डल
▁संभावना
▁मिनट
▁यून
▁ग्रामीण
▁आवा
▁जाएगी
▁यानी
▁शान
जाब
दारी
▁किये
▁विश्वास
▁सार
सूस
सत
▁तस्वीर
▁बाव
▁सुधार
दर्श
▁दी।
▁फॉ
काब
▁शायद
त्त
▁दुर्
गु
विड
खन
▁गर्म
स्टर
▁जेल
द्रा
it
is
र्तन
कर्ष
▁हिंद
▁जुड़े
▁उपस्थित
▁धी
राव
▁चले
▁इतिहास
गम
▁जैसा
बाइल
▁मश
▁थी।\n
▁B
▁मजबूत
स्ती
▁मनु
ता,
बाजी
ेंद्रीय
▁प्रभ
विद्यालय
ोलन
▁तत्
▁अभियान
▁अगले
▁निर्णय
▁T
रिक्त
▁पैसे
▁स्थानीय
▁मुश्
▁क्षेत्रों
टने
▁बल
ँच
▁युद्ध
▁हटा
सब
▁इलाज
▁हार
वें
▁लें
▁साब
▁शुक्र
ृह
सिक
▁संचाल
▁पहला
▁N
ूपी
क्सर
िश्चित
▁खत्म
▁पड़ता
▁सचिव
▁त्र
▁पूजा
सों
फ्
▁महसूस
▁चरण
▁दुकान
▁खुश
वीं
▁खाने
ेत
शील
▁जाएंगे
▁आदमी
▁बोर्ड
▁गलत
▁कराया
▁जिसका
▁वर्तमान
▁कठ
ील
श्मीर
▁24
▁अतिरिक्त
▁एड
▁बावजूद
▁॥
रीब
▁मुश्किल
ूर्ति
▁दिशा
▁सलाह
फर
ंता
▁पुन
▁सै
फ्ट
▁टाइ
▁सारे
▁आतंक
स्ताव
▁राज्यों
▁थे।\n
राने
▁उनसे
▁बेटी
▁तेजी
▁नेताओं
▁ऑनलाइन
▁संगठन
धानी
▁मर
▁मोह
▁न्याया
▁गया।\n
▁पश्च
▁चाल
▁आती
ेश्वर
द्व
▁कवि
▁देती
▁राजा
▁राष्ट्रपति
▁एल
▁मामलों
साद
देव
▁फोट
▁सोमवार
▁कराने
▁बनने
हे
▁अंतिम
▁दबा
सित
▁सात
▁पट
▁चाहता
▁विवाद
गा।\n
एँ
स्व
\nअ
▁सुना
ंदगी
▁D
▁बल्ले
▁किया,
ॉट
▁अथ
▁कंपन
▁परम
असल
▁प्रस्ताव
ंबे
▁स्थापित
▁आयोजन
▁बुध
्यता
▁भावना
▁मंत्रालय
▁जमीन
ूक
▁मोबाइल
▁शब्द
▁17
▁प्रव
क्ता
▁अनुमति
▁मुकाब
▁नियंत्र
▁गे
▁कट
▁दर्द
उन्होंने
▁महान
बि
▁समूह
ब्ल
▁कैं
▁आश
▁परेशान
▁निवासी
▁श्रे
न्स
विध
लेख
▁सें
▁गया,
▁समिति
जु
▁संयुक्त
▁प्रवेश
ंडल
▁विकेट
▁बिजली
▁मई
▁सामना
▁दवा
ॉन
▁मात्रा
तृत्व
▁रक्षा
▁न्याय
प्प
ष्ट्र
पक
रल
ाहरण
▁तकनी
चीत
▁काल
दु
▁गुज
ड़ियों
प्ताह
ॉर्ड
ूरत
▁छात्रों
▁अगस्त
▁केंद्रीय
च्छा
▁लड़की
▁२
▁जनवरी
▁सफलता
▁संभव
▁नरेंद्र
नु
▁राजनीति
▁समी
स्ट्रे
▁आयोग
▁आंद
▁अभिने
ौल
और
दू
-स
▁पीड़
▁मगर
▁वायरस
▁डॉ.
शनल
वत
▁बातचीत
हित्य
▁विदेशी
▁पॉ
▁रखते
▁संस्था
▁बदलाव
ज़ा
▁नव
▁उसमें
तरी
▁मिलता
▁सहायता
▁उद्देश
▁एंड
▁दिस
्रोल
▁विद्य
ज़र
▁पंजाब
▁एयर
▁बारिश
▁टिक
साइट
▁रिश्
▁क्षमता
दय
श्न
▁तुलना
▁आवेदन
▁निजी
▁स्वीकार
▁अनुसार,
ालत
ंतर
▁शै
▁अक्सर
फल
▁सुख
▁खर्च
▁पौ
▁आसान
▁नेतृत्व
▁से,
▁वृद्धि
▁मानव
▁मतलब
▁संर
▁ति
▁दावा
उट
गो
▁देकर
▁दक्षिण
ें,
▁संत
▁अप्रैल
▁माँ
▁हमला
िक्
▁वर्षों
▁बंग
ic
▁पालन
खे
िटल
▁भीतर
▁अने
▁भर्ती
▁पीएम
कर्म
गतान
स्ल
जल
▁जाकर
बाज
िक्स
▁भोजन
▁खोल
▁सुरक्षित
कर्ताओं
ूड
▁प्रण
▁राजस्थान
▁लेना
▁सीएम
▁बातें
▁इतनी
▁नौकरी
मक
▁कृषि
▁सुनिश्चित
भाल
▁निर्धार
▁समेत
स्ते
र्जा
▁R
▁मंगलवार
▁संस्क
▁कार्यालय
-अलग
▁खराब
▁साबित
▁शुक्रवार
ौती
▁फीसदी
▁उम्मीदवार
स्तु
▁हालांकि,
▁दूसरा
▁अध्य
▁अपराध
▁मूल्य
पि
▁100
▁उद्योग
▁भुगतान
▁पुत्र
▁सुप
ed
▁मुला
▁वोट
▁ट्रेन
▁बुधवार
▁जुलाई
ठा
▁तुर
ामा
▁अलग-अलग
▁तभी
▁हमारा
▁निश
▁ग्राह
▁प्रत
कृति
▁जीव
▁साध
उंड
पास
-साथ
▁स्वतंत्र
▁लक्ष्य
▁साहित्य
▁मौसम
▁वार
धिकारी
वाही
दीप
▁मुद्रा
मित
मार्ट
ॉय
▁देवी
▁डाय
हान
डर
▁यूपी
▁वैसे
▁प्ल
लेट
▁देखकर
▁उदाहरण
▁21
▁खोज
▁फल
▁किलो
▁शन
खनऊ
बोध
▁संक्रमण
▁वरि
ूबर
▁छह
▁साइ
एच
▁टि
▁निभा
क्षक
▁विश्वविद्यालय
ोप
▁2019
▁साथ-साथ
▁बेटे
▁बॉलीवुड
▁रखना
▁लिया।
▁उपाय
▁रविवार
▁बढ़ाने
▁युवक
▁पूछा
वरूप
▁जोर
ग्रह
▁निर
▁किया।\n
▁सजा
▁वरिष्ठ
,000
▁लं
▁बिल्
▁घा
▁अमेरिक
▁लड़ा
▁मं
▁आंख
क्या
▁हिन्द
▁इन्
▁कॉलेज
ंव
▁डेट
▁डर
जाम
,\n
▁सप्ताह
▁रेलवे
▁केस
ंतु
▁संके
▁2020
चारियों
भारत
▁हिंदी
▁लंबे
▁आंदोलन
▁करनी
▁धारा
▁अदालत
▁बहु
▁शनिवार
▁कोविड
चिका
▁हो।
-द
कम
जो
▁बेच
त्रों
▁संस्थान
ब्र
▁रै
▁गाय
▁हुआ।
सद
▁मेड
ियार
▁असर
▁छोटी
▁वेबसाइट
▁घु
om
म्स
▁प्रतिनि
ैया
▁आध
▁आयु
घा
▁पल
th
▁ज़र
▁ग्रह
▁/
▁सूची
▁उद्देश्य
श्चित
गा,
▁चाहे
▁सामग्री
▁उत्पादन
▁सत्ता
▁प्रार
▁इनमें
▁दिवस
▁शराब
▁रिली
▁अथवा
▁खिलाड़ी
सो
सन
डिंग
▁वहाँ
जरी
ं।
▁इंत
▁जल्दी
▁पंचायत
▁अंक
▁आपने
▁खाना
▁सांसद
▁जिसकी
▁नीति
▁उत्पाद
▁हल्
▁तैयारी
▁विकसित
▁समाप्त
▁शासन
श्वर
▁दश
▁गौर
▁कप्ता
ज्ञा
▁तारी
राह
स्तुत
▁मनुष्य
▁उनको
थम
स्टम
म्ब
ैर
ायी
▁इनके
▁कपूर
त्ती
स्ट्र
▁ठा
जद
ड्ड
ों,
जित
▁है\n
चारी
ियोजना
▁धीरे
▁दोष
▁थोड़ा
▁जरिए
तौर
पन्न
▁पैसा
▁शानदार
▁मौका
▁दिला
▁नदी
▁कर्मचारियों
▁आठ
▁बताते
▁अनेक
▁जाएगी।
वर्
▁अग्र
▁गौ
ैट
तो
▁रचना
▁प्रशिक्ष
न्ना
थि
▁निश्चित
▁संपर्क
▁आंक
▁स्टे
न्या
▁इलाके
▁प्रती
▁चिंता
▁री
▁शुभ
▁शव
▁अध्ययन
▁रोड
▁कही
▁सारी
▁करेंगे।
▁विजय
▁परियोजना
ल्क
ंडा
चि
ानों
▁फोटो
▁भूमि
▁लोकसभा
▁तुरंत
।\n-
ार्क
नेस
▁फी
▁उनमें
▁जिन्हें
▁याचिका
▁है?\n
▁इंग
▁हथ
▁दिसंबर
st
थमिक
▁खुला
ित्य
शे
्रीन
स्लिम
▁क़
▁अंग्रे
▁पाने
'\n
र्गत
▁चयन
▁आनंद
ुप
▁ओवर
▁विस्तार
le
▁प्रसाद
▁22
स्ट्रेलिया
ध्यक्ष
▁मल
▁हेतु
▁दूध
▁त्व
ूँ
▁टीवी
▁प्रतिक
▁फरवरी
▁आखिर
▁ट्वी
▁H
▁चाहती
▁रहे।
▁आकर्ष
▁दस
▁धार
▁जाति
▁सभा
पोर्ट
▁सिंह,
▁निर्धारित
▁सुपर
▁व्यवहार
्वि
▁फ्ल
▁आसानी
▁प्राथमिक
▁बिक
ra
▁घायल
राष्ट्रीय
क्टूबर
न्दी
▁बुला
▁बर्
टिंग
▁दिया.
स्म
कारात्मक
शिया
म्बर
▁नार
▁हल
▁उपकरण
▁40
▁अमेरिकी
▁जता
▁चेहरे
▁सेवन
प्रिय
▁पार्ट
▁चढ़
बन्ध
▁अश
जनों
▁2021
गी।\n
▁सुप्रीम
्राम
▁बीमारी
▁सत
यु
▁की,
इसके
▁आइ
▁सूर्
ंघ
टो
▁लखनऊ
िरी
केश
▁अवधि
▁फिल्मों
▁गुजरात
▁कंपनियों
▁फा
वाले
▁शांति
पूर्व
वै
▁राहत
ानि
▁गृह
▁निगम
▁चैन
गा.
▁पहुंचा
▁त्वचा
▁गठ
▁पकड़
▁सार्व
▁हॉ
▁दरअसल
मीटर
▁राजधानी
▁हरिया
वंबर
▁खड़े
▁परिवर्तन
▁ट्वीट
ुनिक
▁जहाँ
नल
▁मैदान
▁आसपास
▁कथ
▁प्रचार
क्षम
▁स्टेशन
▁बनाई
▁पर्य
▁मिलती
▁होगा।\n
▁चर
▁स्टार
▁अक्टूबर
▁विपक्ष
ियत
▁दृष्टि
▁श्रद्ध
▁कितना
▁चली
▁पुस्त
▁वायरल
ार्ज
▁लगाए
ग्राम
▁हूं।
▁कब
िल्म
ाब
सिद्ध
▁सीरीज
▁खाते
▁इच्छा
ियोग
▁किया.
▁सत्य
▁चाहिए।\n
र्श
▁मरी
▁हुई।
्सा
▁अली
▁जोड़
लेक्ट
-2
▁रिकॉर्ड
ंकर
काम
आज
▁जिन्होंने
▁दर्श
▁प्रमाण
चानक
वस्था
▁पहन
▁शीर्ष
▁चित्र
▁भूल
▁योगी
▁मुस्लिम
▁नो
▁कश्मीर
▁बैठे
▁उचित
▁नागरिक
▁कारो
▁सितंबर
▁हमले
▁वाय
▁मुझ
रान
फ्र
दिन
▁नवंबर
▁प्रिय
▁तलाश
▁ऊर्जा
▁विवाह
▁मू
▁व्यवसाय
▁उत्तरा
▁विशेषज्ञ
▁भेजा
▁संघर्ष
▁पदार्थ
खर
▁सल
जीत
▁करो
▁बीमार
▁हवा
▁किन
यम
▁रूस
▁सदस्यों
उंट
▁बजट
बद्ध
di
▁गई.
्यास
▁बाकी
▁न्यायालय
▁समुदाय
▁करें।\n
▁परिष
▁23
▁सिस्टम
▁मिलकर
▁सिल
▁प्रस्तुत
-म
▁रहना
▁वाहन
▁था.\n
ितों
▁E
▁तत्काल
▁बनाकर
िड
▁लाइन
ेदारी
▁रिश्ते
▁कार्यों
▁बंगाल
▁नेट
▁चंद्र
▁बाइ
बीआई
▁आईपी
▁धर
▁उल्लेख
ट्र
▁जागर
ौन
▁अचानक
पो
▁प्रश्न
▁2018
▁दिया।\n
▁गुरुवार
50
▁चुना
▁अका
▁सीख
▁फैसले
ाये
जनिक
▁गरीब
पने
▁गाँ
▁नै
▁इंस्ट
▁मजद
▁पहुंची
▁प्लेट
▁कब्
▁अत्य
वाला
सव
▁इतने
▁लै
िको
सेना
▁आये
▁विरा
▁महाराष्ट्र
▁जिंदगी
नियर
▁हाथों
▁छुट
▁जिनमें
▁कमरे
्रिय
वधान
चार्य
स्ट्री
▁नहीं।
▁F
ल,
▁रखी
▁विज्ञान
▁तोड़
▁लाने
▁G
जेंसी
▁गैर
▁मृत्यु
ष्टि
▁रिलीज
▁मुह
▁पर्याप्त
▁हिस्से
▁प्रणाली
▁निष्
कात
▁फूल
▁प्रबंधन
ामी
ंकी
▁सक्रिय
हली
▁मेडिकल
ूनी
▁भ्र
लाम
▁इंग्ल
▁अके
▁पर,
▁खड़ा
ur
ह्
ांश
▁तू
▁फिलहाल
▁निदेश
▁दर्शन
▁एफ
▁तनाव
▁विमान
▁सीधे
वीर
▁बाद,
्रेड
▁पश्चिम
▁मानसिक
▁आँ
▁जवान
दो
▁उल
ारोह
▁2022
▁26
▁बू
▁परन्तु
द्योगिक
▁प्ला
▁रोकने
19
▁अलावा,
▁सूर्य
शाली
प्स
▁पूर्
निक
▁रणनी
▁अक्ष
ट्स
लैंड
▁चिकित्सा
अब
▁संकेत
तीश
ेदार
▁होगा,
▁सार्वजनिक
▁प्री
▁उपचार
्याण
▁यूरो
▁तह
▁वास्तविक
▁सक्षम
ew
▁आधारित
▁तमाम
▁खुल
ार्मिक
▁पुराने
्तीय
▁प्रकाशित
▁सुंदर
▁कमज
चीन
▁सुनवाई
\nस
▁डॉलर
▁समारोह
▁धार्मिक
▁घोषित
▁मंच
▁कर्मचारी
▁लड़क
▁दृ
▁नियंत्रण
ेंज
▁वित्त
▁हरियाणा
▁भीड़
▁रखें
-19
बो
▁हाद
रित
थी
▁कप्तान
▁तत्व
▁संजय
▁कि,
ion
श्री
िलों
▁प्रथम
िसर
▁इन्हें
▁समीक्षा
▁पूछता
कू
▁रेड
चु
ायण
त्रियों
▁बोली
त्तर
▁क्व
▁समाधान
डाउन
▁पुरस्कार
कीय
ोषण
प्ति
▁लॉक
ष्टा
थे
▁मुताबिक,
▁समस्याओं
कोर्ट
▁पृथ
▁पड़ी
▁परमेश्वर
▁मिस
▁स्थापना
▁दबाव
-प्र
▁पहल
▁टिकट
▁अपील
्रिया
ल्ल
▁जाएगा।\n
▁199
▁टा
▁उपा
▁प्रभा
▁अनुर
▁किर
क्कर
नगर
▁मित्र
▁संकट
▁समाचार
म्मू
▁संबोध
▁स्म
▁महामारी
▁परीक्षण
▁आराम
▁28
कद
▁अरब
▁चीनी
”\n
म्मद
कारों
▁बिग
▁सच्च
▁चाहिए,
▁जाए।
रेट
न्दर
▁इंस
▁हालत
गी.
▁थाने
▁गोल
सीसी
▁कहने
▁उत्पन्न
▁चलता
▁लोकप्रिय
▁|
▁भो
▁ऑस्ट्रेलिया
▁शौ
▁सत्र
▁मस
▁शोध
▁लौट
▁लु
▁विद्यालय
▁थीं।
▁खुशी
▁लड़ाई
वाली
▁पारी
त्तीस
▁मैने
▁जैन
विधान
ना,
▁केन्द्र
ः\n
धरी
▁व्
ॉर्म
▁वैज्ञान
▁वर्ण
▁खी
जनक
श्वास
▁हैं?
ंजन
कुछ
▁छि
शोध
▁रखे
▁प्रभारी
▁सालों
बाल
▁मुक्त
▁वित्तीय
am
▁आकर
▁परिषद
▁तथ
गंज
▁रक्त
▁जुड़ी
निर्
▁गोली
ढ़ी
▁दम
▁चलने
▁लॉन्
्मी
▁27
▁डिग्री
▁2017
▁होंगे।
ैंस
▁हिन्दी
▁आवाज
▁पढ़ाई
▁मुकाबले
जान
▁किताब
▁मनो
ाइड
माने
▁मुलाकात
▁संस्कृति
द्द
▁वहीं,
▁तीनों
ज़ार
पण
▁व्यक्तिगत
▁थोड़ी
▁नियमित
त्कार
▁सुनी
▁भरो
▁बजाय
....
30
वां
▁निप
▁वैक्सी
▁जिम्मेदारी
▁नारा
▁उड़
्टर
▁बातों
▁बिल्कुल
▁स्मार्ट
▁कड़ी
▁मुद्दे
लेकिन
▁साझा
▁मरीजों
▁बालों
▁लागत
▁विल
▁बढ़ने
▁फाइन
▁किन्तु
▁अमित
हो
▁हिंसा
▁दोप
पान
▁हथियार
▁भले
▁घरे
पाद
▁क्लिक
▁परेशानी
▁आजा
▁वजन
▁फायदा
▁हिंदू
▁प्रशिक्षण
▁आउट
▁प्राइ
▁झू
भू
▁पाई
▁बोला
▁करें,
▁कल्याण
▁परिस्थित
नाक
▁नम
▁सब्
थर
ंजी
सिंह
▁है।\n-
यदि
▁रास्ते
▁कृष्ण
▁कपड़े
▁लक्षण
लाल
▁जिसने
्योति
▁घूम
▁तैना
▁क्ला
▁ताप
▁बाबा
▁प्रतिक्रिया
▁वर्षीय
▁अवै
्याज
छा
त्तीसगढ़
as
▁पैर
▁कितनी
▁प्रसिद्ध
ेय
▁सलमान
▁उसको
▁एक्सप
ol
▁गुप्ता
▁जू
कल्प
▁दिया,
कुर
म्भ
-ज
▁मास
रीन
▁चुनौती
▁31
▁होनी
ay
▁रोजगार
▁गाड़ी
▁रहें
▁दूरी
▁पूछताछ
▁जिलों
▁अंतर्गत
▁संगीत
▁मस्
▁योगदान
खों
▁पीड़ित
टेन
▁कितने
▁सहायक
▁चोट
▁उतर
▁समझौ
▁बनाना
▁प्रतिबंध
▁K
▁क्रम
▁शिकार
▁1.
▁भवन
धारण
गी,
व्यवस्था
▁संवाद
▁होगा.
▁चौधरी
▁आधुनिक
शिप
द्दी
▁डेटा
साइ
▁स्वामी
▁हृ
▁दस्ता
▁योग्य
दियों
▁कोल
▁पर्व
ंदन
▁अनुमान
▁बीते
ज़ी
▁घरेलू
▁बहा
र्या
ाले
▁रस
▁खूबस
रद
जूदा
▁मॉडल
▁सख
▁देखना
सलमान
▁करियर
▁युवाओं
▁गतिविध
▁नज़र
▁अवैध
▁इंग्लैंड
▁छूट
▁मिट
▁खिलाड़ियों
▁वीर
▁जिनके
पद
▁कहां
▁तीसरे
▁मिश्र
▁मात्र
▁जम्मू
▁स्वागत
▁अखिल
▁ट्वि
▁सारा
▁संसद
सबुक
▁किलोमीटर
▁इलेक्ट
▁हिस
ांक
▁ड्राइ
▁मानना
▁बहन
चक
▁आत्मा
▁संदेश
▁मेहन
▁किश
ंधे
क्रे
▁छोटा
कृतिक
▁निर्म
▁गंगा
▁कैम
दारों
गन
▁पढ़ें
▁लगती
दाता
▁ऊंच
▁रिज
▁शूट
बु
▁की।\n
▁मतदान
वत्ता
▁फायदे
िष्ट
▁इंद
▁...
▁तरीका
▁अंतरराष्ट्रीय
▁पहा
यो
▁आकार
दर्भ
▁लेखक
▁काट
▁ट्रै
▁सन्
ेक्षा
ंश
▁पशु
▁होटल
▁सेंटर
▁पटना
्मण
स्य
▁इंटरनेट
▁मजदूर
▁बचाने
▁सोने
▁दोपहर
▁बुरा
वर्क
▁लगने
▁मशीन
मह
▁शिक्षक
▁रहा।
बीर
घर
▁माइ
▁संपत्ति
▁W
ेंडर
▁की.
बता
▁नियमों
ृत्ति
▁सां
या।
▁इंतजार
▁ऐप
▁सम्बन्ध
लोड
▁विद्यार्थ
▁नवी
▁डिजिटल
▁व्यापक
देन
वासियों
िवर्स
▁चोरी
जिए
▁स्वस्थ
▁मौजूदा
▁प्लान
फोन
ैंप
लम
▁रवि
▁कोहली
प्रदेश
न्व
▁बढ़ती
ंडे
▁प्रस
▁मिलते
▁चीज
▁उन्
वेद
▁गैस
▁कमजोर
ं,
नतम
▁मुंह
▁परिजनों
▁टिप्प
▁कारोबार
▁इनकी
▁खाली
▁चाहिए.
ad
▁शब्दों
▁निरा
▁सके।
▁दरवा
▁रिट
▁मालिक
▁प्रतियोग
▁वायु
ानु
)।
ing
▁ज़्यादा
▁पटेल
▁उतार
▁कॉन्
िनी
नाम
▁गी
▁कविता
▁घरों
विंद
▁आखिरी
ज्ज
▁गुणवत्ता
▁निरी
▁कक्षा
▁हुए,
अल
▁टीका
बादी
▁ब्रे
▁आवास
▁दिये
एसपी
्वा
▁दस्तावे
▁ज्योति
▁L
▁मीटर
▁हृदय
म्न
यात
▁दोस्तों
ोने
जीव
▁अधिकांश
राय
▁बौ
▁अध्या
कृ
▁मार्केट
फिक
-20
ठे
▁निर्मा
▁निर्भर
▁60
ent
शाला
▁सीटों
▁उत्सा
टका
▁अर्था
ाइट
▁सफाई
▁बराम
▁गुर
▁डिजाइन
▁एंटी
क्का
▁तुम्हें
वो
वती
र्डर
▁अंदा
▁विभा
▁छत्तीसगढ़
ंडर
▁फ़िल्म
▁मानते
▁पेट्रोल
▁ठाकुर
▁खतरा
▁प्रतिनिध
ेंशन
▁देखें
▁बोले
▁कथा
जिट
▁धम
नम
माग
ch
▁एक्ट्रेस
▁एजेंसी
▁आरोपियों
▁मरीज
खिम
▁चारों
▁टूट
▁ज्यादातर
▁बाइक
▁गई।\n
ेलन
▁कंट
▁सॉ
▁प्रकृति
▁हां
▁अन्
▁टू
▁छोड़कर
▁पुष्टि
र्द
▁लॉन्च
:\n
▁है।\nइस
तलब
िनियम
▁29
▁घट
▁मेहनत
▁साहब
▁समझा
▁विश्ले
िक्र
▁सेट
लाब
▁संगठ
▁स्थल
▁हाईकोर्ट
▁ग्ल
▁जितना
▁दान
ताप
▁प्रबंध
▁आदित्य
कोर
ेक्ट
▁नती
गति
▁अय
िस्ट
▁पहुँच
भो
▁बढ़ावा
लोक
▁चिकित्स
घटना
▁कठिन
▁.\n
बत
il
ैनिक
ेर
▁पव
दिक
▁संबंधी
कुमार
ध्या
▁स्थानों
▁प्राकृतिक
ारीरिक
▁संग्र
▁पुरानी
▁प्रसार
▁इलेक्ट्र
▁मकान
▁जला
▁पहुंचने
▁ट्विटर
ध्य
▁विशाल
▁चाहिये
ेंगे।\n
▁चीजों
▁जोखिम
▁गीत
दास
▁फैला
▁सन
▁विवे
▁मेह
ंटर
▁डिप
▁प्रत्या
▁कार्यकर्ताओं
▁संविधान
▁कल्प
वह
▁एच
▁चाय
▁कहती
▁फैल
▁उत्तराखंड
▁बंध
▁कैंसर
▁ऑफिस
एं।
ख़
▁2016
लिंग
▁साथी
▁साइट
▁आशा
ल्ला
▁प्रतिष्ठ
▁वस्तु
स्कृत
▁योजनाओं
▁मुसलमान
▁ग्रुप
▁पढ़ने
▁माहौल
तरे
▁संबोधित
मैन
▁स्वतंत्रता
▁चैनल
▁लगाई
▁नाग
▁लॉकडाउन
▁पंजी
▁कार्यवाही
▁साथ,
▁?\n
▁वकी
पुर,
▁डाउन
▁हाउस
▁सुझा
▁महिलाएं
▁छात्रा
ताव
▁बिक्री
▁बरामद
▁वर
▁हिसाब
▁कोच
▁परिसर
▁मिश्रा
▁वैक्सीन
द्या
▁रास्ता
▁संचालन
▁जिम्मेदार
▁शारीरिक
▁विराट
▁एज
▁जानने
▁लंड
धीरे
▁संसा
▁न्यूज
▁मनी
श्विक
...\n
▁गाँव
भूम
▁अशोक
▁तुम्हारे
गण
▁ग्राहकों
▁गुजर
▁नामक
▁निदेशक
ैंक
\nक
ूसरे
\nप
▁होम
▁बेहत
▁स्कूलों
▁भरा
▁O
ूंगा
▁दाम
▁फें
▁एशिया
▁ब्रां
▁असम
▁मुकद
ान्त
त,
▁जमकर
र्ज
▁आलो
▁अल्
▁हूं,
▁U
डेट
ष्टाचार
10
▁तापमान
▁झार
▁कराई
मल
▁झा
अगर
ुण
▁अजय
▁फेसबुक
▁३
▁पृथ्वी
बारा
▁संय
▁अधिनियम
▁सरल
▁किरदार
▁उठाया
▁ट्रांस
▁लगाकर
▁स्वरूप
▁अना
▁शास
▁हफ्
▁खेती
▁रजि
▁संशोध
्यूटर
एंगे
▁पदा
▁वर्मा
▁अकाउंट
श्चा
▁शहरों
▁सिने
▁गए.
▁ढंग
▁आंखों
▁निम्न
el
▁अर्थव्यवस्था
▁खाद्य
▁पंड
▁विरोधी
्यवाद
फिर
-पिता
▁चक्र
▁इंसान
▁श्रेणी
▁तिव
ुरा
▁कले
▁बरा
▁हित
▁स्त्री
▁सवार
▁हिमा
▁अह
स्वा
▁सर्वे
▁सूत्रों
▁विशिष्ट
▁कथित
धिकारिक
▁गई,
▁2014
▁सीजन
▁खींच
▁लिमि
▁कम्
रोज
▁खुलासा
▁रोहित
▁क्रिया
▁लगते
दल
▁कहता
▁फैंस
1.
टरी
▁ग्रे
▁अभिन
▁लिमिटेड
स्तानी
▁वर्ल्ड
▁पुस्तक
▁दिखाया
▁फिट
▁लंबी
▁लेता
▁त्या
तिहासिक
▁भरोसा
▁तिवारी
▁इलाकों
▁तैनात
▁हरा
खिल
अपने
▁अभिनेता
▁सम्मेलन
▁वॉ
-ए
▁एका
मती
▁विधि
▁दूसरों
▁प्रारंभ
▁प्रभावी
▁आना
▁जागरूक
▁हिन्दू
▁सकारात्मक
▁प्लेटफ
▁हालात
ं.
▁मोहम्मद
ो,
▁मिलाकर
ोग्राम
▁नीतीश
▁दुख
▁सुझाव
▁35
▁नेशनल
▁खंड
▁प्रेस
▁सड़
▁दाय
ंखला
वाने
▁बचाव
▁हवाई
▁आईपीएल
▁वेतन
▁उत्पादों
▁टैक्स
कूल
▁राजी
ंदे
मंद
▁ग्रहण
ड्
▁ज़ि
▁लोगो
▁हफ्ते
▁गेम
स्टिक
▁श्रृ
▁स्वच्छ
▁वापसी
▁गहरा
▁अफ्री
▁वैश्विक
▁तथ्य
▁दिमाग
▁मंडल
▁करेगा
▁कने
नै
पत्र
▁जंग
et
▁सेक्स
▁संदर्भ
▁ताकत
▁यूनिवर्स
▁फंड
ारों
▁गुस्
पूर्वक
जरीवाल
लान
▁इका
▁सीमित
▁V
▁रेट
▁मान्यता
▁रणनीति
▁है;
▁रिस
▁कार्यकर्ता
लाइ
राग
▁इंजी
▁रूसी
▁बेहतरीन
▁पाते
▁रम
▁डाला
▁खेलने
▁प्राचीन
▁माता-पिता
▁कमे
▁फसल
▁डो
स्तर
ंथ
क्षे
▁कॉल
▁प्रोड
▁प्रोज
▁विज्ञा
▁कौशल
▁दीप
▁अंग्रेजी
पेट
▁थी.\n
ोत्
वेट
्रत
▁शुल्क
▁अपेक्षा
पुरी
2.
▁दशक
घु
▁आबादी
▁आदर्श
▁o
▁दिलच
▁अनिवार
▁f
▁मंजू
▁तकनीकी
▁पांडे
▁आपूर्ति
▁मैचों
▁नेटवर्क
िया,
▁कमाई
▁दलों
▁धा
मुझे
▁टुक
ंपरा
▁सका
▁गतिविधियों
▁स्ट्र
▁आधिकारिक
▁पर्यावरण
▁पीने
▁चै
▁इनका
▁ऋण
बारी
ews
▁खड़ी
▁बच्चा
डु
▁लाइफ
▁अन्त
▁जहा
▁रखता
▁संक्रमित
▁निर्वा
ir
▁नोटिस
▁गठन
▁गठबंधन
▁भक्त
▁पेड़
▁दर्शकों
▁तकनीक
▁है।\\n
▁युग
▁सपा
भाषा
स्करण
-बार
▁बढ़ते
▁लड़कियों
▁स्क्रीन
▁मारे
पात
▁खरीदने
नान
त्सा
▁सैन्य
▁समझने
िमी
▁लिस्ट
▁भौ
▁चौहान
दरा
▁सेवाओं
▁ईश्वर
▁राव
▁विट
हिर
▁कमेटी
▁बदलने
भूमि
us
▁मिट्टी
▁198
▁नींद
▁रोमा
ेंगे.
िग
▁अनुकूल
-श
▁अमर
▁गर्मी
▁लाखों
oo
राज्य
ला,
▁करें.
▁कू
▁जुड़ा
▁पीठ
▁गू
▁सिनेमा
▁होगी।\n
नाटक
▁2.
चय
▁आमतौर
▁खुले
▁तारीख
▁वाहनों
▁मुद्दों
ॉग
▁लुक
▁प्रदू
ग्न
▁रोल
▁p
▁J
▁कार्
▁व्यक्तियों
▁पोर्ट
▁पदों
▁सम्मानित
▁केजरीवाल
▁भ्रष्टाचार
्यूट
▁ब्रि
▁नाराज
▁वार्ड
▁संभाल
▁ध्व
▁संग्रह
▁अट
▁चीजें
त्न
टिल
▁अवश्य
ली,
\nम
पथ
▁चूत
▁ऐतिहासिक
▁अभ्यास
णे
दाबाद
विक
▁प्रगति
▁शुद्ध
▁प्रदर्श
गाह
ंग्ला
▁प्रावधान
क्षी
▁किनारे
▁अग्रवाल
▁बल्लेबाज
▁आशी
▁फ्री
ांसी
हीन
▁चलाने
▁आतंकवाद
▁खूबसूरत
ज,
▁वैज्ञानिक
▁कानूनी
वरों
ag
तल
▁मनाया
भाष
रत
ेड़
▁80
००
▁परंपरा
पूर
▁हुआ,
▁कल्पना
गरी
▁झारखंड
▁बें
▁शांत
▁मजबूर
▁इंजीनियर
िशन
्ली
त्रि
▁अनिल
▁विपरी
▁सोचा
-धीरे
▁जर्म
ह्म
▁रहेगा।
ेंगे,
▁जाएंगे।
▁लोन
▁प्रौ
▁नागरिकों
un
▁द्र
▁गर
िकोण
▁परंतु
म्मत
▁प्रि
▁रेखा
▁हजारों
▁70
माश
ितीय
ST
मैंने
▁हस्त
de
▁भेद
र्त
प्शन
▁अनिवार्य
▁करेगा।
-आ
▁शूटिंग
▁माने
भि
धारा
▁इंडस्ट्री
वेयर
▁बचने
▁हादसे
▁ट्रेडिंग
रावट
▁प्रकट
ामिन
▁रहीं
▁गाने
▁ग़
▁टिप्पणी
▁शुक्
सुर
▁सिटी
श्चर्य
▁तस्वीरें
▁काले
न्त्र
▁बाग
▁संरक्षण
▁डायरे
▁हेल्
▁फो
▁लेन
▁बनाते
▁वितरण
▁बुरी
▁वार्
▁पृष्ठ
▁अखबार
▁(1
▁यात्रियों
▁उक्त
िरा
▁फॉर्म
▁गिरावट
गज
टों
देह
ारण
▁अक
▁आर्ट
ॉम
▁एसपी
▁बांध
▁मिशन
▁अभिनेत्री
▁घटनाओं
▁चीज़
▁माय
▁दौरे
जात
▁प्रोजेक्ट
न्यास
▁किरा
ढ़े
▁शिक्षकों
▁बताने
▁कुमार,
▁दें।
▁दुर्घटना
रुद्ध
▁प्रेरित
▁अकेले
यल
▁अब्
▁जॉ
बान
▁खून
▁ब्रा
▁फाइनल
ow
▁मालूम
▁धीरे-धीरे
▁हुए।
ढ़ा
▁विन
▁ग्रामीणों
लामी
र,
▁टेली
▁घुस
क्रो
▁देखभाल
▁शास्त्र
▁यूनिवर्सिटी
▁शही
▁c
-च
▁पवित्र
▁बुद्धि
▁महीनों
▁काउ
▁भाषण
▁है।\nअ
श्रे
▁स्किन
▁विचारों
रणा
▁सीबीआई
▁महत्
सच
▁!\n
▁भोपाल
्यूब
▁खतर
▁पोल
▁मुझसे
▁फुट
लिक
▁स्रो
▁समर्
जिस
▁प्रार्थ
डि
▁समुद्र
▁तृ
मात्र
स्कर
म,
▁जीतने
▁in
▁बध
▁प्रतिभा
▁रुक
बाई
प्ट
▁बजा
▁जाएगा.
▁हूं.
▁प्रवक्ता
▁उल्ल
ें।\n
▁इस्ती
▁ग्राहक
ष्णु
-वि
▁सड़कों
साई
▁कहा-
रोध
▁नज
▁देखी
▁उपस्थिति
▁नियुक्त
▁कोविड-19
मेल
▁स्कोर
▁नष्ट
▁उठाने
▁अवि
▁तंत्र
▁इसको
▁हरि
▁दीवार
▁धन्यवाद
सेस
▁ब्लॉक
▁खाता
▁लें।
स्वरूप
▁व्याव
▁दीपक
ान्
▁आश्चर्य
▁लड़के
▁मजा
▁हरी
▁कामया
▁हस्ता
▁आगामी
▁अखिलेश
▁दास
▁एक्सप्रेस
वहीं
▁मंजूरी
▁इश
हल
पत
▁सश
▁अफसर
▁s
▁बेटा
▁आतंकी
▁लूट
▁संसार
सास
▁ब्राह
▁उपभो
▁शख
ग्ध
▁श्रृंखला
्यूटी
▁निशाना
▁खि
▁बराबर
ांतर
▁विश्लेषण
▁2023
ोद
▁बदले
▁प्रोत्सा
▁धमकी
्राष्ट्रीय
',
▁अतः
▁प्रभु
\nब
-फ
▁विवरण
वट
▁बिंद
▁नये
▁शह
वानी
▁जनरल
▁इंडियन
▁रानी
ंग्लादेश
▁हटाने
▁रद्द
▁बढ़े
▁सेक्टर
▁पहुँ
▁निकाला
ायकों
▁परा
▁चम
शाह
▁सुल
रक
स्टिस
ब्दी
3.
▁एक-द
▁बीमा
▁चुप
▁2015
▁समस्त
▁कमल
▁आह
्यक्रम
▁प्रियंका
ैक्ट
▁प्रतियोगिता
--
\nन
▁निधन
▁सौं
▁आलोचना
▁टो
टीन
स,
ुक्ति
▁लाया
▁भय
▁चुनावों
▁झु
re
▁वकील
▁विरुद्ध
जिद
भाग्य
▁शख्स
▁परिवहन
▁बिता
▁तर्क
▁अपडेट
हारी
ुस्तान
ct
ेंट्स
ी,
▁दृष्टिकोण
▁ठे
▁स्थिर
गरानी
▁सपना
हालांकि
▁जानता
धीश
राइ
काता
व्यू
पीट
▁स्टेट
▁उल्लंघ
▁हद
▁बिजनेस
▁बढ
▁महाराज
तें
▁१९
▁जानी
▁हनु
हूर
ीप
टाई
वारी
▁बार-बार
▁दैनिक
सीय
▁एप
▁पश्चिमी
▁चू
म्मच
▁दोबारा
बंदी
▁लहर
▁रैली
▁दौड़
▁अधी
▁पार्क
▁परिवारों
▁संगठनों
▁सेहत
▁शेष
▁सूर
▁संचालित
कता
-कभी
▁एव
▁निगरानी
रू
▁बैंकों
▁ऐलान
▁सुनकर
लंका
▁।।
▁पत
तावनी
▁खेले
▁विटामिन
▁चेक
▁चम्मच
▁th
▁अल्प
▁माया
▁पत्थर
स्कृतिक
▁of
दायक
▁निकलने
▁रही।
▁कर्नाटक
इंट
स्फ
▁उतना
▁बच्ची
▁सिव
लिख
▁इंस्टा
▁एक्
▁व्रत
-व
▁जगत
▁पश्चा
▁मधु
▁तमिल
संग
▁गलती
▁अस्थ
▁छु
▁"\n
▁इमर
▁स्टी
कालीन
▁पात्र
▁अभिय
▁अफ्रीका
▁संस्कार
▁रॉय
▁साव
क्षर
▁भरी
▁वनडे
▁विज्ञापन
▁यूक्रे
▁बीज
▁इरा
श्रेष्ठ
▁अंजाम
and
▁मास्क
ंख्य
▁भागी
▁भ्रम
▁गले
िप्ट
▁संकल्प
ेन्द्र
गांव
▁हुये
नी,
▁थे.\n
▁गए।\n
▁ममता
▁हिमाचल
▁आशंका
िएशन
हत्या
▁दी.
िकाओं
▁45
▁ब्याज
▁लगाते
▁500
▁व्यापारी
▁चुनावी
िके
टाने
▁पेशे
्रेट
▁काली
▁उल्लंघन
▁चेतावनी
▁रिया
▁प्रौद्योगिक
▁प्रदूषण
▁जंगल
▁भिन्न
▁सागर
▁मोटर
▁अधिकतम
▁वाता
कीन
धारी
▁खार
डिया
▁सफेद
▁(अ
▁दिक्
फिया
▁प्रार्थना
ानिस्तान
▁फाइ
दाताओं
िटिश
त्ते
▁चंद
▁ब्रह्म
▁मुफ्त
दाई
▁टेक्
▁अहमद
▁मुकाबला
परेशन
▁37
▁सिक
▁इसीलिए
▁लिंक
ुष
▁जाहिर
▁कहाँ
ha
काने
पट
▁खेला
ri
▁मशहूर
▁मुख्यालय
रासत
▁इधर
▁सख्त
▁मूर्
▁फायर
षेक
ोध्या
▁कारणों
▁अस्त
▁अध्यक्षता
▁निकट
▁अवस्था
▁टॉप
▁पूंजी
▁औसत
▁नवा
▁कव
िफ
▁श्रा
▁स्टूड
▁राजीव
▁निरीक्षण
▁मांस
कृष्ण
▁मनोर
ro
▁प्राय
▁भरे
िना
▁आजादी
▁दलित
नेशनल
▁लीग
▁In
▁अफग
▁पुरुषों
सील
▁वातावरण
▁चमक
▁बधाई
घाटन
दायिक
आपको
एसटी
▁जाओ
▁पार्
▁क्लब
्वे
▁प्रेरणा
▁कंप्यूटर
▁गोर
प्ले
▁मछ
▁इजा
▁मनोज
\nइस
▁जुड़
▁न्यूज़
जर्स
▁सैनिकों
18
▁197
▁न्यूनतम
▁सफर
इयों
मुख्यमंत्री
▁स्वभाव
▁चालक
▁विस्तृत
▁ऑटो
▁w
▁जगहों
▁पथ
▁हाँ
मार्
▁बल्लेबाजी
▁लेती
▁पाप
▁वर्णन
क्षेप
▁मचा
▁अग्
▁भरपूर
▁बांग्लादेश
▁वेस्ट
▁साधारण
ॉस
नेश
▁राजेश
▁गए,
▁निकालने
▁जिनका
▁हिरासत
-न
▁अक्षय
▁बचपन
▁रज
▁मिलियन
गीय
▁कां
▁बदमाश
▁अनुरोध
▁सुनील
▁जताई
▁विधायकों
रा,
▁बताई
-3
▁घोट
ंबित
▁आकाश
▁होगी.
▁सौंप
▁लड़ने
▁आहार
▁नौकर
▁जिनकी
4.
▁फरार
▁इनकार
क्सीजन
▁90
संध
▁लिखी
▁संस्करण
▁सेक
पक्ष
▁स्पी
▁प्रताप
▁सैक
▁उम्मीदवारों
▁किशोर
वास्तव
▁सुनने
जिटिव
▁काला
▁मोहन
▁पेंशन
▁प्रसन्न
▁हनुमान
▁(2
▁बढ़कर
▁इंस्टाग्राम
▁दी।\n
▁शैली
▁राज्यपाल
▁ब्राह्मण
▁ख़ु
कां
▁बढ़ो
▁बॉक्स
दराबाद
▁m
▁पूर्वी
▁स्टा
▁पहले,
▁रूम
▁तट
▁शुरुआती
▁सेल
▁चार्ज
ंटों
▁आदित्यनाथ
पुल
िमा
▁भि
ोड
▁टाइम
ित्त
मेट
▁गह
▁नियुक्ति
▁छू
ार्ट
▁वाक
▁तिथि
▁बनाता
▁मंज
▁लक्ष्मी
▁असली
▁प्रजा
▁देखे
ज्य
फार
▁कर्ज
▁प्रत्याशी
▁अमी
भूत
▁हूँ।
द्दीन
▁दायर
em
▁हाइ
▁पावर
▁बाढ़
▁लम्
▁लिहा
▁परिस्थितियों
कै
▁श्रीलंका
▁जयपुर
▁पत्रकारों
एक्स
▁नेपाल
▁विद्या
▁मुकदमा
▁कहान
▁निर्माता
▁उन्न
▁तीसरी
फ़ी
▁प्रतिनिधि
▁जाएगी।\n
▁बैठा
स्त्री
hi
▁थीं.
ङ्
▁कभी-कभी
▁विविध
यां
▁फु
▁सर्वश्रेष्ठ
न्नई
▁व्हा
▁पड़ती
रेन्द्र
▁तुम्हारी
▁दोषी
▁दरअसल,
▁छवि
वक
▁पर्यटन
▁बेल
▁2012
▁बढ़ता
-सा
▁(I
▁होगी,
▁सांस्कृतिक
▁हट
▁मारने
▁मेक
▁प्राण
▁गिरफ्तारी
मानत
▁त्याग
▁अधीक्षक
▁ब्रिटिश
▁गुना
▁डाउनलोड
▁दर्शा
▁अजी
▁गांवों
▁लव
▁आरक्षण
▁बुनिया
▁कस
▁दौरा
▁ब्लैक
▁केरल
▁कंट्रोल
▁चेहरा
ीकरण
▁हिस्सों
▁खारिज
फो
▁रिश
▁दुष्
▁लगा।
बीसी
▁उधर
▁खबरों
▁आइए
▁युवती
▁दाखिल
▁यौन
▁गिल
▁बुल
▁हो.
▁जबरद
▁शाखा
▁चौक
▁कोलकाता
▁फेंक
▁समृ
▁गेट
▁मृतक
वर्ती
▁नारायण
ष्क
▁अज
▁उत्साह
▁को,
बन
▁चैंप
▁जोड़ी
▁अर्ज
ेंसी
स्टे
केशन
.5
▁इंजन
▁संपाद
▁शर्म
वीय
वर्ष
शांत
ॉजी
घ्र
▁उद्ध
ब्ल्यू
▁एसोस
कृष्ट
क्के
भारतीय
▁कवर
▁32
सचिव
्याम
▁पुनर्
▁सेंट
▁छोड़ने
▁सिया
▁t
▁तल
▁पुष्
▁लिखे
▁दृश्य
नन
▁खतरनाक
रेज
har
▁धोखा
▁खोलने
▁सहमति
▁स्वाद
▁भट्ट
डियो
▁36
▁दुः
indi
▁निकले
▁सिलस
ूनों
▁1,
▁जनपद
पीय
▁मैन
▁रॉ
\nप्र
एसएस
▁हैं?\n
▁सुविधाओं
-सी
यत
▁बारी
▁संरचना
▁पाएंगे
▁उपयुक्त
संधान
▁ही,
पै
▁प्राइवेट
▁बनकर
▁पाता
ू,
टीवी
▁तहसील
▁४
▁पेज
▁एक-दूसरे
▁आकर्षित
▁बहस
ूली
वों
▁शिविर
▁जस्टिस
▁ठहरा
▁नियंत्रित
▁नु
▁ब्रांड
▁मुद्दा
याल
वाणी
▁सर्वा
▁हंस
आत
ब्लिक
▁श्रम
▁विपरीत
▁सोन
न्हा
▁जाल
▁बाहरी
▁टूर्
▁स्टोर
डीएम
▁आर्
▁$
▁दिल्ली।
खार
▁स्पेश
▁अयोध्या
▁रावत
▁रिल
▁पैमाने
डो
▁डा.
▁किमी
▁उदय
नामेंट
▁'अ
▁समाजवादी
▁नक
इसी
री,
▁कहे
▁आजकल
▁संतोष
▁संशोधन
▁ग्रा
▁News
▁आयुक्त
▁खिल
▁स्पे
▁न्यायाधीश
राण
▁कैसी
▁चोर
▁b
▁चतु
है
▁दिखाने
▁2013
लिखित
▁यूरोप
।\nइस
▁सदा
कश
▁[
▁कच्च
▁भंड
▁धोनी
▁ट्रक
श्त
▁रनों
▁कं
▁केंद्रित
बिनेट
▁तार
▁उद्घाटन
▁विद्यार्थियों
▁विषयों
▁रखकर
▁मुक्ति
▁बीमारियों
▁लोकतंत्र
▁द्वार
▁किंग
वंत
▁हाला
\nआ
▁संस्कृत
▁कलेक्टर
▁सकता।
▁जाएं
▁एक्टर
।\nअ
▁संबंधों
▁राकेश
▁इम
▁पाकिस्तानी
्रेडिट
▁अनुप
▁आत्महत्या
▁जाम
▁वार्ता
ul
▁ताजा
▁सहज
▁फिल्में
▁व्यापारियों
ँकि
▁जितनी
-सम
▁प्रय
▁बेचने
▁हैदराबाद
15
▁शहीद
▁ली।
▁मध्यप्रदेश
ूंकि
डीए
ेदी
▁ईमान
▁इंटरव्यू
▁अत
▁जाए,
उप
▁धूम
▁मज़
▁ऑपरेशन
▁त्रि
▁प्रतीक
▁डांस
▁नक्स
▁अनुसंधान
▁गणेश
ुरी
▁संचार
▁शर्मा,
▁ओपन
▁ख्या
▁बट
▁सूत्र
▁अंतर्राष्ट्रीय
▁दिलचस्प
▁सोना
▁सचिन
▁दुश्म
▁बुद्ध
▁खेत
▁उपाध्यक्ष
▁यात्री
▁टूर्नामेंट
▁गोद
▁सीधा
▁अर्जुन
▁संभावित
▁सिखा
स्को
▁अर्थात्
▁निरंतर
▁दावे
▁जिक्र
▁प्लेटफॉर्म
▁मिलेगा।
▁लगे।
▁फर्जी
▁हैः
▁चरित्र
▁इसलिए,
▁प्राप्ति
▁भरने
▁संतुल
eb
▁रवाना
तीत
▁पॉजिटिव
▁सराह
फान
▁एकदम
▁पायल
डकर
ट्रो
ृष्टि
▁तिर
▁लिप
▁मिला।
▁गौरव
रूप
▁खबरें
▁हक
▁महज
▁अदा
▁सभ
फारिश
बाजों
▁ज़रूरत
▁अपमान
▁लक
▁मारपीट
▁क्षेत्रीय
चरण
▁भी,
▁बौद्ध
फ्रेंस
मांड
लिये
▁आधा
▁राजस्व
▁पत्रिका
लीय
िव्य
▁लगाना
▁जोशी
\nज
▁अगली
▁बनाये
▁पुनः
▁सकी
चारिक
▁लापर
▁इत्या
▁कुर्
▁लाइव
▁है!
▁कलाकार
▁सिफारिश
▁दब
▁दिग्
iv
गेट
▁आएंगे
▁ढूं
▁गया.\n
▁एकमात्र
▁अनुश
ॉर्ट
नाश
▁हड़
▁ब्ला
▁अत्यधिक
वेदनशील
▁पापा
▁लिए।
▁जीता
▁है-
कर्मियों
▁जाएगा,
ें.
▁बाधा
शास्त्र
▁बनता
▁शता
▁खतरे
▁मुस्क
▁चेन्नई
▁स्टेड
▁गौतम
▁अरविंद
मूल
▁कम्प
▁सदन
रानी
▁वस्त
▁PM
बानी
▁क्षण
▁लिखित
जुर्ग
ई,
हु
▁बम
▁कब्जा
▁शुरु
▁मिथ
▁तलाक
मै
सनीय
वाना
▁सपने
िताभ
ाइम
▁यश
▁सबको
▁75
▁(C
ईओ
या,
▁सर्वो
ृत्य
▁नाटक
▁कर्मियों
▁विजे
▁लीटर
ोकर
▁प्रतिमा
▁उर्फ
▁स्टॉक
▁ज्व
णु
-भ
’\n
▁स्टाफ
▁स्टेडियम
▁गैंग
▁मक
▁तारीफ
▁घंटों
▁विशेषता
▁डॉक्टरों
▁एकत्र
▁५
▁डिवा
40
बिल
उत्तर
▁निच
▁तिल
दिल्ली
▁रूपये
▁अश्व
▁कैसा
▁खासकर
▁क्रेडिट
▁भाग्य
सीबी
▁पड़ा।
▁पहुंचाने
▁आग्रह
ot
-कश्मीर
लक
ov
पुलिस
लील
▁रिसर्च
▁जटिल
ख्
एं,
▁साज
▁क्षति
यक
▁उपयोगी
▁जवानों
वली
▁पेपर
▁ऑक्सीजन
तू
▁समझते
मतों
छो
▁निर्वाचन
▁विपक्षी
▁पड़ने
▁इत्यादि
▁ट्रेड
▁साधन
विंग
▁भाभी
▁टक
▁वस्तुओं
▁सौर
दुर
▁पर्स
▁जड़
▁लिया.
▁ब्रिटेन
▁एयरपोर्ट
सेंस
▁विष्णु
▁रहेगा
ंत्रित
▁भक्ति
▁बग
▁अस्तित्व
▁करेंगे।\n
▁सुनाई
▁(S
व्या
्ठा
▁पाउ
▁डालने
▁करार
धिकारियों
तालों
▁अमरी
▁कपिल
25
▁मेल
ाराण
▁शिश
▁कैबिनेट
▁बुनियादी
▁म्यू
▁किस्
ंकन
▁श्रमिक
▁घाट
▁शहरी
▁गोल्ड
▁जमानत
▁समक्ष
▁चिंत
शेष
उथ
▁टीकाकरण
क्की
ष्म
▁मिलेगा
▁पंडित
▁प्रोग्राम
▁निपटने
▁अमृत
▁दां
▁यादव,
▁परिचय
▁प्रौद्योगिकी
▁सिंध
करे
▁यो
क्ताओं
▁प्रमो
व्र
▁लेकिन,
▁सिद्धांत
▁सबके
▁छुट्टी
▁कार्यकाल
ाराणसी
▁आंकड़ों
ज्ञात
▁अभिनय
ंत्रिक
ब्यू
▁उठाए
▁गेंदबाज
▁शपथ
पं
िद
▁सिविल
▁नमक
▁बच्चन
▁बुलाया
▁चैंपियन
रियर
दीय
▁धारण
हाई
▁करना,
माणु
▁बॉस
▁करवाने
▁ट्रंप
▁समर्पित
▁महासचिव
▁बोलने
▁स्वर
कंप
▁नकारात्मक
▁मस्जिद
▁जानना
▁बाबू
▁जाया
▁अभाव
▁दिक्कत
ल्ट
▁बुजुर्ग
▁लालू
▁हो।\n
▁यूक्रेन
ड्र
▁उड़ा
▁स्रोत
▁हैं\n
▁शीघ्र
ँह
▁विद्व
▁गायब
शनी
आइ
▁कार्यक्रमों
▁हेल्थ
▁बला
▁कीमतों
▁एंट
एडा
▁टक्कर
▁टन
▁आपसे
▁उड़ान
▁शंकर
वाड़ा
▁अस्पतालों
▁चक्कर
▁अफगानिस्तान
▁धरती
▁प्रीम
▁पढ़ा
▁सहारा
स्थल
विश्वास
▁लिखने
▁हुई,
▁पदार्थों
▁सर्विस
मय
▁रुचि
▁थीं,
▁नहीं.
▁रकम
▁मारा
▁दह
▁यहीं
ment
▁अभिषेक
▁गिरा
▁स्मार्टफोन
कर,
▁मूर्ति
▁इंदौर
▁गार्ड
▁कुर
िंग,
▁हंग
-एक
▁शाहरु
▁है।\nस
▁विद्युत
▁चलती
ड्डा
ंची
▁राशन
▁अंश
▁चावल
▁सिक्
धिकरण
▁जानें
▁यानि
▁प्रतिदिन
▁करेगी।
स्फोट
▁पदाधिकारी
▁उत्कृष्ट
ड्स
▁एकता
▁पैरों
▁प्राथमिकता
मीन
▁इस्तीफा
ut
▁शोर
▁हैरान
▁नवीन
खण्ड
▁अधिकतर
▁जोड़ने
▁उपकरणों
कर्मी
▁वादा
▁फार्म
▁युक्त
▁वस
▁:\n
▁रोजाना
▁संस्थानों
▁कोत
▁चन्द्र
फेसर
बॉ
▁निर्मित
▁ईरान
▁पीड़िता
▁196
▁घे
▁सैकड़ों
▁हार्
जीलैंड
▁करवाया
▁डालकर
▁इकाई
ैस
▁आपदा
▁ब्रेक
दून
ंटा
इंग
ाइयों
▁रखती
▁ब्लड
▁सीर
लोग
▁दाल
फ्तार
▁पाठ्यक्रम
▁बढ़ोतरी
▁महत्त्व
▁झूठ
▁संस
▁ओल
▁स्टाइल
द,
▁इंटरनेशनल
▁डायरेक्टर
ियस
▁दोहरा
र्मी
▁जोड़ा
▁महात्मा
▁सत्या
▁कंग
11
▁उन्हीं
शय
मेर
▁फर्
वाय
▁फायदेमंद
▁असल
वायर
▁स्मृति
▁मजदूरों
▁समझौता
किसी
▁सूरज
▁गईं
▁जापान
▁एसोसिएशन
▁व्यस्त
▁आतंकियों
▁में।
▁₹
णि
ोगे
▁क्लास
▁सैनिक
▁वर्क
▁गौरतलब
▁राज्यसभा
सायिक
्यूल
▁टी20
▁नरेन्द्र
जलि
▁फॉलो
▁तरीकों
▁सीटें
▁अतिथि
ंचित
▁६
▁वास
ग्रस्त
▁अधीन
जीवन
-ग
ंसक
▁स्नान
हमारे
▁इमार
▁परमाणु
हरादून
▁पिछली
▁धु
▁कोरिया
▁परे
▁डेस्क
▁औद्योगिक
▁तीर्थ
प्रति
▁अनुरूप
▁ढां
एससी
▁दें,
▁तप
खु
▁सुर्
मेरे
▁भोज
▁मनीष
▁प्रकरण
एमसी
पिछ
▁विज
पत्ति
ंगों
▁विस्फोट
▁दिए।
▁(A
▁अभ्य
▁प्रेमी
▁अपर
▁टीमों
▁अमिताभ
▁नयी
▁स्पेशल
▁जमी
▁पारित
▁नीर
▁निशान
▁जन्मदिन
▁सांप
▁बनर्जी
▁चेयर
▁पार्टनर
▁प्रत्यक्ष
▁गंभीरता
आईआर
▁आपत्ति
भुत
▁बताए
▁मानी
सेज
न्थ
▁नामांक
कोट
नाडु
▁the
ab
▁उन्होने
▁सहयोगी
▁उज्ज
▁लापरवाही
पुरा
▁क्यू
▁व्यक्तित्व
▁स्थायी
▁लाइसेंस
▁पीढ़ी
▁नारे
▁बिलकुल
▁हों,
▁समझौते
▁प्रयासों
▁लह
▁विवेक
▁पुराना
▁लिखा,
▁हेड
▁विधेय
▁आदिवासी
▁तत्वों
▁अंदाज
▁मांगी
▁इकट
▁गहरी
▁चालू
▁भोग
▁नजदी
▁क्ली
▁श्रद्धाल
▁गार
▁संवेदनशील
▁जिलाधिकारी
▁श्रद्धा
▁मुआ
▁भेजने
ोसी
▁गुस्सा
▁उद्यम
▁प्रतिनिधित्व
▁फं
▁एह
▁कब्जे
▁हस्ताक्षर
दरअसल
▁वारदा
भाविक
▁मास्टर
▁भावनाओं
▁है।\nयह
▁हर्ष
▁विशेषज्ञों
▁देंगे
▁विनो
▁निल
▁(स
▁स्ना
स्पे
काशन
▁छिपा
ज़न
▁रिश्ता
▁गूगल
▁पाँच
संख्य
▁धूप
▁विफल
▁चूंकि
तुम
▁बैग
▁मच
हाबाद
▁भूख
12
▁बलों
▁राजप
▁जीवित
▁गयी।
▁सटी
id
तियां
ोलॉजी
▁मेर
▁गोपाल
▁उत्तरी
▁जम्मू-कश्मीर
▁साजिश
▁यूनिट
▁मंड
ंपरिक
▁आवाज़
ation
-ट
▁लीड
▁संसाधन
चित्र
▁दिलाने
▁कन्या
गौर
कांग्रेस
पया
▁एडम
▁भारती
दिग्ध
▁मध्यम
बै
▁पाउडर
▁तत्कालीन
केज
▁प्रोफेसर
ह्न
▁निर्यात
▁कामयाब
रीय
ँस
▁मेट्रो
याम
▁पदक
▁सेवाएं
▁भौतिक
▁मुसलमानों
▁अधि
▁त्यो
आईटी
▁कुशल
▁करण
▁आकर्षक
▁पत्रकारिता
▁बैक
▁194
▁गोरख
ंतरिक
▁मानस
▁इज
▁निवास
▁संभ
▁अजीब
▁आचार्य
▁एक्शन
▁सिन्हा
▁जुर्म
▁डिवाइस
▁सॉफ्ट
▁वेद
▁शताब्दी
ुलर
▁झग
पल
▁रुख
▁शतक
ig
▁बेट
क्षेत्र
▁होली
▁कर्त
▁नैतिक
पंच
वर्ड
▁रमेश
▁लंदन
▁मंडी
▁गर्भ
16
▁आदत
▁अत्या
▁तुम्हारा
▁कंपनियां
▁शत्र
▁सीसी
जिन
▁कटौती
▁इंच
▁3.
▁33
डॉ
▁कायम
▁ऑफ़
17
▁निश्च
▁जरिये
▁रायपुर
-4
▁संदिग्ध
▁गेंदबाजी
▁हूँ,
▁इमरान
भूति
▁ज्ञा
▁प्रवृत्ति
▁श्रीवास्तव
न्ट
नई
▁ख़बर
धीन
▁डेढ़
▁आपस
▁मोर्चा
▁छापे
न्द्रीय
▁हज़ार
▁एटी
ंगिक
▁सावधानी
▁सब्ज
लन
▁आयी
▁कठोर
▁आवं
▁प्रदर्शित
▁नर्स
▁दुःख
99
▁मुकेश
▁आरोपों
▁अधिकारों
▁उपन्यास
▁इस्लाम
▁हिट
▁न्यूजीलैंड
▁काव्य
▁जबरदस्त
ालों
▁है।\nक
बंद
ौली
▁वाराणसी
▁(P
▁डीजल
▁कनेक्शन
▁शाहरुख
ac
▁जलवा
▁स्की
▁रिजर्व
▁कोर
▁ऑल
▁जनसं
▁बेरोज
▁संदेह
▁ससुर
चंद
नेशन
▁फ्रांस
▁सब्स
▁जिसमे
▁नेहर
▁भेजे
ite
▁बढ़ाया
▁उत्स
पह
ग़
▁रहेंगे।
मस
स्पिटल
▁पेय
र्की
▁हुआ.
▁अधिव
▁यूरोपीय
▁द्वितीय
▁34
▁कानपुर
न्य
▁अरुण
धित
▁नित
▁डीएम
▁ब्लॉग
▁मरने
लाइट
▁अन्दर
ak
▁उल्लेखनीय
▁जीते
ड़िया
▁कृपा
▁शिवसेना
पीड़
▁किंतु
▁जाग
▁तुलसी
▁बताया,
गुरु
▁दिल्ली,
▁शरण
▁परिप
▁प्रशासनिक
▁मंग
▁सप्
आईए
▁बनना
विधि
ण्य
▁Th
▁बॉडी
▁प्राधिकरण
▁गर्व
▁रोज़
ांच
ार्थी
▁तीसरा
▁मुँह
▁कराए
▁पेशकश
▁पोषण
द्भुत
टकों
▁हालाँकि
▁जरुर
▁पकड़ा
क्चर
वाया
▁नोएडा
▁कालेज
▁बोलते
▁गाइड
द्यपि
शक्ति
▁गुप्त
▁एक्टिव
▁चीफ
माइ
▁कच
▁एसिड
▁300
▁पौधे
▁मिलना
▁छत
▁बुक
▁साउथ
ड़की
▁आंतरिक
▁दस्तावेज
ंपिक
▁यूजर्स
▁ग्रीन
▁देंगे।
▁वें
▁चिप
▁स्त
जागर
▁कोड
▁अंडर
▁निकला
im
▁पारंपरिक
▁शुरूआत
▁बचे
▁देखता
▁साझे
▁ओम
▁वर्षा
▁फूड
लोनी
कन
त्मिक
▁ट्रैक
▁सब्जी
मोहन
्रीट
▁सरकारों
▁लिया।\n
▁ढूंढ
बॉल
िकी
स्वामी
याग
▁दिनेश
बरा
▁ड्यूटी
▁गड़
स्पी
▁शौच
▁कैंप
▁सुरेश
दृ
▁गुल
▁गये।
▁कमेंट
▁सुन्दर
ायतों
▁सुशांत
▁कहा।
स्पति
▁साढ़े
▁अज्ञात
▁पोर्टल
ल्ले
करार
▁ग्लो
▁मैसे
▁आतंकवादी
▁उत्सव
▁आंध
▁डूब
क्ष्य
▁बढ़ी
▁जरा
▁अनुसू
आरपी
▁इसलिये
▁लायक
▁प्रशंसा
▁डाक्टर
▁मनोरंजन
▁करने,
▁आश्वास
▁स्थानांतर
ोदय
प्रधान
▁समझना
रन
आउट
▁'स
चुनाव
डीपी
▁स्वर्ण
▁सोनिया
द्वार
सीपी
धर्म
▁अभिव्य
▁आया।
तिष्क
▁वृक्ष
प्रा
▁बर्फ
▁दिखने
▁48
ल्लाह
▁देरी
▁विजेता
▁लंबा
▁चौथे
▁पवन
▁छाया
▁घाटी
्रेम
▁स्वाभाविक
▁पहुंचे।
्तिक
▁कोर्स
▁(ए
▁निकाय
▁माध
▁चलाया
▁सुर्ख
▁इंट
स्टार
च्छेद
▁वक़
▁मैनेज
न्यू
▁कोय
क्राम
▁बतौर
▁साम्रा
▁दोस्ती
▁बिंदु
▁रहे।\n
▁चौकी
▁अद्भुत
▁समन्व
▁सैल
▁विभागों
▁वार्ष
pp
▁तीव्र
अर
▁तमिलनाडु
▁प्रोफ
▁ठोस
▁फर्क
▁करेगी
▁समस्याएं
सीन
▁नाथ
ऐसे
▁निम्नलिखित
▁सर्वोच्च
▁शक
▁कहकर
मार्टम
कांत
▁तालाब
▁जाँच
▁शिखर
▁अंधे
▁ऊँ
▁बालक
िमंडल
▁भूप
्यांकन
्यौ
um
▁रोका
परी
▁तक,
▁आफ
चर्स
▁(क
▁टॉ
र्वाद
▁फॉर
▁देहरादून
▁पूछे
▁फ्ला
▁स्वीकृति
▁ऋष
किस्तान
ंचल
ियंस
▁श्रीमती
-र
दुल
धानिक
▁पाठक
▁रफ्तार
▁किरण
▁आंकड़े
▁मोड़
▁दिग्गज
▁राजपूत
▁आईटी
ूहिक
▁इसने
ंधा
▁धर्
▁2011
▁कलर
▁सच्चाई
▁जागरूकता
▁साक्षा
▁भव्य
▁राजद
▁सोचने
▁गव
▁खेलों
▁एजेंस
▁मिश्रण
▁प्लांट
▁राजकुमार
▁कोतवाली
ोग्रा
ub
▁त्योहार
ट,
▁पोष
जाने
▁आश्वासन
5.
▁ड्राइवर
ंगाई
▁पंजीकरण
िकेटर
चाप
▁शनि
चलित
▁दरवाजे
▁गेह
▁दीपिका
▁शर्त
-\n
▁ऋषि
▁शिवराज
▁घो
ौज
खाने
▁मानक
दिष्ट
▁रहे,
्योर
भवती
▁सीता
▁जज
▁रहेगी।
▁टेक्न
▁ख्याल
▁विनोद
स्पर्
▁जानकार
▁पोस्टमार्टम
▁परियोजनाओं
काया
▁एक-एक
▁मरा
▁निर्देशक
▁पढ
14
▁जितने
ूद
▁बलात्कार
▁ड्रेस
म्परा
▁आध्या
▁आधे
▁सवालों
▁हुई.
-उ
▁=
▁दोनो
▁झेल
▁प्लास्टिक
▁चोप
▁सेमी
▁ब्यू
▁आरंभ
▁माफी
▁काउंस
भु
▁मद्
▁#
▁आँख
▁सीखने
प्री
▁पाती
▁ज्योतिष
▁जूझ
▁जुट
साइड
▁शक्त
मंडल
▁सबूत
▁नामांकन
लेस
▁पहना
रेन
▁सर्वाधिक
ट्
▁कैमरे
टके
▁करोड़ों
▁मानने
र्फ़
▁आए।
▁रजिस्ट्र
▁झटका
▁बुर
ियों,
▁संपन्न
▁चरणों
ॉड
वृ
▁गाना
क्ष्म
▁शिल्
▁पराम
▁ठंड
ंदीदा
▁38
भेद
्तों
ग्रा
▁डिज़
▁सीनियर
▁विचारधारा
लेशन
▁शिम
▁साफ़
av
बहुत
▁डिस्
▁ट्रेनिंग
▁दवाओं
▁मैसेज
डब्ल्यू
▁चिकित्सक
▁लगी।
▁शिशु
▁बसपा
▁Hindi
▁स्टो
▁केन्द्रीय
ध्याय
ड्डी
▁सामूहिक
पाई
राष्ट्र
शान
पिछले
▁यकीन
प्रकाश
▁कहला
हिता
▁दिया.\n
▁यथ
शुल्क
▁पड़ोसी
▁मुज
▁जोन
▁आशीर्वाद
माज
▁हां,
▁हार्दिक
▁शक्तिशाली
▁वक़्त
पाठी
▁ईमेल
▁पैट
▁रोशनी
▁ग्रंथ
▁रसो
▁प्रोटीन
▁वाइ
चंद्र
▁पसंदीदा
▁चपेट
▁बाई
▁स्वि
▁पच
▁लकड़ी
▁अभ्यर्थ
▁दिव्या
ोजक
▁सराहना
नीत
▁डु
▁निवेशकों
▁विधेयक
▁यूट
▁कोट
िवारिक
▁पैकेज
▁अत्यंत
▁शेर
▁नशे
▁ताल
▁कैप
▁गेंदों
▁हिम्मत
पार
▁इन्हीं
▁जीएसटी
बीन
कालिक
मार्ग
▁ब्रह्
os
.’’
▁प्रोत्साहित
▁गणना
▁प्रतीत
▁रोगी
नाइ
▁हीरो
▁मुना
▁चो
han
▁वसू
est
शिक
पीएम
▁गर्भवती
▁सकें
▁प्रतिष्ठित
▁गढ़
▁आखिरकार
सैन
▁सेल्स
पता
▁सदर
▁अंतरिक्ष
▁बैठकर
▁पन
▁आँखों
▁ष
एं.
पचारिक
्डी
▁में\n
▁तस्वीरों
र्नर
्रमण
6.
क्रमण
▁चोपड़ा
▁चुनौ
▁मुआव
▁जाएंगी
ोगी
▁कृत
▁कमर
▁फैशन
▁सोचते
▁समय,
▁मिलेगी।
▁पाना
▁व्याख्या
ार्थियों
▁अनुवाद
्रु
▁मद्देन
▁नाबाल
▁सत्
▁मनाने
▁संतु
▁जाए।\n
▁दुकानों
यें
द्रोह
▁ब्यूरो
▁मिर्च
पेश
▁असफल
▁जब्त
▁पाइ
▁छुटकारा
▁पार्टियों
द्दा
▁लाई
▁डिली
▁150
▁कष्ट
▁मासिक
▁मस्तिष्क
▁गुम
▁आजाद
▁पायलट
ुसार
▁अन्यथा
▁मूल्यांकन
▁हेम
▁मीटिंग
▁मछली
▁पहुँचा
▁गीता
▁अपराधियों
▁जोड़े
▁परामर्श
कामना
▁अर्ध
▁हॉस्पिटल
वेल
▁परिचित
▁बेड
▁साथियों
▁जनसंख्या
▁सके।\n
▁मेले
म्मा
तायात
22
▁खेलते
वालों
▁पौध
द्धा
▁"अ
ून्य
▁क्रिप्ट
▁हरे
▁पार्ष
▁मुहैया
▁सुविधाएं
र्वेद
ती,
िल्ला
▁उपभोक्ता
▁पब्लिक
▁सहमत
▁कराना
▁संस्थाओं
▁प्रारंभिक
▁वार्षिक
▁बैटरी
▁मेकअप
▁कृपया
हाद
यहां
▁छेड़
▁l
▁विद्यार्थी
▁जनजा
▁प्रतिबद्ध
▁देवता
ैश
बड़ी
▁सदी
▁मुलायम
▁करेंगे,
▁भागीदारी
▁IST
▁0.
▁परम्परा
सारी
▁भगवान्
ोम
▁पेशेवर
▁उत्तम
▁जॉन
▁कठिना
▁वारदात
▁घूमने
▁दी,
▁संसदीय
▁हल्के
▁गारंटी
शंकर
ंडीगढ़
▁निर्देशित
▁प्रारम्भ
क्ल
गौरतलब
▁बहुमत
▁बनती
▁नेहरू
▁सतह
▁बेश
;\n-
▁ऊंचाई
पालन
▁लल
बस
▁आयात
▁कानूनों
िताब
▁पूजन
▁फैक्ट
▁अवगत
▁दिवसीय
▁एग्
ॉर्
▁योग्यता
▁नाय
जै
▁पक्षों
कलन
▁वचन
ce
?’’
ंगर
▁आध्यात्मिक
▁परिणामस्वरूप
▁रहकर
▁जौ
▁देशभर
िएट
▁चढ़ा
▁निः
▁है।\nम
▁महंगाई
▁स्ल
▁दृढ़
जिये
तीन
▁सतर्क
▁इलेक्ट्रिक
▁दुर्गा
▁ज़रूरी
▁धान
णिज
▁बैठी
▁इलेक्ट्रॉन
▁स्टैंड
-त
▁उपयोगकर्ता
ter
िएंट
▁प्रतिस्पर्
▁आंकड़ा
ष्कार
▁निष्कर्ष
ेंच
▁4.
60
त्तियों
▁कार्तिक
▁धमा
▁बलि
ंचाई
▁ढेर
▁औष
▁है।"\n
▁पारिवारिक
▁बहादुर
सी,
▁यद्यपि
▁व्यावसायिक
▁बचत
▁स्टोरी
▁दिखे
▁मेन
▁आश्रम
▁लेखन
▁क्रोध
▁कामका
प्पी
वश
▁शत्रु
▁कैश
पनों
▁बोझ
▁जाएगी.
▁हस्तक्षेप
▁ड्रग
▁कलाकारों
▁जहाज
▁उभर
▁फाउंड
▁क्रिकेटर
▁a
▁अपराधी
▁दर्जन
▁उतनी
▁राणा
▁मम्मी
ऊँ
▁यातायात
▁घुट
ंगन
▁विश्वसनीय
▁फांसी
ऊदी
ोत्सव
ामान
▁बाँ
▁हैं।\n-
▁द्वीप
▁मंत्रियों
▁चुने
न्नी
▁केंद्रों
▁मिली।
लोत
ट्टा
▁आपात
सात
24
▁नक्सल
▁ट्रस्ट
▁शोषण
▁दशा
सागर
▁आर्य
▁संहिता
▁सिम
म्बे
▁चेयरमैन
▁रखें।
▁मिठ
▁दरवाजा
▁अल्पसंख्य
▁कंगना
▁बीएस
▁सम्पूर्ण
▁दुर्ग
▁खेली
▁स्क्र
▁उर्
▁स्वच्छता
▁प्रोडक्ट
रस
▁दंड
▁मन्द
▁दुश्मन
णिज्य
▁काटने
▁स्पोर्ट
▁(M
▁लिंग
्टा
▁अन्तर
▁जयं
▁लाइट
द्री
▁लड़का
▁इन्द्र
▁जुर्माना
▁देह
▁कुश
व,
▁शुभकामना
▁चरम
▁गिरने
▁डिज़ाइन
▁किस्म
▁+
ार्टमेंट
▁जस
▁जवा
▁पांडेय
▁पहने
▁समानता
धनों
बली
▁थोड़े
▁पोस्टर
▁ठाकरे
▁195
▁पहनने
पादन
ल्फ
▁सूक्ष्म
▁अग्नि
▁इट
▁अलर्ट
▁एहसास
▁श्याम
▁स्तरी
▁Co
▁मजे
▁काबू
▁प्रतिरोध
▁रोटी
▁ऑफर
▁दौरान,
▁मुर
▁सौंपा
▁बिस्तर
▁गोप
जत
▁त्रिपाठी
▁सकें।
▁सटीक
▁पहुंचकर
कड़
▁नाबालिग
▁ज्ञापन
परि
▁नृत्य
▁बेस
▁साइकिल
▁मानें
▁अल्लाह
▁सावधान
्वल
्वाल
▁नाक
राधिक
▁बेस्ट
▁2010
▁इन्होंने
▁जर्मनी
▁चिट
वाज
▁ज्ञात
न्ड
▁मानो
oll
▁रहे.
▁जीने
ट्टर
▁पॉलि
ीट
▁धारणा
गोल
▁भला
▁भाषाओं
▁अनुबंध
▁साइड
21
▁रिटर्न
▁सिख
▁करेंगे.
इंड
काय
▁काशी
▁देगा
्न
▁होंगे।\n
सबसे
▁h
▁कंटे
▁प्रखंड
▁ऑर्डर
▁n
▁आमिर
विदा
▁एफआईआर
▁ठेके
▁तेजस्वी
गित
▁फंस
स्टल
▁टेबल
ess
▁आपसी
सुन
▁स्तरीय
▁55
रीबी
हरण
▁प्रकाशन
▁संपूर्ण
ष्णा
▁पैदल
▁कार्यरत
कोई
▁डाली
अपनी
▁जानवरों
▁आमंत्रित
▁Y
▁क्वार
▁लेवल
भावना
▁संदीप
जारी
▁वैसा
▁जाएँ
\nश
▁इकट्ठा
▁श्रेष्ठ
▁वंश
▁इक
▁मोटा
com
टेक
▁मेहमान
▁स्ने
▁पाये
▁भड़
▁हथियारों
,5
▁प्रवाह
▁महेश
▁धातु
▁गुणों
▁केश
डोर
▁बेंगल
▁पाय
▁पहुंचाया
सीआर
एनएस
▁गतिविधि
▁सिद्धार्थ
▁खर
न्तर
▁कना
▁जेट
▁घेर
▁जलवायु
▁नीतियों
▁रांची
▁है)
▁होश
▁मिसाइल
▁मद्देनजर
आईपी
\nएक
▁सूजन
▁वंचित
▁रघु
▁जयंती
▁नॉ
ांजलि
▁स्पिन
▁असं
राक
मेरी
▁फि
▁दस्त
लपुर
▁गोवा
▁हवाले
▁फेस
▁आगरा
▁लू
▁काग
▁पद्ध
▁प्याज
न्दा
चुअल
▁मोड
▁भेंट
ंद्रा
▁किए।
▁पीछा
▁खुली
▁साम्राज्य
▁”
पानी
▁इच्छ
▁गठित
▁कुत्ते
7.
भाजपा
वाड़
ैव
-0
▁रेप
▁निर्द
▁रेडियो
▁कर्तव्य
▁स्वर्ग
▁जिसको
▁तालि
▁श्रेय
▁कौर
▁निधि
▁लिया,
नैतिक
िसू
▁एंट्री
▁हैंः
ex
▁अर्थात
▁देगा।
▁आजम
ट्टे
▁सलाहकार
▁घोटाले
िटीज
▁जन्
▁हड़ताल
-पास
▁किया.\n
प्रीत
▁मकसद
▁बरकरार
जना
न्दगी
▁कैमरा
क्रामक
▁उछ
ग्रहण
▁हंगामा
▁यूजर
PA
▁एप्
▁युवकों
्वान
▁गहलोत
▁इंजीनियरिंग
▁सिर्फ़
▁तो,
▁बटन
▁तुमने
▁लें.
▁उत
▁मील
▁बिन
▁गिन
▁वैज्ञानिकों
▁सपोर्ट
शियों
▁हैं।\\n
▁साझेदारी
ूती
▁अनुसूचित
▁आरा
▁इंदिरा
▁महेंद्र
▁बादल
▁सुभाष
▁मिलेगी
▁जायेगा
▁कीजिए
▁इलाहाबाद
a)
▁फस
▁दायित्व
ंबू
मानी
",
▁बाजारों
ोज़
▁बुखार
रह
▁साड़ी
▁परिजन
▁तन
▁गरीबों
▁शरी
▁निराशा
▁रात्रि
ंसी
▁आनन्द
▁(B
एं।\n
ंडों
▁शुक्ला
ंडीज
ोश
दूस
▁तोड़ने
लिस्ट
▁क्रांति
िडी
▁गहराई
▁आपराधिक
▁पकड़ने
धाम
▁2000
▁पैन
जिया
डेंट
▁ओलंपिक
80
▁हिल
्ति
▁देखिए
▁हॉट
▁क्रीम
▁पेंट
▁सेन
▁सृ
▁समूहों
इससे
-मु
▁बैठने
▁करेगा।\n
▁आस्था
्ती
जी,
▁मजाक
▁मायावती
एनयू
फ्तर
▁कुमारी
▁पढ़े
▁सर्वेक्षण
लाश
▁प्रशांत
▁गुरू
टीआई
पुरुष
स्पर
जपे
▁विकल्पों
▁दुबे
▁साधना
▁हौ
जुट
▁बदमाशों
िकार
e)
▁पंक
▁ग्रन्थ
▁सॉफ्टवेयर
▁मुठ
आम
▁डू
▁धाम
्यार
▁हादसा
▁खिताब
▁प्रश्
▁स्कीम
▁यूनियन
रेटर
▁औरत
्युनि
▁निश्चय
▁रसोई
▁छापेमारी
▁दत्त
▁अमीर
फ्फर
▁हॉल
▁लाए
▁खनन
▁टाटा
ैली
▁सशक्त
ष्ठा
▁लगा.
दुनिया
13
▁जाए.
▁होंगे,
▁पकड़े
▁आकर्षण
▁कैद
माया
ख्यात
डू
बड़
▁मण
▁दुर्भाग्य
वर्धन
▁मुखिया
▁पलट
▁गेहूं
सेट
▁St
देवी
▁रिव
▁नहीं।\n
▁साइबर
▁शिमला
▁अवतार
वेस्ट
▁सूचित
▁5.
रिस
रात्रि
ec
भूषण
▁क्यो
▁टुकड़े
▁वाणिज्य
▁ऑप
ब्बत
माही
▁सीईओ
▁जिंदा
▁चिन्ह
▁कड़ा
▁एक्सच
▁समृद्ध
हारिक
▁टाइम्स
लेश
▁मेला
मिली
▁दुरु
▁बीत
▁आलिया
▁एकजुट
▁सर्जरी
नहीं
▁मैनेजर
▁लीजिए
▁अभिभाव
क्यू
धारणा
▁दफ्तर
▁k
▁अफसरों
▁समीप
▁कॉन्फ्रेंस
प्रधानमंत्री
op
▁होगा.\n
▁चंडीगढ़
ाइक
र्चे
▁सऊदी
▁नाकाम
▁करीबी
दूर
▁खोला
▁2008
▁यूट्यूब
▁आयर
▁बिगड़
▁डेवल
▁बोर
फाई
▁शिक्षण
▁संसाधनों
▁गत
▁आलू
चौ
ॉइन
▁रोगियों
▁न्यायिक
▁बनते
▁सदस्यता
▁फ्लैट
ठों
▁छिप
▁बोन
▁नायक
ost
▁सर्क
▁डाले
झी
▁आत्मविश्वास
▁दायरे
▁वस्त्र
▁पंत
स्पेक्टर
▁प्रस्तावित
▁डाटा
▁सोनी
▁खाम
▁दादा
पालिका
▁सप्लाई
्स,
▁भूत
▁बांट
9.
▁ज़रूर
▁चार्ट
▁बड़
लीन
▁प्रयत्न
▁समर्थक
▁जानिए
वाहा
ोव
्रय
▁तुर्की
▁जात
▁दुष्कर्म
▁साधु
▁संजीव
डम
▁ट्रैफिक
देख
▁आइस
▁दुब
▁जायेगा।
गणना
फ्रेंड
▁पहाड़ी
मूर्ति
शिंग
▁दया
▁हल्का
▁रहा.
▁अटल
देशक
▁पहाड़
▁शरद
▁रौ
▁मजबूती
▁देनी
▁आशीष
ंकार
▁हेयर
ामान्य
▁कुंड
▁65
▁बताती
▁घात
लिटी
▁आक्रमण
dat
▁हानि
▁है.\\n
▁बनाती
▁टोक
▁बृह
▁डिप्टी
▁मार्गदर्शन
-अप
▁हुआ।\n
▁होता।
▁(सी
▁निर्देशन
▁मतदाता
▁शोक
▁लिखते
कार्
▁गोरखपुर
▁राजनैतिक
▁इव
र्टी
▁पुणे
▁कमाल
▁लघु
▁मानता
▁आसमान
▁७
▁स्टार्ट
ड्ढ
▁कार्यकारी
▁रहेंगे
▁बन्द
एसआई
डनी
▁सुनते
▁बर्बाद
▁अकाद
▁प्रदीप
सरकार
▁व्यायाम
▁मेरठ
▁धवन
▁तरह,
▁कामों
▁कार्या
निस
▁2009
-से
▁हुसैन
▁42
▁ठंडा
▁एंड्र
▁v
▁वां
▁भगत
▁लौटने
षित
▁स्थलों
फाइन
▁दिना
▁रिश्तों
▁साक्षात्कार
▁कांग
▁मेघ
सीसीआई
▁शौचालय
▁ग्री
▁मेगा
ैंट
▁बारह
▁शास्त्री
चुर
▁है।"
▁शून्य
▁छीन
▁हाइड
▁२०
फिल्म
पोरेट
ुद्ध
▁कस्
णियों
▁मांसपेश
▁आन्द
ांतिक
▁राग
▁चांद
▁निराश
▁उजागर
▁कमाने
ड्डे
्तर
ाना,
नामा
▁राजन
▁उपहार
▁पर्वत
ep
▁बीस
▁बाला
ुणा
▁बढ़त
▁गरीबी
▁फाउंडेशन
▁परिवर्त
▁सीसीटीवी
केल
चार्ज
▁हान
▁ख़ास
तला
▁सव
▁आयुर्वेद
▁व्हाट्स
ँग
▁एकल
प्पा
▁आस-पास
न्वयन
▁खोजने
फ्ल
▁लेनदेन
▁जुल
\n\n
▁मन्दिर
रिय
▁ट्रेलर
संघ
वादियों
बिन
टेज
▁नारी
▁पॉल
वाधिकार
▁पश्चात
▁पागल
▁आह्वान
▁समर्थकों
▁चक
35
▁कामना
▁अफ़
gle
िवेदी
▁पैक
▁कपड़ों
▁पाक
ियमित
▁बाय
-5
▁हरकत
▁शुभार
▁काफ़ी
▁डिव
▁जानती
▁विक्रम
▁बघ
▁सिंचाई
▁धरना
▁अवधारणा
:00
▁स्थगित
▁अरे
-पा
▁हेल
-छो
▁परिस्थिति
▁गृ
-बा
▁वाम
-इ
▁रेंज
▁परमा
▁प्रतिष्ठा
सेन
▁ट्रांसफर
▁आंस
बीएस
▁हवाला
▁मलिक
▁छोड़ा
▁बैल
▁१८
▁इशारा
फिकेशन
▁समग्र
▁कॉर्
▁वीं
▁नजदीक
▁श्रीराम
▁आईए
ञ्
▁क्रमश
▁जियो
▁'द
▁करवाई
प्पल
▁हमे
▁मृ
वेज
▁रोमांच
▁निभाई
70
▁एकड़
्रल
▁रजिस्ट्रेशन
▁ट्रॉ
▁एसडीएम
▁घड़ी
▁हैंड
▁रिपोर्ट्स
▁(N
▁अगु
▁मल्टी
ए,
स्स
ैम
▁अनाज
▁है...
▁मनोहर
)।\n
▁पोषक
ics
▁हों।
रेली
-पी
ंबा
▁लड़कियां
स्ड
▁किशन
▁'क
▁रहा,
▁गरम
▁दीदी
दित
ंधन
▁हितों
▁हिंदुस्तान
ोगा
▁१०
▁आज़ा
▁चाहिए.\n
▁वितरित
▁फायरिंग
▁(R
▁गाँधी
▁रोगों
▁इंस्टीट
omment
▁दिखता
▁शिर
▁मतभेद
डि़
▁कमिश्
▁प्रको
क्व
▁कारोबारी
माटर
▁सर्दी
ऐसा
॥\n
▁आंखें
▁बहू
▁रोशन
▁ख़िला
▁अन्न
▁कक्ष
▁अनुच्छेद
▁बताता
▁गर्ल
▁(ज
8.
▁अभिव्यक्ति
▁तेरे
▁चिन्
▁दीर्
▁1000
▁उच्चतम
▁44
▁तड़
▁उठाते
▁दर्शाता
▁पॉलिसी
▁कोने
सवाल
▁स्थानांतरित
▁400
▁फ्रंट
ब्स
▁स्थितियों
▁बीच,
पिता
पुट
नाल
▁फीट
▁है।\nएक
▁सास
▁आल
▁पंकज
▁निकली
oogle
▁लाश
▁करूंगा
▁यज्ञ
▁प्रथा
▁संतुलन
▁नतीजा
▁कच्चे
▁आधी
▁भारतीयों
▁उठाकर
▁रवी
▁नगरी
▁चेतना
▁भरत
▁पैटर्न
थन
कांड
▁लैंड
▁पीड़ा
▁यथा
रुण
▁धूल
▁फाइल
स्की
स्वती
▁बढ़ाकर
फ़ा
▁विंड
▁बिहारी
▁शहद
▁ताज
▁असा
▁आवेद
▁मौजूदगी
▁गुस्से
▁सौंद
गारी
▁राजकीय
▁इस्ला
▁विरासत
▁कॉम
▁बताना
-समय
-निर्
▁खुराक
▁एजेंसियों
ers
▁क्रिस
नाल्ड
▁ट्रेंड
ोत्तम
▁उपयोगकर्ताओं
▁डाक
▁पुण्य
बरी
▁भेजी
पंथी
▁माध्यमिक
▁है।\nआ
▁पड़ोस
पिंग
▁बैंकिंग
▁उत्पीड़
▁पॉप
▁बंदर
कारियों
▁मासूम
▁सरदार
▁6.
▁दिल्लीः
▁संस्थापक
सी)
▁गुलाब
▁रिजल्ट
वायरस
pdat
▁सूरत
▁साहि
▁मथ
▁अहमदाबाद
▁वैध
▁तालिबान
▁पड़ेगा।
▁रूट
▁सुग
▁रहस्य
▁राइ
▁स्कू
▁रूपए
▁इंतजाम
▁ज़ोर
▁पहलू
▁सीन
▁दही
▁बाप
▁माला
▁जानवर
क्षणिक
ish
▁मान्य
▁प्रबंधक
▁तेंद
i)
▁39
ब्ब
▁औपचारिक
▁फर्म
▁अधिसू
पेक्ष
▁घटनाएं
▁व्यावहारिक
▁एरिया
▁पौधों
ऊंगा
▁मूल्यों
▁पदाधिकारियों
भवी
▁दस्तावेजों
▁कहा।\n
▁तकली
▁प्रयाग
▁गुर्
▁सिस
▁उपचुनाव
▁देखो
जपेयी
▁अर्पित
▁महोत्सव
सीम
वैज्ञान
23
▁उत्ते
▁स्नातक
▁उपभोक्ताओं
▁किल
▁साहस
-अपने
्वालियर
ब्बे
▁का,
▁सियासी
▁हैं;
पीठ
▁मैनेजमेंट
लभ
▁नग
▁किराए
बूझ
▁लिव
▁वॉल
▁परिश
▁उपलब्धि
▁फूलों
▁महाविद्यालय
▁अंध
▁हैं।\nइस
ोंग
भाई
▁पंप
नीश
▁निंदा
▁नतीजे
▁पवार
▁आवश्यकताओं
▁वय
▁करें\n
▁रैं
▁घाय
▁कमीशन
ायती
वण
▁बेंच
our
भेड़
"\n"
▁विनय
▁ग्लोबल
▁माइक्रो
कोरोना
एप
▁संवाददाता
▁इंद्र
देशी
▁वसूली
ap
▁परिणामों
▁जोरदार
▁अनुराग
▁इजाजत
▁सिलसिला
▁चांदी
▁सकते।
▁मानवीय
▁विभाजन
िपल
▁बायो
रिएंट
प्ल
▁उपायों
▁टीमें
▁मांगा
▁बाज़ार
▁श्रद्धांजलि
छाड़
ष्यों
▁पसी
oc
इंडीज
क्टी
▁उदार
\nउ
▁आंध्र
▁रचनात्मक
▁बेव
▁मुखर्जी
सिस
ायंस
वानिव
▁ससुराल
दाद
▁झील
बिहार
▁मामूली
▁अवार्ड
▁'म
▁नाराजगी
थाम
▁बहाने
.com
▁मतदाताओं
▁गहरे
▁पैसों
▁हैं-
▁कुर्सी
▁खातों
ows
▁प्रवासी
▁पाण्ड
▁आई।
▁अरो
▁आलम
शिव
▁पठ
चालित
▁राधा
▁मेजब
▁निलंबित
▁पद्धति
▁चट
▁गैर-
▁अन्तर्गत
▁हिला
▁प्रोट
▁निचले
लांग
▁2,
▁चौरा
▁फिटनेस
▁जनस
▁उठे
▁ख़िलाफ़
):
▁आलोक
▁ट्रेनों
▁हल्की
▁निपट
▁इंस्पेक्टर
क्टिव
▁पर्दे
▁फोर
▁पाठकों
ूरती
बन्
▁अतीत
▁भीम
टित
▁माँग
▁जागरण
▁प्रांत
शेखर
▁भव
▁पड़ेगा
▁फंसे
▁लिखकर
▁प्रिंस
▁पार्षद
▁पीस
▁सकेंगे।
▁करे।
▁पंजीकृत
ियां,
▁कप्तानी
▁अपहरण
मिथ
▁भागों
▁१६
▁सिद्धान्त
▁सम्रा
▁फीचर
▁2026
ग्व
▁अकेला
▁गहन
▁फेल
▁हमसे
▁दुखी
▁मंदिरों
ने,
▁नींबू
▁भैया
▁घी
▁फुल
▁भक्तों
▁नाइट
▁सम्भव
ुलेंस
▁मारकर
▁भेदभाव
रोक्त
मेरा
चन्द्र
▁लेट
▁ढा
डीओ
▁जिनसे
▁डेब्यू
▁प्रतीक्षा
▁पालिका
▁शर्तों
▁दर्जा
▁एजेंट
▁समय-समय
▁टी-20
ॉर्क
लत
▁आज्ञ
▁परफ
▁सना
थित
▁दक्षिणी
▁on
ID
▁पाकर
og
▁भूकंप
▁सामु
बर्ग
▁सूच
▁नागरिकता
▁स्तन
▁टिप्स
▁पर्यटकों
▁सबका
▁कामकाज
हू
\n(
▁हेली
▁बोल्ड
▁चिंतित
▁हार्ट
▁खरीदा
▁शौक
▁प्रायः
▁अपने-अपने
▁मायने
▁फार
▁खेतों
▁लेखकों
तांत्रिक
मा,
▁समन्वय
▁आईडी
▁पांड
टिया
र्जन
▁एके
▁आला
▁टमाटर
▁ट्रैक्टर
आईसी
▁संपादक
विज्ञान
▁श्रमिकों
▁मुजफ्फर
ड्यूल
ंगाना
▁7.
▁उन्नत
▁साई
▁पैनल
▁आन्दोलन
▁(D
▁लिहाज
कतों
किट
▁आतंकवादियों
▁द्वि
▁पड
मरी
▁दर्शक
डिशा
तिन
▁मज़ा
▁पूछने
▁उठता
▁ईंधन
▁प्रोत्साहन
▁ध्वनि
▁आभार
▁अफवाह
▁मौलिक
▁रत्न
▁खैर
▁स्पोर्ट्स
▁गईं।
▁हल्दी
▁शॉर्ट
▁कनाडा
राई
▁सम्प
▁(एन
▁होंगे.
▁पुष्प
▁रावण
▁घायलों
बैक
▁यूएस
।\nस
विजन
मोह
▁दशकों
▁सीरिया
\nग
▁झड़
▁निकाली
▁फसलों
▁झलक
▁मय
ते,
▁एक्सचेंज
\nह
▁राजेंद्र
▁ब्रोकर
▁मांगने
राशि
▁ईमानदारी
▁उज
गी.\n
90
मिन
▁वाई
▁उठाना
▁लाना
क्रोश
पहले
▁इमारत
क्यों
ebs
▁तूफान
झाने
▁प्रिंट
▁प्रदेश,
▁टेक्नोलॉजी
▁चौंका
मुना
▁चर्
पाही
▁अंकित
ण्ट
▁प्रशंस
▁हैं।\nअ
मेन
▁52
▁जेब
▁जादू
▁रणबीर
मर्श
▁एटीएम
▁रियल
▁प्रॉ
▁कमान
▁सांसदों
▁नेहा
▁नीरज
▁कर,
45
बाग
▁छान
▁चाचा
तिया
▁X
नार
▁साइन
तन्त्र
\nर
णीय
विल
▁केयर
▁दिनांक
▁मिले।
▁भाइयों
▁भी।
स्थिति
▁टैंक
कने
▁ऊपरी
▁आर्टिकल
▁अंसारी
▁महत्त्वपूर्ण
▁दिलीप
▁दिखाते
▁समुद्री
▁सैम
त्नी
▁मूवी
▁महल
▁सर्च
ख्त
▁बोतल
▁डालते
▁परिस
▁कॉपी
▁चिल्ला
▁नहा
शीलता
▁जुटा
▁बारा
▁रंगों
▁अतिक
▁है!\n
▁प्रसारण
▁सम्मिल
▁रंजन
यात्रा
▁कमांड
ebsite
▁संतान
▁साहित्यिक
▁फीड
▁डाइट
▁2007
▁बाह
ष्का
कांक्षा
▁निवार
▁फ़ोन
▁सरस्वती
▁शेख
▁स्टूडेंट्स
ांतों
चालन
▁बघेल
▁कमिश्नर
ुति
▁सुर्खियों
▁पृष्ठभूमि
▁मुठभेड़
▁सेंट्रल
▁(प
▁श्रद्धालुओं
▁काउंसिल
▁लड़कों
स्तों
▁एस.
▁पित
▁तेज़
▁कृष्णा
ंटिक
▁विनाश
▁आज्ञा
▁है।\nज
▁फाइबर
▁चित्त
▁के.
ंठ
▁स्पीड
▁चूस
िणी
ht
मौ
▁सितम्बर
▁अमरीका
▁डिलीवरी
▁43
वाहित
▁एथ
▁शर
ाइज
▁प्रभावशाली
▁"स
day
ण्डल
▁फुटबॉल
स्सी
ए।
▁मरम्मत
▁प्रचलित
▁आंगन
ug
र्नल
▁हमलों
▁कारक
▁जुड़ने
▁नारियल
▁बसों
▁सनी
खल
▁उत्पीड़न
▁चाहें
▁गवाह
▁उन्हे
घात
▁है।\nउन्होंने
▁वेल
▁फोक
▁कॉमे
▁फू
▁पाइप
▁बुरे
ट्रिक
भावस्था
ेशर
▁सीधी
▁ईसाई
पीएस
▁ढांचे
दूसरे
▁फट
▁सेकंड
▁संतुष्ट
▁कन
▁शुक्ल
▁सिलसिले
▁लड
-बड़े
▁हिन्दुस्तान
▁अंडे
▁भीषण
▁टर्म
▁८
▁सफ़
▁अनुभवी
कला
▁सेक्सी
प्टन
▁..
▁शीर्षक
▁गर्दन
▁संचालक
▁ढाई
up
▁आकलन
▁वरुण
▁सुशील
▁डिफ
▁लीक
▁कैलाश
ik
▁जरूरतों
टू
▁सज
▁चैट
्वीप
▁शेयरों
▁धीमी
▁दोग
ैर्य
वैधानिक
▁है।\nब
▁तरल
▁शैक्षणिक
ोली
▁फैलाने
▁अमल
▁मानसून
▁चुनने
▁दें.
्तार
▁प्रतिनिधियों
▁कूद
▁कारण,
▁आरती
ड़ा,
▁श्रीकृष्ण
▁कथन
▁अपलोड
▁डील
75
▁पीट
▁सम्बंध
▁अश्
ल्लू
▁कबीर
वियत
▁क्रे
तिर
▁त्वर
▁तिमाही
न्ने
▁समापन
▁सीरियल
▁website
-ल
एमएस
▁सिपाही
▁जिम
▁लाह
ृत्त
▁बताया।
जिस्ट्रे
ुरू
▁दीर्घ
▁सभ्यता
▁सोनू
▁*
▁चर्च
रीबन
▁जुटी
▁प्रतिबंधित
▁अनो
▁जताया
▁वेस्टइंडीज
▁रणवीर
▁करीना
▁विक्रे
दर्शी
▁बूथ
नीर
▁46
▁नाज
न्याय
▁मोर
▁जाएगा.\n
▁बनाम
▁हाथी
▁हकी
▁चुनौतियों
▁सूख
▁जूनियर
▁राजने
▁घटा
▁गिरोह
▁ग्वालियर
▁लैस
▁फोर्स
वा,
शो
▁कुलदीप
▁नंद
▁सेवानिव
बुल
▁समझता
▁क्राइम
▁लगी.
▁सालाना
▁बिर
▁इंस्टीट्यूट
ेली
वाइ
▁लेनी
▁जश्न
दरी
▁उर्दू
▁हरिद्वार
▁अनुपात
धड़ी
▁बस्ती
’,
▁परमात्मा
▁ग्रो
▁होता,
▁उत्साहित
\nऔर
▁गली
▁दुल्
▁क्वाल
▁उपज
▁डेवलप
▁रच
▁अत्यन्त
▁लक्षणों
सरत
ॉप्टर
▁पश्चात्
▁नकली
िसोड
▁ईडी
इसे
▁डबल
ओ,
▁निया
▁कहानियों
▁सबकुछ
▁रहें।
तरह
▁गई.\n
▁जद
▁निम
▁टाल
▁छात्राओं
▁लक्ष्मण
▁स्वीकृत
▁गिरी
ायें
▁कम्युनि
▁सम्मिलित
▁गणित
▁मौल
▁अब्दुल
▁प्लस
▁किंग्स
▁कट्टर
▁जीतकर
▁वर्गों
▁टूर
▁रथ
यानक
▁अत्याचार
▁माननीय
▁मधुर
▁बोनस
िकारक
▁12वीं
▁उठी
▁दिसम्बर
▁अध्याय
▁असंभव
▁मात
▁गोपनीय
▁DN
▁विवादित
प्रदाय
▁पासवान
▁हिस्सेदारी
प्रो
▁फेर
▁उपाध्याय
▁व्ही
▁बगैर
▁खरीदारी
▁यथार्थ
▁नवीनतम
रेख
▁नोटबंदी
▁मांगों
▁आक्रोश
▁हिमाल
▁हार्म
▁शुभारंभ
▁आर्मी
▁सोल
▁भंग
घाट
▁गज
▁कहें
ate
▁कन्
▁त्वरित
▁निभाने
▁रोकथाम
|\n
▁किले
▁पूर्वा
▁दरों
▁सके.
▁अनंत
फेक्ट
▁माफ
▁अंग्रेजों
िवेश
वाहिक
जेक्शन
म्बा
▁"मैं
िक्षा
▁भोजपुरी
BI
मेह
▁इक्
▁लें।\n
▁सेव
▁विद्रोह
▁बढ़िया
▁सार्थ
▁अनदे
200
▁घटनास्थल
▁आरोपित
▁प्रवी
▁पिटाई
▁कैल
▁मथुरा
साइज
▁रुपया
▁अंदाजा
▁खुलकर
▁यूं
धना
▁निर्धारण
▁खरीदी
▁टैग
▁ज़मीन
▁मानवता
▁चिह्न
▁एकाद
▁सद्
▁की.\n
ia
▁जर्मन
▁नदियों
▁हुई।\n
▁संयंत्र
▁बेटियों
गुण
▁मार्क
▁चैंपियनशिप
िस्तान
▁प्रो.
रक्षा
ist
▁मदर
▁बृहस्पति
▁करें.\n
निर्माण
स्तुति
▁अतिक्रमण
पोर
▁'आ
ल्तान
▁2024
▁सिलेंडर
▁द्रव्य
-सु
▁राखी
दाश्त
टेस्ट
▁यार
कई
वृत्ति
▁खूबसूरती
▁ट्यू
▁सौंदर्य
▁शॉट
▁गुट
▁पढ़ें-
▁विभाजित
▁झटके
▁कम्पनी
▁सृष्टि
▁तकलीफ
▁उदा
▁ड्राइव
ोत्तर
्यूस
▁अंबानी
▁घन
▁इनसे
▁जमाने
▁ऑप्शन
▁यी
▁है।\nप
▁49
▁खेलना
▁चलना
▁बनाएं
▁शिल
वाड़ी
▁"हम
▁धैर्य
▁इलेक्ट्रॉनिक
▁व्यय
▁महावीर
हालांकि,
▁रिश्तेदार
▁माफिया
▁राउंड
▁लोकप्रियता
▁पूर्ति
▁कॉलोनी
िरो
▁तेरी
▁मित्रों
ानुसार
▁है:
▁उर्व
▁दो-
27
▁प्रीमियम
▁तरफ़
▁भावनात्मक
▁आरम्भ
▁ड्रोन
ूंगी
▁छाप
▁(म
▁नमू
▁गाल
▁ट्रां
▁खान,
▁शुगर
▁एपिसोड
▁भयानक
▁आचार
शासन
▁साहिब
ौड़
तब
-ह
▁अधिवक्ता
▁बिटक
▁मुनि
▁बीसीसीआई
▁दिवाली
▁इनको
जवान
ोटो
ip
ज़े
▁ओडिशा
▁सतीश
▁47
▁सहन
▁प्लेटफार्म
जिकल
▁एक्टिंग
▁मंत्रिमंडल
▁उग्र
▁वसा
▁गायक
▁सख्ती
▁मूड
▁करेगा,
▁बदलते
▁प्रतिभाग
▁एनडीए
विन
▁भागने
▁चूक
▁न्यूय
विशेष
शिंगटन
▁सर्दियों
▁पाचन
▁बहाल
▁बंट
▁सदैव
-सं
ार्स
▁चाइ
▁फैमिली
▁क्रमशः
▁महंगा
▁संवैधानिक
hat
▁जॉब
मुच
▁and
▁नरेश
▁घातक
▁जाएंगे।\n
▁जाएं।
▁नाश
ासंगिक
▁पुराण
▁बॉर्डर
▁शासित
\nके
▁खाल
▁जोश
▁स्त्र
▁रिलीज़
▁आयकर
▁अड्डे
▁कोटा
तुम्ह
▁जानकर
▁धोखाधड़ी
▁उतरे
▁पड़ते
▁सम्पन्न
▁रिकार्ड
26
ive
▁संवेद
▁आईसी
▁चौथा
▁ऑड
ए)
▁उपदेश
▁स्पर्श
▁स्वयंसे
▁स्मार
शाही
फिल
▁इंकार
▁गोयल
▁निरीक्षक
▁अर्जित
▁डायब
▁केदार
▁सामुदायिक
▁सहारे
जीपी
▁डेविड
▁अद्व
▁भटक
▁उभ
▁परवाह
▁कॉफी
▁संज्ञान
▁मिड
\nल
णमूल
ल्हा
स्टेट
व्
▁लाभदायक
ैग
▁दीक्षित
▁विविधता
▁तेलंगाना
▁ट्रायल
▁250
।\\n
▁नाश्
टी,
▁सला
▁सेल्सियस
▁राजमार्ग
▁धीर
▁अवकाश
फिट
▁जी,
▁दीजिए
▁अपनाने
ोषित
▁लौटे
▁मजिस्ट्रे
▁बिटकॉइन
▁दाग
▁लापता
▁बृ
▁बंधन
▁हानिकारक
▁फलों
▁सौदा
▁मेहता
▁आया,
▁निष्पक्ष
\nयह
सला
बोर्ड
ोर्
▁नाट
सनी
बूत
▁Eth
आरसी
गमन
▁बर्तन
वैज्ञानिक
▁रीति
▁साहू
▁foll
▁सीमाओं
▁हसन
▁वाणी
▁सोवियत
▁महानि
▁स्मरण
▁घबरा
▁खाद
▁टाइगर
▁बैंड
▁मले
▁कर्मी
▁पेयजल
▁सिद्धू
▁ऐश्व
्ठी
ड़ियां
▁जूते
▁दीन
▁लीला
▁वरना
▁दोगु
▁बगल
ुली
ूण
▁लौटा
▁क़ान
▁तलवार
▁शॉप
▁पर्सनल
▁बाघ
▁'ब
▁फोकस
छित
▁ग्राउंड
धियों
▁पान
▁रेटिंग
▁जोध
▁दें।\n
्यव
ुकता
▁फील्ड
ूर्त
गठ
▁(19
▁एंज
काव
▁'प
▁उद्योगों
▁खनि
▁अंकों
▁राठ
▁परीक्षाओं
▁चलो
ant
▁लंबाई
▁अभियुक्त
म्बई
▁खोले
क्षिक
▁शिवा
▁इच्छुक
धीर
मंड
▁मजदूरी
▁तैयारियों
▁मजेदार
▁परेशानियों
▁पैरा
▁समझाया
निर्भर
-6
aj
▁व्यापारिक
वित
▁हाँ,
रांत
▁आगमन
स्टिंग
▁पुलिसकर्मियों
▁अकादमी
▁न्यायमूर्ति
▁टेल
▁पढ़ते
