<pad>
<unk>
<s>
</s>
\n
!
"
#
$
%
&
'
(
)
*
+
,
-
.
/
0
1
2
3
4
5
6
7
8
9
:
;
<
=
>
?
@
A
B
C
D
E
F
G
H
I
J
K
L
M
N
O
P
Q
R
S
T
U
V
W
X
Y
Z
[
\\
]
^
_
`
a
b
c
d
e
f
g
h
i
j
k
l
m
n
o
p
q
r
s
t
u
v
w
x
y
z
{
|
}
~



¡
¢
£
¤
¥
§
©
«
¬
®
°
±
·
»
¿
Á
Â
Ã
Ä
Å
Æ
Ç
È
É
Ë
Ï
Ð
Ñ
Ó
Ö
×
Ø
Û
Ü
Þ
ß
à
á
â
ã
ä
å
æ
ç
è
é
ê
ë
ì
í
î
ï
ð
ñ
ò
ó
ô
ö
÷
ø
ù
ú
û
ü
ý
Ā
ā
ă
ć
Č
č
đ
ē
ğ
ī
Į
İ
ı
ļ
ł
ō
Ş
ş
Š
š
ū
Ÿ
ž
ƒ
ǀ
ǔ
ɑ
ə
ɛ
ɪ
ʹ
ʺ
ʻ
ʿ
ˈ
ˌ
ː
˸
́
̃
̈
̊
̧
Δ
Ε
Σ
Ω
ά
ή
ί
α
β
γ
δ
ε
η
θ
ι
κ
λ
μ
ν
ο
π
ρ
ς
σ
τ
υ
φ
χ
ω
ό
І
А
Б
В
Г
Д
Е
Ж
З
И
К
Л
М
Н
О
П
Р
С
Т
У
Ф
Х
Ц
Ч
Ш
Э
Я
а
б
в
г
д
е
ж
з
и
й
к
л
м
н
о
п
р
с
т
у
ф
х
ц
ч
ш
щ
ъ
ы
ь
э
ю
я
ё
і
қ
ְ
ִ
ֵ
ַ
ָ
׀
ׂ
א
ב
ד
ה
ו
י
ל
ם
מ
נ
ע
ר
ש
ת
،
؟
ء
آ
أ
ؤ
إ
ئ
ا
ب
ة
ت
ث
ج
ح
خ
د
ذ
ر
ز
س
ش
ص
ض
ط
ظ
ع
غ
ـ
ف
ق
ك
ل
م
ن
ه
و
ى
ي
ً
ٌ
ٍ
َ
ُ
ِ
ّ
ْ
٠
١
٢
٣
٤
٥
٦
٧
٨
ٹ
پ
چ
ڈ
ڑ
ک
گ
ں
ھ
ہ
ۃ
ی
ے
۔
۰
۱
۲
۳
۴
۵
۷
۸
۹
ऀ
ँ
ं
ः
ऄ
अ
आ
इ
ई
उ
ऊ
ऋ
ऌ
ऍ
ऎ
ए
ऐ
ऑ
ऒ
ओ
औ
क
ख
ग
घ
ङ
च
छ
ज
झ
ञ
ट
ठ
ड
ढ
ण
त
थ
द
ध
न
ऩ
प
फ
ब
भ
म
य
र
ऱ
ल
ळ
ऴ
व
श
ष
स
ह
ऺ
ऻ
़
ऽ
ा
ि
ी
ु
ू
ृ
ॄ
ॅ
ॆ
े
ै
ॉ
ॊ
ो
ौ
्
ॎ
ॏ
ॐ
॑
॒
॓
॔
ॕ
ॖ
ॗ
क़
ख़
ग़
ज़
ड़
ढ़
फ़
य़
ॠ
ॡ
ॢ
ॣ
।
॥
०
१
२
३
४
५
६
७
८
९
॰
ॱ
ॲ
ॳ
ॴ
ॵ
ॶ
ॷ
ॸ
ॹ
ॺ
ॻ
ॼ
ॽ
ॾ
ঁ
ং
অ
আ
ই
উ
এ
ও
ক
খ
গ
ঘ
ঙ
চ
ছ
জ
ঝ
ঞ
ট
ঠ
ড
ণ
ত
থ
দ
ধ
ন
প
ফ
ব
ভ
ম
য
র
ল
শ
ষ
স
হ
়
া
ি
ী
ু
ূ
ৃ
ে
ো
ৌ
্
ৎ
০
১
২
ৰ
ਂ
ਅ
ਆ
ਇ
ਈ
ਉ
ਏ
ਐ
ਓ
ਕ
ਖ
ਗ
ਘ
ਚ
ਛ
ਜ
ਟ
ਡ
ਣ
ਤ
ਥ
ਦ
ਧ
ਨ
ਪ
ਫ
ਬ
ਭ
ਮ
ਰ
ਲ
ਵ
ਸ
ਹ
਼
ਾ
ਿ
ੀ
ੁ
ੂ
ੇ
ੈ
ੋ
ੌ
੍
ੜ
ੰ
ੱ
ઁ
ં
અ
આ
ઇ
ઈ
ઉ
એ
ઓ
ક
ખ
ગ
ઘ
ચ
છ
જ
ઞ
ટ
ઠ
ડ
ઢ
ણ
ત
થ
દ
ધ
ન
પ
ફ
બ
ભ
મ
ય
ર
લ
ળ
વ
શ
ષ
સ
હ
ા
િ
ી
ુ
ૂ
ૃ
ે
ૈ
ો
ૌ
્
૦
૧
૨
૩
૪
૫
૬
૭
ଁ
ଂ
ଃ
ଅ
ଆ
ଇ
ଉ
ଏ
ଓ
କ
ଖ
ଗ
ଘ
ଙ
ଚ
ଛ
ଜ
ଝ
ଞ
ଟ
ଠ
ଡ
ଢ
ଣ
ତ
ଥ
ଦ
ଧ
ନ
ପ
ଫ
ବ
ଭ
ମ
ଯ
ର
ଲ
ଳ
ଵ
ଶ
ଷ
ସ
ହ
଼
ା
ି
ୀ
ୁ
ୂ
ୃ
େ
ୋ
୍
ୟ
୦
୧
୨
୩
୪
୫
୬
୭
୮
୯
ୱ
அ
க
ங
ச
ஜ
ட
ண
த
ந
ன
ப
ம
ய
ர
ற
ல
ள
ழ
வ
ஸ
ா
ி
ு
ூ
ெ
ே
ை
ோ
்
ం
అ
ఆ
క
గ
చ
జ
ట
డ
త
ద
ధ
న
ప
ఫ
బ
భ
మ
య
ర
ల
వ
శ
ష
స
హ
ా
ి
ీ
ు
ూ
ె
ే
ై
ొ
ో
్
ಂ
ಅ
ಕ
ಗ
ಚ
ಟ
ಡ
ತ
ದ
ನ
ಪ
ಬ
ಮ
ಯ
ರ
ಲ
ಳ
ವ
ಶ
ಸ
ಹ
ಾ
ಿ
ೀ
ು
ೂ
ೆ
ೇ
್
ം
ക
ട
ണ
ത
ന
പ
മ
യ
ര
റ
ല
ള
വ
ശ
സ
ാ
ി
ു
െ
േ
്
ර
්
ා
ท
ย
ร
า
་
།
ག
ང
ད
ན
བ
ར
ལ
ས
ི
ོ
န
မ
ာ
ိ
ု
း
်
ြ
ᆬ
ṇ
ṭ
​
‌
‍
‎
‐
‒
–
—
―
‘
’
‚
‛
“
”
†
‡
•
‪
‫
‬
′
›
⁄
€
₹
₽
⃟
⃣
℞
←
↑
→
↓
⇒
⇝
−
∙
√
≤
≥
─
▁
■
▪
▶
►
▼
◆
◉
●
⦁
⭐
。
【
】
い
中
京
人
共
加
华
卐
和
国
坡
大
文
新
本
民
語
语
국
민
주
한



️
﻿
￼
�
🤍
🤔
🤗
🤣
🤩
🤭
🥀
🥰
🥳
🥺
🧿
🪢
🫀
🫰
🫶
▁क
▁स
▁ह
▁म
▁प
ें
▁है
▁के
्र
ार
ने
▁ब
▁ज
या
▁अ
▁व
▁द
▁में
▁ल
▁र
ों
▁न
▁की
ता
र्
▁को
▁आ
▁उ
▁से
▁कर
ान
▁त
▁कि
▁ग
▁भ
▁का
▁इ
्य
▁औ
▁और
ना
िक
▁प्र
▁पर
स्
▁ए
ाल
▁श
▁है।
▁च
▁हो
ही
क्
▁हैं
▁ने
िल
▁य
▁इस
ित
▁थ
ड़
ते
हा
िए
▁जा
न्
िय
के
▁भी
▁सा
वा
िया
ती
▁एक
▁ख
▁स्
▁वि
▁फ
हीं
से
ति
ंग
▁लिए
ला
▁बा
त्र
▁दे
री
त्
रा
ले
▁सम
▁नहीं
▁अप
नी
।\n
▁रा
▁सं
िन
्या
का
सी
कर
ोग
गा
▁ही
ाम
▁ले
ेश
▁हु
िस
कार
▁ट
▁किया
क्ष
ुर
▁यह
▁था
्ट
▁रह
▁मु
▁तो
▁ड
्व
की
▁आप
▁नि
मा
▁करने
ली
ाय
ंद
▁पह
▁गया
▁साथ
ारी
ियों
▁हैं।
ां
▁है,
▁1
▁कार
▁उस
▁सक
▁कु
▁उन
न्ह
सा
▁घ
्म
▁2
▁जो
ास
रे
▁है.
▁अन
ाह
▁या
ल्
▁हम
▁कहा
▁(
▁अध
कि
भा
▁।
▁सु
▁पू
ंड
िर
िव
▁ध
▁उन्ह
भी
▁अपने
िला
▁वाल
्री
दी
▁बाद
ढ़
▁छ
च्
▁राज
द्
▁है।\n
ारा
ुल
▁लोग
गी
▁थी
▁तक
▁रहे
▁सि
ओं
स्ट
▁दो
दा
ूप
ैं
जी
▁दिया
गे
तर
्रे
को
था
वि
▁वह
▁मह
देश
ंत्र
में
रो
टी
ंच
ष्ट
▁उप
▁ऐ
▁मे
▁हुए
्ष
्त
ाइ
ाना
▁रहा
▁सी
▁जिस
▁थे
ोज
किन
▁पा
वी
गर
▁मिल
ानी
▁भार
▁मा
स्त
▁गई
▁बार
▁भा
▁अधिक
▁कुछ
जा
िश
मी
▁जी
▁बी
ार्
▁सर
▁बना
खा
ोंने
▁चाह
▁तर
नों
▁लेकिन
▁चु
▁सब
टर
▁रही
▁वे
ौर
▁जब
पी
पा
▁रूप
ूर
▁बह
▁करते
ेल
▁बता
▁बात
▁अनु
▁'
▁20
ड़ा
द्ध
▁दी
▁ला
ड़ी
द्र
▁हैं,
▁स्थ
▁पहले
मान
र्म
ंध
▁वर्
▁बे
▁उन्होंने
▁लगा
हां
▁होने
▁कम
शन
्यों
ुत
▁सरकार
बा
▁कोई
▁इन
िंग
▁विश
▁जाए
ये
क्र
▁लोगों
▁कह
▁समय
टे
▁दिन
▁अपनी
▁किसी
▁जाता
▁द्व
▁व्य
क्त
ूस
र्व
▁अब
बर
▁-
ड़े
▁इसके
▁सो
▁देख
▁तरह
म्
हर
ैसे
ाप
▁गए
▁वाले
▁जान
▁उत्
स्थ
▁निर्
▁"
च्च
▁प्रति
.\n
ीन
ूल
दि
▁हि
▁मौ
▁काम
कों
▁बि
चार
▁मो
▁देश
▁करें
▁सकता
ंत्री
▁था।
▁क्ष
▁पी
ज़
▁बढ़
▁करना
र्ट
▁ये
▁मैं
▁पुल
▁द्वारा
ेट
▁कई
▁रख
योग
ोल
▁दु
▁हुआ
▁कार्य
िप
▁भारत
▁होता
वार
▁बहुत
्स
च्छ
▁ओ
▁टी
▁लग
▁उनके
्ल
▁सभी
▁पुलिस
▁सकते
वर
ष्
ंह
क्षा
िका
ोक
▁अं
▁विक
्यू
जन
▁साल
वे
▁उन्हें
श्
चा
▁हुई
ुप
धान
वन
▁शुर
▁माम
▁नाम
▁हैं.
क्ति
▁3
ंप
्ञ
▁क्या
वं
▁ऑ
▁मान
▁फिर
▁फिल
ारे
बी
मे
बंध
▁पार
▁हा
▁आज
▁हर
00
▁हैं।\n
▁पु
▁ना
▁पहु
▁लेकर
धार
ूर्
िट
▁साम
▁बै
भाव
▁कारण
▁जि
ेत्र
क्स
िल्
▁होगा
जे
स्ता
▁मुख
मार
ोट
▁बन
▁गु
प्र
र्थ
▁चाहिए
▁दि
पर
▁घर
ोर
▁खु
▁सिंह
▁बताया
▁क्यों
ब्
▁क्षेत्र
▁अव
▁चल
म्म
▁दौर
▁दूस
▁मै
▁ग्र
ृत
▁जन
▁सह
▁सबसे
▁लि
▁करता
न्न
एं
▁फिल्म
ंस
▁पि
ून
िवार
वाल
डी
▁ता
▁जाने
▁स्व
्यम
▁हाल
ोड़
▁बु
▁उसे
्टी
तीय
▁पहुंच
▁दर्
▁पास
▁आपको
त्व
▁शिक
सार
टा
▁अभ
▁तथा
▁मन
..
▁यु
▁लिया
ीड
▁होती
दार
▁सू
पुर
▁बच्च
▁जु
▁5
▁दौरान
▁पै
▁ठ
▁शाम
दे
▁उसके
फी
▁वा
▁अच्छ
▁बीच
्रेस
▁वर्ष
यर
▁जर
तु
▁शुरू
ूम
सर
▁अन्य
▁दोनों
▁एवं
▁राज्य
▁निक
▁क्र
दान
▁खिला
▁परि
क्ट
▁झ
▁नी
रण
शी
▁स्ट
▁इं
नि
वल
एस
▁उनकी
त्म
सान
मु
ैन
\\n
▁स्थित
ेंद्र
कारी
ज्ञ
▁ऐसे
्यादा
र्स
▁महिला
ेष
नाव
िल्ली
जर
जार
िये
श्य
▁कै
ाई
▁4
▁आई
ाने
एम
▁स्वा
धी
ूं
▁थी।
हार
▁बारे
▁।\n
क्रम
▁बद
▁आय
▁वाली
▁थे।
▁रुप
▁प्रदेश
ंट
स्था
▁अल
्रीय
▁टीम
झे
चित
▁यहां
प्
लों
▁अपना
▁ई
▁दिल्ली
▁ज्यादा
▁रो
▁तै
न्द
ुक
▁गां
▁ऐसा
▁अगर
▁फै
वाद
ियां
▁मामले
लिए
्रा
▁201
▁इसे
ताओं
टना
ेंगे
स्प
▁राष्ट
▁भारतीय
ाप्त
▁शामिल
्ड
जू
▁समझ
ंक
गत
हत
▁तु
गा।
िम
▁देने
गी।
दर्
चना
▁निय
▁समा
ाली
वास
▁सकती
▁जैसे
ोजना
▁श्री
त्य
▁जाती
▁अग
णा
▁आरो
▁ओर
ोन
▁बैठ
द्य
▁क्योंकि
इस
ंब
▁वै
▁प्रा
ियो
▁किए
आई
▁शु
▁वो
▁विशेष
▁काफी
निया
भाग
धा
▁जीवन
▁गो
▁सुर
▁बो
▁शा
ेज
▁होते
▁इसी
▁कॉ
▁कंप
▁महा
लय
▁व्या
वान
▁उठ
▁डि
▁था,
ोष
▁डॉ
▁प्रकार
▁गया।
▁कांग
▁है.\n
ोर्ट
▁ऊ
▁संबंध
▁पूर्व
तिक
र्ड
कर्
त्रा
▁इसलिए
▁चुनाव
▁अनुसार
▁पार्टी
करण
लो
▁उपयोग
ुरु
▁जानकारी
स्क
▁आव
▁तीन
▁तैय
▁ट्र
ूर्ण
माण
▁मुझे
▁व्यक्ति
▁अध्य
▁कांग्रेस
▁19
▁पड़
▁इससे
▁वहीं
▁ब्र
िता
▁पूरी
ंत
▁सामने
दन
▁केवल
क्टर
▁खिलाफ
श्यक
▁शिक्ष
▁चौ
▁6
धिक
वाई
▁जारी
ार्थ
तों
▁पद
▁ली
▁तब
ेशन
▁मार्
▁यदि
▁व्यव
▁संग
▁आपके
▁स्क
ेंट
पूर्ण
त्या
▁जग
▁सफ
▁कुमार
▁प्राप्त
ष्ठ
▁में,
▁स्प
▁202
चे
▁आवश्यक
▁चे
हाँ
▁जिन
ची
▁अभी
▁अला
शा
ख्या
▁सुन
▁खा
▁प्रे
▁रे
▁परिवार
▁मद
▁लड़
▁आने
?\n
ोध
▁कप
▁हों
▁यू
▁याद
▁दें
▁विकास
तन
फ़
▁जिसमें
रिक
▁पिछ
▁बल्
▁अस
▁कभी
▁हे
▁योग
भव
ायर
▁प्रश
▁योजना
र्क
▁आगे
▁अलावा
्यान
▁चार
▁छा
▁10
▁अलग
▁विश्व
तना
▁जै
धि
▁लाख
▁आदि
▁दिखा
▁था.
ाला
ुक्त
▁आए
▁मंत्री
▁भर
▁किया।
▁उनका
▁जाते
▁टे
▁करती
तार
ल्प
▁पत्र
▁ची
▁हमारे
▁बड़ी
▁इसका
स्तान
▁अधिकार
ांकि
िले
▁7
▁करे
▁हूं
▁दर
हित
▁आम
ूट
णी
▁हाथ
▁एस
▁मांग
ध्य
रोना
▁गिर
▁आधार
▁जांच
▁पानी
▁दा
▁लोक
क्षण
▁बनाने
▁पढ़
ंबर
▁जहां
बू
▁घटना
▁मदद
▁मत
्यालय
्यमंत्री
▁आरोप
लि
▁बेह
यी
ेंद
ग्र
सभा
▁इस्
▁बाहर
▁इसमें
▁स्थान
स्या
र्फ
▁उसकी
जूद
इन
▁सद
▁विभाग
▁राम
▁पता
▁करोड़
▁कोरोना
▁ती
▁दूसरे
▁प्रभाव
षा
▁ध्यान
▁तैयार
र्य
▁ज़
▁चला
▁अम
▁मोदी
▁‘
▁मज
राज
▁स्थिति
▁:
ेद
मुख
ासन
▁इला
▁प्रधान
▁किसान
पाल
जपा
▁बड़े
ंगे
िन्न
काश
▁खेल
▁इंड
▁आया
▁कृ
▁मीड
▁पां
▁करी
▁हालांकि
▁भाग
▁कान
▁8
▁विचार
▁मीडिया
▁मुख्य
ताब
हम
ंदर
▁गा
न्द्र
▁जाना
▁मिला
▁छो
▁ढ
ाइन
▁रुपये
▁अध्यक्ष
हन
▁जरूर
▁करके
ियर
▁उत्तर
▁श्र
▁जगह
▁दिनों
जों
▁दुनिया
ियन
जह
▁पिछले
▁नई
्ला
ोजन
▁शे
▁कहा,
▁मिले
▁१
▁सर्व
▁समस्या
सल
▁देते
वेश
▁भाजपा
शल
सि
▁समाज
▁अमे
▁रिप
▁खुद
भग
▁सेवा
काल
▁व्याप
मेंट
िज
तम
ूरी
▁मुख्यमंत्री
आर
▁गांव
ैंड
▁वाला
▁कर्म
श्व
▁केंद्र
▁लिये
▁आर
▁रहने
▁महत्व
▁दूर
▁शहर
▁बॉ
यन
▁वजह
▁जिसके
▁पूरा
▁मेरे
िश्
ित्र
▁जबकि
▁बंद
▁कैसे
ताल
▁पे
▁दर्ज
▁9
डे
▁बड़ा
▁जिला
▁पत्
म्मी
▁धर्म
ष्य
राम
▁प्रो
ुआ
रीर
▁मूल
र्ष
शि
ीय
ायक
▁कंपनी
▁होना
▁नजर
▁मही
ाया
मंत्री
माल
▁दिए
▁बिना
▁ऐसी
▁परी
▁छोड़
जय
▁हिस्
▁बच्चों
▁उसने
व्य
▁डे
▁मैच
▁सौ
-प
▁डी
ध्यम
▁बैं
▁नौ
बे
स्थ्य
फ्त
दों
ीक
▁हजार
▁बस
▁हमें
यास
▁मां
कु
▁संख्या
▁दिया।
▁पो
श्च
▁राष्ट्र
▁सम्
ज्ञान
▁अच्छा
तान
रों
▁लाभ
▁विध
▁कल
डा
र्ण
स्थित
▁वीड
▁नए
▁बाल
ायत
▁वहां
▁आस
▁करेंगे
▁पूछ
▁पं
▁तहत
ीर
▁चि
▁भाव
▁लगभग
बाद
▁कौ
▁कार्यक्रम
इट
▁रिपोर्ट
▁इसकी
▁उत्पा
वरी
▁खे
ंज
▁लगे
त्री
▁आद
▁उसका
▁फ़
▁सम्म
▁लेने
▁कोश
ेंस
▁विभ
ुन
▁करीब
दर्शन
▁जिससे
ृति
ंगल
▁जाएगा
सम
▁)
▁शरीर
ियम
in
▁अर्
▁नेता
्ले
▁स्वास्थ्य
▁वीडियो
ृष्ट
▁लिख
बह
▁ग्राम
an
▁15
स्थान
▁भूम
▁सुरक्षा
ंदी
वाह
ूँ
▁जल
ाइल
हरा
▁होगी
▁उम्मी
▁अस्प
▁स्कूल
त्ता
▁निर्माण
मत
▁शर्
▁सदस
▁सच
▁शिक्षा
▁ऑफ
▁राजनी
▁12
▁रात
मो
त्मक
▁पहली
▁न्या
▁मार
▁ते
▁जल्
▁थी.
▁जीत
▁शिव
▁होगा।
▁शादी
▁कहना
▁डाल
▁देखा
षण
▁सिर्फ
ंगा
बल
▁उम्मीद
ग्
▁माल
▁जिले
▁अधिकारी
▁मौत
▁फैस
▁यही
▁फी
र्च
▁खरी
ल्ड
▁खान
ण्ड
कान
▁था।\n
द्धि
▁माध्यम
▁पूरे
▁पाकि
▁मंद
▁सामान
▁निर्देश
▁तरी
▁स्तर
▁विभिन्न
▁ट्रे
चान
ुट
राब
त्रों
▁गई।
▁थीं
▁तरफ
▁सके
▁कोर्ट
र्चा
मारी
ैल
▁भग
पति
▁विष
▁बल्कि
▁न्यू
▁मुताब
▁कहते
▁वृ
▁चाहिए।
▁कोशिश
▁उद
▁मुताबिक
▁विरो
▁पांच
▁राष्ट्रीय
▁प्रधानमंत्री
▁दिल
▁धन
▁उपल
▁कुल
▁अर
शत
▁मिली
▁घोष
मन
▁अच्छी
बार
▁सफल
▁ज्ञ
त्ति
▁वाप
र्या
न्म
▁मि
▁लेख
▁की।
▁प्रमुख
▁चाहते
ेक
▁बच्चे
स्तव
▁पुर
▁रोक
हास
▁मी
▁थी,
▁रखा
▁जनता
▁अंतर
▁बदल
▁उपलब्
रि
▁महत्वपूर्ण
▁नियम
-अ
▁मंदिर
▁लॉ
▁ठीक
▁सही
▁संघ
▁स्था
▁सवाल
तेमाल
▁थे,
ालय
ांत
▁तौर
▁जिसे
▁खबर
▁इस्तेमाल
▁अति
▁दूसरी
युक्त
▁तुम
▁एन
▁विधान
हाय
▁रखने
▁लगता
पित
▁पाल
▁नगर
▁प्रदान
▁वित
▁वायर
यान
20
▁रंग
ar
भार
मिक
टक
▁पेश
▁देखने
▁महीने
ंख
▁उच्च
स्वी
▁पस
नाथ
▁अंत
एल
▁लगातार
▁माना
पन
्वी
▁प्रकाश
न्होंने
▁मैंने
▁अस्पताल
▁,
▁देता
▁गै
▁पिता
▁मंत्र
▁बचा
तनी
▁पीछ
▁अभि
▁राशि
▁शब्
▁उम
▁विदेश
धन
भर
वासी
▁बजे
▁बैंक
एन
▁प्रदर्शन
वर्
▁चा
▁मौजूद
▁प्रत्य
▁चुके
▁दिव
▁विषय
ॉल
▁प्रयास
...
▁बढ़ा
▁गांधी
▁शुरुआ
▁पाकिस्तान
▁होंगे
▁अर्थ
)\n
▁यादव
तिहास
▁संप
▁उपलब्ध
ग्री
क्रिया
▁गर्
क्षित
▁लिखा
लाई
▁दिख
यं
▁बनाया
▁व्यवस्था
▁दल
"\n
-1
ड़क
▁डा
ें।
▁जे
न्तु
कट
एक
▁गुरु
▁गये
er
ेशा
▁देव
▁समर्थ
▁आवश्यकता
▁नर
▁सुबह
▁अफ
वाब
ात
▁बैठक
▁गल
ष्ण
द्योग
▁आपकी
▁रन
ठन
▁गं
श्म
▁S
on
▁‘‘
यह
▁उसी
▁सोच
▁लाल
म्ह
ंटे
▁गयी
▁थो
▁शी
▁11
▁लो
द्यालय
उन
▁सेना
ल्स
▁सहाय
▁लिए,
▁बाजार
▁नही
▁शर्मा
ूब
▁यात्रा
ंदा
लब
क्शन
जिक
्यो
▁महिलाओं
ंका
ड़ों
न्त
▁पक्ष
▁किस
▁प्रतिशत
▁गति
!\n
▁जन्म
▁गिरफ्त
’’
▁C
▁ख़
दम
▁बच
ेंड
▁सूचना
▁भाषा
▁मध्य
▁सीट
▁रहते
विधा
▁सहित
▁बज
तंत्र
▁अधिकारियों
▁लक्ष
▁मेरी
खंड
गढ़
▁राह
▁वास्तव
▁हैं.\n
▁थे.
▁हमेशा
▁परेश
कृत
▁?
पू
भीर
▁अंग
▁जाएगा।
▁स्वी
▁पीछे
▁चर्चा
▁रु
▁आदेश
▁लाइ
▁बनाए
▁भू
▁भगवान
हि
▁जरूरत
▁युव
▁निकल
तियों
टन
कल
▁रोज
▁प्रक्रिया
तरा
▁॥
▁परीक्षा
▁मिश
▁सोशल
मता
▁कर्
▁खास
▁होकर
▁सिद्ध
at
▁ऊपर
तः
ूह
▁कार्र
▁पक
लाह
▁परिव
शु
वादी
न्हें
चाल
▁बेहतर
▁एम
ैक
सं
▁सीमा
▁चुकी
▁देना
रिका
णाम
गल
▁कार्रवाई
क्सी
चर
हाल
▁युवा
▁A
यू
▁200
▁लगाया
▁कमी
▁कहीं
▁18
िटी
▁रुपए
▁फे
▁उद्
▁व्यापार
▁मिलने
▁ड्र
▁धार
-क
▁समु
ंबई
▁शेयर
▁मृत
▁विधानसभा
िली
▁तेज
तने
▁ब्ल
न,
▁मना
▁देखते
▁एक्स
▁विप
▁खरीद
दाय
▁पंच
▁इतना
▁रि
▁करें।
▁बोल
▁तुम्ह
▁बने
▁अवसर
▁मामला
नर
▁आग
जेपी
धे
▁प्य
▁भाई
▁समान
▁पत्नी
िकेट
िक्ष
▁बिहार
▁पसंद
▁लौ
▁फर
मति
▁देशों
ुड
▁किसानों
000
▁संभाव
▁पोस्ट
▁शो
किल
▁लगी
▁जवाब
▁वन
▁विरोध
▁उठा
▁भु
▁सुविधा
▁संक्रम
ंद्र
जि
लाइन
▁पति
▁इंटर
▁रहता
▁गेंद
गू
▁हमारी
▁चुन
▁रू
▁चलते
▁प्रशासन
▁गंभीर
ार्ड
▁ताकि
नीय
▁गुण
मि
▁सर्
▁स्पष्ट
),
▁पूर्ण
▁वाह
▁मौके
ोजित
फा
▁चुका
▁शक्ति
▁इंडिया
▁सदस्य
▁आख
▁दक्ष
्रम
ेंगे।
▁चीन
▁पड़ा
साय
▁टेस्ट
र्थिक
पु
▁अमेरिका
▁जाय
▁हत्या
▁हूँ
▁वापस
▁रेल
▁चिक
ायल
▁शुरुआत
िकों
गार
▁है?
नो
▁सांस
िशा
▁गए।
▁14
▁नीचे
▁अद
▁मजबू
▁अप्र
▁30
लर
▁सामान्य
▁कला
▁परिणाम
रीज
▁बर
▁सम्मान
न्ध
▁P
षि
▁क्ल
▁ऋ
▁रव
वेदन
▁दृष्ट
▁फ्र
लू
▁दू
▁प्रेम
ॉप
क,
लिया
हरी
टेड
▁दुर्
▁हाई
वरण
अप
▁सरकारी
▁आत
्रो
▁माह
▁गि
झा
▁आर्थिक
▁दौ
▁शाह
स्त्र
्यु
▁खो
चल
▁प्रयोग
▁सहयोग
▁रोग
▁मुंबई
▁बीजेपी
तृ
▁फैसला
स्तु
ता,
▁उल्
त्मा
▁सैन
▁हिस्सा
ित्व
▁व्यक्त
▁25
▁निकाल
▁यहाँ
▁हास
▁पृ
▁हो,
▁संबंधित
▁0
▁छोटे
▁करा
▁दिखाई
▁बिज
▁पर्या
ंभ
▁बयान
▁महारा
िकल
तक
▁ज्ञान
▁युद्ध
▁साफ
▁नहीं,
▁तस्वी
▁जल्द
रिया
ोस
▁कानून
▁I
▁राय
▁तुल
es
▁मुद्
ट्ट
▁पुरु
▁थाना
जें
ंसा
▁.
▁वालों
▁रिक
▁फोन
▁वही
एफ
▁एक्ट
ांस
▁पाए
▁शिकायत
▁२
▁जरूरी
▁भे
▁दक्षि
ांति
▁वी
▁तीस
साथ
्रीम
▁पुरुष
▁नया
बंधन
▁जमा
मीन
रात
▁अंदर
▁तेल
▁मिन
धर
फे
▁गिरफ्तार
सू
रु
▁उम्र
▁पहचान
▁कौन
▁स्वयं
तमान
▁सोम
▁आत्म
▁अख
वुड
▁निर्ण
ठी
▁देर
▁मॉ
ज्
▁!
▁प्रत्येक
खी
▁विधायक
▁निवेश
ोह
▁शि
▁रहती
▁उससे
स्कार
▁क्रिकेट
ोरी
यों
करी
▁नागर
ियान
▁फीस
प्ता
लग
▁सामा
▁बदला
▁जय
▁वर्ग
▁राहुल
कत
▁होगी।
▁वक्त
ः\n
▁मंगल
▁भूमिका
▁आन
म्प
▁प्यार
नेट
चन
▁घंटे
▁खूब
▁हार
तिम
ंडी
▁हासिल
त्त
मर
▁पड़े
आप
▁धो
▁माता
al
▁भारी
ियाँ
ंगी
▁13
धिकार
▁प्रभावित
or
कुल
▁मनु
▁लागू
▁नंबर
▁जित
▁करवा
▁पेट
▁विश्
मैं
▁गण
किंग
▁भेज
सु
▁तरीके
▁मेरा
▁मार्च
▁लगाने
िति
▁पश्च
▁अनुभव
▁मार्ग
▁आयोजित
▁इतिहास
▁पाया
कारा
▁राजा
▁सामाजिक
▁16
लेज
▁अहम
▁सड़क
▁नुक
▁विस्त
▁नोट
is
▁कमा
जाब
▁तय
▁बिल
पना
ड़ने
लीवुड
र्न
▁जून
▁पहुंचे
▁साह
ष्ट्रीय
ृह
▁शान
▁घोषणा
गम
ॉक
▁प्ले
हरे
-ब
▁रण
▁अथ
▁डॉक्टर
▁सार
▁50
▁अपरा
विड
▁जैसी
डल
टल
▁M
▁बेहद
विष्य
▁राजनीतिक
▁आरोपी
▁चिकित
▁बल
▁डिज
ीण
▁बनी
▁संभावना
ानीय
▁समर्थन
▁शब्द
क़
दर्श
▁सिर
ियल
▁तत्
र्जी
▁काल
वें
▁तला
▁विकल्प
▁नुकसान
▁आते
▁पाठ
▁सुधार
इड
▁सित
▁पैदा
▁आता
▁कदम
▁क्षेत्रों
▁जिम्म
▁भविष्य
सत
▁T
ायद
▁किये
राव
▁मजबूत
▁यून
र्ग
ेंद्रीय
▁त्र
▁विश्वास
▁गया.
▁अच्छे
काब
धानी
कर्ता
▁तम
▁यानी
देव
रिक्त
▁फाय
▁आपका
दारी
▁उपस्थित
▁दी।
▁D
रल
▁चरण
खन
▁जाये
▁शुक्र
▁जानते
▁कठ
्प
गी।\n
वीं
▁वर्तमान
द्व
▁संयुक्त
हित्य
▁राज्यों
्वर
▁स्थानीय
▁पूजा
▁निर्णय
▁प्रभ
ोलन
▁जेल
दू
▁बाव
▁रक्षा
▁टै
▁पड़ता
it
▁अतिरिक्त
▁तस्वीर
▁हिंद
▁जीव
▁जैसा
शील
▁जुड़े
▁लेते
▁श्रे
▁मामलों
▁थी।\n
▁पुन
ँच
ूर्ति
बाजी
▁किया,
▁वेब
सिक
▁कहानी
▁पत्रकार
प्त
▁पहला
सों
▁मिनट
ीत
▁स्थापित
▁कीमत
सित
ंटी
क्सर
एँ
स्ताव
▁महान
▁हमने
विद्यालय
▁इलाज
▁अभियान
्यता
en
▁राष्ट्रपति
▁लें
▁अगले
▁भावना
ेत
▁जिसका
▁ग्रामीण
स्टर
▁हटा
ंडल
लेख
▁N
▁मश
▁चले
▁संचाल
सूस
▁फॉ
ूपी
▁24
▁दोस्त
▁दिशा
दय
ंबे
▁मुश्
ाहरण
▁समूह
▁सोमवार
केट
▁ऑन
▁दक्षिण
▁जाएंगे
▁विवाद
▁एड
विध
▁17
▁संगठन
▁अने
▁सै
▁सुख
▁सात
▁कराया
▁थे।\n
▁खत्म
▁तेजी
टने
▁B
▁मंत्रालय
▁न्याया
▁प्रस्ताव
▁सचिव
▁अनुसार,
स्ती
▁गया।\n
▁बोर्ड
▁साब
▁सलाह
▁बल्ले
▁बावजूद
पे
उस
हे
ष्ट्र
▁नेताओं
▁आश
▁परिवर्
▁केंद्रीय
साद
-स
▁पौ
▁विकेट
▁मर
िश्चित
राने
▁अंतिम
▁खाने
▁बेटी
▁मुश्किल
▁संस्क
▁मुकाब
द्रा
▁आवा
च्छा
▁बारिश
▁प्रवेश
फ्
दर
स्व
▁नियंत्र
▁शायद
▁भर्
▁कवि
▁गया,
▁एल
▁अनुमति
▁मई
▁देती
▁गलत
▁साहित्य
तृत्व
▁महसूस
कृति
ंता
▁वृद्धि
▁अगस्त
वरूप
असल
▁संर
ील
▁पंजाब
श्मीर
▁मोह
▁मात्रा
▁चाल
जु
▁न्याय
▁कार्ड
भू
▁से,
▁संभव
▁सामना
गु
गा।\n
▁पट
▁सफलता
फ्ट
▁धी
▁कट
क्ता
फर
ोप
▁हालांकि,
▁कराने
▁खुश
▁जनवरी
▁बुध
▁वायरस
ic
श्न
▁दुकान
▁मानव
तरी
▁फोट
▁बनने
स्ट्रे
बि
दु
▁उनसे
फल
▁आयोजन
▁उद्देश
प्ताह
▁परेशान
▁आदमी
ॉन
▁प्रण
▁समिति
▁स्वीकार
▁गुज
▁नव
▁सें
▁चाहता
▁समी
▁दवा
रीब
▁मौसम
▁टाइ
▁वर्षों
ॉर्ड
▁तुलना
ुओं
▁सुना
न्स
ंतर
▁अप्रैल
▁आती
▁फल
चीत
▁स्वतंत्र
▁आंद
▁तकनी
▁छात्र
▁विद्य
▁अथवा
जब
▁अभिने
▁क्षमता
▁पॉ
ब्ल
▁ति
▁सहायता
▁दिस
▁मिलता
▁निवासी
▁पीड़
▁शै
▁नेतृत्व
▁बंग
▁सारे
▁कृषि
th
▁वार
शनल
ड़ियों
बाइल
▁उसमें
▁जमीन
▁कंपन
▁रिश्
▁पालन
ूक
▁रखते
▁उदाहरण
▁आयोग
▁बातचीत
गो
पि
पक
▁राजनीति
▁निर्धार
▁बिजली
▁भोजन
▁संस्था
▁बदलाव
▁डॉ.
मित
▁आतंक
▁लड़की
▁भर्ती
ंदगी
▁खर्च
▁पैसे
▁विदेशी
▁नरेंद्र
▁राजस्थान
▁अक्सर
▁एयर
वत
▁दूसरा
▁दावा
▁साध
▁निर
▁हमला
▁शुक्रवार
▁छात्रों
बाज
▁आध
▁ग्रह
्रोल
▁दबा
▁जुलाई
▁एंड
ौल
▁R
▁सीएम
▁टिक
ालत
र्जा
▁संत
▁सम्ब
▁उद्योग
-अलग
▁उम्मीदवार
ूरत
ूड
नु
▁अमेरिक
सब
'\n
▁सुरक्षित
▁प्रव
▁निजी
उट
मक
ें,
▁अनेक
▁कैं
िटल
ग्रह
भाल
▁उत्प
▁मंगलवार
▁देवी
िक्स
▁खराब
▁अलग-अलग
▁गे
▁संक्रमण
▁पुत्र
▁समेत
ॉट
▁पीएम
▁कोविड
िक्
कर्ताओं
म्ब
▁भीतर
▁हिन्द
▁रचना
▁प्रार
▁लक्ष्य
▁मनुष्य
▁शन
▁दर्द
▁हुआ।
श्वर
▁मगर
▁आवेदन
▁देकर
▁अपराध
▁लंबे
थम
▁लड़ा
▁21
▁100
▁बर्
खे
▁तुर
▁आसान
▁उत्पादन
-साथ
▁कार्यालय
▁किया।\n
▁मतलब
▁निश
ौती
▁रविवार
▁मोबाइल
ंतु
▁रूस
▁छह
▁किलो
पास
▁शासन
ूबर
▁वस्तु
▁लेना
▁सजा
ियार
▁लिया।
हान
▁वोट
▁साबित
उंड
▁नौकरी
▁धारा
▁बुधवार
▁बॉलीवुड
▁निभा
▁लं
▁प्रतिनि
ॉय
▁इतनी
स्ते
जल
कर्ष
▁मूल्य
▁वहाँ
जाम
खनऊ
▁साइ
▁बातें
▁साथ-साथ
▁रखना
श्चित
▁इनमें
स्तुत
ठा
▁युवक
▁यूपी
▁सुनिश्चित
▁वैसे
गी.
▁शनिवार
▁प्रती
▁दश
▁बेटे
▁विश्वविद्यालय
▁आयु
▁विकसित
▁फीसदी
▁2020
चिका
▁घा
▁समाप्त
▁उद्देश्य
▁आंख
▁सुप
गतान
▁उत्पाद
▁नदी
▁ऑनलाइन
▁केस
▁ट्रेन
▁गुप
स्ल
्ति
▁उपाय
▁मुला
▁सामग्री
एच
जित
▁इनके
चारी
▁सप्ताह
▁डाय
▁वरि
▁जाकर
चारियों
▁सत्ता
दीप
▁नीति
▁तभी
▁कपूर
▁रस
▁दिवस
▁गौर
▁आंदोलन
▁बढ़ाने
वाही
▁2019
चि
ज़र
डर
▁सूची
▁संके
न्दी
न्या
▁ठा
घा
▁भुगतान
मार्ट
▁देखकर
▁शुभ
ित्य
धिकारी
गा,
▁प्ल
▁संस्थान
▁मेड
सन
▁रिली
▁खोज
वै
ियोजना
क्षक
▁रेलवे
▁री
▁दृष्टि
▁वरिष्ठ
भारत
▁भूमि
▁रै
▁अदालत
▁अध्ययन
लेट
▁हथ
▁/
▁असर
-द
और
सिद्ध
▁छोटी
▁खोल
▁मं
▁करनी
▁दोष
ायी
▁सूर्
▁निश्चित
▁सांसद
▁संस
ड्ड
▁गाय
ानों
,000
ब्र
ं।
▁विजय
उन्होंने
▁हमारा
▁2021
्मिक
▁परियोजना
▁इन्
▁आठ
शिया
साइट
▁खिलाड़ी
▁तैयारी
तौर
▁उनमें
▁बहु
▁इंग
कम
▁व्यवहार
ामा
म्स
▁कॉलेज
▁करेंगे।
▁शानदार
▁पल
▁कर्मचारियों
▁अंक
ंव
▁जोर
▁चाहे
▁डर
ुनिक
▁विस्तार
▁आंक
स्ट्र
▁शव
▁राजधानी
▁जिसकी
▁तारी
▁याचिका
▁गौ
ंडा
▁मुद्रा
▁पंचायत
▁अमेरिकी
जरी
▁चित्र
यु
▁अंग्रे
▁जाएगी।
▁गृह
▁बिल्
▁शराब
▁हिंदी
जो
▁संब
स्ट्रेलिया
▁दिसंबर
▁ग्राह
क्या
▁सत
▁मल
ार्क
▁पर्य
▁खाना
ों,
▁ट्वी
▁डेट
▁प्रतिक
थि
ed
▁ओवर
ज़ा
▁परन्तु
▁निर्धारित
▁22
▁सभा
▁जाति
▁प्रिय
▁पूछा
▁कही
वाले
▁फरवरी
▁दरअसल
राह
ानि
▁कथ
स्टम
▁इंत
▁पदार्थ
▁जरिए
▁उल्लेख
▁जल्दी
▁नार
▁दिला
▁प्रशिक्ष
▁अवधि
ra
▁अग्र
▁चर
र्गत
▁अश
नल
▁चिंता
▁परिवर्तन
▁उनको
▁हल्
▁परम
▁जिन्हें
▁तुरंत
▁बताते
▁है?\n
मीटर
▁सत्य
क्टूबर
ैट
▁लोकसभा
▁आपने
▁स्टे
▁पुस्त
▁हल
तो
▁E
▁रोड
▁सुपर
▁त्व
▁इलाके
▁घायल
शे
▁चयन
थमिक
▁होगा।\n
चीन
▁घु
ैया
▁उपकरण
िड
▁विवाह
▁श्रद्ध
▁चाहिए।\n
▁फोटो
▁हो।
▁की,
▁प्रसाद
▁शांति
▁40
-2
ैर
▁ट्वीट
▁लखनऊ
जनों
▁गई.
पूर्व
▁संपर्क
ना,
प्रिय
▁मौका
▁वर्ण
ध्यक्ष
िको
▁वायरल
▁खुला
कारात्मक
▁हरिया
▁विज्ञान
राष्ट्रीय
▁सार्व
▁मैदान
त्ती
le
▁आखिर
▁माँ
▁फ्ल
▁बेच
▁रहे।
▁हुई।
ेश्वर
▁अत्य
▁आइ
▁सीरीज
दूर
▁वाय
▁जम
▁थोड़ा
▁चाहती
▁पृथ
वस्था
▁आसपास
▁किन्तु
चार्य
▁हेतु
▁निगम
प्तान
गा.
्रीन
▁पश्चिम
वंबर
रान
▁इच्छा
▁प्राथमिक
▁यूरो
्राम
▁दस
▁सारी
▁प्रमाण
▁सूर्य
▁सेवन
▁अक्टूबर
▁फिल्मों
▁जता
▁प्रचार
टो
ल्क
पोर्ट
▁उचित
▁विमान
▁अक्ष
▁टिप
िरी
▁दर्शन
▁बीमारी
▁गुजरात
▁पाने
▁क्व
्सा
▁आनंद
म्बर
▁हॉ
▁चंद्र
▁चेहरे
स्म
▁राहत
▁बनाई
▁गठ
र्श
▁टीवी
▁बुला
▁दूध
ोधित
▁पार्ट
▁जिन्होंने
ंघ
▁चढ़
▁अलावा,
▁पहुंचा
▁नो
▁विपक्ष
▁कार्यों
▁मिलती
▁पूर्
▁मरी
▁विशेषज्ञ
▁सिंह,
▁मृत्यु
▁ऊर्जा
▁H
▁बंगाल
्रिय
▁संघर्ष
▁स्टेशन
▁प्रस्तुत
▁प्रणाली
▁नागरिक
▁पर,
▁ज़र
▁जहाँ
▁हवा
▁बिक
▁त्वचा
ग्राम
▁प्रश्न
▁23
▁पैसा
न्ना
▁नवंबर
स्लिम
▁दर्श
▁वेबसाइट
▁किन
▁महाराष्ट्र
▁दिया.
▁लगाए
ियोग
▁बाद,
▁आसानी
▁फा
▁योगी
▁निष्
▁सितंबर
▁परिष
▁जोड़
▁पर्याप्त
as
डिंग
▁सुप्रीम
▁रिकॉर्ड
▁करें।\n
ियत
▁धीरे
केश
▁सदस्यों
▁2022
▁किया.
▁ब्रह
▁प्रकाशित
▁विरा
खर
▁उत्पन्न
▁प्रथम
्यास
▁बीमार
▁भूल
टिंग
लेक्ट
▁जिनमें
वाला
-म
ल,
▁भेजा
ष्टि
▁गुरुवार
सव
द्योगिक
ंकर
▁स्टार
▁मिट
▁चली
काम
निक
,\n
▁कितना
▁आईपी
▁बजट
▁कंपनियों
▁मू
▁न्यायालय
▁रिश्ते
▁पहन
▁शीर्ष
▁हमले
▁धार्मिक
ार्ज
▁रिलीज
om
दिन
ोटा
▁इंग्ल
▁अली
ांश
▁(1
▁दिया।\n
▁कब्
▁सक्रिय
क्षम
▁वाहन
जनिक
▁दृ
क्रे
वीर
चानक
यम
▁मनो
▁तत्काल
▁पहुंची
गी,
्याण
जीत
फ्र
▁जैन
▁कब
शाली
▁नै
▁खड़े
▁ताप
▁हित
▁लै
▁क़
▁वैज्ञान
▁मिलकर
▁स्थापना
▁उत्तरा
नेस
▁हिन्दी
कोर्ट
▁तत्व
▁हिस्से
पो
50
▁गर्म
▁प्रसिद्ध
▁सल
-19
▁कारो
▁फूल
▁फिलहाल
▁धर
स्ट्री
▁पीड़ित
▁प्ला
▁छुट
▁G
▁इंस्ट
नियर
ंथ
िलों
▁सुंदर
वधान
▁कश्मीर
▁वहीं,
▁सिस्टम
▁26
▁समुदाय
ट्र
ेदारी
▁कि,
▁चैन
▁सिल
▁मिस
▁हूं।
▁तलाश
▁तथ
▁मेडिकल
ापन
▁संकेत
▁अचानक
▁जागर
ौन
▁बाकी
▁पकड़
▁बनाकर
▁चुना
▁मानसिक
▁लड़क
▁हरियाणा
ाब
▁करो
ूनी
▁रहना
सेना
ol
▁कमरे
▁है।\\n
ंश
▁प्री
▁जाएगा।\n
▁चिकित्सा
▁होगा,
▁सार्वजनिक
कर्म
▁तनाव
▁लाइन
▁बाइ
▁लाने
▁डिग्री
▁मुस्लिम
जेंसी
▁पुरस्कार
त्रियों
▁वास्तविक
-प्र
▁हाद
▁चीनी
▁इतने
▁समार
कू
▁भो
▁आधारित
▁कप्तान
हली
▁उपा
म्भ
▁नियंत्रण
▁कमज
श्री
थे
▁रखी
▁हाथों
▁व्यवसाय
▁उपचार
▁जिंदगी
▁सक्षम
▁बैठे
▁घोषित
▁तोड़
▁2018
▁रोकने
▁खाते
▁पुराने
▁लॉक
di
्ता
डाउन
▁गैर
▁मुताबिक,
▁कर्मचारी
रित
कात
▁स्म
▁199
उंट
ion
ैंस
▁ऑस्ट्रेलिया
आज
▁नहीं।
▁पर्व
▁फैसले
▁अरब
ट्स
▁थीं।
▁बू
लाम
▁भ्र
ws
▁चाहिए,
▁अके
▁संस्कृति
▁इन्हें
▁महामारी
तीश
्मी
▁समारोह
▁वित्त
्रिया
▁विल
िटर
▁परिस
▁उल
▁हथियार
▁अका
▁गरीब
इसके
विधान
▁हृ
▁प्रबंधन
स्य
▁कृष्ण
ष्टा
▁एफ
ur
सीसी
▁सम्बन्ध
ल्ल
ोषण
▁आधुनिक
▁प्रत
▁सीख
▁नेट
▁ट्व
ोत्
▁लड़ाई
▁मध
ेदार
▁28
▁संकट
▁३
▁सीधे
▁प्रभा
कीय
▁अनुर
▁सुनवाई
बो
▁लोकप्रिय
धारण
▁संजय
▁समाधान
▁छि
▁पारी
▁समस्याओं
▁रेड
▁बिग
▁तू
▁होंगे।
्तीय
▁अपील
▁निदेश
▁परीक्षण
ोधन
▁हैं?
▁आत्मा
ाये
जनक
▁पहल
▁F
▁रखें
▁उड़
▁समीक्षा
पान
▁दबाव
म्मू
ेंज
▁डॉलर
▁प्लेट
▁समाचार
कारों
▁भीड़
▁वैक्सी
▁पूछता
▁केन्द्र
▁लौट
ंकी
▁परिस्थित
▁नम
गंज
▁लक्षण
▁अर्था
ान्त
▁मित्र
▁परिषद
▁27
्न
लैंड
ंजन
▁कल्याण
बीआई
म्मद
▁गोल
▁पड़ी
▁किर
▁खुल
▁आये
▁गोली
निर्
नगर
श्वास
▁योग्य
▁सत्र
▁क्रम
चु
▁आराम
▁खुशी
क्कर
▁थाने
▁तह
▁जुड़ी
न्दर
▁टिकट
्मण
▁बौ
पने
▁घरे
▁जिलों
▁मुकाबले
▁तीनों
दियों
िल्म
▁मरीजों
▁"\n
▁मुक्त
▁दोप
▁खड़ा
▁अनुमान
सिंह
▁लॉन्
▁रणनी
▁व्यक्तिगत
▁पाई
कद
▁तमाम
▁जवान
▁चलता
त,
▁मुह
धरी
वाली
ढ़ी
▁शौ
्रेड
▁लेखक
▁रक्त
▁जाए।
कुर
▁हालत
ेक्षा
कृतिक
▁मंच
▁जिसने
▁हिंसा
▁सच्च
ाइड
▁31
्टर
िष्ट
्योति
▁जिम्मेदारी
▁मास
▁समझौ
द्द
▁वजन
▁वर्षीय
▁दूरी
हो
▁मस
टेन
▁गाँ
▁चलने
बाल
▁एक्सप
▁1.
▁लागत
▁बढ़ने
रेट
ला,
▁सब्
▁स्वामी
▁सहायक
▁रूसी
▁प्रस
▁अमित
माने
सो
▁नियमित
▁व्
नाक
▁दम
▁खी
▁प्रतिक्रिया
▁पढ़ाई
▁हृदय
▁प्राइ
पल
▁आकर्ष
▁आजा
व्यवस्था
▁आकार
▁दिया,
ेय
▁मुलाकात
▁घरेलू
कल्प
▁योगदान
▁फाइन
त्कार
▁निप
▁सालों
▁कहने
▁अन्त
-ज
▁हिंदू
▁प्रतिबंध
▁घूम
▁बजाय
▁करें,
ृत्ति
▁सन्
लाल
▁रखे
▁आउट
▁सुनी
▁इंग्लैंड
▁बीते
▁प्रभारी
▁बालों
▁जू
▁कोल
▁परेशानी
▁वित्तीय
st
▁मिश्र
▁.\n
▁भरो
▁कड़ी
पाद
▁ऊंच
▁विद्यालय
▁आवाज
▁भले
यो
▁प्रकृति
▁नारा
ं,
▁वायु
▁K
▁डिप
▁किलोमीटर
▁साझा
▁प्रशिक्षण
▁चाहिये
▁बातों
▁तैना
▁चोट
▁होनी
▁करियर
▁गतिविध
▁लु
▁शिकार
▁मुझ
▁शोध
▁निर्म
्याज
▁मॉडल
दास
▁की।\n
त्तीस
▁मुद्दे
▁इंस
▁2017
▁चुनौती
▁पैर
▁तीसरे
म्न
▁संगीत
▁होगा.
▁टा
▁सलमान
▁झू
▁कितनी
दो
▁पूछताछ
▁ऑफिस
▁वीर
थर
▁कपड़े
▁अवै
▁भवन
30
▁कितने
▁व्यापक
ली,
न्व
▁पहा
जूदा
शिप
ॉर्म
▁सख
वां
▁जम्मू
▁रास्ते
▁मानना
ंजी
▁चौधरी
▁बनाना
▁खूबस
▁तापमान
▁प्राचीन
▁सां
▁स्मार्ट
रद
अब
▁मीटर
▁आकर
साइ
▁अंतर्गत
गन
दिक
जान
)।
▁फायदा
कृ
▁मस्
▁टीका
चक
▁अध्या
िनी
▁किश
▁जिनके
▁अंतरराष्ट्रीय
ाले
▁हुए,
द्दी
▁कथा
▁उतर
बद्ध
am
▁शब्दों
▁कहां
▁मात्र
रीन
या।
▁ऐप
▁मतदान
▁स्वरूप
▁छोटा
▁क्ला
ेंडर
▁हाईकोर्ट
▁संश
▁इलेक्ट
बादी
▁संसद
▁रोजगार
फार
▁पटना
▁रहें
▁इंद
▁बिल्कुल
▁–
▁नवी
▁गाड़ी
▁काट
▁नियमों
▁दोपहर
ांक
द्या
▁आँ
▁शूट
▁रहा।
▁युवाओं
गति
▁पृथ्वी
▁संवाद
▁दान
▁संपत्ति
▁एक्ट्रेस
▁कल्प
पण
▁अखिल
▁अना
घर
▁होटल
▁ड्राइ
▁बंध
ंदन
▁विवे
▁उन्
▁बहा
ंडे
वासियों
▁गंगा
जीव
▁।।
▁अवैध
पद
ज्ज
यदि
▁स्वस्थ
▁संग्र
▁डिजिटल
▁मजदूर
▁विभा
▁की.
िनियम
▁मौजूदा
▁बढ़ती
िस्ट
▁कमजोर
वेद
▁किताब
▁अधिकांश
दारों
▁चाहिए.
▁खिलाड़ियों
▁था.\n
▁कोहली
बीर
▁हिस
▁प्राकृतिक
▁संक्रमित
▁डिजाइन
▁मिलते
▁देखना
▁स्वतंत्रता
त्तीसगढ़
वत्ता
▁लिमि
-20
▁अन्
▁निर्भर
▁निरा
▁स्वागत
▁प्रतिनिध
कुछ
▁थोड़ी
▁छूट
;\n
▁सीटों
राय
▁लिमिटेड
▁ज्योति
▁परिजनों
▁ठाकुर
▁सेंटर
▁माइ
▁मानते
▁इनकी
▁चीज
▁ट्रै
',
▁संदेश
▁चारों
▁सोने
▁मेहन
▁घरों
▁लगती
▁बुरा
▁नामक
▁इंतजार
ध्या
बु
ज़ार
▁शिक्षक
▁गैस
▁स्थानों
▁रिज
▁आखिरी
▁निर्मा
स्कृत
▁विद्यार्थ
▁विशाल
खों
▁दस्ता
▁बचाने
▁त्या
छा
▁रवि
▁महिलाएं
िवर्स
म,
ानु
▁पुष्टि
▁एंटी
▁स्थल
यात
▁सारा
ज़ी
्वा
▁एशिया
▁लगने
सलमान
▁प्रतिष्ठ
▁चोरी
▁डेटा
▁कठिन
▁उत्सा
▁गी
▁L
▁टिप्प
▁दिये
▁मैने
▁सके।
दर्भ
मह
ंडर
▁मशीन
▁सन
▁गई।\n
▁गुर
प्रदेश
▁लॉकडाउन
▁60
▁छोड़कर
कुमार
▁पव
▁ग्रहण
▁ब्रे
▁स्त्री
ोने
विंद
▁झार
ाइट
▁हिमा
▁फायदे
▁संविधान
▁आरोपियों
▁घट
▁वर
▁आवास
▁खतरा
▁29
वर्क
▁विन
▁शास
शाला
ारीरिक
▁कैम
▁खाली
भूम
▁कॉन्
न्त्र
▁गुणवत्ता
▁क्रिया
▁प्रतियोग
▁सैन्य
श्चा
▁आल
तरे
▁आदित्य
▁पटेल
▁W
नतम
▁मरीज
▁बाबा
▁निम्न
▁साथ,
▁नाग
▁लॉन्च
ेलन
००
त्न
▁कक्षा
गण
▁कंट
▁आगा
▁ट्विटर
तिहासिक
दाता
वती
देन
र्डर
▁चक्र
▁जहा
▁धम
▁फैल
ठे
▁समझा
▁पुरानी
अल
▁संबंधी
िफ
जिए
▁तरीका
जिट
de
▁जला
टका
▁प्रत्या
▁द्र
▁उसको
▁निरी
▁अधिनियम
▁प्लान
ch
▁प्रसार
▁रिट
▁फैंस
▁क्लिक
▁अय
िमी
▁तथ्य
▁मालिक
▁कार्यकर्ताओं
▁बहन
▁ज्यादातर
▁कारोबार
▁o
▁पेट्रोल
▁वैक्सीन
क्का
▁बराम
▁टूट
ेंगे।\n
▁श्रेणी
▁अशोक
▁शारीरिक
▁संगठ
मल
िक्र
ैनिक
ूसरे
▁मेह
▁नती
▁१९
▁पहुंचने
ं.
▁मकान
▁विराट
▁एजेंसी
▁चीजों
्लो
ेंशन
लेकिन
ing
▁आशा
▁संबोधित
▁संय
\nअ
▁दरवा
▁बढ़ावा
▁इलेक्ट्र
पुर,
ताव
र्ज
▁अंदा
▁ग्रे
ाप्ति
▁अपेक्षा
ay
▁टू
धिकारिक
▁विश्ले
ोजे
19
एसपी
▁सफाई
तलब
कोर
▁जितना
धीरे
▁जर्म
▁सरल
▁परिसर
एं।
▁फैला
श्विक
▁ईश्वर
▁बाइक
ङ्
▁विज्ञ
▁हूं,
ैंक
▁संचालन
▁पढ़ें
▁देखें
▁हां
▁आंखों
ायण
▁विशिष्ट
▁करें.
▁दस्तावे
राग
▁पुस्तक
▁सेट
▁सीजन
▁मान्यता
▁मुंह
▁इका
▁नज़र
मैन
▁भौ
▁आलो
▁अभिन
▁अर्थव्यवस्था
▁कॉल
▁पंड
▁संसा
▁अल्
▁संदर्भ
▁वकी
▁युग
ताप
▁इंटरनेट
▁जिम्मेदार
▁पहुँच
क्षे
▁छत्तीसगढ़
▁गए.
▁अफ्री
भो
▁पदा
▁फें
▁यूक्रे
ंधे
▁पशु
लाब
▁ग्रुप
घटना
▁शहरों
▁समुद्र
▁प्रारंभ
▁एच
▁जमकर
▁U
माग
▁भेद
▁f
▁गई,
भाषा
▁धा
▁विधि
▁बोले
▁योजनाओं
▁मेहनत
▁प्रबंध
थी
▁खेती
खिम
▁असम
▁महत्
▁2016
▁कहती
▁अभिनेता
-पिता
▁ढंग
▁हवाई
नाम
ुण
ो,
▁हाउस
▁कविता
▁खाद्य
▁विरोधी
▁आईपीएल
▁सूत्रों
▁रोहित
▁हरा
▁माहौल
▁गुजर
डु
▁लगाई
▁मनी
▁सर्वे
▁बरामद
सबुक
▁बरा
▁व्र
▁अतः
▁एज
▁आबादी
र्द
▁वैज्ञानिक
फोन
पूर्वक
▁दुख
▁कथित
▁ऐतिहासिक
▁खंड
▁इलाकों
▁शुद्ध
▁किरदार
स्वा
▁आदर्श
▁साथी
▁कोच
वह
▁रहेगा।
▁एका
▁स्कूलों
▁कराई
▁तुम्हें
त्तर
▁लंबी
▁सिने
▁भरा
▁चाय
नान
▁टुक
्यवाद
il
टिल
▁अजय
▁संग्रह
▁आधिकारिक
▁हिन्दू
▁बिक्री
▁झारखंड
▁35
▁दाम
▁जानने
▁मुसलमान
▁?\n
स्टिक
ज,
▁जोखिम
▁साहब
एंगे
▁है।\nइस
▁वर्ल्ड
▁कार्यवाही
ंदे
दल
▁पढ़ने
▁सीमित
▁चिकित्स
▁अनुक
▁उत्तराखंड
▁होम
▁रास्ता
▁उत्पादों
▁सुझा
▁वैश्विक
▁सवार
▁झा
िया,
▁जंग
▁उतार
▁नीतीश
▁सॉ
ंपरा
▁सम्मेलन
▁मुकद
▁हिसाब
ेर
▁मिश्रा
ुरा
▁दीप
▁फिट
▁नेशनल
ंटर
▁प्रभावी
▁छात्रा
▁सकारात्मक
ारों
▁ब्रह्म
▁'अ
ूंगा
▁गहरा
णे
▁दूसरों
▁ब्रि
▁मंडल
नाटक
▁2014
▁दिखाया
पात
▁भक्त
▁श्रृ
स्तानी
▁पंजी
▁कले
भूमि
▁प्रौ
▁गठन
▁वेतन
▁आपूर्ति
▁उठाया
▁माता-पिता
स्वरूप
▁ट्रांस
चय
ष्टाचार
घु
▁पदों
बारी
▁2.
▁दशक
▁दिलच
▁ब्रां
बत
▁पर्
▁इनका
▁सका
▁सड़
▁मार्केट
▁दाख
ितीय
▁हफ्
▁ब्राह
▁खुलासा
▁वॉ
\nस
पुरी
▁तैनात
▁कैंसर
us
▁चैनल
▁हूं.
राज्य
▁मिट्टी
▁स्वच्छ
▁बेहत
▁कल्पना
▁पर्यावरण
ंखला
▁रम
▁स्किन
▁मोहम्मद
▁मैचों
विक
▁लाइफ
▁ज़्यादा
▁गतिविधियों
▁वर्मा
▁दाय
▁लगाकर
बारा
▁अंग्रेजी
पत्र
▁मनाया
ूत
हिर
▁ध्व
▁फ़िल्म
▁लगते
▁अनिवार
▁निर्वा
▁इंजी
▁भरोसा
▁प्रजा
▁लड़कियों
ग्न
नै
▁बचाव
स्करण
मंद
लोड
▁रजि
▁198
▁लुक
ad
▁प्रकट
मती
▁गर्मी
▁चै
िग
▁वार्ड
▁रिस
▁होगी।\n
िकोण
▁स्ट्र
▁यूनिवर्स
▁गीत
बता
▁वापसी
▁लेता
-श
▁वर्णन
▁विपरी
▁नष्ट
el
वों
▁हालात
▁संसार
▁खींच
▁हुआ,
▁बढ़ते
तल
ोग्राम
▁बुद्धि
▁विट
▁व्यक्तियों
▁तारीख
▁तिव
▁डाला
▁फसल
▁दोस्तों
▁परंपरा
▁डो
▁सपा
▁कहता
वेट
लान
▁४
ब्दी
क्षी
▁पश्चिमी
▁प्रगति
▁O
▁गठबंधन
▁आमतौर
▁अनुकूल
गरी
ंग्ला
▁प्रेस
▁राव
लिंग
▁जुड़ा
▁कौशल
▁राजी
▁of
ेंगे.
▁एप
देह
▁न्यूज
▁रखता
▁तकनीकी
▁दलों
▁निदेशक
▁अवश्य
▁प्रोड
▁तुम्हारे
-ए
▁रेट
ल्ला
▁ताकत
▁मंजू
▁है।\n-
▁हफ्ते
टरी
▁दर्शकों
▁कैप
▁हुए।
▁भिन्न
▁मिलाकर
▁जागरूक
रोज
▁कमे
▁तिवारी
ir
▁परंतु
▁th
▁अक
मात्र
स्तर
भि
▁कार्यकर्ता
्डी
▁आना
▁किनारे
▁परा
▁पेड़
▁प्रदर्श
▁अभ्यास
्ली
▁अट
▁...
▁नागरिकों
हीन
▁वाहनों
▁प्रियंका
▁टैक्स
न्यास
िटिश
▁एव
▁छाप
▁बें
त्सा
▁बल्लेबाज
▁करेगा
▁बोली
▁सम्मानित
पथ
▁तकनीक
▁उक्त
▁गुप्ता
मेल
....
वरों
्यूटर
▁ग्राहकों
▁80
भाष
-वि
▁सिनेमा
▁बच्चा
र,
▁सश
ारण
▁अकाउंट
-बार
▁हस्त
▁खड़ी
▁है।\nअ
▁चौहान
▁नोटिस
▁है;
▁सम्प
▁समझने
▁शुक्
▁तट
▁संभाल
▁इंसान
▁फार
▁जाएंगे।
▁गर
त्रि
स,
▁कानूनी
▁गुस्
▁हादसे
ट्यू
▁चीजें
▁संरक्षण
▁उपस्थिति
ष्णु
▁पृष्ठ
ैंप
दरा
▁मारे
पेट
▁“
▁निधन
▁ऋण
बूर
▁खेलने
▁विचारों
▁रेखा
श्चर्य
▁रोल
▁कने
▁हेल्
▁प्रावधान
ीप
▁शुल्क
▁बेहतरीन
▁रोमा
▁कमेटी
▁फंड
▁करेगा।
▁अमर
जरीवाल
ुस्तान
▁कू
▁c
ews
▁माने
लाइ
▁पवित्र
▁शख
▁अनिवार्य
▁अर्थात्
वाने
▁प्राय
▁पोल
▁नियुक्त
▁दिमाग
ज्य
डेट
▁पाते
▁मालूम
▁कोविड-19
▁समस्त
1.
▁अवि
et
▁बदलने
▁w
▁इंजीनियर
▁नाराज
गज
▁तृ
▁प्रोजे
▁खूबसूरत
▁साइट
▁घटनाओं
▁70
ामिन
▁हजारों
▁बाग
▁लिस्ट
रावट
▁लिप
▁सेवाओं
▁पांडे
▁लाखों
्राष्ट्रीय
वट
▁मुद्दों
▁हैः
▁अह
▁इंडस्ट्री
▁यात्रियों
दाबाद
▁नेटवर्क
-धीरे
▁भोपाल
▁(अ
▁श्रा
▁खरीदने
ेंगे,
पूर
▁प्रि
▁दलित
▁स्रो
▁दीवार
▁शूटिंग
▁गिरावट
▁स्थिर
▁मजबूर
▁शांत
▁प्रदू
▁है\n
-फ
▁आशी
रणा
ई,
वो
▁खुले
oo
▁(I
रत
▁सागर
▁भाषण
▁वार्
▁भय
▁स्क्रीन
▁चलाने
▁सिटी
▁सोन
ुक्ति
▁मिशन
▁अवस्था
▁विरु
▁दृष्टिकोण
▁तंत्र
माश
▁तर्क
▁जाएगा.
▁भ्रष्टाचार
▁शेष
▁दौरे
▁बचने
▁व्याव
फॉर्म
अपने
ुष
▁फो
▁आतंकवाद
▁अनिल
▁रणनीति
-आ
▁दास
▁हरि
▁कमाई
▁आश्चर्य
▁खतर
▁हस्ता
▁फाइनल
▁पीठ
▁प्रेरित
▁बनाते
▁केजरीवाल
▁फेसबुक
िके
▁उल्ल
▁पीने
▁बुरी
▁टेली
लामी
ांसी
▁गाने
बान
▁प्रभु
िरा
▁कर्नाटक
ें।\n
म्मत
▁डाउन
-च
स्कृतिक
सुर
▁परिवहन
▁जनरल
2.
▁दुर्घटना
▁टिप्पणी
▁प्रतिभा
▁ब्राह्मण
▁रद्द
ेड़
ंग्लादेश
▁पश्चा
▁फुट
▁देखभाल
▁बढ़े
▁जाएगी
लिख
▁पोर्ट
रोध
▁धीरे-धीरे
मुझे
स्टिस
ेन्द्र
▁५
▁एसपी
▁वितरण
▁हिमाचल
ag
▁सैनिकों
▁दें।
▁2023
ग्ध
रक
सप
▁अब्
▁बांध
▁शिक्षकों
▁महीनों
▁साव
ांतर
▁माय
श्रे
▁V
▁जॉ
▁कमल
▁यूनिवर्सिटी
▁लंबा
▁तस्वीरें
िशन
पत
▁लड़के
▁सूर
व्र
▁विवरण
▁कव
▁प्रय
ानिस्तान
ज्ञा
▁नींद
लंका
▁काउ
▁सड़कों
ी,
▁विरुद्ध
▁नये
क्रो
▁बराबर
▁डायरे
▁अभिनेत्री
▁लेन
सच
राइ
कालीन
▁महाराज
▁साधारण
रूप
कृष्ण
▁प्रवक्ता
▁इस्ती
ेंट्स
यल
▁मछ
▁आगामी
▁पूर्वी
▁किरा
▁बध
▁ब्रिटिश
▁प्रार्थ
मस
कता
हल
▁फ्री
ढ़े
un
ायकों
▁अग्रवाल
▁अखबार
ent
▁काले
▁J
ैक्ट
▁तमिल
▁प्रोजेक्ट
▁निकाला
▁अफ्रीका
▁समर्
▁p
▁सुल
▁इंडियन
▁जानी
▁मूर्
▁अकेले
धारा
▁रानी
्यूटी
▁स्वभाव
▁धन्यवाद
▁(2
▁प्रौद्योगिक
▁चम
▁दुः
▁लें।
▁आलोचना
▁त्याग
▁पहुँ
भाग्य
▁निशाना
▁भ्रम
lo
▁मंजूरी
▁श्रृंखला
▁बिता
▁आर्ट
▁एक्सप्रेस
▁सिव
▁जीतने
नी,
▁लोगो
हारी
▁टो
▁व्रत
▁कुमार,
▁सेहत
▁सुझाव
▁शह
▁हटाने
▁धमकी
▁बोला
▁दीपक
शाह
▁शास्त्र
▁संस्कृत
and
▁टॉ
▁पुरुषों
स्फ
▁शैली
▁प्रोत्सा
▁खेले
▁उल्लंघ
▁निकट
पीय
▁अफग
▁प्राण
-व
▁अधिकतम
▁दरअसल,
▁बिंद
-कभी
गाह
▁सफेद
▁स्कोर
▁स्पे
▁बताने
स्कर
▁खि
▁लाया
▁लहर
क्षर
▁इसको
▁संस्कार
▁प्रसन्न
▁विटामिन
टीन
क्षेप
▁पत्रिका
10
▁वाता
▁बदले
म्मच
िना
▁वनडे
▁नज
▁हरी
▁खून
▁एक-द
▁रहीं
याल
▁2015
राण
▁झु
▁मास्क
काता
▁रॉय
क्य
re
▁in
▁197
▁शता
▁विद्या
▁पत
व्यू
▁लूट
पीट
डि
▁अस्त
▁ग्रामीणों
▁माया
दायक
मार्
▁विश्लेषण
▁पार्क
▁पत्थर
▁45
▁६
▁चम्मच
▁सोचा
यत
▁पात्र
षेक
▁अखिलेश
गरानी
▁फॉर्म
▁उपभो
▁चुनावों
▁विविध
इयों
▁अल्प
▁इंस्टा
iv
▁रुक
▁जगत
साई
▁वकील
▁रही।
▁जानता
द,
▁उठाने
▁गए।\n
▁पहले,
▁कामया
▁बीज
▁शख्स
धीश
▁रज
हूर
▁अर्ज
▁देखी
रू
▁ऐलान
▁यूक्रेन
▁बेटा
▁अस्थ
▁दैनिक
ST
▁शही
▁संरचना
▁गेम
▁निगरानी
कअप
▁इरा
▁मुकाबला
▁खार
▁पाप
▁ब्लॉक
ित्त
▁यूरोप
▁वातावरण
▁आकाश
▁आर्
ro
▁स्टी
▁संकल्प
▁इमर
▁भागी
▁हद
तावनी
▁रिया
▁सेक्टर
▁चुप
▁उल्लंघन
▁इश
फिक
▁बजा
▁संचालित
परेशन
-3
▁खेला
▁न्यूनतम
टों
▁कारणों
वर्ती
न्थ
▁लीग
▁37
▁विस्तृत
▁दोबारा
▁मिलियन
▁उन्न
▁s
▁गाँव
▁बांग्लादेश
कृष्ट
ंख्य
▁ममता
▁सदा
बन
.’’
▁बार-बार
▁रैली
▁आर्य
वानी
▁प्रतियोगिता
▁संगठनों
▁स्टेट
▁ज़ि
▁परिवारों
▁मधु
क्सीजन
▁आहार
्रेट
▁गह
▁दौड़
▁दी.
▁श्रीलंका
▁आशंका
▁सीबीआई
िमा
▁थीं.
▁उतना
▁मुख्यालय
▁वेस्ट
▁फाइ
▁मनोर
▁:\n
▁हनु
ृष्टि
▁औसत
रा,
▁चेतावनी
▁सांस्कृतिक
स्को
सेस
-न
ha
रासत
▁काली
▁गोर
फिया
▁बच्ची
हु
▁ठे
श्रेष्ठ
▁बौद्ध
▁आतंकी
▁इधर
काने
▁पार्
▁बाढ़
▁फायर
वारी
▁अंजाम
▁नियुक्ति
▁दर्शा
▁सिक
▁पथ
▁स्टूड
ढ़ा
▁गलती
जिटिव
▁बढ
▁सपना
जात
▁जगहों
वेयर
▁बल्लेबाजी
हत्या
▁गए,
▁समृ
▁हिस्सों
▁संस्करण
▁परिस्थितियों
▁पुनः
ार्ट
▁अनुस
▁मशहूर
्तर
्वे
▁इनकार
▁परमेश्वर
▁चुनावी
▁प्रार्थना
त्ते
▁पुनर्
▁अफसर
▁उम्मीदवारों
ख़
▁कार्
एक्स
▁अमी
▁प्रेरणा
▁अर्जुन
▁बीमा
▁अक्षय
▁सभ
▁लगाते
▁फरार
▁'स
▁विधायकों
▁आजादी
▁नवा
▁90
▁हिरासत
ct
▁पर्यटन
▁होगी.
घाटन
▁उदय
▁सुनकर
▁प्रतिनिधि
▁एक्
▁मोटर
▁किमी
ोध्या
जर्स
▁जिनका
▁राज्यपाल
▁सौं
▁सख्त
▁सुश
▁इसीलिए
▁उपयुक्त
▁प्राप्ति
▁जंगल
▁इम
ोड
लिखित
▁जाहिर
इंट
▁नेपाल
िएशन
▁शाखा
ूनों
▁मनोज
▁इंस्टाग्राम
▁चमक
▁निकलने
लिये
▁दी।\n
▁अभिय
ें.
नेशनल
▁अधी
▁तीसरी
्यक्रम
eb
▁चंद
▁इसलिए,
▁महत्त्व
िव्य
▁बैंकों
▁निरीक्षण
अगर
मेट
▁केरल
▁प्रदूषण
▁चालक
कां
▁500
-सा
▁पंडित
▁भरी
▁को,
▁ग्राहक
▁जिनकी
वक
▁तिथि
▁सौंप
पट
गांव
▁पूंजी
▁कभी-कभी
▁मृतक
ीकरण
ंटों
जिद
▁जताई
▁प्रत्याशी
▁किशोर
▁बेल
ंबित
▁बधाई
सास
▁यश
▁प्रताप
18
▁श्रम
▁पेशे
▁लड़ने
▁थी.\n
▁जाएगी।\n
ू,
▁मचा
▁सूत्र
▁सेंट
▁सर्वा
▁बढ़कर
▁मिथ
▁भरपूर
▁ब्याज
▁सैक
▁ब्रा
▁इजा
▁गले
ष्क
▁अत
▁विद्व
▁बुद्ध
▁भरे
▁अध्यक्षता
▁आदित्यनाथ
▁निर्माता
स्त्री
▁सुनील
▁लक्ष्मी
im
har
दाताओं
▁संबंधों
▁दिक्
▁लिखी
▁चीज़
सीय
▁the
▁शुरुआती
▁सेल
▁पुष्
▁अज
▁विषयों
▁लेती
▁ग़
▁साधन
▁कवर
▁राजीव
▁गिल
लोक
▁In
▁हुये
3.
▁इंजन
वर्ष
▁बढ़ो
वीय
▁खाता
▁मंज
▁!\n
वली
▁दुष्
घ्र
▁बढ़ता
▁उत्साह
बीसी
▁बदमाश
▁रॉ
कीन
यां
▁स्वाद
तें
▁अनुरोध
▁पैमाने
▁काव्य
▁खारिज
▁भि
▁मोहन
गीय
▁भक्ति
▁(C
▁आइए
▁तल
▁दृश्य
▁उद्ध
▁पेंशन
▁कोलकाता
▁दौरा
▁तिर
नाश
शास्त्र
ब्ल्यू
दराबाद
▁दुश्म
▁विपरीत
▁प्रतीक
▁टेक्
▁बाहरी
▁[
▁चतु
▁गिरफ्तारी
▁लोन
▁32
▁नौकर
▁बॉक्स
मानत
▁राजेश
▁स्टा
▁होगी,
▁बनाता
▁दायर
कै
पक्ष
▁एक्टर
प्शन
डो
री,
्याम
▁पड़ती
▁अपडेट
▁फेंक
▁परमाण
▁विशेषता
दायिक
ंधान
▁निकालने
▁कहाँ
▁कृत
▁क्लब
▁ही,
नेश
▁बुनिया
▁व्यापारी
▁दोषी
▁ऑटो
▁कंट्रोल
▁खतरनाक
▁चरित्र
-सम
▁इत्या
-भ
भूत
एसएस
▁भट्ट
▁संशोधन
िकाओं
▁टॉप
▁बताई
हालांकि
▁चेन्न
▁आकर्षित
▁(S
▁किंग
▁लिखित
▁धोनी
खार
▁हो.
ोलॉ
▁अंतर्राष्ट्रीय
▁बुल
▁जस्टिस
▁लिखे
▁व्याख्या
▁सर्वश्रेष्ठ
▁1,
▁जबरद
▁सेक्स
▁हट
वास्तव
फो
▁कां
▁उधर
णु
सचिव
▁दाखिल
▁हनुमान
▁पावर
-सी
▁नियंत्रित
▁त्रि
▁युवती
▁फु
द्दीन
▁स्पी
▁हाइ
▁कहान
धारी
▁कहे
वहीं
▁36
▁नारायण
▁चौक
▁जोड़ी
डिया
▁बचपन
▁सुनने
सील
▁जयपुर
▁ग्रा
म्बे
▁द्वार
▁पॉजिटिव
जिस
▁मजा
बंदी
▁असली
तीत
▁संतुल
▁जाल
▁अनुप
▁समाजवादी
▁ठहरा
▁2013
▁गुना
▁लिहा
▁गू
▁छवि
तियां
▁दिलचस्प
▁आह
▁मिलेगा।
▁चैंप
▁विष्णु
▁काला
▁सिया
▁जुड़
▁News
वंत
...\n
▁रनों
▁प्राइवेट
▁बीमारियों
▁धारण
▁कर्ज
▁यौन
शेष
लीय
▁मुक्ति
▁शताब्दी
▁देखे
ियस
▁3.
▁रिश
▁गौरव
है
▁एक-दूसरे
▁मध्यप्रदेश
चरण
▁छू
▁क्षेत्रीय
▁हाँ
टीवी
▁छोड़ने
▁बैठा
▁भोग
▁वस्तुओं
▁चार्ज
▁ब्लैक
▁सफर
▁कच्च
▁कंप्यूटर
कड़ी
▁सहज
▁अनुसंधान
▁अयोध्या
▁सर्वो
▁यात्री
▁ऑपरेशन
▁गेट
▁मुकदमा
▁भंड
▁तप
▁चोर
▁सकता।
रेन्द्र
ूली
▁उद्घाटन
▁संपाद
व्या
▁नाटक
▁कस
▁आजकल
्मा
▁चेहरा
▁प्रतिमा
▁अश्व
▁ताल
▁ज्व
▁दिल्ली।
▁व्हा
▁लिए।
मय
▁धूम
▁गांवों
▁कब्जा
▁टूर्
▁डा.
▁अंश
मूल
णि
▁एकमात्र
▁हड़
▁सहमति
▁भी,
▁न्यायाधीश
▁जटिल
▁मैन
कर,
▁ली।
▁₹
▁मौल
▁इत्यादि
▁लव
▁करेंगे।\n
▁वेद
▁अपमान
▁यो
या,
एसटी
ट्रो
ॉग
नामेंट
▁तार
▁194
▁हैं?\n
▁चेक
▁सदन
▁ब्रिटेन
▁स्पेश
▁लोकतंत्र
;\n-
न्हा
▁संतोष
▁ईरान
▁अत्यधिक
बिनेट
ॉर्ट
▁घोट
स्टे
-4
▁बट
▁75
▁वार्ता
▁अजी
▁पाता
▁खबरों
ब्लिक
▁मारने
▁एसोस
▁धोखा
▁खिल
ूंकि
▁ताजा
▁मिला।
▁सकी
▁विद्यार्थियों
▁पत्रकारों
▁पदार्थों
▁कुर्
▁क्षण
▁फिल्में
फारिश
फान
▁चन्द्र
▁न्यूज़
▁हैदराबाद
▁खतरे
▁सुविधाओं
▁कम्प
▁परमाणु
▁जाएगा,
▁पायल
▁दिग्
▁जापान
▁रिल
▁डांस
▁बारी
▁म्यू
▁संचार
▁आयुक्त
▁जाम
▁ऑक्सीजन
▁इंटरव्यू
▁उत्तरी
▁लगे।
▁सिद्धांत
▁गौतम
▁मुफ्त
▁अभाव
▁सिफारिश
▁आत्महत्या
रेज
▁अभिनय
ब्यू
▁केंद्रित
▁बनकर
▁पड़ा।
▁छु
▁कलाकार
▁निकले
वाणी
▁विज्ञापन
▁अस्तित्व
▁शर्मा,
▁मुद्दा
▁मारपीट
मुख्यमंत्री
▁उड़ान
▁टूर्नामेंट
▁सोना
▁उत्कृष्ट
?’’
▁गणेश
▁जितनी
बॉ
▁अधीक्षक
\n\n
▁उपयोगी
▁निरंतर
4.
▁अनुश
▁साम्रा
भारतीय
▁बहस
ाँ
▁हंस
▁अहमद
▁निश्च
hi
▁जाओ
ैस
▁प्रौद्योगिकी
▁गौरतलब
▁भाग्य
▁अमृत
▁अधीन
▁जड़
द्यपि
▁निच
▁बाधा
▁उपाध्यक्ष
▁ट्रेडिंग
▁स्टेड
ंकन
ंची
▁बम
▁अफगानिस्तान
नन
▁है-
▁जीता
खाने
▁संभावित
ेदी
ड्स
▁(A
▁नवीन
▁m
▁सिंध
टिव
▁एकत्र
▁युक्त
▁हैं।\\n
▁t
बाजों
ष्म
▁कर्मियों
▁टाइम
कई
▁सराह
चारिक
▁सचिन
कश
▁रुचि
कस
कंप
▁खोलने
▁शिविर
काशन
▁वस
▁बनता
▁सिलस
▁दिखाने
▁पाकिस्तानी
▁राकेश
▁डॉक्टरों
▁घंटों
▁आएंगे
रानी
▁भरने
ट,
▁महज
▁स्टेडियम
▁कलेक्टर
▁क्षति
▁पाएंगे
डीए
▁लापर
▁जिक्र
▁Th
उथ
▁आरक्षण
▁दावे
▁लगाना
▁तीर्थ
▁जानें
▁ट्रक
ाइम
क्के
▁नक
▁अदा
▁जाए,
श्त
ंत्रिक
▁सिविल
▁तलाक
ेंसी
प्रकाश
▁ओपन
▁स्वर
यक
▁सिंग
▁(स
▁थे.\n
नई
केशन
▁श्रमिक
▁करना,
▁राजस्व
▁हक
िप्ट
▁गोद
▁पड़ने
▁तहसील
▁परिचय
▁टीकाकरण
▁सेक
▁सौर
▁धु
र्की
▁टन
कर्मियों
▁विपक्षी
फ्रेंस
▁आचार्य
▁चेन्नई
▁अरविंद
जुर्ग
▁रूम
ul
▁दुःख
एं,
▁अमरी
:\n
▁आग्रह
▁गेंदबाज
▁बिजनेस
▁196
▁एकता
रियर
▁समझते
▁स्टाफ
▁b
▁कहा-
-कश्मीर
▁तुम्हारी
▁नु
▁शहरी
▁विजे
▁तारीफ
▁शत्र
▁पाँच
▁रखकर
▁तिल
▁हुई,
▁भौतिक
▁नमक
▁प्रत्यक्ष
ंत्रित
दुर
▁जनपद
▁ख्या
▁थीं,
▁बनाये
▁Co
उप
सनीय
▁अज्ञ
वेदनशील
▁बुनियादी
▁पेपर
▁साज
▁लगा।
▁एयरपोर्ट
▁आंकड़ों
दीय
▁अग्
▁मूर्ति
▁लेकिन,
▁$
▁नक्स
▁इमार
▁यूरोपीय
▁ईमान
विश्वास
▁सैनिक
▁अभिषेक
▁महात्मा
▁कैबिनेट
ड्डा
▁उर्फ
▁पहुंचाने
▁खेत
▁खासकर
सायिक
स्थल
▁छुट्टी
▁क्यू
▁निर्मित
बानी
▁भगवान्
▁शीघ्र
▁फर्जी
▁लिंक
▁धर्
पुल
सीबी
▁बलों
डीएम
▁जमानत
▁इंदौर
▁"अ
चित्र
▁एंट
▁रिसर्च
क्षेत्र
▁अगली
15
तालों
▁वास
▁हेल्थ
▁शपथ
▁=
भाविक
कॉ
▁(P
टाने
▁कं
▁असल
ig
ण्य
करे
▁महासचिव
▁निर्वाचन
ग़
▁पाउ
▁टी20
करा
▁ओल
▁कार्यकाल
▁कैसा
▁जोशी
▁लिया.
▁कंग
▁नकारात्मक
▁स्रोत
▁स्नान
▁सीधा
▁उपकरणों
▁टक्कर
▁समक्ष
▁औद्योगिक
▁गैंग
प्रति
▁मज़
▁इकाई
▁जाएं
▁शहीद
▁बेचने
क्की
▁शाहरु
स्फोट
▁जनसं
▁शिश
▁स्टोर
▁जाया
फ़ी
▁लीटर
25
▁मानस
▁पीड़िता
▁ब्रांड
▁प्रीम
बिल
▁ढूं
▁निपटने
जीलैंड
कर्मी
▁गार्ड
▁करेगी।
िताभ
▁डिवा
▁दह
मतों
तू
धिकारियों
▁रखती
िंग,
▁कपिल
▁उज्ज
्ठा
▁सिक्
ंटा
एडा
▁फ्रांस
▁त्यो
▁फर्
▁स्थायी
णसी
▁हो।\n
▁व्यक्तित्व
▁प्लेटफॉर्म
स्पे
▁कुर
▁दब
▁रवाना
▁शर्म
प्ले
▁है.\\n
▁बुजुर्ग
▁आधा
▁प्रमो
▁मानी
▁स्मृति
▁समर्पित
▁घाट
▁(आई
▁नहीं.
▁द्वितीय
▁वर्षा
▁अस्पतालों
लील
▁घे
▁समझौता
▁विवेक
▁लिखा,
▁पदाधिकारी
▁चैंपियन
▁हूँ।
आपको
▁जमी
▁पारित
धीन
▁उठाए
▁विद्युत
▁बच्चन
ुसार
▁जोड़ा
▁मेल
▁अधिकतर
▁दें,
▁गायब
ंचित
ाराणसी
▁अभ्य
▁सीर
▁स्टाइल
▁ग्रंथ
▁हर्ष
▁समझौते
द्भ
धिकरण
भूति
▁चिंत
▁परे
▁पदक
▁सुनाई
▁मध्यम
▁ढां
ईओ
▁संस्थानों
इंग
मै
▁रावत
▁ज़रूरत
▁जीवित
▁करार
▁दां
▁शोर
▁जोड़ने
ोई
▁सुन्दर
-एक
संग
▁जलवा
ंसक
▁बुलाया
▁रहेगा
▁प्रेमी
▁प्रतिनिधित्व
॥\n
▁निर्यात
छो
▁कन्या
हाई
▁इन्द्र
▁विशेषज्ञों
▁सैकड़ों
▁उल्लेखनीय
▁हंग
आइ
▁इस्तीफा
▁अधि
धर्म
▁यादव,
▁तत्वों
वाय
▁निवास
▁रोजाना
नाडु
▁सबको
▁चू
▁बोलने
ाइयों
टकों
▁डाक्टर
▁सीटें
▁श्रद्धा
▁इंटरनेशनल
▁उन्हीं
▁व्यापारियों
▁खबरें
।\nअ
मेर
वाना
▁जानना
▁डालने
फ्तार
▁धरती
▁यहीं
▁करण
लक
▁में।
▁सपने
▁उड़ा
जलि
▁विस्फोट
▁गोल्ड
▁हैरान
▁कर्त
▁कीमतों
▁गुप्त
क्ताओं
▁कोरिया
लन
आत
जी,
▁तरीकों
विंग
ov
ोदय
▁शंकर
▁बाबू
▁आपदा
▁इसलिये
ंतरिक
ह्न
▁प्रतिदिन
▁दोहरा
▁छिपा
▁प्राथमिकता
▁पर्स
फिर
स्पति
फेसर
▁व्यस्त
▁कार्यक्रमों
ंपरिक
▁सुर्
▁विज
▁कृपा
▁राजपू
▁मजदूरों
▁फायदेमंद
▁प्रवृत्ति
▁लह
ड्र
▁बढ़ोतरी
ग्रस्त
▁नीर
▁अनुरूप
▁सहारा
एमसी
▁ब्लड
▁नित
▁ग्रन्थ
▁गर्भ
▁मनीष
▁मेर
▁बनर्जी
▁घुस
▁प्रकरण
▁राज्यसभा
▁भोज
▁टीमों
▁उपन्यास
▁विफल
▁ट्रंप
▁हस्ताक्षर
PA
।\n-
▁विधेय
▁गिरा
▁बॉस
▁मुझसे
▁अपर
▁गईं
ot
भेद
id
▁किंतु
▁सावधानी
कांग
▁चावल
▁चिप
▁श्रद्धाल
▁हार्
वायर
▁पार्टनर
▁पापा
▁चक्कर
▁ऑल
▁धूप
▁लाइव
▁झग
▁वर्क
▁झूठ
▁पैरों
सेज
▁करवाया
▁रकम
em
▁क्रेड
▁सत्या
▁सूरज
▁दिल्ली,
▁पीढ़ी
▁फॉलो
ः\n-
sit
▁पिछली
याम
▁पेज
बै
ोसी
▁कठोर
▁बर्फ
▁रहेंगे।
रीय
▁है!
▁दिक्कत
▁34
▁बला
-ग
▁मोर्चा
ut
▁यद्यपि
एं.
▁वादा
▁सबके
▁दाल
▁ख़ु
▁पुराना
▁एडम
▁निशान
▁मारा
▁इकट
▁फं
▁तुलसी
िकी
indi
▁स्वीकृति
▁स्त
डियो
▁मंड
▁चूंकि
न्द्रीय
जीवन
▁है।"\n
त्मिक
दृ
▁करवाने
99
उत्तर
▁नामांक
▁सहयोगी
▁33
▁भावनाओं
▁प्रयासों
ab
▁न्यूजीलैंड
एससी
▁ट्यू
▁जम्मू-कश्मीर
▁पाठ्यक्रम
खण्ड
्यूल
▁कब्जे
▁किस्
नेशन
▁उद्यम
▁लापरवाही
▁मच
ती,
▁नैतिक
▁स्वाभाविक
ोद
▁स्टॉक
▁तत्कालीन
▁स्पेशल
ation
ोव
▁शुरु
▁मेट्रो
▁पढ़ा
▁डायरेक्टर
याग
धित
▁4.
क्ष्म
आव
▁आंतरिक
▁डालकर
िद
▁परिप
▁कुशल
म्परा
▁लालू
▁गहरी
▁सब्ज
▁आपत्ति
▁रिश्ता
▁होली
▁जन्मदिन
▁वृक्ष
ंपिक
माय
▁अत्या
▁एसोसिएशन
▁विनो
ुरी
▁क्ली
▁गोरख
्तिक
▁चलती
हाबाद
▁अभिव्य
चलित
▁पौधे
▁वारदा
▁अधिकारों
▁नेहर
डकर
▁साउथ
सेंस
▁तीव्र
▁अंदाज
▁नरेन्द्र
▁गंभीरता
▁वें
▁प्रोग्राम
पुरा
▁मंडी
▁आकर्षक
▁गेंदबाजी
▁शाहरुख
▁तक,
▁उत्सव
दिग्ध
▁निम्नलिखित
▁सुशांत
▁द्वीप
▁(क
▁'प
▁संभ
▁साम्राज्य
हमारे
▁प्रारम्भ
▁सिन्हा
▁लिखने
▁यूनिट
▁लीड
▁धाम
▁जवानों
न्यू
▁नयी
",
▁पारंपरिक
▁कहला
▁पाउडर
▁है।\nस
▁शतक
▁रूपये
शनी
▁अमिताभ
▁बढ़ाया
▁क्रेडिट
▁प्रतीत
▁निल
▁साजिश
▁उन्होने
द्भुत
।\nइस
▁मस्जिद
दिल्ली
▁शक्त
▁छाया
जिन
▁यथ
कामना
▁हों,
▁संसाधन
▁बिलकुल
▁डाउनलोड
▁गार
▁ऋषि
▁उत्स
कर्षण
▁तीसरा
गैर
विधि
▁प्रोफेसर
▁कानपुर
▁संवेदनशील
▁गोपाल
▁हिट
▁प्रशासनिक
▁स्ना
▁त्योहार
▁आवं
शक्ति
▁बताए
▁फार्म
बंद
▁शरण
।\\n
क्ष्य
▁सेल्स
▁प्रदर्शित
न्य
▁जनसंख्या
▁सटी
▁संदेह
▁एक्शन
▁इमरान
▁रहेगी।
▁एक्टिव
▁अन्तर
▁वाराणसी
▁ट्रेड
▁निकाय
ंचल
▁ख़बर
इसी
▁कोर
▁चेयर
▁नजदी
▁भेजने
क्राम
▁संदिग्ध
ंगों
▁डेस्क
क्रमण
▁रुख
▁मरा
▁अंतरिक्ष
▁१८
▁कालेज
▁(ए
▁मंग
च्छेद
s.
मंडल
▁सीसी
-र
ञ्
आईआर
▁अनुसू
▁राशन
▁कामयाब
पंथ
▁॥\n
दिष्ट
न्तर
कन
▁मांगी
▁फूड
▁है।\nयह
▁दिए।
▁सर्विस
▁आरोपों
▁समानता
▁मिश्रण
▁माध
▁नारे
▁भूख
▁इज
शय
▁छत
▁डेढ़
▁जबरदस्त
▁प्रशंसा
▁उत्तम
▁नर्स
▁सेवाएं
▁स्वर्ण
▁७
▁0.
▁हेड
▁बैग
▁अतिथि
▁2026
▁अधिव
▁कायम
▁सत्
संख्य
▁तमिलनाडु
▁आंध
▁नोएडा
▁एसिड
स्पिटल
▁चोप
▁दिलाने
वृ
ंगिक
▁सीता
▁स्थानांतर
▁समन्व
▁पेय
▁सांप
▁आदिवासी
▁इसने
्टन
▁मिलेगा
ak
क्ल
▁48
▁स्की
▁जहाज
▁पोषण
▁कटौती
▁अग्नि
▁ग्लो
ट्
▁ससुर
▁मछली
▁यानि
ुलर
▁अज्ञात
▁छापे
▁चौथे
▁300
तुम
क्चर
▁आध्या
▁क्लास
▁देवता
स्वामी
▁कोत
▁राजकुमार
केज
11
▁मास्टर
▁पहुंचे।
▁गर्व
▁रमेश
ृत्य
▁सर्वोच्च
▁बालक
▁साझे
um
▁इस्लाम
▁ऋष
▁असं
▁जुर्म
▁मरने
▁हैंः
▁दिल्लीः
▁एह
▁डिवाइस
▁लिया।\n
भु
पुलिस
▁देंगे।
ध्याय
▁ग्रीन
धानिक
▁सतह
▁हज़ार
ौली
सागर
▁जनजा
▁अद्भुत
ल्ट
▁घाटी
▁आपस
पंच
▁सेमी
▁भेजे
रन
▁शिम
▁जरा
▁समझना
बॉल
करार
▁हालाँ
▁समस्याएं
लोग
▁देरी
av
▁ग्ल
▁रिजर्व
▁स्मार्टफोन
▁हालाँकि
▁दीपिका
▁ऊँ
▁2012
परी
▁ठंड
▁सुर्ख
▁डीजल
▁कोय
▁ब्ला
▁सदी
▁प्राधिकरण
रेन
िमंडल
प्रधान
▁लें.
▁दोनो
ियंस
▁परम्परा
मांड
वाया
ग्रा
▁जीते
▁चालू
▁परियोजनाओं
▁डूब
▁एकदम
▁कच
वाड़ा
▁घो
▁दौरान,
▁शक्तिशाली
▁भूप
▁गया.\n
▁ज्ञात
▁समय,
▁यूजर्स
▁मनोरंजन
▁नाथ
▁'द
▁प्लांट
▁शिखर
▁गुस्सा
▁रफ्तार
▁हुआ.
स्पी
▁शत्रु
▁पवन
▁सर्वाधिक
▁जाग
सीपी
ँस
लोनी
▁पन
शान
▁आदत
▁गणना
▁परिणामस्वरूप
मार्ग
▁मुसलमानों
्रीट
▁निः
▁फ्ला
▁मूल्या
▁साढ़े
▁चलाया
▁बेट
17
किसी
▁१६
▁लंदन
▁चोपड़ा
▁कंपनियां
▁अरुण
▁ठोस
▁प्रयत्न
पया
▁बतौर
▁लकड़ी
द्रोह
▁मिलना
▁बोलते
मार्टम
▁अजीब
▁लायक
▁भव्य
▁शिवसेना
▁मुकेश
ायतों
▁गयी।
▁शिवराज
▁आफ
बाई
▁लाइसेंस
▁प्रतिष्ठित
▁सैल
▁शिल्
द्री
तिष्क
▁सूक्ष्म
▁किरण
▁ड्यूटी
▁सरकारों
ॉस
▁मानक
▁पोष
▁गये।
▁रायपुर
▁सब्स
▁38
▁साक्षा
कांत
▁दिग्गज
पीड़
▁बढ़ी
▁वंश
-ट
ूहिक
चुनाव
▁(प
▁प्लास्टिक
्षिक
▁चीफ
▁"मैं
▁दृढ़
ियों,
▁आरंभ
12
भवती
काया
ार्थी
▁(M
्रु
)।\n
लेशन
▁देंगे
▁एटी
महा
बरा
▁निश्चय
गुरु
▁बिंदु
▁बेरोज
▁कराए
▁सप्
चंद
नहीं
आईटी
▁सुरेश
▁केन्द्रीय
▁जरिये
आउट
ूद
▁अंडर
ोलॉजी
▁बनना
अर
खु
▁रहे,
▁कष्ट
जै
▁कोट
्रेम
▁जोन
ून्य
e)
▁पोस्टमार्टम
दून
▁मेकअप
▁धातु
▁आंकड़े
साइड
चर्स
▁विभागों
▁गुणों
▁गीता
▁ऊंचाई
16
▁--
▁गड़
▁श्रीवास्तव
▁दस्तावेज
▁शनि
▁निकला
गोल
▁विजेता
▁कैंप
▁जर्मनी
▁हां,
र्वाद
▁गुल
ालों
▁पत्रकारिता
▁मानने
▁आतंकवादी
राष्ट्र
▁निर्देशक
िवारिक
▁गाइड
डीपी
▁आश्वास
▁आया।
▁आईटी
▁करने,
▁बचे
▁है।"
ोकर
▁सिखा
▁१०
▁शक
▁आए।
ड़िया
▁ओम
▁दिनेश
▁तुम्हारा
िकेटर
दुल
▁हुई.
सीन
▁चरणों
▁अर्ध
ri
बन्ध
▁ज्योतिष
▁ट्रैक
▁कठिना
▁बताया,
▁अभ्यर्थ
▁गूगल
ac
▁भड़
▁कलर
▁आपसे
▁सोनिया
▁पेशकश
▁ऑफ़
▁गेंदों
▁web
▁बख
कारियों
▁दुश्मन
▁रोका
▁ष
▁जौ
▁पराम
site
स्टार
▁मुज
स्पर्
▁हथियारों
▁कानूनों
कोट
▁मुस्क
▁आध्यात्मिक
ौज
▁पौध
han
▁दशा
हिता
▁पड़ोसी
▁कहा।
▁मन्द
▁पकड़ा
▁प्रारंभिक
▁डीएम
▁पिट
▁आखिरकार
्यौ
डब्ल्यू
िकेशन
▁देखता
नम
▁खेलों
▁जुट
▁सामूहिक
▁मोड़
ड्
हरादून
▁काउंस
▁मिलेगी।
स्पर
▁पाठक
▁मैसे
▁एक-एक
▁सम्पूर्ण
▁5.
▁अनुवाद
▁पच
▁भारती
▁हेम
▁website
▁दवाओं
-उ
▁गवर्
▁इन्हीं
▁फैशन
▁आधे
ज़न
▁पाइ
▁विनोद
▁अंध
▁कनेक्शन
▁नामांकन
द्धा
ंडीगढ़
न्ट
▁नेहरू
▁ऑप
▁फॉर
▁अत्यंत
नीत
ोग्रा
▁रांची
▁गर्भवती
▁शर्त
▁जलवायु
▁कोड
वश
▁उर्
▁सिद्धान्त
▁"स
चंद्र
चाप
▁शौच
दाई
▁बॉडी
नाइ
▁अन्यथा
्स,
▁जाएगी.
▁पैट
▁संपन्न
▁इंट
▁सीनियर
▁तुर्की
▁मैनेज
▁रहे।\n
▁कहकर
▁ड्राइवर
माइ
▁कमेंट
▁दरवाजे
्रमण
▁मद्
▁चपेट
▁आश्वासन
▁प्रोफ
▁PM
▁कोर्स
लाइट
▁पोर्टल
▁परिचित
विच
▁दोस्ती
▁नाबाल
▁जितने
▁मिसाइल
▁आरोपित
ुद्ध
14
िएंट
▁195
▁दिव्या
▁श्रेष्ठ
▁जज
ल्लाह
▁बुक
व,
▁सराहना
▁सोचने
▁गेह
▁तालाब
▁आनन्द
▁जूझ
▁भाषाओं
द्दा
▁निष्कर्ष
▁रोगी
▁एजेंस
▁पारिवारिक
वेल
▁कैसी
्तों
▁विधेयक
▁पक्षों
▁अंधे
पाई
▁आशीर्वाद
▁प्रोटीन
माज
णिज
▁आयात
▁जागरूकता
पादन
▁जिलाधिकारी
▁श्रीमती
▁फर्क
पाठी
बीन
▁सॉफ्ट
ष्कार
▁2011
▁ब्रेक
▁नाय
तन्त्र
▁जाँच
▁भागीदारी
▁मनाने
▁मुर
▁इट
जाने
पचारिक
▁इन्होंने
▁दुर्गा
क्यू
▁धान
▁पार्ष
▁कार्तिक
▁जिसमे
ंगाई
▁केश
डॉ
▁जब्त
▁पायलट
रस
ामान
ल्ले
ंदीदा
"\n"
▁आयी
▁कामका
▁टेक्न
▁दिखने
ान्
▁मूल्यांकन
तला
▁सहमत
▁घूमने
▁गाना
▁पर्वत
ap
▁पहना
▁जाएंगी
▁कंगना
्वल
▁छुटकारा
किस्तान
▁परामर्श
▁पद्ध
▁वाइ
त्तियों
▁बसपा
▁गढ़
ण,
▁हरे
▁चुनौ
ub
▁असफल
सी,
लेस
▁करोड़ों
▁55
पह
▁वार्षिक
▁बलि
ोत्सव
कालिक
लोत
▁हस्तक्षेप
ार्टमेंट
▁पूछे
▁बाँ
▁नृत्य
▁DN
▁150
पुरुष
▁मुआव
▁आश्रम
▁पहुँचा
▁हूँ,
▁बहुमत
▁सदर
▁खेली
▁ड्रेस
▁संस्थाओं
▁झटका
▁ढूंढ
▁चौकी
ांच
▁वचन
▁आजाद
यें
एनयू
▁संसदीय
▁इंच
▁आंकड़ा
est
▁सबूत
ोगे
▁मासिक
▁मस्तिष्क
▁पूजन
पिछ
▁पसंदीदा
▁डिस्
▁ग्री
र्वेद
द्वार
ंद्रा
▁वैज्ञानिकों
्वाल
▁(B
▁क्रीम
▁कैमरे
▁ट्रेनिंग
▁माफी
शः
▁जॉन
आरपी
▁बाई
▁अलर्ट
▁जानवरों
▁वसू
▁आक्रमण
▁लल
▁वारदात
वर्ड
णिज्य
जागर
40
वालों
▁प्रोत्साहित
▁योग्यता
▁हॉस्पिटल
ोम
▁कंटे
a)
▁सव
▁चरम
कड़
▁तस्वीरों
▁मील
▁मिली।
▁देशभर
▁झेल
▁बेश
▁प्रकाशन
▁साधु
-त
▁ब्यू
▁यज्ञ
▁मंत्रियों
मोहन
▁हार्दिक
▁मद्देन
ollo
▁+
▁अपराधियों
ॉड
▁जाए।\n
▁औष
▁क्रिकेटर
▁रखें।
▁हीरो
▁पैकेज
▁करेंगे,
▁आगरा
ॉर्
▁स्ने
▁बलात्कार
▁बेस
धनों
▁n
भावना
▁नाबालिग
्रय
▁जाप
▁पंजीकरण
ेंच
कलन
▁निर्देशित
▁नशे
▁प्रखंड
▁कुश
▁राजपूत
▁सवालों
▁धारणा
राधिक
▁रहकर
गित
▁प्रवाह
▁करेगी
▁प्रायः
▁मैसेज
▁पाती
▁दी,
▁याता
म्मा
▁सतर्क
पता
▁जात
▁तेजस्वी
▁सब्जी
ैव
▁शुरूआत
▁ख्याल
्ती
▁रोशनी
परि
रह
फार्म
▁मिर्च
ष्णा
▁केंद्रों
▁डिज़
▁कर्तव्य
बहुत
ोजक
▁सच्चाई
न्दा
▁सीखने
▁इच्छ
िप्त
▁तालि
▁संतु
बड़ी
▁सूजन
▁हल्के
▁दुकानों
ऊदी
▁मानें
▁ब्रह्मा
▁जोड़े
▁शिशु
▁इलेक्ट्रिक
्टा
▁एग्
▁बनती
▁क्वार
▁२०
▁पार्टियों
▁इलेक्ट्रॉन
▁जयं
▁श्याम
▁संहिता
िसू
▁मेन
6.
▁प्याज
स्की
▁दंड
▁मेहमान
▁रजिस्ट्र
▁जवा
▁फैक्ट
▁होंगे।\n
▁उपभोक्ता
60
▁स्टैंड
▁श्रेय
▁ठाकरे
▁८
▁सिद्धार्थ
विदा
▁प्रतिस्पर्
▁साथियों
▁Eth
डोर
▁गतिविधि
▁पब्लिक
▁काशी
▁क्यो
▁गिरने
▁लेखन
िताब
▁बेंगल
▁कृपया
ट्टर
▁सुविधाएं
वाड़
िकार
▁गुम
▁दिवसीय
▁छेड़
▁मृ
सैन
▁सके।\n
ैश
▁राणा
▁6.
▁कोतवाली
▁किए।
▁खेलते
स्टल
ार्थियों
मेरे
▁देहरादून
▁follo
▁विद्यार्थी
▁गहलोत
▁'\n
▁पैदल
क्रामक
ख्यात
▁चुने
▁ड्रग
▁कटा
▁अवतार
▁आरा
▁मानो
हारिक
▁पेर
▁मीटिंग
▁काटने
▁व्यावसायिक
5.
टके
▁यथा
▁कलाकारों
▁रघु
,5
▁मिठ
दरअसल
ाना,
▁This
चन्द्र
राक
24
▁गोवा
▁Code
▁मण
सेन
▁मतभेद
▁पहनने
▁वीं
जारी
▁किस्म
▁सावधान
▁समृद्ध
▁हड़ताल
▁उभर
▁करेंगे.
▁ओलंपिक
▁कार्यरत
▁आपात
▁शेर
सात
▁यातायात
▁कौर
▁बैठकर
▁चिन्
प्रा
▁आमंत्रित
▁अपराधी
▁यकीन
▁चढ़ा
वियत
ंचाई
▁बहादुर
▁कॉर्
▁बैठी
▁'क
▁द्रव्य
शियों
ोगी
ter
▁स्क्र
▁सम्रा
▁सोचते
ुप्त
▁वंचित
गौर
▁दर्जन
▁महंगाई
शंकर
▁चंडीगढ़
काय
▁आतंकियों
▁DNPA
▁सिख
▁follows
ल्फ
टेक
म्बा
▁शिमला
▁डिली
▁परमा
▁खर
▁त्रिपाठी
▁बादल
▁मेले
▁हिम्मत
▁बोझ
▁शोषण
▁चिकित्सक
▁प्रतिबद्ध
▁बृह
▁धमा
न्नी
▁प्रशांत
ट्टा
▁पेशेवर
▁उतनी
▁कना
▁प्रतिरोध
▁सकें
▁फाउंड
▁ट्रस्ट
▁जन्
वाज
सुन
▁पोस्टर
▁टुकड़े
▁'आ
▁इकट्ठा
▁आकर्षण
▁तो,
▁फांसी
ुरे
▁समूहों
▁अनुबंध
ड्डी
▁दिखे
सीआर
▁पहुंचकर
सारी
ग्रहण
▁रहे.
जत
▁Ethic
▁जयंती
▁लिंग
्योर
▁लू
▁बचत
▁आपराधिक
▁थोड़े
▁नॉ
्रीत
▁बरकरार
▁महेंद्र
ंडों
ङ्ग
▁अत्यन्त
▁#
▁विश्वसनीय
▁निवेशकों
▁Ethics.
▁अल्पसंख्य
बली
▁गारंटी
▁संपूर्ण
▁स्वच्छता
ंडीज
▁महत्त्वपूर्ण
▁अनुसूचित
▁लगी।
▁(N
▁रसोई
▁स्पोर्ट
स्स
धाम
▁वैसा
▁बैटरी
▁लाइट
▁फंस
▁विचारधारा
▁देगा।
▁लिया,
▁आयर
▁पकड़ने
र्त
▁एंट्री
▁जरुर
▁।\n(
▁आपसी
एं।\n
▁बैक
वर्धन
▁जाए.
▁पैन
▁समीप
▁लाई
ट्यूब
टीआई
▁नीतियों
▁लड़का
▁ब्यूरो
▁आजम
ांजलि
▁पहुंचाया
▁प्रश्
ैंट
▁एफआईआर
▁निर्द
▁सिम
▁गिन
▁रोज़
▁पहने
जना
▁पढ़ें-
▁ढेर
▁भरत
▁नाक
▁हाइड
मिली
7.
िक,
देवी
▁सर्वेक्षण
▁रोटी
▁सटीक
▁जुर्माना
भूषण
पालिका
लीन
▁भव
शुल्क
▁शोक
▁'ब
▁परिश
▁मांस
▁सेन
▁ई०
ड़की
स्तक
फ्फर
गणना
दित
▁काबू
▁भेंट
▁वाणिज्य
्वान
▁अवगत
▁यूजर
▁स्वर्ग
▁जीएसटी
▁आइस
▁नक्सल
▁साझेदारी
डि़
▁आवाज़
▁महेश
▁आलिया
▁करेगा।\n
▁साधना
ंगन
▁गोप
▁क्रोध
ंकार
कांग्रेस
▁वां
▁स्तरी
ST)\n
▁न्यायिक
▁राग
▁हेयर
▁फस
▁रात्रि
▁दायित्व
िल्ला
▁7.
▁मद्देनजर
▁चेयरमैन
▁गठित
▁घुट
धारणा
▁दर्शाता
▁पहाड़ी
▁पीछा
▁टेबल
ामान्य
▁मानता
▁साइकिल
▁पाय
▁भला
▁42
▁दुर्भाग्य
▁आमिर
▁इंजीनियरिंग
▁(ज
▁मुलायम
▁पुण्य
▁कार्या
▁स्टो
▁क्रांति
▁बीएस
▁फेस
▁शुक्ला
▁दुबे
-पास
▁इलाहाबाद
▁दुष्कर्म
▁लेवल
▁शरद
▁सकें।
▁हादसा
▁पाये
▁सुभाष
▁पॉलि
▁संदीप
▁रेडियो
▁डिव
ष्ठा
निस
जुट
ैली
रात्रि
▁निराशा
▁दरवाजा
▁उपदेश
▁बेस्ट
▁घात
▁यूनियन
नैतिक
▁आत्मविश्वास
शिंग
▁टाटा
▁गहराई
सपेश
▁ऑर्डर
▁खाम
▁नारी
▁(R
-इ
▁बिगड़
▁कुमारी
केदार
▁डिज़ाइन
▁पश्चात्
▁पाना
▁परिजन
पार
▁तन
तिन
▁आँख
्युनि
▁शून्य
▁साइबर
बस
▁स्थलों
▁'म
▁पेंट
्वीप
▁प्रस्तावित
▁कड़ा
▁काग
िणी
▁प्रोडक्ट
हरण
▁मन्दिर
▁दक्षिणी
▁साइड
▁हानि
▁Hindi
▁स्पिन
i)
▁संसाधनों
रेटर
-0
▁देखिए
▁कुत्ते
▁मांसपेश
एनएस
▁अन्दर
▁निधि
▁स्तरीय
▁आस्था
▁कप्ता
▁अर्थात
▁हौ
▁उत
▁युवकों
▁रेप
▁कीजिए
▁St
▁डिप्टी
▁बन्द
▁मुँ
21
▁मुहैया
▁डाली
▁)\n
▁साहित्यिक
▁मोड
▁होश
▁डु
▁सऊदी
▁कराना
ग्व
▁प्रथा
▁एहसास
▁2010
▁मेरठ
▁प्रयाग
िटीज
▁दया
▁एकजुट
प्पी
▁Y
लै
▁गत
▁मेघ
र्चे
▁सूचित
प्ति
▁शुभकामना
वाधिकार
▁लैंड
▁पांडेय
डेंट
▁"हम
गुण
▁सशक्त
▁में\n
लिस्ट
ढा
▁करीबी
▁मुना
▁हुआ।\n
▁मथ
▁लघु
माही
▁बिस्तर
▁नायक
▁होंगे,
▁कैद
▁डू
▁2000
▁लेखकों
▁छिप
▁परिवर्त
▁आन्द
▁फ्लैट
ब्स
▁टोक
रीबी
▁गृ
▁सोवियत
तीन
▁बिन
▁सर्जरी
▁ठंडा
षित
▁हान
9.
▁इंदिरा
लपुर
▁कथन
डू
ुणा
क्यों
▁खिताब
मानी
जिया
▁पुणे
प्रदाय
▁65
▁हॉल
▁तोड़ने
▁रिपोर्ट्स
▁देगा
▁चिन्ह
फ्तर
--
▁छापेमारी
▁हंगामा
os
प्प
▁भागों
▁व्यायाम
▁चेतना
▁रिव
▁सलाहकार
80
-अप
▁रहस्य
-से
वंश
▁(सी
▁तरह,
▁अन्न
वैधानिक
▁श्रीराम
ंधन
▁सपोर्ट
▁मजाक
णियों
▁अल्लाह
▁परिस्थिति
▁बड़
▁ज्ञापन
▁लौटने
▁बोर
▁लाए
▁एकल
▁मान्य
▁मुनि
▁सृ
वाहा
▁सदस्यता
▁निभाई
▁मुखिया
▁मजे
सिस
▁लड़कियां
पिता
▁आलू
▁समुद्री
▁जीने
▁चित्त
▁ऑफर
▁बदमाशों
▁हिल
▁बारह
▁बेड
ऊँ
्यार
▁इंस्टी
▁अनाज
▁अमीर
-5
चुअल
▁गोरखपुर
मूर्ति
▁हवाले
लाश
प्रधानमंत्री
▁व्यावहारिक
▁कामना
▁बुखार
▁रिटर्न
▁देह
▁दीर्
▁सर्क
▁है)
▁पंत
दुनिया
▁पकड़े
▁कॉन्फ्रेंस
ापुर
▁44
िंट
बड़
▁श्रीकृष्ण
▁विक्रम
▁अभिव्यक्ति
▁खुली
op
▁अवधारणा
▁किल
▁जेट
▁अफ़
▁बनाती
न्धी
▁प्रतिष्ठा
चुर
▁दुब
▁असा
▁किशन
▁समर्थक
▁स्थानांतरित
▁बनते
▁(D
▁दफ्तर
ess
▁उदार
▁बाजारों
▁h
▁मजबूती
▁पंक
▁स्थगित
▁तालिबान
▁गरीबों
▁पलट
▁बीत
▁बैठने
▁चांद
▁दुर
▁रहा.
▁कामों
▁शास्त्री
▁सुग
रिय
▁नहीं।\n
ांतिक
-मु
स्पेक्टर
सबसे
▁मनोहर
लिटी
▁पौधों
▁दत्त
▁लिखते
▁अन्तर्गत
22
▁कपड़ों
ाइनल
gle
झी
▁जिसको
▁नगरी
▁विरासत
▁क्रमशः
▁समग्र
टेज
ष्यों
न्वयन
▁सप
▁धवन
▁निर्देशन
▁रोगियों
▁मकस
▁संजीव
▁पहाड़
▁ट्रॉ
ँग
वण
▁अकाद
ड्डे
▁इव
▁बीच,
वादियों
▁शरी
▁हिन्दुस्तान
▁सास
जिये
▁2008
ate
लेश
▁झील
▁ट्रैफिक
\nम
लभ
▁सीईओ
▁हिंदुस्तान
▁पॉल
▁भारतीयों
बर्ग
▁रिश्तों
▁पद्धति
▁साड़ी
▁सप्लाई
▁सभ्यता
▁सैं
▁राजन
मैंने
ंसी
▁ग्वाल
▁संतुलन
एसआई
▁पर्यटकों
▁जानती
▁अधिसू
▁सम्भव
पै
▁मकसद
▁मेगा
▁होता।
▁दिना
▁स्टोरी
▁पोषक
▁रोगों
▁उपहार
▁राजनैतिक
▁सीरिया
▁कमर
▁वक़
प्पा
यहां
▁दही
▁सौंद
▁सीसीटीवी
▁अनुराग
▁स्कीम
म्र
पिछले
ंबा
▁आह्वान
▁शिर
▁वस्त्र
▁दें.
▁साफ़
▁उपचुनाव
▁नाश
▁आज्ञ
णीय
▁बहू
इससे
▁बंदर
▁टैंक
भाजपा
▁दादा
▁अनुच्छेद
▁दायरे
ब्ब
ंबू
▁जुटा
▁जिंदा
▁सोनी
▁मॉड
ोश
▁पड
▁बीस
▁गेहूं
▁जानिए
वैज्ञान
▁टी-20
ाइक
▁विनय
▁फीट
▁प्रचलित
▁रहा,
▁उपयोगकर्ता
▁विभाजन
oogle
ए,
▁प्रको
रिएंट
▁जर्मन
▁डाले
▁१२
▁छीन
▁हितों
▁जानवर
न्ड
▁फि
▁सम्मिल
▁साक्षात्कार
▁निराश
▁फायरिंग
ec
▁कार्यकारी
-पा
▁अध्याय
▁ईमेल
▁खुराक
▁खनन
▁कच्चे
ोज़
▁कैश
▁फ्रंट
▁क्रिस
▁देनी
▁ओड
▁सेल्सियस
▁वय
▁इंद्र
▁आस-पास
▁ताज
▁(3
▁आंखें
▁विनाश
जपे
ट्टे
विज्ञान
▁रेंज
▁यमु
▁शिक्षण
▁चिट
चौ
-समय
माटर
▁बाय
▁पुराण
▁यूट्यूब
पीठ
▁साहस
नामा
कोई
▁अभिभाव
▁घोटाले
▁बाला
▁स्थितियों
▁लिव
बिन
▁टाइम्स
▁तत्त्व
▁हवाला
▁सौंपा
▁सूच
▁खोला
▁ज़रूरी
▁डेवल
▁सृष्टि
▁मतदाता
ow
थन
▁तेंद
स्त्रों
▁उछ
इंड
निर्माण
सीसीआई
▁मल्टी
▁रत्न
क्व
▁52
▁बढ़त
▁भगत
▁आंस
कला
पेक्ष
▁मैनेजर
केल
कांड
ने,
▁पवार
सी)
▁प्रांत
▁कमिश्
▁आसमान
फाई
▁हैंड
▁बताती
्रल
▁v
▁समर्थकों
टित
टर्स
▁राधा
▁सरदार
िवेदी
▁कारोबारी
▁बांट
▁बर्बाद
▁अटल
-छो
ोगा
▁छोड़ा
▁है।\nम
▁वाम
▁अहमदाबाद
▁अर्पित
ऐसे
▁गुरू
▁मानसून
दूसरे
▁39
▁मेला
र्फ़
▁आयुर्वेद
▁हुसैन
▁फूलों
वत्
डनी
▁प्रदेश,
िडी
▁बघ
▁मायावती
▁घेर
डम
▁400
▁१५
▁कैमरा
▁प्रोट
▁मंदिरों
▁गैर-
):
▁प्रदीप
▁हैं-
▁सिंचाई
▁कमाल
70
▁ट्रेंड
▁एरिया
▁उपायों
स्वती
▁धूल
रुण
▁रूट
▁*
▁धरना
शिव
▁घड़ी
▁रौ
▁मूल्यों
नाल
स्ड
▁उपलब्धि
▁परिणामों
▁रंगों
▁प्रवासी
▁मार्गदर्शन
▁आंध्र
▁समन्वय
▁भूकंप
▁रवी
भवी
▁राइ
▁आशीष
ियमित
संघ
▁मोर
ूर्व
13
▁घाय
▁पुष्प
▁पदाधिकारियों
आम
▁ईंधन
▁लीजिए
▁2009
▁महोत्सव
▁वितरित
▁फाउंडेशन
▁वैध
▁ट्रेलर
▁कक्ष
▁भेजी
▁ससुराल
इंडीज
▁एंड्र
▁नजदीक
▁कप्तानी
▁जुल
▁जायेगा।
▁पठ
▁हेली
ोत्तम
▁मौलिक
गर्
▁रथ
रेली
▁बाह
क्टी
▁सुनते
▁आँखों
up
▁चो
ण्डल
▁मुजफ्फर
▁अफसरों
▁हल्का
▁2,
8.
▁उच्चतम
स्थिति
▁वक़्त
▁बेंच
▁साहि
▁एकड़
▁घटनाएं
▁सना
▁पित
▁कस्
▁सम्मिलित
▁कमान
▁करूंगा
्यव
▁औपचारिक
▁इंस्टीट्यू
▁बढ़ाकर
▁यथार्थ
▁सर्दी
चार्ज
▁X
ृत्त
▁किया.\n
▁उत्पीड़
▁डेब्यू
▁इस्ला
▁मौजूदगी
सीम
▁43
▁कारण,
▁दिखता
▁जाएँ
▁संस्थापक
▁शॉर्ट
▁नाइट
▁बैल
▁गरीबी
यिक
▁मानवीय
▁नेहा
▁माध्यमिक
देशक
▁इक
▁शौचालय
▁निचले
वायरस
▁विद्रोह
▁हों।
▁गरम
▁प्रिंस
▁का,
▁राजद
ht
▁फिटनेस
▁इमारत
▁करवाई
▁शुक्ल
▁चर्च
बीएस
▁बिहारी
▁हरकत
त्प
▁मामूली
▁हेल
▁मुँह
घात
▁श्रमिकों
▁ऊपरी
▁रचनात्मक
▁समय-समय
▁पंप
▁परमात्मा
ोत्तर
▁डै
▁फंसे
-पी
पिंग
-अपने
▁गहरे
▁स्टार्ट
▁भीम
हू
तांत्रिक
ोंग
▁मधुर
▁जायेगा
▁भूत
▁स्कू
▁पर्दे
शेखर
▁आन्दोलन
▁माला
नाल्ड
मर्श
▁बायो
▁जागरण
▁फर्म
▁गहन
▁अतीत
ांतों
▁शुभार
▁रोमांच
▁मय
▁अगु
क्षणिक
▁हल्की
▁औरत
▁फीड
▁पड़ेगा।
वानिव
▁श्रद्धांजलि
▁हाथी
▁कामकाज
▁मुठ
▁पांड
▁एजेंसियों
▁टीमें
▁शहद
▁सियासी
▁दिया.\n
▁पड़ोस
▁नतीजा
▁रीति
▁पाकर
▁लाह
▁टमाटर
ce
▁मेजब
▁ग्लोबल
▁उठाते
▁भक्तों
भावस्था
▁पार्षद
ब्बे
कने
वेस्ट
▁पढ
▁उजागर
सवाल
▁तूफान
▁ट्रांसफर
नीश
▁पाक
▁ध्वनि
▁बताता
▁आधी
▁पंकज
▁चांदी
गौरतलब
▁निपट
▁रोशन
▁शान्ति
▁आरम्भ
त्नी
▁नागरिकता
▁किराए
▁हॉट
▁विकल्पों
▁विभाजित
▁आई।
वाहित
▁स्टूडेंट्स
▁कर,
▁राजकीय
▁है।\nएक
▁एस.
र्टी
▁आवश्यकताओं
▁माइक्रो
▁महल
दूस
▁वॉल
▁पश्चात
▁गुस्से
▁आज्ञा
▁उत्ते
▁सशस्त्र
▁गईं।
▁जुड़ने
क्टिव
▁इंतजाम
▁गुर्
थित
▁पॉलिसी
▁खोजने
▁नदियों
▁कोने
▁लड़कों
▁सकेंगे।
▁पैक
▁संयंत्र
ंधा
▁रणबीर
मायण
▁खरीदा
रोक्त
▁मिलेगी
शीलता
▁नौसेना
▁निकली
▁मलिक
िवेश
▁ग्वालियर
▁भीषण
▁एक्सच
▁फसलों
▁पाण्ड
▁पीड़ा
▁घायलों
▁कनाडा
▁ट्रेनों
▁हैं;
बाग
▁क्रिप्ट
▁इंस्पेक्टर
▁रहित
▁इशारा
ुलेंस
▁उत्पत्ति
गारी
▁(एन
▁तरल
ूरती
▁नतीजे
▁एथ
▁रहेंगे
▁समझता
देख
▁जानकार
ive
▁वसूली
मिन
▁उन्नत
▁मोक्ष
▁किले
हाद
▁डाटा
▁कमांड
वेज
▁सकते।
▁ढांचे
▁व्यय
▁नाराजगी
▁दीर्घ
▁कुंड
▁रचनाओं
▁के.
▁मथुरा
▁सिर्फ़
▁बटन
विजन
▁हैंः\n
र्जन
▁लाश
▁हिमाल
▁पृष्ठभूमि
छाड़
▁माँग
ते,
▁।\nअ
▁स्त्र
▁दशकों
दाद
▁एके
▁सीन
बूझ
चालन
देशी
▁जोरदार
थाम
▁सॉफ्टवेयर
▁घन
ost
▁प्रभावशाली
▁लिहाज
▁शेख
▁मम्मी
▁अंडे
▁उठे
▁इजाजत
▁रावण
ियां,
▁सूरत
▁स्मार
\nक
वा,
पंथी
▁प्रतीक्षा
दूरी
फ्रेंड
▁प्रतिनिधियों
▁ओडिशा
\nप
▁प्रशंस
▁चिह्न
▁1000
िस्तान
▁जियो
▁दर्जा
▁सद्
▁अपने-अपने
मिथ
पीएम
▁पॉप
▁महावीर
▁रणवीर
मा,
▁गुलाब
▁संतान
▁लेनदेन
ण्ट
▁होगा.\n
▁अरे
▁मतदाताओं
पुट
▁नंद
▁फाइबर
▁फाइल
ंटिक
▁असंभव
▁फोर
▁मांगा
नार
सेट
▁चौंका
▁ख़िला
▁पाठकों
▁नीरज
▁कृष्णा
▁डाइट
▁वाणी
▁मैनेजमेंट
▁ईसाई
▁निंदा
▁आवेद
▁प्रोत्साहन
▁खेतों
वृत्ति
ment
▁मोटा
▁एसडीएम
भाई
▁दुखी
▁वेस्टइंडीज
▁जद
ैर्य
▁उपभोक्ताओं
▁निलंबित
▁भंग
▁बिर
▁होंगे.
▁डिफ
पोरेट
▁सोल
श्र
▁झलक
▁तेलंग
▁महाविद्यालय
▁स्मरण
▁वर्गों
▁।"
अपनी
दर्शी
▁हार्ट
▁उठता
▁नग
▁पैसों
▁चौरा
▁संल
▁अंग्रेजों
िपल
▁सुर्खियों
▁पाइप
▁मुठभ
▁किंग्स
फ्ल
▁घटा
▁स्वीकृत
▁श्रद्धालुओं
▁केयर
▁शासित
▁गर्ल
▁नाट
▁(१
▁आईए
▁देखो
ॉर्क
▁चट
▁अमरीका
▁मरम्मत
▁लक्षणों
▁रिजल्ट
▁घी
▁मिले।
▁बूथ
▁भेदभाव
▁क्रे
▁जीतकर
▁सबकुछ
▁बेव
ष्का
▁उठाकर
ए)
▁चक
90
▁भाइयों
▁पूर्ति
▁चिंतित
▁कैल
▁स्नातक
ID
▁पहलू
▁on
ट्रिक
▁आलोक
▁बोल्ड
▁माननीय
यात्रा
▁जिनसे
▁मासूम
▁शौक
▁सबका
▁प्रवर्
▁अवार्ड
कांक्षा
▁कारक
▁ट्रैक्टर
▁है।\nक
विल
यानक
▁उर्व
पालन
▁लाना
▁कबीर
▁ऋतु
▁निवार
▁बृहस्पति
▁जनस
▁पैटर्न
▁कहा।\n
▁यूएस
▁कमीशन
▁मारकर
▁ब्लॉग
▁गज
▁सामु
▁46
माया
▁हमलों
▁तड़
▁चार्ट
▁आतंकवादियों
▁दर्शक
▁नाज
▁प्रकार,
▁मुखर्जी
▁स्पोर्ट्स
▁वरुण
ug
बरी
▁व्हाट्स
ंठ
▁होता,
चालित
झाने
▁k
▁सर्दियों
▁११
▁पालिका
▁2024
▁पागल
नीर
▁कमिश्नर
▁शिल
▁लिखकर
▁निकाली
▁अंकित
ोली
▁सीधी
▁अफवाह
रक्षा
▁कन
लांग
षे
ॉप्टर
▁47
▁बैंकिंग
ers
▁गणित
ड़ा,
▁पसी
▁खनि
▁अकेला
▁तुमने
▁काउंसिल
▁रजिस्ट्रेशन
▁हुई।\n
▁सूख
▁महोदय
▁अनुभवी
ish
▁डालते
गेट
▁एजेंट
▁सहन
▁लें।\n
▁है!\n
▁सरस्वती
▁सेंट्रल
कतों
▁आचार
▁नील
▁वैदिक
▁193
▁शर्तों
▁छान
▁पद्म
▁पढ़े
▁चित
ip
-बा
▁विविधता
▁करे।
▁लक्ष्मण
बुल
मेन
▁फुटबॉल
निर्भर
▁हमे
▁अनुपात
▁धीमी
ओ,
-बड़े
ायती
▁गाँधी
वाहिक
▁संयोग
▁सौंदर्य
▁फेल
ia
▁2007
▁दिनांक
▁अहि
▁लैस
जपेयी
▁अतिक
▁बहाल
▁बताना
▁मातृ
▁उपास
▁है।\nप
▁उदा
▁नाव
▁प्रबंधक
▁सनी
भक्ति
ाइज
▁गुट
▁उत्पीड़न
▁सीरियल
ब्बत
▁राजेंद्र
▁अत्याचार
िकारक
▁अद्व
लीफ
▁मात
▁बसों
23
ानुसार
प्ट
▁आरती
ep
▁कैलाश
▁उन्नति
▁आकलन
▁उठाना
द्वीप
मोह
▁हिस्सेदारी
▁दिलीप
फ़ा
▁चर्
▁जुटी
▁आर्मी
▁भयानक
▁अपहरण
▁प्रसारण
▁बारा
▁सिलसिला
ew
ल्हा
धना
▁पीस
▁नाना
▁पंजीकृत
▁पूर्वा
▁कट्टर
▁पड़ेगा
▁रंजन
शाही
▁सांसदों
▁फोक
ायंस
▁धैर्य
▁फैमिली
▁लीक
▁नींबू
▁प्रतिबंधित
▁खण्ड
▁कहा.
ist
▁डाक
पीएस
ॉम
▁सीमाओं
▁आज़ा
▁ख़िलाफ़
स्सी
▁कमाने
▁कहानियों
▁किलोग्राम
▁टाल
▁रैं
ल्तान
▁सुशील
▁नमू
▁दुर्ग
मरी
▁सेवानिव
रेख
▁कॉमे
▁विंड
▁शेड
▁खैर
▁जूनियर
▁जश्न
▁हार्म
▁तिमाही
▁दिखाते
▁नारियल
▁जाएंगे।\n
▁व्ही
वित
▁कीर्
▁निया
▁संवाददाता
▁हिर
▁मंत्रिमंडल
▁आभार
▁स्पर्श
ik
▁अशु
विशेष
▁चुनौतियों
▁हाँ,
▁गवाह
पाही
-ल
▁दोग
ूण
▁पैनल
▁बताया।
▁बघेल
▁जादू
▁देवताओं
▁नरेश
▁फैलाने
ए।
▁हैं।\nइस
▁निम
▁उर्दू
▁सज
BI
▁शिवा
▁पासवान
क्रोश
▁इंस्टीट्यूट
▁गंग
गमन
▁करीना
▁काफ़ी
▁क्राइम
▁मायने
▁आला
▁ऐश्व
▁ईडी
-सं
खल
▁खातों
▁सके.
ल्लू
▁रच
▁उग्र
▁प्रवी
▁जरूरतों
▁उपाध्याय
▁है।\nआ
▁फलों
घाट
▁ख़ास
▁(म
▁वाई
▁कुलदीप
▁प्रिंट
▁संवैधानिक
▁घटनास्थल
▁वसा
▁उभ
▁विवादित
▁चौथा
▁खूबसूरती
▁रुपया
45
ठों
▁रहें।
▁सोनू
▁ईमानदारी
▁कम्युनि
▁वाक्य
।"
▁कूद
▁बहाने
▁स्तन
▁ड्रोन
▁]
बिहार
▁मुठभेड़
▁कुर्सी
▁जताया
▁उपयोगकर्ताओं
▁लीला
▁संतुष्ट
▁चाहें
▁शैक्षणिक
▁and
▁लंबाई
▁टिप्स
▁डोज
शिंगटन
▁ज़रूर
▁बुरे
न्याय
टिया
▁अक्षर
▁स्वतन्त्र
वाइ
▁सेकंड
▁सर्च
aj
▁डबल
▁है...
▁धीर
▁विशेषताओं
▁गायक
▁प्रदेशों
▁शासक
▁सम्पन्न
▁टूर
▁सम्राट
ऐसा
▁मुस
▁अनंत
ूर्त
▁जिम
▁निर्धारण
▁इक्
▁मांगने
▁पाचन
तिर
▁घातक
▁रूपए
▁गिरोह
▁दें।\n
▁पूछने
▁सिलेंडर
▁शीर्षक
सरकार
▁प्लस
▁सार्थ
जेक्शन
▁उत्साहित
▁फुल
▁बॉर्डर
▁कन्
ूंगी
▁मौर्य
▁सितम्बर
▁8.
▁साइन
▁करेगा,
▁डिलीवरी
किट
मेरी
▁परस्पर
▁निवासियों
▁शेट
▁ढाई
दत्त
्यूस
वाड़ी
प्रो
▁पैरा
व्
▁चैंपियनशिप
▁चुनने
वैज्ञानिक
▁अमल
फिस
27
▁नमी
▁दीन
▁भावनात्मक
▁बाघ
▁जानकर
▁रसाय
▁फोर्स
▁सम्य
▁हैः\n
▁सदैव
लत
▁जेब
▁अंसारी
▁खाल
▁क्रू
▁49
▁शर
▁सख्ती
राशि
▁सिस
एमएक्स
▁आगमन
▁साहिब
▁दुर्लभ
▁भी।
▁नाकाम
▁उपज
▁मांसपेशियों
▁प्रयागराज
बैक
▁बृ
▁निभाने
▁सिलसिले
▁दुल्
▁मांगों
▁संचालक
▁राजमार्ग
▁हैंडल
▁अब्दुल
▁लड
▁आंगन
▁बादशाह
▁आईडी
▁किसे
▁लोकप्रियता
छित
▁डेविड
▁मानवता
ेशर
ऊंगा
▁सालाना
▁अड्डे
▁(आ
▁लेनी
जाबी
▁अवकाश
▁महंगा
विन
िस्ट्रे
-6
▁भोजपुरी
▁सिपाही
िक्षा
धड़ी
▁चाहिए.\n
▁जोध
▁एकाद
▁ड्राइव
▁ग्राउंड
▁दिसम्बर
ोषित
▁ट्रायल
▁कर्मी
टी,
▁सिद्धू
▁अनो
▁आचरण
▁त्वर
प्पल
▁फेर
▁व्यवस्थित
▁बस्ती
▁लम्
▁हानिकारक
▁न्यूय
▁रहेगी
▁उपायुक्त
▁शोभा
मंड
▁इनसे
▁फीचर
▁कॉलोनी
▁खरीदी
▁रिश्तेदार
▁बंधन
▁ग्रो
▁रियल
▁शेयरों
▁12वीं
▁तेरे
साइज
▁एटीएम
ार,
▁खान,
▁राजने
▁बतला
▁तृण
▁कम्पनी
डेन
▁गिरी
दरी
प्न
▁बनाम
▁शॉट
▁अपनाने
▁उद्योगों
ex
▁वाद
ly
िसोड
▁एशियाई
▁लगा.
▁उन्हे
▁दस्तावेजों
न्ने
▁बोन
▁रही.
डीओ
▁क्वाल
▁रोकथाम
▁माफिया
▁शुगर
▁माफ
▁पान
▁पड़ते
कांक
▁कमांडर
▁सला
▁तलवार
▁"यह
थल
▁डेवलप
▁हल्दी
स्टाइल
▁नामों
▁250
ुति
▁गर्भावस्था
▁अधिसूचना
▁के\n
▁कैप्टन
C)
▁टक
▁टर्म
माव
▁शिष्य
▁व्हाइट
फेक्ट
▁राउंड
▁बर्तन
▁खरीदारी
▁बाज़ार
एप
▁अतिक्रमण
▁बोतल
▁अंततः
ँति
▁उठी
गठ
▁जमाने
▁जर्
▁56
▁बिलियन
▁पिटाई
▁बंट
ोटो
▁टेक्नोलॉजी
▁चाचा
▁दिव्य
▁फट
काव
▁टाइगर
▁।।\n
▁एक्टिंग
▁बनाएं
जिकल
भास
▁रहेगा।\n
▁समृद्धि
▁है।\nज
▁सूखे
▁बीसीसीआई
▁जातियों
▁गर्मियों
▁कारा
▁लौटे
▁महानि
फिल्म
▁51
बिया
▁विहार
मुच
▁अकादमी
▁कागज
▁लापता
▁अश्
▁बेटियों
▁चलकर
धियों
▁१७
PS
▁मूड
▁है"
▁हैं।\nअ
▁स्नेह
▁समापन
▁मैक्स
▁ट्रां
▁लौटा
वेदना
ौड़
▁आक्रोश
ार्स
▁दीक्षित
▁निहित
-निर्
▁कोटा
▁आलम
▁अकबर
▁इकाइयों
▁पुलिसकर्मियों
▁चलना
▁डील
ant
pp
▁उतरे
मौ
▁दुनियाभर
▁खुलकर
▁सूचकांक
▁पूर्णिमा
▁मित्रों
▁परत
▁सेव
▁मदन
पीएल
▁संपादक
सरत
▁स्पेन
▁बेंगलुरु
▁सतीश
▁कपड़ा
▁गिनती
▁सुखद
▁जस
▁आया,
▁अंदाजा
▁जवाहर
▁तेज़
oc
▁ऑड
▁अंकों
▁इनको
▁शुभारंभ
▁नकली
▁अनदे
▁बैंड
एनयूएमएक्स
▁इच्छुक
▁ध्रु
▁है'
▁जूते
ेन
▁भागने
▁न्यायमूर्ति
▁कंस
▁आईसी
एड
-सु
्तार
ालियों
ासंगिक
▁दाग
▁नाश्
▁निर्व
▁दरों
ायें
▁थीं।\n
▁कण
▁तैयारियों
75
▁प्रो.
▁तेलंगाना
▁निष्पक्ष
▁सब्जियों
▁प्रीमियम
▁चूक
▁स्त्रियों
▁बदलते
▁त्वरित
▁फ्रेंच
▁प्रीमियर
▁हकी
▁संज्ञान
▁संभवतः
▁विक्रे
▁मदर
▁एपिसोड
▁मले
▁चंद्रमा
▁लोकतांत्रिक
▁उज
म्बई
▁शेट्टी
-ह
ال
▁कहें
▁एनडीए
कार्य
िने
▁स्वाम
▁शाही
▁Indi
▁यमुना
रीबन
▁सम्बंध
▁चौथी
▁तथ्यों
▁स्पीड
मास
▁दोगु
▁चाइ
▁शक्तियों
न्दगी
▁छात्राओं
ेली
▁मिड
▁दिवाली
भोग
राई
ुपयोग
▁मनुष्यों
▁द्वि
गोर
टू
बोध
▁इलेक्ट्रॉनिक
▁जाएं।
▁कमलनाथ
▁हैं।\n-
▁फोकस
▁महार
हालांकि,
og
▁परिभाषा
▁फील्ड
